[PAD]
[UNK]
[CLS]
[SEP]
[MASK]
!
"
#
$
%
&
'
(
)
*
+
,
-
.
/
0
1
2
3
4
5
6
7
8
9
:
;
<
=
>
?
@
A
B
C
D
E
F
G
H
I
J
K
L
M
N
O
P
Q
R
S
T
U
V
W
X
Y
Z
[
\
]
^
_
`
a
b
c
d
e
f
g
h
i
j
k
l
m
n
o
p
q
r
s
t
u
v
w
x
y
z
{
|
}
~
¡
¢
£
¤
¥
·
¼
½
¾
Ç
Ö
Ü
ß
ç
ö
÷
ü
Ğ
ğ
İ
ı
Ş
ş
##v
##a
##m
##l
##r
##e
##ç
##b
##i
##s
##n
##z
##ö
##ş
##ı
##d
##t
##0
##3
##2
##5
##o
##k
##ü
##c
##y
##g
##ğ
##f
##h
##Ü
##K
##R
##M
##E
##D
##İ
##u
##Ş
##L
##N
##8
##4
##p
##j
##x
##I
##O
##Ğ
##A
##B
##1
##9
##Q
##7
##q
##Y
##6
##F
##C
##U
##J
##Ç
##w
##T
##P
##S
##H
##G
##Z
##V
##W
##X
##Ö
##ß
##¤
##½
##£
##¢
##÷
##¼
##¾
##¥
##la
##er
##in
##an
##en
##ın
##ir
##ar
##il
##lar
##ma
##ek
##or
##le
##ak
##un
##el
##iy
##da
##de
##im
bir
##lı
##ler
##et
##ay
##on
##at
##es
##iz
ve
##dı
##ik
##ur
de
##ün
ya
##lan
##as
##di
##al
##em
ol
##ey
##ır
da
##ür
##am
##um
##is
##iş
##aş
bu
##ım
##den
##yor
##ız
##iyor
##ok
##ların
ka
##ıl
gö
##st
##it
##ık
##dan
##ya
iç
##du
##ış
##ce
##ini
##li
##ab
##ul
yap
##ağ
##az
##ol
##ları
ar
##ında
##ine
##ah
için
##ti
##üz
##tı
##ük
##ta
in
##ını
##unu
##üm
##mas
gör
an
##inde
##ev
##cak
##uş
##mak
et
##te
##ra
##iler
baş
##me
Bu
##alı
##iye
##oğ
##esi
oldu
değ
##bil
##eler
##eç
al
bil
##ğı
kar
##üş
##leri
##inin
gel
##ği
son
##yle
##ut
ön
ne
##mek
##ına
ver
ger
##ön
##ıyor
##dir
##uk
##us
##ec
##eni
gi
##lik
##uz
il
##dır
kon
##ha
##ıs
##se
##lık
var
##len
##mış
ile
ed
çok
##ki
##tir
##ara
##man
ist
kad
##bi
##miş
en
##tır
##ez
##cı
ay
##larak
sö
yer
iş
##laş
olduğ
##ca
##ül
##av
olarak
##anı
daha
##aki
##ması
çık
##ından
##ro
ola
##eki
##ka
##ap
##lu
aç
##tan
##iniz
yıl
##alış
##eş
##ası
yaş
##ürk
olan
gün
##op
gibi
##eye
bul
on
##imiz
sür
##ama
değil
or
##san
##üy
##ının
##aman
şey
##ip
geç
##lama
çalış
##ör
##ken
An
##aya
##ele
Bir
kadar
##bilir
her
##ed
Türk
20
##om
ken
##lay
##ana
##sa
##uy
ben
##zer
##diğ
##yon
düş
##ece
##ci
##lerin
##yi
yar
##dım
olma
##cağ
##ecek
kur
##ili
##ark
zaman
kul
##sun
##üt
##isi
##ilm
oy
##iç
##iyorum
##ılı
##ru
ama
##dığ
##ımız
kal
sor
##iyle
##lü
gerek
##yla
bel
hay
bö
sa
uy
kullan
##daki
##unda
mi
dön
##let
##larını
##lara
##oy
Ne
dur
##enin
nin
##leş
##maya
##ep
ın
##eri
söyle
##oc
üzer
Ben
öz
##ğr
tek
##af
##os
##şı
##eh
##ih
##üyük
##uyor
##dığı
##ada
yan
yön
kay
##ede
ev
yok
##ilen
##inden
##art
den
##unun
##ad
sah
yaz
yüz
##ers
##tur
##ist
##eli
##lam
Ev
##lem
##asında
bak
sonra
ak
##ten
Baş
doğ
dev
yak
##çek
##arı
ise
Türkiye
##abil
yeni
##dim
gü
iyi
ki
mı
##ınız
top
##ran
sağ
##iyet
##diği
##ter
##men
##ğer
##una
sev
##gi
##deki
##üyor
biz
kat
insan
##ılan
##gu
el
##tık
##cu
##ot
##lat
bulun
büyük
olduğunu
##der
##sel
##araf
düşün
san
kap
##if
hak
açık
##dece
##est
##imi
##lerini
##larda
##dü
taraf
##yı
##ic
ek
say
##lk
uz
##eb
##dür
yol
##si
##muş
karşı
##ğini
bur
##ret
önem
##ster
gir
##kan
un
On
öl
kiş
neden
Ar
belir
nın
Hay
gerçek
şek
gen
##yan
ilg
ilk
pro
##ısı
hal
##ley
##larının
ada
do
tar
##kin
##aç
göre
mil
fark
##dık
##arak
alan
öğr
##id
##bir
konuş
##tü
Al
böl
çek
Er
##re
mu
##oş
özel
##ala
19
Evet
hiç
çoc
ort
##sin
##eyi
hem
Ama
tan
önce
kö
##asıl
as
dün
göster
bağ
##dik
##bul
olduğu
##etir
iz
sen
##ğu
##amam
##tu
duy
hayat
##ans
düz
##lıyor
##uç
getir
##tr
##larına
##ıp
ok
##lığı
Ay
##meye
##gün
kendi
göz
##ika
##ac
##met
##aber
##00
diye
git
##kü
##ram
durum
har
##rı
es
değiş
##esinde
mü
##elik
seç
##cek
edil
##iyat
par
bek
##lığ
zor
##erek
##mesi
kim
##iv
##sız
siz
##maz
##erk
kor
iki
der
##lere
sır
bin
##unuz
yet
tut
##acak
##tür
er
##daş
etti
##üzel
at
##eğ
yaptı
İn
oyun
##sın
##azla
yük
##oz
##eleri
##tik
ih
önemli
##raf
aş
##nı
başla
##larında
##mem
olur
ser
tak
##sı
alt
devam
oluş
şekil
##ayı
##aba
fazla
##fa
etk
söz
##leştir
kaz
##ven
te
yay
has
##han
##tar
olacak
ülk
##kanı
##ındaki
##lardan
##dığını
çocuk
##ımı
##dur
Bak
201
az
nasıl
İst
tarafından
sahip
##üs
hat
Bur
##azı
##ırak
##od
##mes
öğren
##öz
ede
di
##ünü
##ça
ad
##ileri
birlik
is
##imdi
tarih
##olo
##aret
Öz
##abilir
##dum
##siniz
##siz
dış
bile
İş
ilgili
dönem
##usu
##ale
arasında
Hayır
##eceğ
##liği
geliş
film
şekilde
tüm
Son
##lah
##ile
##ünde
ko
çalışma
##ayan
##ef
##lerinin
Biz
içinde
##azır
tem
##likle
benim
##lerde
eğ
güzel
##larla
bırak
##asyon
kız
##esin
çıkar
iliş
değer
kend
görün
sadece
##mıştır
##ünkü
##iyoruz
##makta
ter
biri
ye
##ıla
saat
yönet
birlikte
##üp
aynı
##ıyorum
##ne
##çe
farklı
gelen
hakk
##ilik
##diğini
kıs
ağ
arka
##lerine
##oloj
En
##rup
##lendir
alın
##up
##ıldı
Sen
##bet
##ıcı
konu
veya
Her
böyle
taş
uygu
mes
##mez
haf
10
boy
##din
##öyle
sat
kaç
dav
##aştır
##min
##anbul
sav
Ve
doğru
##ütün
##ket
ün
ör
bas
adam
##sek
hazır
##acağ
İstanbul
##ebilir
##ig
bunu
eş
Ak
##mekte
##liğ
dik
şu
##düğ
üst
##iyas
bana
##estek
diğer
##hur
düzen
olmak
ik
alı
Gen
##isin
##kat
##ulu
dan
##elen
tele
##tığ
##miştir
##ağı
yardım
kadın
başka
##laya
karar
sık
bun
##por
##istem
Bil
kit
##anın
##ilerin
ediyor
##manın
##masını
##erkez
kam
onu
##he
##üç
sal
##elim
güven
##oğlu
##fon
##eyen
##fen
##mayı
kazan
destek
##dem
bit
Çok
##üne
##larından
ortaya
##ri
Av
Kar
yem
##tör
##malı
##tım
##ehir
bilg
##lak
##dar
görev
##layan
hep
##ani
İs
##lanan
eden
##osy
güç
##mam
eder
içer
##dın
im
##larımız
##tiy
bölg
tür
oyn
tab
San
##ildi
Kur
##masına
##cü
gele
##umhur
pol
##uv
mut
yat
su
##ali
dedi
##luk
anlam
tes
##tin
yapılan
##mal
Or
burada
##lerinde
As
beni
görüş
istem
ara
ulaş
##ırım
##maktadır
üç
##tim
##ahat
##esine
hav
yüzde
##eket
##leme
Ancak
olabilir
üret
ner
##ob
El
##iyon
##eniz
kan
##baş
##det
##iyorsun
din
çev
geçir
bazı
Sa
söy
ot
haber
##olu
sistem
Gün
Ken
##eden
##esini
##ov
sorun
dikkat
bölüm
his
##lerden
Par
geri
ihtiy
olduk
##sunuz
AB
Tamam
##ebil
sı
##rar
##gil
##ikay
##lum
biraz
##ümüz
##adi
##gı
##alan
##itim
anla
##lerle
##tığı
##sal
202
tekn
olması
##ekk
can
onun
arkadaş
##aha
Dün
##üçük
Kon
##duğ
Cumhur
##tal
Başkanı
inan
##kı
koy
##rıca
üzerine
uzun
Dev
##lerinden
##tiğ
önc
hız
artık
##duğu
##mektedir
##ing
öyle
milyon
iste
200
##osyal
##izi
yür
nun
##arım
##for
yapıl
##dından
telefon
##çı
hakkında
araştır
sanat
##gram
##gan
Bay
##okt
art
pay
tamam
##oğan
##umuz
15
##mer
belirt
##uh
kişi
##mel
##lus
yüksek
##bol
yaklaş
##eled
##ge
tam
##bar
##mi
Çünkü
vur
##sam
##usunda
gön
plan
##ladı
yakın
üzerinde
bah
ala
12
kez
##onom
orta
##rak
##uma
hiçbir
##gun
##müş
bugün
olay
yarat
Mar
Pro
dünya
##lük
##eşekk
mus
müz
##akat
oluyor
genel
##suz
##asına
yapıyor
##eşekkür
##alık
Mil
Bunu
##van
Yar
##meler
##pr
##irket
hafta
oluştur
senin
dak
karş
##ivers
##gin
##miyor
##las
bütün
kır
kayn
öldür
ta
söyledi
yılında
başar
hasta
kav
##iversit
sonu
##lüğ
##tem
suç
kı
met
##çok
yayın
##ub
##isinde
Bel
kr
kes
hareket
##ültür
ifa
geldi
uç
çöz
##mıştı
sonr
Tan
ilişk
Daha
##oğraf
##ızı
Tek
ardından
ür
##unca
##ber
etmek
para
isim
tat
süre
##lenen
##izmet
ayr
dil
##lantı
pek
Mü
yanı
##og
ifade
ses
tas
söyley
##azet
##diğim
##ren
##eti
Şimdi
üzere
İyi
##ii
açıklama
##eme
yaşa
##ba
mah
paylaş
gid
##lında
nde
##ch
##atı
##kek
sek
seb
##ize
sonuç
iy
tanı
##indeki
kabul
##ime
olsun
anlat
Benim
merkez
mod
genç
şimdi
tur
##mir
yaşam
##ddi
##atan
Bunun
##undan
##aten
Genel
##imizi
yaptığı
##ide
##mişti
##çi
##ilmesi
Mer
mer
##esinin
yine
tah
bulunan
Yani
ancak
Eğer
##larıyla
##kinci
##asını
Ön
Avrup
küçük
seni
##duk
##landı
Peki
gece
gelir
yaşan
kork
##deş
ABD
##may
yerine
herk
##meyi
bar
##net
##tiv
res
Ün
geliyor
##lım
sun
eski
##bak
şirket
##doğan
bey
Yap
##iyim
##inizi
Neden
sıra
bilin
30
İşte
##eg
##sak
hizmet
##işim
##sınız
geçen
##AR
seçim
sosyal
##etim
##aj
muh
birçok
##trol
##tiği
bizim
olmuş
Kim
ail
bunun
dönüş
Doğ
##HP
##ceğ
man
ber
##ban
rahat
misin
##alım
##ök
##ünün
kötü
##iyi
##ılması
##eyim
##umu
eğitim
##rada
savaş
Avrupa
siyas
##ılıyor
Büyük
eki
##per
otur
##AN
##ğa
sana
hatır
##ıyoruz
##öl
##ver
büy
##ışma
##set
##tif
##meden
diy
yor
edilen
si
##landır
istiyorum
##uyu
Ek
sak
##lo
##ıt
Ger
İl
düşünüyor
##üc
konusunda
##mey
##ince
maç
yapan
##ira
Erdoğan
##ınır
proj
##uluk
mak
Dem
mal
##gel
##na
gönder
##edef
##isini
##rim
##otoğraf
##siyon
Ch
11
fiyat
uzak
Ank
Yeni
gerekiyor
##teş
Har
##azar
değerlendir
mo
iddi
##ılmış
##madan
anlaş
##elerin
ekonom
##cağını
sey
Ayrıca
mek
han
Yıl
istiyor
kom
per
##cağı
dah
yani
##kün
bab
taki
Gör
##laştır
Es
##oğun
ona
kurul
program
Sadece
demek
kontrol
bilim
ziy
kolay
##üküm
18
At
##ciler
hes
musun
##gın
toplum
##sik
kil
Beled
fır
alıyor
ister
Ankara
##amaz
nerede
gerçekleştir
##kaç
Fran
##lüyor
Bana
Bakan
##sanız
üy
##ıntı
mas
hemen
fa
##nız
##urt
##dül
kendis
##eceği
düny
işlem
##ela
vardı
AK
##lamak
li
çağ
kitap
##eşit
##uyla
##eceğini
daki
Başkan
taşı
soru
##ER
zorunda
##tiğini
erkek
tekrar
gez
##ütfen
Onu
altında
##emiz
##ılır
diyor
##leyen
sok
##unuyor
Oy
##ünden
saldır
##masının
ince
##yacak
hikay
sab
sağlık
hedef
##şam
yi
günü
Hiç
anda
##ekli
yeniden
##oh
cez
##be
Seni
İz
şeyi
oyuncu
başladı
nedeniyle
ann
##ıda
##ga
yağ
yüzden
yen
##fet
gider
##ust
çıkan
##ümkün
zamanda
birbir
şeyler
ele
çalışan
##yanın
cin
fotoğraf
Dünya
yapmak
Amer
##nek
biliyor
##ılacak
kültür
Ada
Siz
##lış
##dak
yemek
##arası
kah
dakika
Ok
Burada
bize
##iydi
değiştir
hala
kısa
##ola
gazet
##uştur
sınır
Ara
Böyle
Dr
İlk
##ydı
##madı
14
##istan
##enk
şark
İç
##uğ
Hal
boyunca
unut
kaynak
##dele
geliştir
na
Geç
tart
teh
Mah
##isinin
mey
Tab
Hadi
çeşit
ask
Ah
iti
uygulama
boş
nda
##leriyle
##yız
kol
##liyor
vatan
##azım
cev
##alt
mümkün
##kın
ağır
Bun
takım
mev
##asının
aldı
kas
görül
16
davran
##umlu
##lemek
devlet
of
Bey
millet
tav
##cağım
um
gereken
Hak
olsa
Has
ziyaret
Beni
ürün
model
##yım
##medi
##ört
çiz
Özel
mem
fik
##ost
yal
oldukça
##asındaki
mad
İngil
çar
med
tük
beraber
rağ
##diğimiz
Kor
##abı
Şu
özellik
Rus
bağlı
Hat
##imizin
uygun
##cih
##amp
sürec
rek
çünkü
##ülen
müca
kut
Di
kardeş
13
##ilmiş
Ma
koş
gelecek
rağmen
25
hey
çevr
diz
##ere
araştırma
##mıyor
##vek
tep
Çoc
gerçekten
##ici
bay
konusu
Üniversit
##oman
götür
kaybet
##ümü
söylüyor
çıktı
##tın
##tıyor
##yar
ikinci
##ilere
tercih
yaptığ
dair
##ayet
karış
İnsan
pat
hoş
##of
boz
dolar
kesin
Senin
##diler
özellikle
##düm
##taş
dir
##larım
araç
dolay
kapsam
teknoloj
oku
ait
Cumhurbaş
CHP
deki
beklen
##ow
dost
izin
ma
##adan
##dav
##ener
olabil
yönelik
sar
##ıyla
av
##elerini
Bugün
verdi
##iyatro
##mesini
ban
##fer
##okr
adım
yeter
grup
Hem
Öyle
Ser
Se
##lacak
##ısında
Top
Kan
Gel
olmaz
kaldır
Uz
sürdür
vak
17
##dun
ders
hüküm
TL
temel
silah
örg
##dip
şöyle
elde
olmalı
vardır
zar
Pek
##ısından
##ve
##sen
##utbol
yapar
karak
##can
##dığım
oda
##uru
üz
okul
Sana
##ate
##lim
##vet
##ayın
birkaç
engel
zaten
##oğu
nok
part
oran
ayrı
##dığımız
des
##eği
##efer
la
Em
##oktor
Sav
Han
Parti
sahi
##imde
Onun
##ort
cid
##cel
if
##fes
oğ
yalnız
takip
##imize
Kö
polit
ac
polis
üzerinden
dok
gec
yı
öğret
##üle
##ift
Gerçek
yüksel
00
Bar
Hep
Belki
##erj
nokta
şeh
yöntem
##miyorum
100
Sur
içerisinde
etkin
edecek
##şık
yapı
bilgi
ku
Ner
##ezon
##esel
lazım
mar
##ılım
##rub
mücadele
##ly
##isyon
##eğin
veril
##ışı
##za
##ilerini
hayır
##cret
Ko
Sağ
aday
Af
for
##yse
herkes
yazar
adı
orada
konuştu
Ali
Müdür
##hangi
Os
akıl
değişik
##ast
Tur
etkil
itibar
Dur
##ari
##ent
Tom
vatandaş
##bakan
Nasıl
geniş
size
##luslar
##ternet
olmayan
merak
##menin
Alman
dışında
##hale
##izm
insanlar
##amı
akşam
##cısı
Sor
hava
kaf
bor
şehir
##sed
görüntü
durumda
##lek
Kap
sektör
Çocuk
Ab
öde
Kay
##iğ
##eceğim
öner
##laması
teşekkür
ölüm
inc
ilç
ortak
Kad
##pit
aslında
ederim
Tem
##ton
veren
kalan
Meh
##gür
##enüz
edin
terör
199
##luslararası
ayak
Hey
##cağız
uğr
##ant
sit
ihtiyac
Der
şans
geçmiş
amacı
eser
##dıkları
##era
yara
ücret
##masında
##ia
##lin
##bilirsiniz
rol
##üler
##dük
Sam
belki
kayb
##ron
##dün
##sil
ana
The
yaklaşık
50
yoğun
##mesine
gerçekleş
örnek
tale
##ulan
işte
Do
sezon
##lardır
##rım
##elere
##lanıyor
##üğ
##pan
kurum
##meyen
##forman
yapma
yere
ila
##isine
beri
##br
Cumhuriyet
Teşekkür
##edi
##isk
hızlı
kendini
Yaş
##yl
yanında
biç
##üst
Can
##elerde
benzer
yanlış
spor
hale
##son
##dana
ilişkin
##üb
##ınca
Ol
##üf
mik
ettiği
arasındaki
iddia
em
ten
medya
müzik
Hav
alış
In
Kal
##izyon
ekip
##lanmış
##manı
yapacağ
Sev
yorum
tedav
katıl
karşılaş
bildir
Fakat
milyar
Merkez
tespit
kapat
Üniversitesi
sizin
dayan
sin
başv
the
derece
güçlü
dol
##yo
giz
##diş
Mehmet
##diğiniz
çalışıyor
##estiv
##inci
##esinden
##ukuk
##etin
yönetim
ark
dahil
##ektr
##deceğ
##düğü
##ıza
Sonra
Kom
##maları
##ayda
##lüğü
yerde
Yön
##ısıyla
herhangi
ilet
açısından
amaç
belli
mutlu
##haba
sahn
##ayım
kısm
##emez
##muyor
performan
biliyorum
giriş
##muz
ölç
Man
St
karakter
##ınıf
##ard
##tiğimiz
beb
dört
buraya
piyas
bizi
##sat
Çalış
başına
##şa
adlı
fin
##ımda
##aliyet
süreç
##lerce
##iyesi
Kız
tarihi
Tüm
Ban
hisset
nokt
##ser
##sine
Bab
##üsü
konuda
##kem
##lis
24
Devlet
Yaz
gerekir
mesaj
##ucu
Muh
sonunda
işi
ünlü
yaptık
ediyorum
almak
##apor
eleştir
yatırım
indir
21
cih
##ırı
enerj
futbol
kuş
##bah
İzmir
başkan
Ya
görüyor
##ilir
sıcak
##lamaya
##fi
mıs
Kara
buna
Film
toplantı
yardımcı
##amamen
##leyi
anal
dem
##ısını
pazar
##emi
##bette
giy
hayal
artır
det
##acı
nedenle
Böl
##mayan
Kas
saç
örgüt
##inç
##lilik
Haz
olmadığını
etme
##ormal
##ılmıştır
olup
kent
Araştır
##olojik
##aşı
düzey
Bizim
##luluk
##su
satış
aldığı
değildir
##tığını
Ann
##memiş
##luğ
cevap
##aray
##vekili
Başbakan
emin
şekl
dar
İki
##fendim
Tr
##azi
##iliyor
Beş
##ati
Dav
##taj
aktar
yık
roman
bes
zarar
ruh
##sini
ekran
dönemde
görmek
Mes
kişinin
##larca
Aç
hastan
ciddi
yav
savun
Cumhurbaşkanı
ödül
beş
Yak
##lığını
##ade
edildi
Yardım
sebep
kalı
##ladığı
çeşitli
##enek
oper
Bakanı
halk
depr
##edik
renk
Pol
mis
hangi
mekan
isteyen
buluş
##talya
sahibi
doğr
Millet
##iyorlar
kullanıcı
Artık
işlet
Merhaba
ateş
bulunuyor
sefer
dünyanın
##dığında
şarkı
##imin
Tabii
sürekli
hesap
toplam
##AM
dal
##afa
çözüm
nit
Deniz
Güzel
sınıf
##ou
yapacak
##emin
##iliğ
##edim
asla
yetiş
##layacak
##liğini
alır
zen
yaban
##inc
haline
tanım
temiz
insanların
##bilecek
işaret
Mart
it
##anet
pu
##ilerine
Eğ
onları
##mayacak
sayesinde
internet
yaşayan
kurtar
Osman
sırasında
kamu
22
başarılı
##mada
yaşında
arada
fir
grub
açı
40
kab
##eceğiz
##lanması
organ
##lığın
##ry
##mayın
doğal
##ılmaz
##diğinde
vide
acı
verdiği
##pek
Tar
##esiyle
Ap
##EN
##uc
Haber
num
##dikleri
fayda
##ylül
Ör
##azen
##ırken
Ke
araya
##mamız
keş
##ye
neler
hap
##iyiz
Ber
eğlen
##üph
##ilerinin
tartış
##alle
canlı
Belediye
Hayat
verir
##tay
##alar
hatta
##ımıza
çift
May
yazı
parç
ihtiyaç
mez
Gül
sine
pop
ülke
Allah
kala
##ET
##eyin
men
yana
Kür
faaliyet
kimse
str
yandan
Su
##ke
##meleri
Kendi
deste
henüz
Gü
kalk
yetk
##cut
sizi
ekonomik
tamamen
##lanma
##lerimiz
2023
Buna
yum
test
tasar
işe
##bo
Yok
Aynı
##anlı
asker
siyasi
kavram
##iir
lis
kaldı
dolayı
mağ
sabah
koru
detay
##İN
##gar
##eder
benz
Müz
##dız
##ulmuş
##iran
çarp
##lendi
##rik
yarar
olmaya
kurt
uyar
Pekala
Sh
deniz
Kah
boyut
##elerinin
tehlik
##mat
##matik
##eyn
yabancı
dö
hayvan
Rusya
##dek
sonrası
##say
dışarı
##sta
teş
##isay
Ter
bulundu
Tanrım
net
hukuk
##one
##lasyon
##ıyorsun
##etik
güvenlik
##amız
Tay
##luğu
Aslında
başarı
tabii
list
##asa
öğrenc
dile
##mar
##lıkla
eğer
yoksa
##ite
özgür
##ısına
görünüyor
ortam
elektr
##AL
aşk
temsil
iler
##ie
çevir
Herk
yıldız
ip
günde
köy
çat
Özellikle
bağım
değilim
Ga
Söz
teknik
##abilirsiniz
cihaz
##şehir
İk
yıllık
Demir
Kr
yansı
gerektiğini
##AK
##uzey
olmas
kıy
##dığınız
##ağa
Bütün
içeri
ifad
##ene
ayında
emek
incelen
##ımızı
##rafik
##manız
##ğın
doktor
st
Öl
Sal
Lütfen
çal
##meli
ham
##inize
bulunduğu
##duğunu
##AT
sonuc
##iliği
Çin
tanış
##iksel
adet
kims
adına
##ılma
##form
durumu
kayıt
gide
ıs
Uy
Li
##uvar
Eylül
Yan
parça
23
Bek
tane
##blem
lira
Gerçekten
zam
olun
yürüt
##lığa
katkı
anne
şaş
İngiliz
hayatını
rapor
##geç
duyur
Bakanlığı
Biraz
kapsamında
şid
##asından
baba
ah
##ina
ler
zengin
Orta
Ot
##meni
du
şart
inşa
ayrıca
Bah
Suriye
Kadın
sene
Yüz
veriyor
##sef
bitir
vaz
içine
Dış
ilgilen
Tak
198
##ıldığı
Aş
Oyun
başında
sol
Ro
##ampiyon
fikir
çocuğ
##diğin
kir
Ad
yaşanan
##ılıç
Kat
##günüm
tutuk
aşağı
risk
##ınav
derin
Ahmet
##osu
belg
sonucu
le
##latform
önceki
operasyon
müş
deneyim
##vizyon
itibaren
##IN
Amerika
oyna
lütfen
##evi
##omo
##ünüz
fak
yapılacak
Ona
##tep
dolu
türlü
şah
akıllı
##atif
##atik
Must
saldırı
tüket
mevcut
üniversit
Milli
varsa
dağı
kendim
Üç
##hal
önünde
kapı
heyec
Mo
kararı
##eğen
aile
halde
Temmuz
De
Sanırım
##ücü
##lif
##ileş
##oloji
##eşil
Amerik
Yine
don
aracı
tiyatro
##eyle
yurt
##lardı
And
yolu
ap
oluşan
düşük
yapmaya
fakat
vurgu
çıkıyor
Sak
##fak
seviy
Ka
##enler
geçer
##altı
Fener
##uvvet
Br
Anad
Mec
sig
##lıklı
verilen
##isayar
düşünc
ettik
##ıma
ettiğ
yanıt
##teki
Yor
yaptır
nedir
gol
##sem
bat
##rol
Le
pan
##uyorum
ces
lider
şüph
Mustafa
demokr
etmeye
Sah
##biliyor
##yıl
Şub
alacak
etmiş
##ilecek
altına
yaşındaki
ederek
Gö
Kemal
##üme
##üncü
olmadığı
öne
##abilecek
problem
duygu
bağlantı
yıldır
##ayla
##anlar
kelim
eyle
##biyat
gidiyor
anlay
şeklinde
gül
sokak
kaçır
##cılar
ayır
çocuklar
##abet
üretim
Göz
##diniz
başlayan
am
##po
##res
Bazı
##isel
##dern
poz
Anadolu
Sab
##isan
Mic
normal
nes
tasarım
##meyecek
##öy
tic
yılı
tahmin
talep
kanı
performans
Tam
sorum
bekle
resmi
##raman
New
harika
bakım
gördüğ
##unan
imkan
##ital
Hol
##elerinde
halinde
defa
##elerine
##layarak
##ukarı
Gök
yavaş
bundan
Güven
##ku
key
yalan
##lulu
re
Üst
Mayıs
vermek
Diğer
ab
Et
##tere
##mızı
peş
##air
##asıyla
##nun
##çiler
artış
Bul
##lığına
Başka
##İR
##AS
Genç
efendim
tip
video
gar
##bahçe
##lıkları
##ınızı
##ham
birey
ceza
filmi
Part
sanatçı
kok
##rail
alma
öğretmen
Ac
yarış
##haf
Haziran
##lanacak
sırada
sayısı
banka
Git
beled
##laka
##lıklar
##işleri
yapım
##ceğim
be
yolc
güncel
bilmiyorum
edeceğ
##rans
Ver
##rin
fırsat
gerekli
##ova
evet
Ağ
olursa
##ersin
sap
##lamış
uluslararası
##kenin
##enn
##çak
kalit
odak
##bay
tarz
meydana
Yer
Kır
kendine
Kılıç
##gen
Öğr
##ledi
Almanya
platform
##sü
##larınız
##üper
Adam
Eski
köş
##lerim
rahatsız
##ons
kuruluş
##taki
##bur
##eter
basın
##dit
tör
puan
satın
aylık
Bayan
Kı
Sanat
##ever
beyaz
bilir
lar
arab
##amaya
##larımızı
Bilm
gitti
##ete
piş
Um
##medim
Kurulu
##ES
onlar
ileri
mesele
##gus
##lev
bi
kür
psik
madde
bula
erken
##yip
##teri
28
yapmış
bunlar
Prof
##yum
Yük
meş
##go
Jo
Sür
##imleri
##eydi
##ikayet
ikti
##ısının
günümüz
şiir
Kit
Ekim
olduğuna
Yal
##endi
edilm
##niyet
##cılık
##lıyorum
##dıktan
çer
bakalım
müda
##vis
soy
soğ
##tığımız
Selam
##ilerek
cam
##siy
koşul
##çev
##KK
##müyor
##neğin
##yen
endiş
Fenerbahçe
##layın
Oh
##deniz
katılım
alb
Az
##50
analiz
İsrail
sistemi
Teşekkürler
Kasım
yayım
dakik
##dıklarını
etkili
Un
Eğitim
başlat
düzenlenen
alınan
##malar
##leşme
##İL
##imizde
##ura
##her
27
otel
oyunu
##umsuz
onların
##aka
##maktan
##tiler
öğrenciler
##rek
##luyor
Re
Kul
##erson
yeri
davet
uçak
iletişim
gazetec
politika
ihti
##lkenin
kamera
##lamaz
falan
kop
dünyada
##AY
tarihinde
deprem
davranış
Hiçbir
sıkıntı
neredeyse
sayıda
eksik
kişiler
çerçev
##gisi
dedim
Din
malz
amacıyla
İslam
belirlen
60
kullandı
##mıyorum
Mur
Tele
günlük
##ohn
##rem
000
Si
Go
nef
##emek
##gü
İngiltere
oyunc
##ond
evlen
düşünüyorum
enf
Sar
mısın
geçti
eve
fiz
diler
yeterli
parti
Nisan
kullanılan
Kam
##seniz
değildi
televizyon
##eksiyon
döv
Belediyesi
güc
kart
##iyordu
##ple
söylen
dışı
önüne
uzman
##ektör
Diy
##atürk
bilgisayar
##leti
başvur
belirten
##ımın
tatil
ışık
##şey
sonrasında
şunu
##ack
altı
##dam
sınav
etraf
Üz
No
min
##wit
197
çıkış
Galat
AKP
beğen
500
##anlık
gelmiş
##daşı
başlıyor
##asaray
imza
Dan
##uldu
Hatta
soruştur
##tesi
##ğust
Bağ
Am
Kültür
vazgeç
insanın
PKK
##lisi
Beşik
Per
Ülk
Bence
popüler
Car
##iyeti
##üya
kendisine
bahset
Galatasaray
yıllarda
düşür
HD
açıklamada
yüzyıl
John
Mal
Herkes
Atatürk
Tekn
ni
##edeki
Kend
##lanmıştır
almış
yüzünden
tık
##imler
##gör
##tuk
##tuğ
tez
##iyer
##asyonu
##abiliyor
##laşma
şiddet
##ilmiştir
ilgi
##irken
devr
seyir
not
##arken
##uğu
reklam
deney
##ick
giden
günlerde
uyan
##ros
Seç
##hat
memnun
değişiklik
##estor
26
Açık
##ceği
Küçük
##onu
##imd
##EL
tu
durdur
Beşiktaş
onlara
uğ
kural
Festiv
zek
bunları
şaşır
öğ
Geçen
ayar
sem
enerji
##ni
buradan
Fat
##liğin
Tanrı
hüc
##ğustos
Doğru
##ündeki
istemiyorum
etkinlik
##redi
tec
hükümet
karşısında
kitab
hissed
##omet
##tacak
##lediği
politik
Kürt
olacaktır
##layıp
Val
##yim
Devam
Güney
alıp
##best
çab
##eliğ
##ane
##esiz
miyim
işin
##dat
çoğu
##ıyorlar
com
Düş
##bat
##cisi
Samsun
trans
bom
yürüy
Antalya
##düğünü
yola
Arka
yakala
ediliyor
mutlaka
Yunan
toprak
yerel
olacağını
insanları
Spor
konuşma
##ud
Yılmaz
birini
ilan
Irak
##lemeye
##orm
##ula
yerleş
atı
ilaç
##les
Oğ
gem
##imar
döneminde
miktar
rak
başta
##masından
Sosyal
yoktur
dek
birisi
girişim
olumsuz
##undaki
##ho
##ceğini
Nerede
bilgiler
borç
sonucunda
Sp
Baba
ilginç
edebil
##terek
Ocak
Bat
##ykü
##diklerini
ülkenin
marka
Bunlar
gösteriyor
ettim
##başı
##mamış
Tiyatro
##emiş
##eyecek
yönetmen
Eş
##lanır
Sır
##ıştır
##ris
##uluyor
Ha
Kıs
##leyin
Onlar
kullanım
##sizlik
yerinde
bekliyor
hayata
Bas
terk
hepsi
##unları
##iyah
Birliği
##atej
##ell
gidip
evde
##lenme
kadro
##kası
kendisi
##ebilirsiniz
##EK
Yol
##urken
aray
kendisini
cep
tatlı
##istik
##tüğ
##iri
po
iP
##ivil
verecek
##lusal
##yken
##UR
##OR
##larındaki
day
##memiz
tartışma
2015
Anne
##zu
##ock
sonraki
askeri
nden
açıkladı
##oya
##urum
bakış
Kaz
Uzun
##enc
arama
yoktu
belirtti
müdahale
##biliriz
siyaset
Büyükşehir
İkinci
##acağım
Gazet
İran
bazen
##omobil
çeken
imz
##ükem
##ray
farkında
##ag
##isiyle
istiyorsun
güneş
Bal
##liğe
##ze
##tern
Gir
Fransa
##masıyla
yalnızca
##uzur
kriz
Ge
##ımızın
karıştır
and
gizli
cinsel
yerini
bağımsız
Aralık
##neği
ilişki
bebek
tedavi
##ck
dizi
##par
##işi
ülkemiz
yapıyorsun
etkisi
Pat
##üstü
##ınıza
2018
##artesi
eylem
teslim
yasak
29
başlan
bilinen
Sin
##otor
anlamına
Merkezi
Şah
seviyorum
edebiyat
##daroğlu
Söyle
sert
##duğumuz
##dy
dilerim
##meniz
ez
##ücu
##hone
##ükemmel
kilo
teklif
olduğumuz
isimli
##ise
uğraş
Wil
Böylece
Araştırma
##eceğiniz
yukarı
balık
kayde
sorunu
##anan
gören
Ağustos
##ümüzdeki
##erim
gündem
şikayet
##elt
##AD
yasa
se
Osmanlı
Bor
kanıt
yılın
yılda
##aşa
##adde
hadi
Fa
Fil
Şubat
##iter
ettir
dolaş
haklı
altın
##elerden
af
göç
##uro
alanda
sakin
taz
ihtiyacı
itir
basit
anlamda
196
dokun
iyileş
##hi
##to
kalp
Tat
##dikten
##ezz
2022
anlama
yapabilir
Tayyip
sağlıklı
Kılıçdaroğlu
##liğinde
##ire
sunu
##gili
##esindeki
tehdit
Elbette
Hemen
aya
Yönet
heyecan
tuz
olumlu
dostum
##str
açıkla
gördüm
Mas
şeyin
Res
##dınız
yiye
bal
##witter
sona
beden
##larımızın
##imli
##AŞ
kans
Ham
Şey
pas
Tarih
bol
çağır
yönetic
##tum
adını
##ukat
La
##gesi
Dön
yıllar
onunla
Sorun
elektrik
##sas
modern
bölümde
##onya
hastalık
##meyin
şar
seyahat
Fransız
sayı
##fed
##kadem
gösteren
raki
çeki
##muştur
asıl
##alim
##gıç
Sayın
müt
Park
##üman
Hastan
mahk
##lerdir
tepki
Mut
##rum
konum
bec
ettiğini
##ısız
##asi
konser
Ağa
bunların
31
##co
restor
yas
serbest
##eyse
##mesinin
eg
doldur
hesab
##ore
##atör
misiniz
##mur
90
azından
Var
aşırı
Zaten
Gala
binlerce
##veriş
##elç
diyerek
##iği
##miştim
kara
80
red
üçüncü
Ödül
hed
Zaman
parçası
lik
hafif
olmadan
form
##rika
##ıyordu
ha
mec
alanı
Apple
mark
##ong
dök
Güneş
##elikle
stan
eğit
Orada
2020
##imden
azal
kuvvet
gitmek
başlar
##rac
##ınızda
yerleştir
##ulması
##temelen
Cam
söylemek
##adaki
Değ
##sim
##ner
##LAR
##har
üzerindeki
musunuz
çay
##eza
etkilen
kem
cen
##ED
söyleyen
ir
##sul
Kaç
##ğında
bahsed
gözlem
Müdürlüğü
ters
##ger
del
hayatı
##düz
iktidar
Doğu
##tarı
35
##landa
##kar
alg
MHP
##lığıyla
##ind
belirterek
##madım
ndan
Haydi
yaşadığı
olmuştur
çıkacak
merkezi
ediyoruz
herkesin
istiyoruz
kaydet
stratej
pak
dans
##rag
##ena
ağr
sanırım
45
Aman
yetkil
TV
##acağız
kesinlikle
gaz
kulak
eşi
İm
##ht
hapis
eriş
##ülü
işler
##ON
biliyorsun
##landığı
zih
süt
meslek
##jital
##sur
olmasına
doğum
##ori
fil
gelenek
fon
##med
Batı
Bin
##elerinden
##ebilecek
servis
otomobil
isten
nedeni
##ışık
##eytin
2019
##amıyorum
Örneğin
Yüksek
olmayacak
dünyaya
##we
süreci
Sonuç
##mür
yaptım
öykü
Emin
uc
yu
hata
##ildiği
yapıldı
ticaret
Kuzey
Bayram
huzur
##EM
düğ
gelip
aldım
izle
Bundan
gur
##üyle
Evrim
Aydın
sunuyor
##oyu
Buraya
cüm
##ğan
##emli
##ürüz
##ahim
birinci
##ebi
##ona
zamanı
Lig
##ult
##inizin
diyen
##arında
York
rad
edilmiş
dava
##ayi
serg
ora
milli
##dığına
taşın
istedi
##ülebilir
##yas
getiren
ins
ülkede
##eng
nüf
##sinin
umut
##land
olmasını
malzem
keyif
senar
##elerle
geçtiğimiz
edip
yarın
bilmiyor
ayrıl
toplumsal
Haf
Sağlık
Milletvekili
festiv
finans
park
##ilebilir
##lenmiş
##ladım
nefret
hayatta
anlayış
gib
##mediği
Çev
baskı
mektu
kızı
rast
##İY
Harika
##süz
Meclis
kanal
alanında
Bilmiyorum
yakalan
kitabı
ilişkiler
##ılabilir
birinin
2016
edilmiştir
şeker
deng
faiz
##liğine
Gür
adamı
##avi
almaya
##dağ
ata
def
kırmızı
çalışmaları
Yardımcısı
çap
hakim
Biliyorum
faktör
esn
albüm
kişilik
Müs
##panya
##ecep
anlamlı
##lal
edilmesi
##unç
şampiyon
köpek
##dılar
##usunu
Gi
Önce
##ılarak
##ıldız
Dolay
##sever
##teşem
##mit
##diğine
alk
saygı
##irüs
civ
otob
sorgu
Lis
yaşlı
Rob
70
Hala
olası
Co
##dal
bence
##larınızı
içi
Ho
##jan
sorumlu
Mus
##ayıf
Uluslararası
dağ
Recep
Doktor
getirdi
oranı
Amerikan
##tak
yaygın
tören
##va
##siye
büt
##lığının
pr
kişisel
soğuk
kere
Murat
ondan
##çeği
gücü
Üzgünüm
ted
##madığı
pla
Nur
sinema
##ij
##ersiz
Polis
##are
elbette
##ğını
sivil
dahi
Mac
kurtul
oldum
araba
##onik
başvuru
kıl
Çağ
olmadı
sebeb
##içek
şiş
fi
##nen
2017
Dik
aşı
ef
kahraman
Say
##ecektir
hır
çocukların
yapabil
öncesi
##kiler
Bo
harca
arası
##abz
eşit
yarı
gelin
##bin
hisse
lim
atan
##elek
özür
Olay
yargı
Bi
idar
iPhone
##meliyat
becer
Mahalle
Oku
alarak
edebilir
söyler
##xy
##cık
çocuğu
gay
gelişmeler
belediye
2021
##lenmesi
lir
Dolayısıyla
##İM
arkadaşı
korun
duygus
tır
sanki
kilomet
yapılması
##diğimi
benimle
giren
Müdürü
person
Mahkem
to
##erken
kadının
aydın
Jap
Haberin
ortalama
##don
##liler
giderek
##iyan
##ohbet
cinayet
önlem
32
Vak
Fer
ic
Don
##SK
koc
##do
biçimde
ışı
sinir
arttır
Ağacı
##ındır
##stan
kredi
seçenek
duruyor
##ersiniz
babası
Pa
##ess
sur
yapılmış
##ation
diş
##ayasa
##ilim
çalışmalar
boğ
özellikleri
yaşama
ide
Hava
##red
üyesi
vücu
geçiş
bayram
çaba
ifadelerini
takdir
Altın
sevgil
##acağı
hatırla
verildi
##lardaki
##alesef
açıdan
##celi
##ılış
teknoloji
kalır
ordu
Partisi
yaptığını
rakam
##car
##udi
tarif
Char
##qu
Den
konut
##layıcı
##malıdır
##ich
kullanarak
müh
##cilik
2014
Konuş
lezz
kalma
Kaf
içerik
saniye
nı
Mon
salon
çoğun
birden
##emem
##ogle
##lasik
vergi
##utan
kaşı
##itik
beklent
gündeme
profes
değerli
barış
oğlu
muy
mahkem
kullanıl
mesaf
filmin
2010
etmesi
##altına
##tıcı
##mız
##dırım
Gazi
öldü
kapalı
cil
gönül
##pany
anlatıyor
vakit
zayıf
yeşil
bakan
ism
şeye
Arab
##leyici
duruş
sağlayan
kültürel
##ug
##yal
Te
Be
prot
ortadan
şunları
##duğum
So
verme
Kork
36
Size
Kral
Önc
##müştür
##eci
vermiş
Çık
girdi
Müsl
şef
kahv
sp
alındı
##iya
okur
##ydi
##uar
bölümünde
süren
##sında
##ağın
noktada
Ail
##anak
Halk
benden
Tah
kuru
GB
##mesiyle
dönüştür
##dunuz
küresel
yaklaşım
Mi
hab
genellikle
##isinden
##masın
durumunda
kış
Sizin
süredir
yaparak
Sul
Kab
##siyet
##vekil
çoğ
olamaz
siyah
##ımızda
##mı
kalmış
milletvekili
İnan
sevin
##leniyor
tr
turizm
taşıyan
dinle
##emeye
##nak
değişim
##ücut
zamanlarda
##lerimizi
##izasyon
Cem
içindeki
kapas
müdür
Kesin
metre
Paris
koca
##ST
##ator
işbir
ayı
##üldü
##ann
mükemmel
Fin
tabi
##eğe
katıldı
düşman
yazık
##ky
Alan
yerden
##rah
enflasyon
Fak
##acağını
Bit
kum
##IR
Ku
Gar
##arlı
Uk
Geri
oraya
sonuçları
ihtimal
kısmı
kayıp
insanı
##larımı
öt
olsay
##malıyız
uçuş
Süper
tıp
istedim
Yıldırım
TÜ
ade
Hoş
##dul
Festivali
Türkçe
özelliği
Bırak
Mek
Erkek
hızla
Trabz
orman
Twitter
yaşıyor
kazandır
##amazan
onay
oyunun
Çek
Savaş
HDP
##gr
istih
##lie
sürede
sonuna
##cağına
Duy
ismi
sayf
Burası
makin
kaybol
ufak
Google
##AZ
Fatih
yetiştir
desteği
##ısır
ağaç
bağır
Bankası
Ukray
ayrıntı
futbolcu
Yıldız
doğrudan
ölçü
sağlıyor
Arkadaş
sohbet
##sızlık
Yas
##indi
Met
##rav
kaşığı
yarg
görevi
bölgede
ilçesinde
akl
tren
##ysa
çıkart
düzenlem
şeyleri
##ert
yolunda
unsur
##memek
kapan
##medik
Yav
alışveriş
öğrenci
bahç
ref
##ity
karşılık
sız
Samsung
arasına
birik
istediğim
Th
desteğ
##AP
istediği
sebebi
nün
uygula
##hane
gali
##mekten
tanıt
numar
çalışıyoruz
anlatan
bekl
aptal
ağz
##usuna
nak
gördük
buz
Şehir
##dart
sahne
olanlar
üstüne
##İT
##orta
çekil
kağı
Galaxy
##leyecek
sağlamak
kendimi
bugüne
transfer
##istin
Tıp
##ko
geldiği
Cumhurbaşkan
TB
çö
sim
##liye
suyu
Demek
azalt
300
ton
##İK
İh
##makla
##gal
karşılı
Telefon
##urta
Hüs
##yap
festival
hayran
Bursa
##mıştım
namaz
Onları
##atür
##İD
olduğundan
##hiş
Yazının
katılan
##pt
hücr
Pr
niyet
Van
duvar
Görün
müşter
pil
Öte
seninle
sağlaya
Gele
bed
maddi
çalışmaya
##ker
kus
Mor
bina
kamer
vermeye
##ood
kadınlar
motor
##sey
okuy
büyüm
lezzet
ır
geleceğ
Yayın
##inizde
bölge
##uva
yaparken
Dep
Şeh
kalıyor
Sey
küt
##ılıp
##rens
babam
##eyiz
bekleniyor
##amıyor
##ülüyor
geçiyor
Hazır
dijital
kıya
çalışmada
avukat
istik
geldiğini
##allah
demiş
yanına
##ny
Yönetim
Taş
fiziksel
kamp
arz
sürü
göl
##kaya
nesil
##ığ
bölümü
##ternatif
##dığın
##tılar
sil
proje
##sını
cumhur
öngör
gerekç
firma
fel
##roid
gözaltına
##ılmasına
pişir
yolcu
nereden
##emiyorum
ameliyat
##uyoruz
##OS
Yoksa
şimd
##ebiliyor
istedik
biliyoruz
teor
##sün
##ınar
paket
##leyerek
çekti
Kol
Mat
biy
iyisi
Arap
##pe
##liğinin
yönetimi
##ruk
Mak
haz
resim
biçim
kadınların
Sok
##şi
Bize
Dir
edeceğiz
##ilendir
oldukları
Ju
esas
##emen
Devamını
bür
nefes
görsel
kafa
bakın
ederken
sorunun
##IK
adamın
Mem
önümüzdeki
bı
şehit
Kil
olayı
korku
anı
gözük
##alıyor
arkadaşım
hakkı
yiyecek
iptal
##ülük
karşılaştır
söyleyebilir
dam
yayınlanan
kişilerin
##anacak
gezeg
çıkmış
Ukrayna
Pazar
teşekkürler
##amet
cümle
konuşan
Devamı
##spor
vit
##mos
niye
##cıların
Jack
olacağı
avan
reh
zev
Lond
##elin
##tanın
##ekim
##lerdi
isters
gıda
##anız
Kurt
##cil
##iklet
Abdul
aşık
Hepsi
Ed
koruma
Sarı
öden
sessiz
gurur
Oysa
##tıkları
##muştu
çocukları
gösterdi
zamanlar
ho
Birleş
Gez
Proj
ihtiyacım
Ceza
Güvenlik
hikaye
olmayı
uzat
##arlar
pozisyon
##MM
##rom
birşey
Dışişleri
##ph
başkanı
aktif
gür
tecr
##ames
##IL
Yalnız
zorun
Diyar
##leğ
##yonel
uğra
##insel
kalın
depo
anket
Babam
Hüküm
##isiz
aşama
içeren
##UL
kaydetti
çalışması
Kes
yapıla
Koç
başlaya
olduğumu
piyasaya
##eğim
2013
bulmak
tanık
Tes
tesis
Pan
##orn
Özür
programı
Kitap
uzay
post
görülen
##lanarak
##priz
Üstelik
kaçın
istediğini
edi
olduğum
##book
Çar
çağr
sıf
##LER
##liliğ
kimi
İtalya
gidecek
Yat
##bakır
fiyatı
lı
##ıldığını
modeli
##cının
##brahim
suy
Men
kapasit
muhteşem
##20
birer
##bilirim
##lor
güvenli
##ekt
##ideri
##eceğimiz
buldu
##var
Me
Silah
ölü
saçma
kanser
coğraf
uyum
##balık
Mev
vücut
şer
##larımıza
ücretsiz
toplu
Adana
##int
diren
Is
##ezer
ani
kalacak
sarı
anlaya
##olog
dür
grubu
nereye
##ayacak
görüşmeler
gerektir
##bek
Diyarbakır
Oda
##lerinizi
##leyip
gelişim
##lemesi
adeta
Emniyet
##zi
Ramazan
bozuk
verici
süreçte
aktiv
evren
veri
tanın
çekiyor
Şirket
Beb
kuzey
Kimse
Bahç
geçerli
Sek
mahalle
2011
günler
başlayacak
Kardeş
mimar
##liyet
çatışma
çocuğun
dolayısıyla
##racat
anlattı
Sü
##ümüzde
##rop
##gaz
rö
rekabet
memur
##tion
Fark
Umarım
05
Mu
Mark
##bu
Hasan
kendilerini
##tığım
sıkı
Mısır
Dünyanın
Okul
Bazen
Sultan
olduklarını
##irv
kazandı
Hanım
saf
paylaşım
öğretim
getirmek
söyledim
yazılı
For
yolculu
##türk
harit
##mediğini
karma
dönemi
##meliyiz
##dil
İsv
sağlayacak
##ancı
elinde
##itir
##demir
##dukları
##ai
nitelik
olurdu
maliyet
önceden
kariyer
karşıya
Başkanlığı
mac
##ica
##jen
karanlık
değin
toz
##all
Sizi
tor
may
üstünde
alternatif
33
avantaj
Alt
tavsiye
Yarın
belirtildi
Boğ
##luluğ
işlev
istif
##sinde
insanlara
##ump
Boz
fazlası
Dar
garip
hatırlat
soruşturma
Birkaç
##sına
sürüyor
##uşturucu
##lığında
birbirine
Ses
çizgi
eşya
Düz
ihtiyacımız
Yapılan
veriler
Bununla
##nan
çök
km
hassas
yaşay
Android
İbrahim
##lup
Mad
##lıkta
##lerken
verdim
okuma
##lav
anlatı
Bizi
##kal
standart
Yet
##bon
gündüz
Derneği
##osya
Yür
Far
Gid
##ua
diyorum
iyice
DE
##ıyordum
kavuş
Po
##ows
milletvekil
bağlam
##ach
Tim
üzgünüm
Mey
##isyen
tepk
##ame
yönlendir
rüya
teki
dakikada
trafik
kimin
yenil
RAM
##etrol
##imizden
##vik
yakından
kaynağı
##aza
kısı
Koca
muhab
ekipleri
Mahallesi
yaka
##ang
kimlik
başken
##mıyoruz
Görüş
evlilik
##embe
##lamayı
##odrum
birine
##afer
Londra
Mc
##parator
laf
bitti
tehlikeli
adayı
TBMM
karşımıza
Şahin
##meliyim
Fır
ep
sağla
Şampiyon
##isiniz
##ırlar
geldim
##tepe
Hasta
konuşmak
kalb
bilet
demektir
belirli
telefonu
kök
kıyafet
Anlaş
uygulan
Ale
##dağı
savunma
2012
tedbir
nüfus
sorunları
yerli
kateg
##luluğu
müthiş
##doğu
bilimsel
verilm
Qu
arac
##tifak
çekir
piyasa
##unma
ülkeler
Mel
doğrult
bilinç
fab
##lenecek
##ansı
geleneksel
İnsanlar
mobil
Saat
Bunların
Dikkat
süresi
yürüyüş
pah
etmem
AN
##likte
##eral
göm
kulüp
canlandır
derec
##üzgar
Köy
##amış
bulama
düşündüm
##ahmet
akadem
sağlam
utan
yapılıyor
yapmayı
##ike
yitir
##lerindeki
##tüm
konuşuyor
Yunanistan
Yah
sözleş
Fakül
##anda
çıkıp
##halde
Afrika
dey
güçlendir
##brıs
manz
Doğan
meydan
##illa
##akar
annesi
kendilerine
##ürr
##madığını
attı
başı
34
Demokr
##liliği
Kısa
turist
görmüş
##inal
Zira
değilsin
darbe
varmış
##elle
büyü
gayet
##my
##ürken
tuhaf
##afir
Balık
etki
parmak
sorumluluk
##halefet
Kıbrıs
yaptıkları
çalışmanın
beyin
##eliği
komş
##amızda
haberi
dis
kısıt
dük
Roma
yeten
beklenen
gidelim
numara
Dil
olanak
duygusal
ölçüde
mor
##stagram
final
kitle
yeterince
klasik
çevre
potan
Ömer
Euro
sever
##asın
komp
Con
görür
çerçevesinde
çalışıyorum
oğlum
kimsenin
##ash
kullanan
sürpriz
Cadde
kesim
Bekle
yumurta
mektup
mens
Mahkemesi
2000
est
Üzer
ima
terörist
Sistem
sayfa
yarım
##mail
bl
##usuz
sevk
kulüb
bağış
##ıf
##endis
Akdeniz
haft
dip
etik
yolculuk
buldum
Müslüman
işç
böylece
##day
Şen
boyu
Yeşil
Bilim
danış
Hangi
##PS
baştan
mantık
##ney
kanun
acaba
Cen
##ektif
alak
dalga
efsan
madd
Nereye
algı
hazırlanan
kons
yılından
maaş
buy
peki
ren
##lerimi
##ilerden
Kut
zevk
##mesinde
aralarında
adalet
Keş
yaratıcı
##aydı
##iki
emekli
Anayasa
tutum
##tor
Mesela
arkasında
Hüseyin
##cebook
Mary
çıkarı
pis
ekibi
otobüs
Cumhuriyeti
Sabah
##iyorsunuz
Beyaz
kurulan
Düşün
Hakan
olmuştu
evine
##kır
##üye
Savaşı
şarj
##gah
400
Niye
satışa
Zor
üstün
uyarı
cenaz
Para
kira
Geor
yapılır
kaza
##uyucu
##liam
kırık
tablo
##ıldığında
##ükle
##andar
##UN
hayatın
şif
düştü
taraftan
görüyoruz
##soy
##uzu
ndeki
zeytin
Çalışma
üniversite
He
##bilmek
sermay
##maması
lideri
mül
yedi
Futbol
isterim
##yiz
Avust
muhtemelen
olağan
##gele
##AH
Onunla
##ürriyet
dönemin
Feder
yapımı
##ılmasını
##kur
##eth
birleş
Lanet
rakip
Karşı
##AB
##ill
Sch
Grub
Aşk
iyileştir
önemi
bulgu
öğrencilerin
rej
izlen
kazanan
lig
##bilirsin
müşteri
##ks
İngilizce
açılış
Seninle
uyku
##İZ
##anta
çalıştır
edilir
Kesinlikle
Net
eğlenceli
şair
194
yapacağız
ikna
Abdullah
Barış
##larken
birleştir
kov
yapay
48
##üny
potansiy
evlat
medyada
kişiye
miyiz
##suzluk
yazdığı
##FA
yetenek
##amik
##dığından
##ral
sevg
önemlidir
kale
ucuz
sahib
Cev
Kav
bakar
yararlan
anlaşma
değeri
yatır
doğrultusunda
Oyuncu
gittik
##10
##kel
War
yazarı
bakımından
Ekonom
##his
kana
##hael
##encer
Art
derg
Cuma
sam
##irim
##sör
##iştir
eğitimi
Yaklaş
düşünür
dönüşüm
cesaret
buluyor
sürece
çor
köt
Pas
profesyonel
Tic
##arap
kaybetti
Adı
##ınıyor
burası
Gaz
##fı
civarında
Port
kaps
Ligi
yönünde
kilometre
yıllardır
##ograf
yazılım
yatak
besin
kilit
izleyi
##mamı
dikkate
##rama
dikkatli
##araj
düşen
##eceğine
istemiyor
##lıktan
söylemiş
inanılmaz
denk
barındır
öp
##pa
bulur
zorluk
maruz
Amerikalı
yla
Soy
cezası
altını
üs
##tiğim
konuk
aracılığıyla
##RT
Ateş
##ulur
##portaj
Geçtiğimiz
öf
sürecinde
önde
tad
üretic
kayded
##şallah
Önemli
gerektiği
maçı
##ıyorsunuz
##iktir
yapılmıştır
süper
##leriniz
Birçok
##leyman
##landığını
duyurdu
##elaket
##ceğiz
eminim
mon
Trump
başlamış
lok
David
##ülmüş
##kırı
ihracat
##tren
Ph
##und
gr
keşfet
##ube
tarım
##steri
ortada
##cele
alama
harekete
kategor
##leye
hediye
##rist
Of
Özgür
##lete
##gre
##umartesi
Ulusal
sahiptir
kullandığı
psikolojik
Bilg
açılan
örgütü
Star
##likleri
evr
geldik
Bodrum
##lendiği
##vi
Tut
kullanımı
Çelik
baz
düzenli
##alandır
çekici
##mamak
gördün
kral
başlangıç
düzelt
verin
sonuçlar
komik
38
2009
yolda
ob
Tor
##yn
##leket
duruma
Ödülü
tok
eşlik
##oft
yağmur
##uman
Wind
özen
Kore
korumak
öncesinde
Sine
Tabi
##kale
Neler
Müzesi
Boş
çabuk
ödeme
teşvik
olmuyor
Program
yasal
sigara
Yen
yoluyla
##aydın
devletin
zamandır
bomba
metin
Facebook
FET
döndü
noktası
alına
ro
ekib
mir
##kabı
Süleyman
Gerek
kahve
dosya
Rüya
Filistin
oradan
##talyan
konus
yaptın
noktaya
acil
yangın
##dığımı
##line
aşa
##liy
teb
güney
Ardından
Plan
Turizm
değişken
Ste
bulundur
anlamı
Öğren
dedik
##ilerle
##onun
Konya
Da
bulunmaktadır
##eceksin
kurban
Adalet
Roman
çıl
bağımlı
kavga
getiriyor
sınırlı
IŞ
bulut
Saç
adlandır
Erz
Yağ
##miyoruz
##lası
düzeyde
Fi
mezar
Siyas
seçen
##şe
sebebiyle
##tel
##ezil
ib
Alex
yenilik
Henüz
##MD
##malısın
##ilip
##melisin
sıv
ulusal
alışkan
Ür
olunca
sanık
köp
FETÖ
Hastanesi
vitam
düşünce
sergil
2008
İy
Red
katı
özgü
##nik
Yo
yarışma
##emiyor
çiçek
##öğr
Fakültesi
yaşat
kalem
herkese
75
Aile
biridir
Instagram
Ünlü
Sc
Müzik
darb
moda
yiy
Annem
hanım
Sim
uyuşturucu
65
bölgesinde
dini
artan
geldiğinde
##ema
##yer
aldık
Emre
tit
taşıyor
Karak
Michael
Max
elb
düşündüğ
195
evinde
Kendim
##manızı
Kiş
##işan
demir
yör
##ilerde
Koc
193
##DI
yöntemi
etmektedir
felsef
##bileceği
köpr
Benimle
kıyas
gördü
göğ
katil
IŞİD
##ümüş
inceleme
küç
##oto
şeyden
##arya
personel
itibariyle
olmasa
dağıt
İçeri
##by
incelenmiştir
gelince
Sig
şirketi
yapıyoruz
uygulaması
organizasyon
lanet
Yeter
İt
Hakk
##itif
##isa
##ulmaz
dolarlık
özgürlük
##abilmek
uzaklaş
konuyu
kurulu
hali
işleri
olmaktan
ailesi
imkanı
##abiliriz
sip
37
##ülmesi
mahkum
korkunç
sonsuz
##ydım
edildiği
ış
İtalyan
yönde
birbirinden
##elendir
Teknik
istemez
yaşamak
inti
Pi
##ese
55
işletmeler
misafir
etmez
##ağını
##arda
liste
Çocuklar
##indistan
bayan
geride
Efendim
##barı
kişiyi
alkol
##zersiz
yumuş
kullanmak
sorunlar
Col
##ördün
güvenilir
##fendi
petrol
##tığında
olsaydı
##isyonu
##tuğu
sürdürülebilir
inşaat
destekçiler
hip
ısı
yapısı
Bro
##ünür
atmos
Siv
##ding
sigorta
##ümde
##irler
Ey
##ulmuştur
taban
##ilerinden
##tiğinde
mutluluk
##ilmez
##mede
oto
sevgi
yemeği
##OL
doy
##esto
maalesef
bask
felaket
olduğunda
##itler
Ana
incelem
çalışır
çekim
saatlerinde
bilgileri
##tis
senden
Grup
anti
##biy
evi
anah
##tüğü
etmeyi
günün
bardağı
##latı
halkın
bazıları
uyu
Unut
mezun
bis
kör
kardeşim
You
aksine
##asız
atıyor
ürünleri
Kahraman
onur
denetim
anlar
Windows
röportaj
Esk
hazırlık
hikayesi
cinsiyet
zeka
##fik
Cor
yerlerde
##emizi
Tekrar
Ege
kararlı
büny
Hürriyet
Play
II
Sokak
yapıp
##cılığı
esk
evrim
rekor
Vatan
Günü
ağrı
Bölg
##vel
halen
Ala
mağdur
parlak
çıktığı
genelinde
Dost
Sanki
derken
patron
sağlar
Kup
##çın
duydum
ves
Cih
açtı
##NA
pahalı
seviye
altyap
şehrin
Asya
##utin
inanç
##ung
Tok
##azartesi
##dev
150
toplumun
isimler
tecrüb
üye
aklı
muhalefet
kuy
##tük
Kuş
tatlım
sekiz
##abi
takv
öncelikle
bulaş
sıradan
sesi
kaybeden
olabileceğini
hastalığı
Uğ
kalabalık
Ven
gideceğ
##ette
Cid
ekr
olacağım
##ihayet
zinc
İsmail
Ki
imkansız
##antep
kod
Biri
##osun
herif
Bla
##lamıyorum
görme
edilecek
##cileri
Gece
##üyü
Gaziantep
yağış
##ington
performansı
##dışı
##unuzu
yükselt
mit
günden
bıçak
istek
##ült
##zat
alması
##unacak
olaylar
hepimiz
mesela
düşüş
çıkma
yetersiz
Kuvvet
mini
bulan
ekonomi
Ta
gerçekleştirilen
##ÜN
Karadeniz
gerçeği
##ight
alınması
##diy
senaryo
##mali
bilmek
ülkemizde
halle
testi
Uç
AL
##ens
çalışmak
içinden
benzeri
##yesi
##bileceğini
Geçmiş
kağıt
mat
42
taraftar
temas
üyeleri
Kir
takımı
Tas
mısınız
lük
##miyorsun
kalmak
ödey
Hollanda
sırt
karşısına
oğl
sayede
ilçe
gelişmiş
Yemek
yapıyorum
gelmesi
birim
istat
kaş
2007
renkli
##ps
##ımdan
erk
projesi
itiraz
##andarma
bende
vizyon
Muham
yolunu
finansal
günümüzde
Frank
virüs
Kaya
Nor
##ates
##ary
yılları
dua
sanmıyorum
Str
açıklan
Sakin
Kurul
halka
##elçuk
##ğına
##sana
görmeye
##lerdeki
tarafında
va
suçlu
39
boşan
Grubu
yapması
ekmek
CE
refer
detaylı
##mr
yargılan
br
inci
başlama
Boy
seviyor
peyn
olmasın
cilt
##masız
Orhan
istis
sosy
Yurt
##lerimizin
izley
##alimanı
sözleri
##lemiş
büyüme
##ebilmek
İnternet
##ılmaya
kartı
Bayramı
bomb
Selçuk
tutar
tanesi
Kent
##th
süs
selam
##ami
##ülent
##lılar
Kullan
Wal
##gul
##mesinden
##çilik
BM
192
zirv
farklılık
dünyayı
##yasal
ideal
Ordu
olmanın
tüketim
##ülüğ
##tek
etmiyor
##tınız
saati
Saray
usta
redde
Ticaret
Caddesi
Terör
zehir
##ıklı
fikr
Hır
ortasında
filmde
##otik
Dair
Bülent
##elli
##ektörü
ikisi
ödem
yıla
özet
Ba
dep
parayı
belediy
##old
##ıb
Kons
İspanya
hit
kıv
demokratik
64
##EC
hast
başrol
çey
Paul
sakın
sözü
44
oynay
##io
Seçim
genelde
Suç
##yalet
düşünüyorsun
##ördüncü
bilen
##melerini
çen
silahlı
##sh
##ste
##uf
Sı
kamuoy
Uğur
adr
bütç
##EY
sembol
hissediyorum
Gec
##tedir
##çu
Bakın
görülüyor
kadını
##OK
##eleriyle
kelime
maden
Hindistan
##emeyen
##allı
dükkan
edece
aralık
Kart
sahipliği
oranında
##diğinden
eb
##danı
##stit
sürük
##gül
diplo
tarihleri
türü
sıfır
verg
seven
pozitif
sağlan
ısrar
Buradan
sunan
##urun
yansıt
##okul
öğle
restoran
herhalde
Başar
pen
Sol
##alif
Dal
ticari
##tiniz
serisi
##ony
iklim
kaçak
##uyorsun
ayakta
versiyon
##abor
##gam
çıkardı
hakları
Onların
Ede
sanatç
dışına
Birinci
James
sayılı
sahte
Sat
##cilerin
##mesin
tarafı
Na
##avuş
çizg
Ob
derecede
ira
geriye
dönüyor
konularda
tali
konak
##oks
yerler
Güç
Sn
##retsin
beklem
olmaması
farkı
gözden
gelişme
sabit
itiraf
##DA
##işehir
Yaklaşık
##80
değiliz
##raj
##ata
Şark
##ses
başarısız
##yüz
##cüsü
##ith
##şet
ortamda
sipar
dürüst
bez
OL
##ükleer
oluşturan
söyleme
Onlara
yüzey
aynen
stres
Min
kullanıyor
getirdiği
şirketin
mensup
ilişkisi
##lukla
aldığını
rüzgar
##elidir
annem
delik
Hen
etkileş
yaptığımız
İmam
##öğretim
##IM
etkileri
##ehenn
başa
alabilir
##satı
Ker
##lamada
aykırı
varlık
Med
anlatır
Cin
alım
yapıldığı
bahse
yorgun
Dinle
##ayas
ndaki
Sonr
Ağır
Neyse
halkı
##ildiğini
cumhurbaş
inç
##üce
Dağ
Tun
işini
yönel
gezegen
##los
Metin
dediği
geçici
donan
##işe
makale
Azer
##eğine
Pen
mikro
stat
kemik
##lel
fat
demokrasi
yapacağım
bireysel
sürdü
Affed
##ilmesini
gecik
yle
##içi
##UM
gitmiş
mahkeme
Japonya
##acık
şük
kızım
Eve
Haklı
akr
Davut
analizi
bekleyen
##omi
doğa
nu
ilişkileri
George
antren
##memesi
Bunları
gereği
##mana
##demi
kaliteli
çıkması
girecek
karmaşık
çözünür
canım
hasar
gerçekleşen
##iski
kısım
Toplum
hastaneye
gök
##ymış
##iller
verebilir
bilimin
gergin
##ınızın
##maktır
Dışarı
##masyon
durumun
egzersiz
Rum
olacağız
yarattığı
memleket
beslenme
hakkındaki
Kötü
yenilen
##tra
ayakkabı
veriyorum
##ji
Otur
tel
söylüyorum
Biliyor
türk
devrim
##lamaları
Merak
işbirliği
sporcu
başk
##tılan
##malarını
Vay
işgal
keyifli
başından
yakında
kurgu
##isindeki
başladım
miydi
Del
##malıyım
öğrenmek
##etler
vah
Jim
beyn
##edin
sitesi
##tez
Savunma
##irin
##ladık
gittim
43
disip
inanıyorum
ulaşım
##imle
mavi
Gre
koleksiyon
hissettir
seks
neyse
çalıştı
41
korkut
alet
cidd
çöp
gidiyorum
Yazı
ürünü
##errah
##kil
destekçilerimiz
dayalı
tutan
##liğiyle
güne
##berg
İnce
gelebilir
Ata
hac
güzellik
arıyor
topr
krizi
plana
denem
kullanılmıştır
dersin
iken
Çift
Kendini
Yazar
##ordin
##ediler
##cıları
epey
Turk
benziyor
şok
##cağınız
##ole
hayatına
##abileceği
##emizde
İlçe
hus
görüyorum
çalıştığı
Orman
kardeşi
peşinde
##alığı
Yargı
##wood
hakaret
görebil
açan
##ice
gördüğü
mesleğ
##ğeri
sk
olabilirsiniz
tıpkı
##İS
kendisinin
öv
51
Nec
Şimd
Kulüb
damar
Naz
doğur
##çası
çıkmak
##avüz
hazırlan
PC
ediyorlar
kamyon
Hizmet
so
##eveyn
##RK
müziğ
şarap
ahlak
Ölüm
temin
yoğ
açıklaması
ettiler
##etici
##ily
Kızıl
kalıcı
ülkelerin
##tılı
Bahçeli
tac
demeden
zorunlu
lerin
dert
adres
fiyatları
idi
hoşlan
Aziz
karşın
ilave
kasab
Sevgili
bildirdi
dolara
46
takdirde
nö
##SB
##AC
sığın
gerekmektedir
kaldığı
başladığı
##use
##tıktan
Vakfı
##fe
##ikat
gösteri
##laştırma
##ino
bırakın
kampany
Gön
şanslı
endü
yüzlerce
deli
##örü
99
Stan
uyandır
şehr
ran
geleceği
evin
Keşke
istifa
Aj
Örg
iade
##cer
##burg
örgütün
##lamıyor
görünce
aşkın
köken
İr
mekaniz
2006
Çak
olduğunun
##rat
uzan
lisans
oyunları
kaybı
Dis
istemiş
##gusu
isteme
Fo
kritik
##lament
tutk
##etiyle
Akıl
Dört
##itan
mim
##abilen
çak
##abilirsin
##pat
2005
hepsini
##ullah
Pla
##ezerv
Uygu
zamanında
gazeteci
Aslan
karışık
##yalı
##zan
harc
ilgilendir
Kamu
##uyorlar
alınarak
edilebilir
işletme
zamana
##şembe
olabilecek
tap
##bel
mutf
edici
##aborat
Def
Sem
Hukuk
som
gerekirse
miktarda
##osk
##sav
##anada
vakti
herkesi
Pak
seyirc
##uydu
ayda
Tarihi
elinden
yazdı
##GB
devreye
##diven
##slan
Giz
gücünü
ömr
ilham
##tıklarını
okun
One
kedi
Lo
Hız
##usuf
kolaylaştır
47
üstü
Cumhurbaşkanlığı
bilgiye
öncelik
##ağının
##ciğer
gösterir
itibarı
İliş
işçi
etrafında
##itesi
gelmez
rob
tanıtım
potansiyel
2002
istikrar
kahvaltı
almaktadır
diyal
Jon
##ağına
##enip
Je
Birbir
##iliğini
kula
eseri
2004
bununla
Ondan
paylaştı
göstermek
geril
kalmadı
taleb
Mutlu
kesint
yılının
##duğunuz
tarafta
49
Sık
bulunur
Paşa
Birleşik
denet
şüpheli
sevgili
arkadaşları
Komutan
gram
##fil
uygulanan
Tez
Lev
vererek
anlamak
##oth
##ATO
##des
sel
sabır
odaklan
Üçüncü
##tun
kup
açıklandı
Oper
protesto
##atematik
##umun
##omuz
hesabından
isteye
##lığından
görüşme
insana
Öncelikle
hük
##ülasyon
intihar
Rad
düğün
Hatay
kızın
mıydı
seferlik
##dış
bok
##rosoft
muhaf
Vali
oranda
##usun
##lüğe
olayın
istihdam
içki
Hatır
##bilen
ker
şirketler
yarısı
##AV
##eyici
emniyet
##cev
##mini
Mars
oyuncular
191
sıvı
Op
##mışlar
Diz
vic
çocuklara
kullanma
okula
Mez
çıkara
gelmiyor
600
kutu
pilot
gözler
##TÜ
bizden
ırk
ayn
##şamba
aklım
dizisi
Şim
adıyla
Yusuf
merkezinde
fırsatı
52
maçta
53
Ola
NATO
##yası
diyecek
Gu
seri
##HA
eğlence
bıraktı
Kale
Öğret
kaybed
geçtik
Fik
bulduk
Sivas
##stik
06
03
##ord
platformu
sahneye
Emek
işten
sürücü
##üphan
ailenin
##tığımızda
Wash
##ilmesine
çekmek
##ruf
söylediği
##ağında
Microsoft
bileş
##ald
heykel
##barat
##abilirim
ulaştı
sanayi
##ott
##mut
##bakanı
Peter
diyorsun
geldin
etmişti
Alo
kusur
Fotoğraf
meselesi
tasarımı
##lenir
vaka
açıldı
kaleme
Mersin
##gari
topu
02
makam
Benden
traf
ört
me
Onur
Hz
kimyasal
çoktan
yaralı
Kurumu
ilgisi
hayli
ikram
bekley
##ikola
kıymet
PS
Noel
müs
Sence
Eskişehir
dışarıda
başlıklı
bedel
görevl
Karab
olağanüstü
Işık
konular
doğrusu
amac
şehri
Destek
##ksiyon
bölgeye
##memi
ihale
şansı
yaşamını
bırakıp
yapın
Kanunu
Mis
##desi
meyve
yetişkin
oluşuyor
Yanlış
gayret
Bob
id
##oper
kampanya
mali
##mara
##dular
motiv
saatleri
aj
Kapı
oynayan
aktör
elektronik
kendinizi
alınmıştır
kıyı
ülkeye
siyasal
tutul
yazıyor
gidiyoruz
öğrenildi
##biyet
##lamanın
##şek
##ebiliriz
yoluna
yürüm
kısmında
büyüy
##cusu
Prens
kapsamlı
sahil
##baycan
##sk
Pap
##iti
Kadir
##lerimize
Mir
##unus
masa
sus
Tav
edebilirsiniz
Trabzon
turn
Washington
##eceksiniz
toplan
##ledik
Hikay
##abileceğini
saha
çif
eyalet
bugünkü
tüketic
İdar
sayg
120
##çesi
Air
istediğiniz
250
Eb
Bölge
far
komşu
Gr
##menizi
sığ
etkile
usul
Wat
Boğaz
grafik
çıkarak
Azerbaycan
sisteminin
kullanılarak
edeceğim
seçimi
meden
Kahretsin
kimseye
Takım
gecesi
cami
önemlisi
##isti
anım
Hareket
##seri
saatte
Kupası
çağrı
büyüt
zamanla
##ima
göze
koya
##ikal
web
Seb
sesini
##ümr
buluştur
##duğunda
erkekler
mutfak
biber
verilmiştir
demokras
##onspor
yaptığım
##ish
plaj
olayları
eğil
Muhtemelen
amaçlı
kanat
meşgul
miy
Farklı
dalg
Sonunda
vir
Lu
Stev
Yab
prote
şidde
no
tarzı
Rich
##mayacağım
yaşandı
BB
##eceğimi
mühendis
düşünmüyor
Trabzonspor
Davutoğlu
düzenleme
düşünül
##wn
Vol
ölen
##ralı
ast
##lüğünü
##rad
gösterdiği
Gelecek
##gat
ağız
##tiğine
##VI
gerekiyordu
Berlin
##tına
yayımlanan
İmparator
gönüllü
Havalimanı
endişelen
dondur
üzül
araz
Japon
ismini
##oşk
YouT
açıkça
çıkarmak
##emeyecek
tavır
olmasının
filan
haberler
izlemek
Nit
Çanak
Sanayi
kaygı
bizimle
##köy
BİR
görüşürüz
tutun
öldürül
üretimi
şimdiye
Kims
AT
tetik
kurtu
metrek
tecavüz
meşhur
hayatım
##irli
##ester
##astik
Zen
2003
rehber
katıldığı
galiba
Karar
Akadem
frag
istasyon
bekliyoruz
Robert
##wei
hoc
##usunun
İsveç
amaçla
milyonlarca
09
döviz
Enerj
Edebiyat
##lıca
değişen
reddet
##lenmiştir
##lıyoruz
yürü
##ülecek
Ex
Gelen
##çisi
durumlarda
yapalım
##eld
##ee
Yaşam
##nam
##meme
port
##hu
##lesi
##ink
oynama
Fu
eşliğinde
lan
oluşum
Küt
fena
veda
koltuk
Öyleyse
##bey
##malısınız
hizmeti
Sel
Cumartesi
Örgüt
gidin
sön
##elal
##ersen
unutmayın
##şun
kavramı
etkisini
##elikop
##ende
alanları
evli
Sinan
Ros
##lamalar
##Hz
verim
olanı
##liyoruz
##lanabilir
Yönetmen
attığı
Tarım
bulunduğunu
akış
kalıp
ülkelerde
sevdiğim
sorular
dilek
tazmin
taze
ürünler
giriyor
günleri
örneği
##likler
Asla
##ılmak
karbon
##büs
##ısal
##emize
esnaf
##suna
konuya
Ul
İçişleri
Banka
##paşa
##ğe
54
tara
söylem
alırken
alay
##ecekler
budur
hayatında
Günaydın
antik
gidiş
yoksul
katılın
Yakın
gerekçesiyle
uydur
yıldan
hariç
Sus
Hayvan
ulaşmak
Hua
Maç
ederiz
şüphel
otomatik
tarihsel
kendime
etkileyen
pencer
Meg
##lip
##lob
umur
56
##luğa
numaralı
Gençlik
pratik
cezalandır
##racak
aran
tey
hakem
##dıkça
yapama
oynan
##fat
diyorlar
Gidelim
##ınan
ihlal
sayısının
payı
düzenlediği
Antik
planı
uygulamaları
Çetin
geçirmek
kader
alana
Nev
diyet
öle
fonksiyon
bet
duyarlı
amb
Dok
artıyor
plak
belgesel
verdik
ettikleri
Chris
haftada
geceler
Ort
Albay
altındaki
ulaştır
##lüğüne
şık
bulmuş
AR
##emesi
vad
dili
##box
Sun
resmen
beslen
birinde
çılgın
görünüm
##cin
##kusuz
kolayca
##ıplak
##uğla
ça
##ketbol
girmek
kadına
Aşağı
Otel
enfeksiyon
sergilen
##igür
seçmen
Yapma
dünyasında
bilgilendir
Profes
atmosfer
Muhammed
prim
konuyla
salg
sağlığı
anahtar
girer
##ita
Joe
olmazsa
kutsal
##azz
faydalı
taşıma
şur
maçında
öte
##eygam
Emir
##ılığı
değerlendirme
Normal
görüldü
Çanakkale
kullanıla
Rüyada
YouTube
Brezil
##umuzu
Hafta
##ılmıştı
alınmış
tarihinin
Ayak
##okol
yaralandı
##DE
yel
Kırmızı
nesn
icra
ikili
Eminim
85
isyan
hayatının
##lit
toplantısında
Günümüzde
verdiğini
##Yİ
##müştü
Ra
Suudi
nükleer
Şek
Hükümet
hükümeti
Huawei
Vic
yeme
Sta
atık
bozul
miz
01
ediyorsun
##lemeyi
1980
şimdiden
tanıyor
itibarıyla
bahar
radyo
zeytinya
##and
uyumlu
edemez
oyuna
##gn
çağdaş
Festival
bunlardan
To
çalışırken
atöl
tavuk
girmiş
ust
We
oynuyor
ölçek
Kanun
göçmen
giderken
çekin
Elektr
##sene
##için
vatandaşlar
DNA
kalkın
##daly
bizzat
günah
tarihli
##ty
haksız
olmaları
bunlara
masum
yed
gelmek
KO
paralel
sakat
##ebe
belirtiliyor
Gelin
oyuncusu
tutmak
hakkını
alabil
pişman
bakma
İST
##luğun
Rek
ailesinin
birliği
şö
imzala
##anti
Yukarı
kurumsal
Zeyn
söyleyeyim
gözet
##şiv
##onav
ilerle
gelmiştir
çalışmalarını
oyunlar
sermaye
emir
Kurum
th
etkileyici
##larsa
akşamı
Kör
Değiş
bildirildi
sıkış
##tt
aktivit
çır
##so
sebeple
elini
seyret
Cas
##lüğünde
edelim
verilecek
Tatlı
##acaktır
Wh
##engiz
Köpr
mantıklı
gülüm
boya
nihayet
##erseniz
adamım
iyiyim
oynadığı
##uvalet
randev
cevab
vermesi
Bebek
fikri
sürdürüyor
topar
##ledim
mevsim
Pay
girip
Toplantı
burc
Charlie
lüks
Yaşar
##inizle
onlardan
meyv
intik
Ray
elbis
ayrım
Yalan
##emizin
##irkin
aylarında
mür
yapmam
merkezli
Fir
verimli
Oscar
Marmara
##ayol
##30
bitk
şarkıcı
##rib
ebeveyn
Komisyonu
sipariş
kısmını
set
Hepimiz
düzgün
ihmal
##ferans
yılına
yakış
##veren
##ladığını
ittifak
##eygamber
İşlet
Akşam
ard
dinlen
##liydi
başkenti
batı
vade
sıç
ihtimali
verilmesi
fabrik
Tiyatrosu
Şef
işletim
alanlarda
tasarruf
##elerek
onlarla
Tep
güz
Senden
tırman
havuz
Cey
##cük
##sının
duran
eline
##denin
ücreti
fer
##amazsın
57
Şeri
yolculuğ
düşüyor
dünyadaki
vicdan
##kele
dosy
amir
söylemişti
almayı
##US
Kayseri
indirim
belirlenen
Dol
tarafa
bölün
Görev
##uncu
bulacak
çalıştım
İste
Enstit
ikin
Luc
müzak
çapında
soruları
telefonun
##osunu
sanıyordum
Mahk
Başsav
sanal
sunulan
##ısındaki
duyar
ilerleyen
babasının
kenar
berbat
##larımın
denize
saptan
danışman
##uğa
##melisiniz
##luğunu
sinyal
Başbakanı
##end
metal
merkezine
neydi
Çan
şahit
sevindim
Acaba
##sunda
##ahh
egemen
val
tedavisi
izleyen
##emaat
Uzman
birlikt
08
sof
bilimsever
por
Ruh
##esyon
dilim
Eki
düşünmüş
alınacak
orij
ölümü
##İŞ
William
Pazartesi
kentin
##amda
##mates
Ermen
robot
olabiliyor
kuvvetli
istiyorsanız
bisiklet
Kızı
Başak
anında
iktid
İşin
savaşı
ihtiyacın
yaşamış
rezerv
döner
yemin
geleceğini
Parkı
##lata
hitap
Ulu
##idi
Pet
##ovid
##tina
genişlet
yayınlandı
teker
işlemi
Malat
çığ
rolü
Sürekli
şeref
duya
buradaki
ların
Kus
maz
İlet
gidiyorsun
##OĞ
getirir
##ts
Öğretmen
##60
fotoğrafı
erişim
genetik
yazan
üretilen
##vat
demişti
geleni
fen
##adı
##otos
tal
Çavuş
##raz
Kaptan
evden
işlemci
keşfed
açtığı
diğeri
bura
##çılar
kullanıcıların
hırsız
Şer
uzanan
Ayşe
2001
##düğünde
##diğimde
katk
Juli
##yaz
kaldım
sektöründe
bacak
kullanı
##tığınız
##üntü
Kurban
bakmak
estetik
Tıpkı
vek
gazete
##meyeceğim
ömür
tanrı
tüken
değişikliği
etmiştir
##ilmeye
özgün
bizler
lay
geliştirilen
gerekse
isterseniz
mada
Öztürk
haberleri
Rapor
karan
görevini
Arda
ısın
yerleşim
yerlere
çel
TRT
Filmin
Kem
mecbur
##ukur
##hir
kadarıyla
cezaev
##ake
1999
##ladın
sürüm
Nat
Erzurum
##umuzun
##olik
dönemlerde
isteyenler
Değer
bağlamda
geçecek
##amuk
katkıda
otor
riski
İddi
##dığının
##ğin
Kulübü
##IŞ
Konseyi
İYİ
Tür
tutuklu
##lanmaya
dövüş
##bilmesi
op
##enç
##rid
kavg
cehenn
mesajı
dünyasının
günümüze
Mit
co
zorlu
Intel
anladım
##iyetini
liraya
##ılırken
Kadınlar
prens
##cinin
##avallı
##eğinin
görünen
yürür
hastanede
şof
hikayesini
İşleri
bastır
hükümetin
Uzak
belirtilen
Andre
##illi
Doç
filmleri
##kurmay
süreli
##ikolata
biriyle
düşünün
Değil
hemş
ettiğim
arayış
Gal
Çevre
##ife
engelli
sunduğu
##ıbbi
Lou
depolama
Göl
dönüp
belirtiyor
##ib
Yavaş
zincir
kitabın
Evde
##ive
oluşturuyor
denen
tatmin
dinamik
##emezsin
##melidir
##eğinde
Bölümü
Bunlardan
kararını
takımın
gelişen
##ografik
endüstr
özellikler
arayan
59
İnsanların
Xia
kuz
##bür
Hani
endek
gözüküyor
forma
58
##panyol
Kanada
Burak
trav
Arabistan
koydu
olacaksınız
alkış
kurmak
doğan
ba
nü
deneyimi
belirlendi
##ğım
Dani
hazırlanıyor
##uşu
Güler
kurduğu
kül
gerçekleşti
##iteratür
kaydı
Lim
somut
Ces
##danın
öldürmek
yerleri
##iste
##uta
zeki
müsa
koyun
görmez
##culuk
üncü
figür
güvenliği
##ğrul
izi
Kaymak
bölgesi
öfk
karşılığında
##elikopter
##abilm
##üşe
gelmeye
verileri
iyilik
##türü
Avustral
adamlar
##cia
##hoş
Giriş
arzu
tebrik
dönen
bilgisi
##avar
disiplin
Aynen
malzeme
koz
başardı
kenara
##IS
mağaz
dördüncü
Modern
Ermeni
bünyesinde
##apiksel
isimleri
vurgulayan
Nedir
Herkesin
masal
Yavuz
bağlan
alakalı
Black
##tığın
yuvar
IM
##piyat
##izmin
geçirdi
kriter
Federasyonu
yapıyorlar
duyduğu
Üyesi
kazı
olabileceği
aklıma
esnasında
Meclisi
horm
dışındaki
sanıyorsun
lo
ibaret
hiss
Du
çıkmaya
##zen
noktasında
##mo
bölgenin
görülmüştür
##tikleri
netic
ayrıldı
Turg
bam
##çuk
##yr
ziyade
Sez
endişe
biliyordum
##enizi
oyunda
etmeyin
yerinden
kapıyı
kandır
serv
sensin
Çay
tablet
şap
##TC
Ef
bela
bulunması
ceph
sektörü
seçilen
##ww
şehirde
çarpıcı
##ileriyle
Bilgi
panel
bilgilere
karakteri
##mm
gelmişti
Genelkurmay
##LE
biliniyor
Valisi
##ora
oruç
##vin
pir
##yeni
dönük
##ling
##ason
Rahat
##oo
karşılıklı
Fazla
denilen
geçmek
##ümüze
##del
karn
detaylar
Umut
04
düzel
Kamp
##ski
##PU
sürecek
##fli
Putin
tipi
##lır
##utanı
ödülü
reform
sevdiği
Kuvvetleri
Bölgesi
hediy
67
kabil
akla
##melerine
##nes
Mike
##sızın
##ragon
oluşturduğu
medy
Kilis
taks
işken
Lisesi
yüzüne
öğrendim
##dukça
##likten
##ışıklık
ked
##DP
ettin
unutma
##lenerek
Oğuz
Kendimi
##ğının
##amayan
konuları
Çalışmanın
çiğ
sahnede
Ortak
geçmişte
Resmi
sanay
niteliğ
olmam
hukuki
birinc
Rah
SE
alanına
##lobal
belirgin
Yalçın
tutuyor
Altı
##şen
800
##ümrük
Sony
##delen
haberine
kazanmak
Xbox
değerleri
edildiğini
##ld
##laz
şimdilik
kıskan
##çılık
hamile
##tüd
işine
oturan
Holly
##TL
gelmedi
zafer
##odu
muc
yang
##ure
Jes
çatış
anlamıyla
arasından
fazlasıyla
yoldan
##YA
##faiye
orijinal
etken
oturup
Danış
Vur
olurken
kaynaklı
edebilmek
dediler
sandaly
Neredeyse
arttı
değişti
açıklamalarda
##onsor
Uzay
Afgan
nez
cevabı
filmler
matematik
yaşamaya
olduğunuz
Salı
##way
Sakın
savcı
grubun
nam
Jandarma
layık
##lamalı
Sınav
Eskiden
Şanlı
koltuğ
Çocuğ
sözlerini
Demirel
dokuz
çekilen
www
Harry
Psik
posta
eleman
hesabı
konusundaki
İletişim
laborat
Konu
Vatandaş
istersen
##cik
Kimi
Kendisi
içe
bilme
1990
yüzyılda
##ültü
stratejik
albümü
##ucusu
##zon
gününde
beraberinde
Çor
göstermektedir
cesur
sensör
Ekran
insanlık
Com
yükselen
ötürü
##gener
##emedim
tavsiy
obj
##üzün
başladık
Kış
geçiren
gelecekte
müziği
Asıl
##imini
insanlarla
yapacağı
ilçesi
##lon
onlarca
##tiş
##PG
yanıl
Yarış
direktör
verip
##sunun
##akal
##artman
yüzü
Ce
gittiği
##ment
doğu
Kaynak
bürokr
Teknoloji
Müca
dedin
yurtdış
deme
hayırlı
Bölüm
##ille
adında
72
topluluk
##cın
çevresinde
##aklı
İspanyol
arkadaşlar
birbirlerine
sistemin
TH
Kendine
protein
##duktan
ceb
örneğin
Adım
komisyon
Deprem
##üyorum
meclis
okuya
gemi
topla
Şunu
kaynakları
anlıyorum
bardak
Hele
çalışmalarına
Belediy
hızı
Det
çam
yaparım
fan
##pınar
##liğinden
izleme
Müş
Perşembe
perde
kullanıcılar
kültürü
##iyordum
asgari
kullanılıyor
rahmet
sizinle
##imizle
Mağ
sende
Siktir
##emedi
##ılıyorum
akım
##irmi
gerçekleşecek
CEO
köprü
Ez
ikil
Odası
City
##ulacak
incelemek
Baykal
bulunmuştur
yumuşak
kullanılması
tüy
kontrolü
Alk
Olur
Xiaomi
tarihine
gerekecek
yapmaz
sandık
otop
Özdemir
beklet
sağladı
UE
ettiğimiz
zemin
##erler
koku
baraj
##oda
dayanıklı
haliyle
Olmaz
uzaklaştır
Oğlum
Zeynep
##kilat
manevi
bütçe
Birlikte
##azarı
bakıldığında
Temel
cennet
kazanç
1000
hatırlıyor
direkt
##tle
sınırları
Dünyada
##amaş
##alisyon
geçirdiği
##ısın
##yaş
##IZ
sorusuna
oynat
fazlasını
olursanız
Sistemi
çoğunlukla
Maliye
vurguladı
odaklı
Yaşa
iftar
Mavi
gördüğüm
bebeğim
sistemini
Pop
yaşadı
nci
##ilmişti
istiyorlar
ediyordu
eğilim
aydınlat
Gran
Çarşamba
Hoca
akademik
Çoğu
##led
Şük
vermiyor
gençler
keyf
##ilirken
ülkeyi
Tol
görmedim
Enerji
değişiklikler
açığa
5G
sözler
##ekat
Düzen
çektiği
dır
oynamak
Soğ
##yaj
Blu
atış
Tör
Bec
Lib
atılan
ötesinde
ayrıc
değilse
İnşallah
ocak
Herhangi
##ebileceği
##ılmaktadır
aşamasında
##SY
geçtiği
sordu
duyuyor
yardımıyla
gemisi
ekrana
Bet
iOS
tahliye
tuta
Önümüzdeki
TÜRK
##liyorum
söyledin
neyin
gelerek
bulunma
##umda
sik
araştırmalar
kendimizi
şifr
Tanı
çırp
##cağımı
##ydın
sanı
81
##tip
uzaktan
##dıköy
##kent
metr
ihanet
olduğumuzu
Nitekim
Martin
Fiyat
##irse
pazarlama
düşünmek
belirsiz
idari
göreve
tay
çalıştığını
sözlerine
görevli
aldat
Muğla
bilmem
toplantısı
Çiçek
bizde
İsa
tekli
Richard
burn
Teş
ant
##leki
Sahn
çirkin
sözleşme
etkisiyle
##fan
##aport
çalışılmıştır
##andum
##öv
##eff
##acası
uygulamaya
donanım
anlata
Ora
şim
adil
##gatif
NAS
##urda
galibiyet
htt
Mahkeme
patlama
taciz
##mayacağını
bulunduğumuz
yükseldi
havada
Sonuçta
Dağı
##wa
##ıldım
almıştır
Note
yönettiği
diyebiliriz
Yüksel
ülkeleri
Suriy
yolları
kararlar
##umuş
##kest
kilis
bayr
Ley
07
VE
Oraya
aldığım
##onavirüs
KAR
##ırt
öldürdü
Buradaki
zorla
##efendi
##landırıcı
idare
Kadıköy
sevilen
##tap
anlatmak
##layı
kızlar
miktarı
##ted
sahada
Snap
##mama
##ebilirim
vs
toh
Olim
Kontrol
Siyah
##etle
romantik
##bank
miras
##LI
##ganda
##iyse
##önü
##lendirme
olursak
varken
hayv
konuşur
##tüdyo
Sekret
mimari
uydu
Akın
Sinema
cerrah
yönlü
görülmektedir
eme
##mene
aradı
Şans
##lıkların
##ebileceğini
yıllarında
çant
##manıza
##oli
##uyan
##general
müzisyen
nadir
küf
kaba
kopar
öğrencisi
yaşar
yağı
kurtarmak
dikkati
sürecinin
samimi
UEFA
##kon
##otel
Real
##sis
Alp
##Tİ
fe
yaşamı
çekirdek
muhabir
##AĞ
Çab
adama
vefat
veriliyor
##ASI
jür
önemini
istediğin
literatür
##ikmet
##uluğ
ente
yaptıklarını
kıyasla
vadeli
##unuza
şov
açıklamaya
GT
birileri
ışın
tesad
yıldızı
mevzu
##BB
yaptırım
Obama
edilerek
söylediler
Belli
kendileri
gitsin
Malatya
hedefi
konsol
Bol
çür
Bon
##tının
yapıldığını
Saldır
sordum
Gazetesi
kalitesi
rahatlıkla
getirildi
##İYE
Pe
Des
700
göky
Kanal
##MA
filminde
heyecanlı
anlayışı
organize
##lıklarını
cuma
alem
olduğun
Doğal
varlığı
göğüs
Cengiz
95
##yaspor
Sup
Erdem
Hayal
yürütülen
##inizden
atmak
olmakla
##lanmak
adımlar
borc
sonradan
##mun
yaşadık
Ortadoğu
şahıs
Gezi
Halil
gerç
Üret
adamları
yetkili
parası
gökyüz
diliyorum
##lusu
kurşun
Şüph
Ep
##iymiş
Toplam
gibiydi
Kazan
Rab
olacaksın
mask
duyuyorum
hazırla
tamamı
##maların
girdiği
##tıkça
Müh
##ğrenç
Gülen
doku
bekliyorum
kuşak
##ford
olmaktadır
Batman
ayağa
##40
protokol
Meydanı
kaçınılmaz
kaydedildi
euro
gönderdi
yürek
ifadesini
##oni
sizler
##caya
Ur
yılların
Evren
dönüm
Not
TC
iğ
Bill
Televizyon
İşe
Şube
görmüyor
##idor
eşsiz
peynir
teknolojik
Görüntü
oksi
sos
yüzyılın
suçu
Hazine
davası
lise
aldıkları
verilmiş
AY
fı
##vey
sergi
soğan
lezzetli
Akıllı
burç
hepimizin
oyuncuları
listesi
düşünüyoruz
Milletler
Vey
bakıyor
yazmış
Brezilya
Koş
ölmüş
olas
##amin
uzmanı
Saf
şaka
aldığımız
satır
Kimin
62
Üs
##temel
neş
bizlere
işim
kitapları
sağlamış
##tikten
milletin
izliyor
yaprak
kurma
##sünü
Cla
bölgedeki
Mosk
döndür
eskiden
başlattı
gerçekçi
##cağımız
##12
##ivan
imaj
suya
artırmak
eserleri
##ınç
harf
Araştırmanın
toplamda
kapsamda
mağaza
varlığını
kuruş
macera
##ory
##SD
Organ
##anne
söyleyerek
baktığımızda
şiddetli
tadını
Nereden
programında
görüntüler
sürüc
aşkı
meşru
biriydi
kılı
bekleme
getirilen
His
CO
##TV
muhalif
##iver
##unt
##etleri
##amayacak
Engin
mol
##larımızla
zararlı
dediğimiz
İsviç
bağlantılı
kalması
olanların
##iro
güle
gittiğini
katılımcı
##başka
##maraş
hoca
66
raf
teknolojisi
baskın
bon
##emeyiz
naz
##ESİ
Yabancı
ülkemizin
##iliğin
düşünen
Tren
çektir
tuvalet
##acaksın
yaşta
gördüğümüz
olgun
Kahramanmaraş
delil
ağab
##memiştim
Yargıtay
Pardon
##ilerinde
füz
ispat
çıktığını
##izmi
##leştirme
bellek
Ref
devir
##lerse
Acı
Wor
domates
##eliğine
aldın
sürecini
##çilerin
doz
##flix
öğrenme
##larınızın
suyun
##stra
projeler
Henry
Avustralya
##layabilir
Gökhan
masraf
haftalık
Acil
Abdül
##Dİ
sistemine
gev
oyuncak
sırala
hissede
##uth
Bugüne
alıyorum
bırakmak
##fez
etkiler
##calan
##rey
Erg
koordin
partisi
Enstitüsü
Şanlıur
çıplak
depresyon
King
içecek
Şiş
sokağa
##tral
blok
vurdu
Eg
77
Dam
gittiğ
ayrılan
Arslan
tarihe
helikopter
##ff
zorundayız
metro
Nil
lek
meraklı
şeri
##madık
Hap
dizinin
istihbarat
biliyorsunuz
adli
nik
çeyrek
Özer
gitme
Vi
lu
sponsor
omuz
yardımı
buçuk
##sad
tanınan
Manisa
##low
yaratan
başıma
barın
altyapı
ayrıntılı
Kum
##abilmesi
Alev
##uki
söyleyecek
lerde
planda
Ron
##ovy
çıkmaz
Temiz
##ayalet
kaydeden
Bende
ert
##LARI
görünür
AMD
##St
diyalog
işle
##diğinizi
algılan
Jer
Ertu
romanı
Mod
kek
Yorum
piyan
ölçüm
2024
dünyası
##tuğunu
çeneni
##laşması
yüzünü
vermez
düzenlenecek
Ümit
olanları
##lub
##ayip
vatandaşların
kızgın
Feth
yazarın
skor
bireylerin
şükür
gelişimi
##gresi
insani
Takımı
##ano
partinin
gözü
belirlemek
Tuz
okumak
kucak
Benzer
Hedef
talimat
##ışıklı
kimseyi
Moskova
##beri
tamir
araştırmanın
bilmiyordum
##ilyon
edeceğini
fırsatlar
işlemleri
sir
ofis
##bahar
Ertuğrul
Zafer
Mahmut
Akş
##stein
Franc
neyi
##unuzun
##tah
Nes
mide
anlamında
##leşen
Öcalan
seyirci
hareketi
desteğine
##lanıp
Alanya
şeylerin
##ebilen
sezonu
alacağım
General
Jac
aldır
Erol
##ilmektedir
Gazze
konuşmaya
numarası
gereksin
dönmek
BBC
68
ambulan
##oza
Selim
sözcük
yaşadıkları
arkadaşın
What
pap
Tuğ
afet
tehlike
##cül
Kel
oyuncuların
##ila
negatif
vereceğim
İttifak
ım
Netflix
tazminat
##top
hamle
Bayrak
leh
yaşamın
hafız
acele
konuştuk
Tük
##guluyor
gündür
gala
##üydü
açıyor
tabak
Christ
çeliş
niş
sorunların
SON
şekli
muay
suçundan
öğrencileri
Fırat
##sika
##TE
geliyorum
kalıntı
olmalıdır
Birleşmiş
İçinde
devleti
koyuyor
aşamada
##mişler
coğrafya
vb
yaşadığımız
belirlenmiştir
sizden
Plus
Post
hazırladığı
##vert
artışı
online
vuruş
Cap
AS
Pal
##sinden
inanamıyorum
başbakan
##ansal
Alış
plastik
76
##çileri
fabrika
Demirtaş
USB
Şikayet
irade
halkının
##yu
Mücadele
aydır
GÖ
Nic
##anam
##anların
zihn
Usta
yazma
##ulduğu
aley
bölümünü
olayların
Belç
minik
açar
Güncel
cadde
seviyede
##iğe
haş
##Lİ
##amadı
##aliman
olmasından
anlıyor
Mimar
Şeker
kimdir
Sil
keşif
Mik
yazılmış
Endiş
Cemal
araçları
istemem
yapacaksın
filminin
saatlik
artması
yetmez
ilişkili
##ence
##çü
kentsel
sıklıkla
Yayınları
##lilerin
##mekle
##übe
##anya
yapıt
bulunmak
severim
rüy
##omb
##ersek
yaşıyoruz
yönelt
anayas
çocuğa
alev
tıbbi
bulma
Şaka
zamanın
boşluk
ul
Madrid
vitamini
Los
şaşırtıcı
Teb
İd
Denizli
İmamoğlu
keskin
çadır
Anal
terap
midir
Günde
fakir
seyr
61
##mıyorsun
almıştı
sağlanması
##ANB
düzeyi
güncellem
ikiye
umu
Tel
yolun
yavru
63
Affedersiniz
zira
modelleri
kütüphan
Sha
farkına
bayrak
ışığında
##eğini
##ücük
eh
yut
##PSS
Şanlıurfa
##iydim
##ect
neye
Dah
Mich
söyleyebiliriz
Maalesef
yapacağını
yukarıda
istatistik
Daniel
gazetesi
üste
Kalp
yazın
##tüğünü
##irsin
altından
##esince
söyleniyor
##delik
alanlar
diyelim
Edi
beyan
sistemleri
##nie
##şeyi
##istler
eklen
Charles
arşiv
odasında
mülk
erte
Nih
##EB
ayının
inşallah
bitki
konse
##eşme
Motor
Çabuk
lit
güvende
Hollywood
karın
söyledik
yüzleş
hastane
ulaşan
istiyorsan
##ço
gitmem
lak
ekledi
kurtarma
okuyucu
hekim
sevgilisi
##imet
özelliklerini
Kahv
limon
kadınlara
Büyükelç
##ıpır
tamamladı
Mobil
##BI
Salih
Serdar
##doğ
gibidir
Avukat
hızlandır
açmak
mıdır
gereksiz
çikolata
##ayolu
69
##deler
Holding
bambaşka
hop
kurucu
Avustur
muhtemel
savaşın
Yerel
başkanlık
asit
koalisyon
çalışanların
beste
zamanki
deri
##cher
gürültü
Nick
iyidir
raporu
Gümüş
73
Bakalım
başını
hatırlıyorum
rah
##amın
daima
he
sorusu
Asker
##antol
yuv
görüntüleri
Lat
Mün
rejim
##gane
##ırız
boyn
Durum
polisi
##au
##rian
##luğunda
##enkul
aktaran
nitelendir
bulmaya
teklifi
##ümüzü
çalışmaların
yüküm
sitesinde
sonuçlarına
Bes
##ANBUL
##cilere
Edir
çocukluk
açıklamasında
Sevgil
sonucuna
geldiniz
##üğü
##madın
Gor
yapmıyoruz
getirecek
yapabilirsiniz
salgın
soruyor
toplama
yaşına
gitmeye
medeniyet
Doğum
that
Mükemmel
satan
ağırlıklı
okuyan
gölg
kullanmaya
fizik
manzara
görünüyorsun
78
##dere
##şak
mesafe
kızar
Etraf
erkeklerin
doktora
Gem
##unum
düşünüyorsunuz
maddesi
##diğinin
##ılırsa
ışığı
##layabilirsiniz
Milliyet
doğdu
tersine
Merk
kesi
Times
kapak
gösterilen
##eğiyle
duymak
Öğ
çözünürlük
yerin
kişilere
##Station
##eceğin
##umuza
Gönül
Kitab
havaya
kişiden
aracın
yaptılar
ettiklerini
araştırmada
Meksika
##pu
esin
sıkıcı
çamaş
##imizdeki
ortamı
Ağr
seçimleri
yetkilileri
kaya
##sür
yıllarca
İN
Bart
dağılım
##yın
##göz
##mayız
yapımcı
IMF
etmeden
##70
yaşandığı
şeytan
Çat
ölür
vermem
Gol
nöbet
değerlendirmeler
fotoğrafları
hobi
başkent
Berk
Matt
##lasman
##adam
kilometr
Ec
Bost
##ben
çaresiz
uygulamalar
Öldür
inf
Yahudi
düşer
değişiyor
##anıp
koruyucu
kaldırıldı
namazı
mülte
rit
Gazete
Gali
##diğimizde
ajan
ini
başladığını
Efendi
çıkmıştır
milliyet
döneme
oynanan
Sonrasında
çet
Yılın
koşulları
dinlem
##ünce
Büy
sizlerin
verdikleri
caz
kitapta
Sıcak
durmuyor
Özcan
##gue
##YOR
uzakta
oluşturmaktadır
##raç
temizlik
akraba
##pp
##larımızdan
Şimşek
Tho
ağırlık
laik
Engel
bilirsin
gruplar
sıcaklık
##feri
sindir
hallet
harcama
İçin
intikam
kalkış
gençlerin
okulda
yoğunlaş
olgu
##ebilirsin
rengi
##içe
Abi
itha
hormon
Sarayı
karşılığı
bölgesel
traj
sokakta
Oldukça
##uklu
Rock
Cha
Türkç
##ırsa
Belg
tamamlan
söylemiştim
dönemine
düşmüş
söylüyorsun
Vide
olacaktı
okudum
Ekrem
Fre
##iner
defalarca
oturuyor
##ılacağı
kole
AV
sayılır
olmalısın
söyleyebilirim
yapılandır
güncelleme
cumhurbaşkanı
##cası
sayısını
BAŞ
yedek
sorumluluğ
Aptal
##antaj
tüf
yaramaz
ifadeleri
Turgut
Kaş
tanıma
##ward
masaya
imparator
vermişti
sürecin
##linik
Polonya
##ella
Mardin
Üzerine
kurucusu
toplanan
beklemek
##rick
sözünü
##ümün
yegane
seslendir
hizmetleri
kade
vaat
##veç
çıkaran
##usal
cenaze
Konser
Levent
iddialı
Libya
##ünüzü
Çöz
Cat
Jenn
oluşmaktadır
ardı
makyaj
deh
Şuna
Kredi
##larıma
sizlere
Kocaeli
##ukatı
edilemez
halini
Tu
görevlendir
sebze
İSTANBUL
inanıyor
Sad
koymak
anayasa
Bing
##gini
kadınları
macer
Fet
konuştuğ
açıklamalar
soruyu
##ech
talebi
Şiir
aşkına
##larınıza
hapse
Basın
##own
##ılmasının
fos
ga
Adası
bo
Bilgisayar
Mete
TO
yapıyorsunuz
oluşturmak
sömür
##arik
zamandan
acımasız
Ant
Kartal
##beral
##yak
tüketici
Buz
vazgeçilmez
Ca
Sınır
destekleyen
1960
Acele
redded
Ayr
başlık
yükseliş
Neyi
Ders
Sovy
yararlı
haric
##leşmesi
yakıt
hoşuma
##atlar
kendisinden
Lin
korunması
politikası
##drom
##enlerin
giyin
##diğimizi
boğaz
##diğince
edeyim
Taraf
##kab
İsviçre
düşünceler
Lar
baban
Göster
fav
İstik
motivasyon
soğut
oyunculuk
##ÜR
Kenan
uçağı
##siyle
##dükten
##leşmiş
Hes
istiyorsunuz
##lenip
istemedim
##36
değiştirmek
Adnan
Cevap
aksiyon
sarhoş
Afganistan
##azakar
izlem
çözümü
Şöyle
My
##arl
esnek
Yüce
PlayStation
benzet
1970
##sy
yöntemleri
köşe
##ting
Küresel
dostu
Şarkı
##duklarını
güçleri
içme
kuyruk
kasaba
bilmiyoruz
mümkündür
sürecine
boyun
##FT
##paganda
lık
##isy
kurb
şirketlerin
Diyanet
buldun
durumlar
borçlu
geliştirme
alacağı
Oli
sonsuza
durumunu
aşağıdaki
##İH
husus
atlat
süz
Mert
Yay
eklem
baktım
tarihte
Cep
##mayalım
dib
anlatım
Leyla
kenti
Ask
referandum
Chan
190
düzenlendi
çekip
eman
##has
merdiven
hi
göv
liman
AD
Bos
eserler
Direktörü
zorundayım
##bert
aktardı
Yüzde
Lee
mahal
Muhar
yönetmeni
fikrim
bira
##urdu
boşalt
muam
kayg
##atın
Kerim
adlandırılan
Ersoy
##epyeni
müsab
ressam
Faruk
##lanın
arke
alıcı
Ni
başara
sahipleri
isteği
##TI
saldırgan
cihazı
komedi
deyip
kökenli
Kamera
frek
erişilebilir
Görüşürüz
Devleti
bulabil
##dragon
##labilir
ulus
çanta
çatı
eleştiri
patates
##masa
içeride
##tic
Örgütü
##emde
##takım
##olojisi
Soğuk
74
Yatırım
boyutu
efsane
kuram
Piyas
geçip
görülür
gençlik
Yolu
hissi
etsin
##şah
yüze
diyoruz
rica
##UT
##cy
mm
##asıt
Okulu
İlhan
yo
eli
edebilecek
haftanın
defter
denir
Hab
LG
geb
beyler
##mik
aklına
tutuklandı
yapabilecek
Ran
başarıyla
İK
##dıma
dola
Ted
##weet
Silahlı
üreten
Köpek
Edirne
sağanak
aradım
Peygamber
Ciddi
atar
Tamamen
detayları
cemaat
oğul
taksi
zamanlı
ertelen
şub
seçimlerinde
öd
sendik
Yalnızca
Yeniden
derdi
Geliş
pandemi
devre
THY
İÇ
senary
##otosiklet
başlamıştır
Şampiyonlar
Sahi
yazmak
alındığı
Dk
burun
##EZ
##ilin
stüdyo
yardımcısı
Fatma
konunun
79
Dor
tela
gerilim
##cıoğlu
idam
Bö
abi
alabilirsiniz
Önceki
kaldığını
bozukluk
yakalaya
zeytinyağı
Nuri
bine
isterdim
İHA
başlandı
yazılan
bulup
Gidip
##geles
##üphe
etkisiz
##akk
reak
mizah
planlıyor
sef
komutan
organiz
çıkabilir
göreceğiz
denildi
Anlıyorum
vahşi
yanlı
Diş
iba
sağladığı
Beyoğlu
antrenman
bedeli
etmesini
üstlen
ileride
twitter
çocuklarının
Erken
oluşturulan
kentinde
öldürür
Medi
yapabilirim
kurulmuş
##esir
Turan
tuş
sırf
kanseri
##cunun
uf
##ümüzün
yayılması
##eto
##larımızda
88
##laç
Doğr
abon
Snapdragon
bizleri
##muyorum
toplantıda
Thomas
odası
dünyasına
problemi
##layabil
Tatlım
Projesi
Baban
bildiği
Zeytin
aleyh
##dikçe
yada
Zeki
edenler
seviyesi
ürünlerin
##eves
şoför
Bulut
##eceğimizi
by
derinlik
etmedi
kalmaya
arkadaşlarım
##okulu
Eh
hele
##ÜK
tün
başlamıştı
Dolar
parasını
kullanılabilir
oynadı
Nasılsın
şak
##liliğini
sektörünün
##ARA
köşesine
##ğinde
İhtiy
paylaştığı
olsam
seviş
Bl
180
burayı
nas
yatan
varsay
kullanıldığı
Evi
##mamızı
İb
FI
bölgelerde
kitaplar
Özkan
##ildiğinde
düşünme
polise
Ast
kost
Ürün
bildiğimiz
uğruna
Komutanlığı
##lini
##mith
Balıkesir
gelsin
zır
##ekiz
töreni
Ram
tarihin
zorlan
##over
##cağımızı
bırakır
koruya
programına
devamlı
Galiba
BDP
Araştırmada
##brek
Soru
durumuna
araştırmaya
İçer
##pet
##losuz
Ölçeği
yapamaz
Super
kısaca
çıkmadı
dedek
ihbar
Deli
cevabını
destekleri
deyiş
katılmak
parlament
bildiğim
Gam
sorar
müze
##SA
artar
Yunus
madal
##üyoruz
ülkeden
mutsuz
##aca
##BA
Kev
##eymiş
konaklama
MP
örgütsel
##iliğe
Fiz
gözle
yayınladı
türden
Yönetimi
##dön
Düny
aler
parma
##11
noktasına
denli
üzgün
Kalk
sih
##abilirler
silin
aşağıda
1998
Komutanı
kopya
geleceğe
Amazon
##layalım
listesinde
Esad
elektrikli
Angeles
##urumda
Macar
anlatmaya
cumhuriyet
Medya
vermeden
##eyt
Balkan
kocaman
##bolu
fah
Anlat
İster
iletiş
istey
Zar
itfaiye
Kabul
Amir
verdiler
izleyic
##ulma
değiller
##bas
##uel
yetenekli
geçin
Ty
BU
DA
Tony
Arn
ortamında
vitamin
başlığı
##oter
Şehit
fuar
##taç
##ansiyon
destekli
dü
uğur
##ble
##lenin
çıkarken
##aa
Avcı
anlamaya
82
bilinmeyen
nikah
Fah
eğlenc
rok
##sar
peşinden
gelme
FBI
sonuçta
##cinsel
Erkan
UN
muydu
bini
boyutlu
buydu
çalışmalara
yönetiminin
Hacı
içeriği
faaliyetleri
yorumlar
Ziy
Buda
pi
Haklısın
Jane
içten
84
kararları
işit
meslektaş
söylemem
sıkça
yönetici
canavar
projenin
##lığımız
propaganda
yapmanız
je
Bür
umarım
gelmektedir
Jose
durak
öğrencilere
sunum
olmadığına
##olab
teşkil
işkence
hayati
başlayıp
cis
sigort
olduğunuzu
bağışıklık
##ipto
disk
olabilirim
liralık
geçerek
kuralları
Sara
##fin
Clar
paylaşmak
##civert
unutulmaz
##akip
##ırıl
gerçekleştirilecek
##eliler
çalışacak
Etkin
##iriz
getirdim
binanın
işareti
şartları
İpek
##azzam
##ücel
iniş
isabet
görünmüyor
yayınlan
domuz
Dönem
sade
tef
açılması
hid
garanti
Bizler
yüklü
kalite
yazısı
##tığımda
zem
köylü
##ememiş
sürdürdü
çıkardığı
vakt
Akşener
milletvekilleri
seçeneği
şartı
rep
Bulgar
feder
maçın
avukatı
Ekonomik
olurum
kalmaz
86
CD
temsilcisi
oyuncunun
aylarda
erdi
dinleme
Ajan
soruya
sonuçlarını
işyer
kıymetli
çıkarıyor
canına
ilişkilerin
yazdım
##tiğin
olman
başlamak
##ull
hücre
Gölü
bölümden
Portekiz
ağrısı
Dayan
arkasına
öncesine
Polat
Hoşça
şarkısı
hang
yağlı
##kaz
kime
Pir
atmış
ifadesi
arayıp
ciddiye
Cihaz
minnet
kendinden
Programı
Hikmet
Dub
mahkemeye
Victor
##amızı
##eğeni
yayımlandı
AF
bilmeyen
yolsuzluk
istedikleri
Jean
##dığımda
##pi
Gab
##tiğiniz
Cal
bırakma
fırtına
yirmi
##lülük
gizemli
evliliğ
Koruma
##ümden
serp
şehre
yollar
ederler
##laşmış
dekor
Eğlen
açıp
duyuru
konfor
##dini
ihtiyaçları
bık
açıl
Temsil
tesadüf
yanıtı
İlçesi
##meyiz
kaybede
Nik
pasaport
##tığına
Sakarya
Yıllar
Kurtul
atöly
işsiz
seviyesinde
ihtimalle
Ele
Köyü
Türkler
Paylaş
müj
iktis
yoğurt
ekme
aniden
Uyan
zihinsel
Ünal
##muştum
sınırı
izler
telefonda
##UK
geliştirmek
vize
yoksun
##sınlar
Düğ
izni
ayın
Jeff
##ecik
Kusura
karşıtı
Ağrı
hafıza
##hen
MİT
Steve
##ındık
Annen
çekilmiş
buradayım
mesleki
önlemek
irti
devasa
araçlar
bekler
##gie
çevrim
kaynaklanan
istediklerini
çorba
ailesine
geçmesi
yakalandı
ısır
şekillendir
##ersem
teşkilat
Nob
dayanan
içeriyor
Bahar
##enleri
Hızlı
neticesinde
Araba
getirmiş
Megapiksel
seviyesine
Bağım
birtakım
Hakları
##ferin
kimliği
sıkıştır
üstelik
mıyım
merakla
Whats
Sw
vatandaşı
basketbol
Vadi
nişan
##hai
Uçak
rock
evrensel
çeker
##YD
Toprak
biçimi
ülkesi
görevimiz
##sterol
vücud
andan
serisinin
Ekonomi
koyu
##cım
TSK
düzeyinde
ruhsal
Sarah
##cal
##bap
tansiyon
##aları
dışarıdan
Sessiz
faydalan
kanaat
skan
1997
görüle
Elektrik
çizgide
YSK
kaldık
suretiyle
belge
böcek
düzenlen
affet
memuru
şüphe
Buy
##antolon
profil
Fas
kurdu
hayvanlar
soya
buluşacak
konferans
düşünüyordum
görevlisi
yaşanıyor
emr
süresince
kaybetmiş
bağlantısı
birbirini
##OT
haberdar
garant
bot
stil
adayları
Ze
##seydi
##ebek
Türkmen
artı
##ugh
Cez
kıç
Gördün
Step
##row
##eğmen
İşlem
heyet
İttifakı
öğrenim
Yakında
olacağına
üyelerinin
düşündük
##cevit
tencer
yolla
rady
bakarak
##jantin
cas
yaratmak
verirken
##ilmesinin
Musk
dinlemek
zihniyet
koridor
oranları
Muhteşem
##viv
edilmektedir
fotoğraflar
hamil
haricinde
okyan
Key
manzar
istenen
83
randevu
şartlar
girmesi
Körfez
Scott
yepyeni
haklarını
getirerek
DS
solu
##lediğini
terey
Leon
söylemeye
Ajansı
##aze
planlama
ec
##etli
hareketli
milyarder
göstergesi
gözlerini
##logan
sanatçının
##faf
##ove
Belçika
ilgisini
kli
##EŞ
Yum
karısı
##lüt
Şam
Oktay
kalmayı
annesinin
derhal
Fred
ürünün
Kalkın
yaşındayken
tarifi
Plaj
##mıştık
##TK
hayali
Taksim
çalıyor
parçaları
##dıran
Yedi
##LAN
##stık
taşıya
çalışıyorsun
mater
Vir
yakışıklı
##emediği
düzeni
üzüntü
aşağıya
yanımda
##laki
üzeri
müzaker
Ecevit
tehlikeye
amiral
katlı
kullanıcıları
adamla
muz
Hor
başarısı
kuma
polisin
edecektir
##iyetle
Saçma
market
İkin
##elekom
bırakan
filme
##mışsın
fit
şaşırt
yaşadığını
söndür
sormak
Tal
radikal
zann
sürülen
girişimi
NASA
verilerin
sanatı
yapılarak
##EV
tepkiler
##tığınızda
fas
yon
Güz
odasına
##FF
##que
etmekte
etmenin
Görünüşe
şaşkın
Reh
mutluyum
gelişmeleri
köle
çekerek
Wi
görünt
##field
burda
YPG
değişimi
cihazın
##das
mail
Çam
##duğun
girişi
şirketleri
İrlanda
duygusu
derim
##ÜL
sevdim
Ülkemizde
tedarik
konuşulan
hek
çıkarma
özgürlüğü
##ft
bulgular
##dını
org
reç
Kos
satışı
değilmiş
##afak
belirlenmesi
bilemiyorum
sayılmaz
ortağı
Covid
bakıp
önündeki
ertesi
fırlat
olmanız
isimlerin
Eser
batarya
##oley
olaya
etkilerini
kısmen
olmamız
sesleri
tohum
imam
çıkmıştı
çerçevede
oldun
ekleyin
##ower
işley
öteki
ihraç
bölgeler
##mayacağı
esir
Fen
##stil
Siyasi
sertif
Olamaz
üş
toprağa
Neh
gideceğim
eğitime
##matı
bulunmuş
Avusturya
dudak
Mesut
Dans
Kısacası
gözleri
##ras
71
operasyonu
alar
Arjantin
müdürü
seçime
##alılar
##mazlar
##laşan
sayısız
geçtiğini
Olimpiyat
Sami
Çalışmada
yılan
##sten
ziyarete
uygar
çoğunluğu
söylenen
etkinliği
razı
suik
Ryan
Bilin
Ark
kullanılır
sisteme
Pınar
geneline
##MS
##GK
Ir
##diğinizde
Ded
banyo
fatur
Kişisel
iyisini
Çankaya
yapmıştı
ER
##haber
87
Süt
seçimlerde
kalsın
Kapa
yasağı
##che
veriyoruz
Gizli
gelmedik
##eleş
bilgiyi
Stu
##ırnak
gerçeklik
trilyon
##emiyoruz
uğrat
##lamadan
sahaya
##eğinden
dergi
dernek
Madem
ambulans
rot
Şampiyonası
##uck
Ren
araştırmacı
Askeri
bulunmuyor
kestir
hain
şeylere
Sabancı
organik
vermedi
çalışıyorlar
kayıtlı
Marvel
dağıtım
doğumlu
Öğretim
##emedik
Çevr
AA
Profesör
tadı
Sınıf
izn
deneme
##leği
kitabında
gönl
dersiniz
##attin
with
yollarını
tarihini
dersi
Yürüy
yaptığın
dikkatini
Biliyorsun
oranla
mün
biyolojik
büyüyen
Yaşlı
dakikalık
bası
sürer
##ımızdan
##ander
bahsediyorsun
konuşmada
keşf
sebz
nazik
Tekin
Nas
bağırsak
kaçtı
ihtiyacınız
deniyor
Mag
Hi
MS
kapsayan
açılı
##LA
ekstra
sürdüren
çözül
görebilirsiniz
##com
havaalan
rahatsızlık
yapamam
almadan
kurtarı
Eur
Veli
Pamuk
kendinize
Elif
refah
Game
çıkışı
tabanlı
##menize
kapital
##rası
##isten
##acan
KK
Nazım
iddiaları
##CO
89
güv
##lahi
katılacak
elem
Hy
Hu
##ularak
oluruz
gözyaş
bakter
##ayıp
içerisindeki
gas
rev
semt
Kars
Şimdiye
1995
erkeğin
santim
##une
görmezden
Güneydoğu
sunulacak
alıyoruz
##şan
odada
çalışmalarının
Dijital
kırsal
adımı
mesleğimiz
##osh
aralı
başladılar
götürdü
Suriyeli
deplasman
karara
##ited
ch
başlı
bulutlu
Hac
Özal
silahı
yarattı
##istiksel
##memişti
peşine
konusunu
##Ah
Yapı
olmasıdır
uyuş
alalım
##iser
1994
aramızda
##ekte
##luğunun
kutlama
Altay
##layınca
muhas
Kob
##ysanız
Rod
ülkelere
verilerine
konsan
muk
Mesaj
kred
##amak
1950
kaçan
##edakar
bulduğu
dönmüş
hastası
fiş
##ebir
dışından
##İYOR
Anladım
durumdan
Kerem
##rit
oksijen
ailen
##inle
##igh
kütle
sarf
##koç
##dolab
Hon
Pakistan
Form
mağlup
miting
##üng
salak
##ılda
##buki
karıştırın
Anton
düşünmüştüm
Ermenistan
duyan
Bis
doları
böylesine
paranın
Teh
Soylu
gerektiğine
paran
Alper
##seler
tarafın
Olan
eşinin
Aday
##cağından
yaklaşımı
sad
istismar
gerçekleştirdiği
sunul
saray
maça
Danny
oynar
##gas
makine
##rospu
Ödülleri
bakıyorum
seçildi
Smith
Yarım
cumhurbaşkan
beklentimiz
Win
riskli
Web
sahibinin
merhaba
bilinçli
##dığınızda
sh
Genellikle
Kullanıcı
kurtulmak
Müslüm
Kongre
mütte
ilçesine
iğrenç
Alb
meg
örnekler
Yağmur
İnşa
verilir
dedektif
Faz
Şur
hastalıkları
açılacak
##çısı
sırasıyla
Ekip
Müt
çıkarılan
makinesi
con
doğrul
sadık
eksikliği
##tayız
Hotel
yerlerden
Aslı
Lan
##UZ
söylüyorlar
Dönüş
hamur
tuttu
çamaşır
gerçekleştirdi
##AZAN
Kans
geçmişi
yapış
etkileye
koyup
ergen
Num
cüz
muazzam
fotoğrafını
ödün
gündemde
durun
aradan
yapmadım
Cer
Cinayet
aileler
##heim
Patron
98
liderlik
alışkanlık
Elaz
ölüyor
slogan
planlanan
olmamış
yorumları
pislik
##tian
##mazsın
gördüğünü
vas
Anlaşıldı
kanlı
Hayatta
Norveç
yetkililer
eti
elden
Aya
aktarı
Biden
##lamadı
görüntüsü
##iğin
Günlük
Trans
##gazin
katkısı
Köş
sorularını
##SO
96
##omotiv
ilişkinin
boşa
İşler
laboratuvar
tanıştır
evvel
etkileşim
ekranı
##üldüğü
Camii
##ebilmesi
Klasik
Durun
Vek
YAP
ölümüne
animasyon
gördüğünüz
seslen
haftasında
gerekmiyor
kast
yapıya
World
##bal
kuran
ordusu
oluşur
malzemeleri
##amadım
alanlarında
##landırma
çalın
gelmesini
kalkan
Şerif
görüp
Elazığ
markası
sta
muamele
huzurlu
##ilme
fatura
##tecek
okulu
yapmıyor
istediğimi
çalışanları
telefonlar
Muharrem
##ilebilecek
mücadelesi
##lanmaktadır
yazmaya
##ılabilecek
Çakır
##yaman
barındıran
zan
işlerini
düşündür
Mühendis
açısı
sez
##izler
##memiştir
Vah
arkasından
Dostum
küp
##şu
İyiyim
##yolu
Kayı
##simum
üstlendiği
Detay
bıraktığı
emanet
Memur
elimizde
Zek
Güçlü
iskele
inandır
koyduğu
çalıştık
##uke
##muşum
Gazetec
serin
##ERİ
ayrıcalık
yur
Mol
##kie
başlaması
çeş
Şeref
NE
değerler
sıralarında
Sezon
kazandığı
##hret
tekne
coşk
Kırk
Hakkari
Bre
incelenmesi
Güle
açın
##win
babanın
ilişkiye
Dairesi
ekley
seçilmiş
Gay
Lor
etnik
bağlamında
Steam
hatırlatan
EN
sanatsal
##LU
YÖ
özlem
##cay
çalışanlar
süp
varol
etmeniz
##derek
kadınla
gönderilen
##amıza
Başk
bulabilirsiniz
Elde
Okan
lere
surat
Nok
Bilmem
Duygu
##ülerek
Yüzyıl
##izza
özelliğini
ailem
içmek
##ors
##App
##biliyorsunuz
List
yaşı
katman
##bini
##tre
Katılım
##azer
##derim
Sy
##izin
Üniversite
larda
##iledi
tahta
##dığınızı
tanıdık
arkamızda
saldırıya
##chester
Bazıları
borcu
kavuştur
##vekk
şeylerden
##omen
reklamsız
aldılar
##madılar
söyleyeceğim
had
yayınlanacak
##uvarı
Araç
incit
seksi
Gerçi
SP
##lana
Ras
emeklilik
##enekon
makul
nitelikli
muhabbet
başlarında
turu
Yardımcı
molek
Nefes
panik
##uri
abar
Karş
##ekler
öldürmeye
seçenekleri
stok
Tasarım
tabir
öbür
West
yapının
örnekleri
hattı
Seri
hizmete
toplumu
talih
desteğiyle
gelirse
mezunu
toplumda
##diki
Tedav
düşünmeye
Şaş
duydun
##bilim
duyulan
tapın
ex
uyk
gittikçe
prov
dediğini
teşhis
##dumuz
şampiyonluk
##gon
kimler
VAR
vermeyi
sosyo
1996
kurtara
##unk
karşıt
##latan
Ergenekon
yumruk
##cular
Tunç
habere
satılan
Kevin
##şap
sözde
##lanmıştı
iddiasıyla
Uygulama
burs
başlatılan
128
kamerası
çeyre
Kök
##lemesine
tıklayın
oldular
Jimmy
isimlerinden
tamamını
partiler
##val
Bekir
alakası
inat
mısır
##cuk
##rip
##mus
saygın
##ırdı
motosiklet
bankacılık
Katar
inin
yayılmasına
##ÜZ
hastaların
Tart
müte
##balı
ruhu
mücade
##pektif
unu
uçur
##ace
sesli
ibadet
Hel
ulaşabilirsiniz
##iliğinden
olmayabilir
etmemiz
tasarı
tehdi
insanlardan
Sir
haydi
katliam
trend
##düğüm
##layacağım
##IA
almıyoruz
##lunun
Hop
##zem
900
içerisine
Aksi
Birisi
kılan
tanıyorum
harekat
öldürüldü
sezonunda
Sing
##barek
çekildi
ağac
tüketimi
elçilik
hepsinin
##eceğinizi
Ye
oradaki
gezdir
kuşkusuz
kirala
Dede
kont
ge
vadede
başlayarak
mıyız
hapishan
kokusu
cm
kararın
oturduğumuz
Est
göstermiştir
sevimli
Kandil
Hepsini
Milyon
##yici
##malarına
derler
Volkan
çip
##ilmek
elindeki
istediğimiz
92
işg
Hakkında
kullanıcılara
Göç
##anılan
türleri
kurs
üstesinden
salata
pres
hazırlanmış
diğerleri
yapmadan
Games
Uzmanı
yemeğe
alçak
kişileri
nem
YTL
viz
öneriler
İL
klav
sanatçısı
Us
##sünüz
algıla
##iyel
bakanlık
Va
hüzün
##tüel
##larımdan
##olan
##üşvet
sezonun
topluma
mahv
Mid
##ladılar
kaybettiği
##calı
##alın
deyince
Tahmin
##acaklar
taht
##omp
Jor
##ruba
anlamıyorum
çağrısı
saniy
reng
yanından
yanındaki
kurumlar
kazanacak
borsa
yaratık
Dedektif
çekme
ilişkiyi
çevresel
evinin
vuran
konsept
arıyorum
olabilirdi
projeleri
kablosuz
mantar
fedakar
mücadelede
##amızın
Mr
##lamayacak
##adet
##ğday
Fab
##üse
söyleş
WhatsApp
pişirin
Yiğ
büyüklüğünde
yürürlüğe
İŞ
Yarat
Gıda
bebeğin
##die
##ınızdan
programları
lacivert
##itör
verdin
tezgah
leri
tabl
hissettim
bayağı
donat
##kinden
şekeri
belgesi
Ölü
moral
öncü
babamın
edeceği
kötülük
Sof
Kate
örneklem
hayvanların
KD
##ımla
##kender
temsilciler
titiz
maliyeti
kele
bilinc
Oyunun
yanıtını
korumaya
##eron
##abeth
hastalığın
##ciliği
burcu
İstiklal
riskini
aramaya
puanı
düşünmüyorum
önlemler
Kalkınma
koyan
Çocukların
düşünülüyor
etkilenen
##ational
Will
Afyon
Eren
denge
beklenmedik
yaralanan
##dığımızı
varyan
grupları
yarısında
Pil
Gra
yemekleri
frekans
##düs
##nu
##mese
yapmamız
alınıyor
Böylelikle
saatlerde
yazıyı
durumları
açıklayan
kolesterol
yılını
çekirde
##lamıştı
ayıp
biter
almaz
##lamam
Ulus
konuştum
iyiydi
telefonla
tanıklık
vergisi
vizyona
kalbi
sızıntı
istatistiksel
tatili
haksızlık
##lanmasına
penaltı
Ayhan
uygulanmıştır
niteliğinde
şeffaf
van
görevden
kıt
güçlük
Tap
korkuyor
uygulanması
açıklamaları
hareketle
AM
kusursuz
tir
##erre
yapayım
kirli
Francis
Tip
İkti
sorunlarını
değerini
İkisi
teorik
sars
giyen
okuyor
##lına
koronavirüs
partilerin
iPad
düştüğü
seferinde
Değişik
Ozan
##olar
Eric
Parlament
Örnek
ceset
titr
Bakır
herşey
hikayeler
tasv
Endişelen
öyküsü
yıp
inkar
##oleybol
##RA
##sama
Doğa
##bie
sözcü
##bası
yöneticileri
damg
##ruz
nar
Kop
ümit
kırıklığına
##ettin
##OM
küfür
Gökçek
Başta
tüp
##gur
yah
söyleyin
bakayım
iktidara
annenin
annen
hastanın
şikayetçi
serü
ekonomisi
Surviv
Anna
kentte
bilmez
atarak
vakıf
karabi
##ody
açıklanan
zul
Çukur
grubunun
komut
Çö
##kes
trib
up
editör
ağı
Philip
güldür
Day
Show
kalmıyor
##cus
kazanmış
espr
İnsanın
##cağın
güzeldi
demiştim
gitar
böbrek
hatt
97
kaptır
##jik
gönderdiği
incele
##ACAK
konudaki
Enf
geliri
Birinc
materyal
müst
sektörün
suçlama
kazanıyor
gezin
Just
MI
##melik
Otob
##ote
##dinde
yaratıyor
kendisiyle
Haft
öncelikli
RT
Dür
koymuş
İhsan
değişir
keşke
okurken
hani
gecenin
yaptığınız
##layacağız
Meral
##abileceğiniz
giyim
##ınıp
konuşması
salı
İBB
Donald
İÇİN
##ja
elma
deneyimini
##omer
muhafazakar
savaşa
savunan
sonuçlara
araştırmacılar
tank
referans
Eliz
yarattığımız
metn
çalışmış
kullanılmış
fırın
fragmanı
götürüyor
giys
Yüzbaşı
Hakim
##ota
Meslek
sanatçılar
konuşmayı
##ıh
kazanır
Sk
piyasada
şeklindeki
ödülünü
hayalet
işlemc
yaşıyorum
planları
mühim
bedav
sence
şeydir
gezi
Arınç
göstererek
davranışları
tarihinden
etmekten
Meş
sanatın
biriktir
diyebilirim
uzaklıkta
##iciler
GPU
CN
sürdüğü
##uhan
anlamsız
Sözcüsü
konuşmasında
gri
faktörler
Tebrik
dönüştü
üçlü
pers
İsmet
hissediyor
madalya
ilerleme
Flor
oluşturur
getirin
zavallı
bakmayın
kuruluşu
##bilirler
yatırımcı
Hint
Maria
halı
##unlar
öldüğü
Boğaziçi
Zengin
dostluk
kostüm
doğrultu
çalışmayı
Lüb
düşünerek
##idin
seçimde
kripto
Nihat
##amanın
tekniği
eşcinsel
atom
bireyler
IMD
Gelenek
insanlığın
Derin
Melih
Yarı
Fl
##arter
##kıya
Eli
temsilcileri
##luğuna
niçin
Çinli
ret
##gıcı
dediğim
##uluğu
yaşaya
##ank
##tüsü
edebi
Adıyaman
Tik
gerçekleştirildi
kullanır
arar
##tıp
dayanarak
Sert
##ografi
##ansız
başlayalım
durur
Cinsel
sözlü
geçirmiş
faydası
Ziyaret
kongr
kamuoyu
fragman
götürür
Mini
arazi
dedikodu
1993
Rıza
nakit
Bırakın
gösterg
edilmişti
işleme
hiçbiri
sonuca
değildim
##tekin
##enince
##astır
##salar
dinley
tarihlerinde
etkisinin
GHz
işlerin
##oph
Carol
kore
paramet
##eleme
##olf
turistik
ilişkilendir
Kurtuluş
##yol
Test
Devrim
mav
iv
zorundasın
Yapım
kızları
Açıklamada
rezervasyon
müzikal
Sizsiniz
kampanyası
sendrom
##imdeki
kre
yazıp
##otter
mağara
salonu
Selah
How
##cını
gerektiren
olduktan
asist
kare
yaşayacak
aşan
küm
gönderildi
##ath
Yücel
çıkarıp
##gara
##ılgan
söylediğini
yapabiliriz
ları
yıldön
ellerini
##atörü
Mevcut
Yıllardır
öldüren
meme
solunum
kitabını
##dıra
üzücü
şüphesiz
işsizlik
##taydı
##sinler
kullanılacak
sayın
ci
diyeceğim
Reklam
Ceylan
Karaca
ayırt
##LERİ
yönündeki
tanrım
eylül
##pati
kalmayacak
Aşık
Bahçe
bırakmış
Kapat
Babası
acayip
##amm
Tamamdır
Maj
ucu
##çıların
duyguları
Celal
dolandırıcı
çalı
##ato
##CE
Demokrat
damla
ceviz
çözmek
cumartesi
atıp
##masıdır
açma
yayınladığı
Rize
deneye
cezasına
Vücu
önünü
hatalı
sunacak
gitmiyor
destekliyor
öğrencilerinin
arı
modelinin
##ont
girmeye
İskender
##api
mahvet
pantolon
fes
sop
##linin
döneminin
formu
jüri
ömrü
Gro
harita
sevdiğini
##sansör
Lak
##YK
kaynaklar
##ğine
görüşmek
servet
Aksu
##izme
yayılan
##seydim
koyar
ÖZ
gayrim
oluyoruz
Başakşehir
eskisi
Demokratik
üyelik
##ergah
Mezar
astr
Şener
##laşmaya
versiyonu
gelmeden
Avrupalı
Kok
Seyahat
yenileme
ithalat
bölgesine
Şimdilik
kanalı
göstermeye
İstih
jandarma
Söyley
##iyecek
şarkılar
##grama
açacak
Koz
kullanıma
##örek
##king
Moda
Demet
ikimiz
yönetiminde
yeryüz
sahnelen
entegre
sevinç
Polit
izleyici
Ti
##ladığımız
yayında
alındığında
politikaları
manşet
Adli
biliyordu
kutup
Shak
Platform
dahilinde
Birlik
Bru
##lamasına
paylaşan
suyunu
Emine
##Bİ
Peş
Kolay
Sekreteri
##ikler
yapılar
sızdır
vereyim
Burcu
açılmış
gözlük
görüldüğü
##biyotik
düzenlemeler
93
yetin
deyim
nerde
devamı
Aferin
##eceğinden
istemeyen
önder
İleri
taklit
başlamadan
çocuklarını
turnuv
arayüz
atıldı
##apur
Aşırı
gerçekleri
Selahattin
köklü
deyişle
kenarında
üzüm
##ned
açılıyor
gündelik
gümüş
şahane
Kast
betim
kg
havaliman
almıyor
##ovic
araçlarımızı
Beh
Dizi
sundu
atma
Kayıt
kuruldu
ilde
ceket
ÖSY
Yiğit
vat
##DR
muhat
##lıyorsun
Sigorta
Survivor
##fettiş
alanın
Şid
RAMAZAN
kullanıldı
bıraktım
##birliği
gitmesi
##medin
Genelde
takıma
Öykü
orası
görkem
tutmaya
yaşadıklarını
imzalı
Halbuki
##ramanı
sitemizi
enkaz
ilişkilerini
bulunacak
İmparatorluğu
oluştu
taşır
##ginç
verdiğimiz
yorumu
##mamıza
isimlerden
azın
gruba
##esan
Fel
Döv
seçimler
makar
Cemil
gösterecek
etmeleri
mük
##operatif
kaptan
KDV
pe
Kulüp
Manchester
Zam
bölgelerinde
##ronun
Edin
Fransızca
##oker
güreş
##EH
##gazi
veririm
geçerken
##lamayan
oluyorum
prodük
Bolu
teşeb
bank
yapılabilir
evrak
isteyecek
ettiğiniz
blog
Anayas
ihtiyaçlarını
kaybeder
Neye
engellemek
merkeze
izlerken
yöneticisi
tuzak
batır
##deres
sayısında
medyanın
herşeyi
Kn
istemiyoruz
faz
santral
nedenleri
İlişkiler
##mis
Bizde
sevdik
oranının
katılımıyla
vekil
alırım
##duğuna
kurulması
kolaylıkla
mineral
samim
koruyor
Salonu
##OG
heves
Boston
takvim
bırakıyor
yuva
mesajlar
tersi
Hil
söylediğim
vücudun
karakterler
ediyorsunuz
vereceğiz
yaşından
artarak
##DU
yarısını
##elisin
farklılıklar
kılmamız
##acağına
kontr
melek
coğrafi
platformda
Cre
##meyelim
duş
öfke
sini
çekmeye
Geçmişte
yaşanacak
açlık
sıralan
anılan
PYD
etmeyen
yazıda
##dirgin
tanımı
Ultra
Geliştir
ahlaki
Başv
bant
alamaz
utanç
geceleri
Nişan
etkiliyor
Esen
elbise
buralarda
hikayeyi
zihin
MER
##emezsiniz
muyum
çarptır
Beden
partner
Anket
##umdan
Çıl
söylemiştin
Dikkatli
Mali
McC
partiye
Devletleri
yapmıştır
##espor
ölümcül
##teyiz
Ece
sözleriyle
seviyeye
zordur
lokanta
grubunda
iddianam
istiyordu
Ailesi
Jones
doğalgaz
##asal
sahiplerimiz
pul
saatler
ayrılma
best
sahası
Olağan
you
kişiyle
birbirlerini
geçmeden
kronik
Ry
TFF
ent
Tekir
değerlendirilmesi
Başkanvekili
Sand
##fend
##etice
elçilikten
saate
Akar
ANK
krem
Ülke
Telekom
sayıları
ipuç
günlerinde
hükm
nevi
##zo
İlginç
sonlandır
kaybettik
Çağdaş
dest
ölüme
mart
İtir
ayrılmış
kısmının
yapmaktan
bilimseverlerin
şüphelen
##off
bürün
##kif
global
##ladığım
Il
##artma
özelliklere
bireyin
ayına
Affedersin
gününü
sorumluluğu
elimden
sorunlara
Kahve
##ıcısı
Dom
direnç
öylesine
oturma
1992
Vadisi
verildiği
##jder
rahatla
okumuş
adap
birimi
öldüğünü
düzeyleri
ölecek
##yetik
oturt
malzemeler
maksimum
Üskü
yönü
nis
Köprüsü
başlıca
##rü
soyut
Johnson
binası
soruyorum
apartman
izleri
hanımefendi
konuşurken
Dalga
Şırnak
koşullar
dönecek
geçiriyor
internette
Ten
yatıyor
gelirken
durdu
şöhret
Rol
https
vol
kaldırılması
iştah
Müst
Johnny
metab
##lanmasını
Lok
##usuyla
anımsat
sök
Kaymakam
yardıma
mekanı
belirtelim
dizide
imzalan
yönetmenliğini
Proje
yürüten
etiket
Barcel
kurut
birbirleriyle
getirilmesi
şarkıyı
çelik
##anızı
kutluyor
desteğini
öğrendik
suikast
oynaya
##stri
##ihazır
kaplı
Bulgaristan
yedik
##baba
ahşap
##enize
##lerinize
##otu
Kıy
Hip
Hamas
kararının
##lass
##edd
Bran
Yara
durmak
##well
ayrılık
##avut
tıkan
sunuluyor
unvan
beşinci
benzeyen
etap
##ook
değerlendirilmiştir
günkü
Siyaset
94
Hayatım
oynayacak
otelde
diyordu
bebeği
daire
##ranı
aramak
olurlar
##tiz
kullanacak
edebilirim
verdiğim
merham
akciğer
olayda
loj
##öm
iftir
##oşkun
doğrultuda
İnşaat
direk
##lının
vesil
kamuoyuna
yokmuş
hareketleri
ayağı
Güncelleme
##90
çarpış
gazı
Bank
zekat
açıklıyor
sıraya
ülkelerden
araçların
ÖSYM
berek
##eck
adresi
Rüzgar
Kalb
##keli
soruların
haklısın
Kula
kapasitesi
Hırist
güzergah
bozukluğu
ilti
##afe
konul
tartışmaya
ajans
yapısını
olmasaydı
Canlı
cihazlar
ülkedeki
Kapıyı
##sus
duyg
Tanış
onca
1991
YIL
bilerek
okumaya
İklim
Angel
İnanılmaz
Atina
alacağız
geliyordu
sün
##nel
felsefe
KKTC
##osistem
##ülya
finansman
Abla
çıkaracak
atacak
buluştu
##dilerde
beklentiler
duygularını
sağlama
Trafik
Haluk
atın
Bingöl
edersin
Louis
ız
liradan
incel
taşıdığı
Kudüs
350
mutluluğ
zanned
log
şen
uzmanlar
mum
##larınızla
##larıdır
Nar
##itz
yalvar
Watch
taahh
##ision
##adişah
rota
kömür
geçirildi
rüşvet
Green
yağışı
öğretmeni
listede
##lakat
akademisyen
Dinç
modelin
oğlunun
Nap
##baz
Helen
Tra
duyduğum
tema
Roy
olabilirsin
##ozof
maske
gı
olanlara
Özk
Stre
başarılar
kısıtlı
hoşuna
ülkemize
pes
alman
düzenledi
Karanlık
##gusal
Milan
ilgilendiren
Tanr
keyfini
başkalarının
seyred
tasarlanmış
##ayeti
aşağ
Sağol
perspektif
Brad
etmiyorum
##gh
##ılav
görüşleri
atak
##izde
görecek
biten
canını
kalitesini
##antastik
Ağz
Ebru
farkındalık
parçalar
##resyon
Kala
Piş
emri
kıza
büyüle
subay
##cımız
telaş
Önder
öyleyse
Mum
yapılmasını
##onomi
liberal
Demokrasi
başkası
##lerince
##aat
##ansa
vereceği
Öğrenciler
##ikatür
yapıştır
bilinmiyor
Denizi
İnönü
##epe
anlaşılıyor
Rach
##amıyoruz
##yıp
sunar
Bakanlık
kablo
İlaç
##cell
Sahne
##imarka
Çeşme
bilinir
yenilikçi
Operasyon
yapmadı
ellerinde
Menderes
hayatlarını
hedefliyor
müsaade
savunuyor
formül
ey
Terim
kargo
kendin
Kenti
##kilatı
izlemeye
##üksel
kaleci
##VID
Kayıp
Kapalı
kayıtları
##opat
sorumlusu
##ayolları
Bed
klinik
karaciğer
bran
veriyorlar
Fri
Biy
Pala
##jinal
lev
sabırsız
girerek
yaşadım
hangisi
kaybettim
kırmız
anlattığı
davanın
tamamlandı
##yat
programda
saldırıda
olmayacağını
kızıl
##ydık
çıkarmaya
gücüne
kumaş
fık
Nef
lehine
birç
küs
teknolojinin
yılki
ED
müttefik
Fe
yapmanın
kadrosunda
ardında
Robin
olana
ekim
boşal
hikayenin
bayramı
zanlı
tweet
büyüklük
maymun
profesör
Jan
işletmelerin
Batılı
adaylar
dra
çekmiş
Açıkçası
ikiniz
iddiası
arma
bekleyin
Çıkar
paraya
COVID
Kural
##lığım
karlı
##şar
yeteneği
İZ
tedirgin
hadis
Barcelona
bilgilerin
kapısı
##lerimizde
golü
yakınları
Çal
parçacık
##ağından
tünel
avuç
Mektu
ederse
##elif
##yk
Video
sinemaya
Rog
neh
işçiler
Kulak
##leyebilir
havası
çıktığında
Jackson
GE
varan
##lüğünün
Disney
bakımdan
Nehri
##uval
yemekler
alınır
görülebilir
##ilmemiş
yaparız
alanındaki
Saman
değiştirdi
problemleri
uyuyor
İzin
kötüye
sektörde
obez
aslan
serinin
Carl
##larımla
askerler
rakibi
Sala
başlattığı
##arkan
davada
mAh
ilerliyor
olaylara
fut
##viş
gelene
##laşıyor
Fal
göreceksiniz
kabullen
öğleden
dizüstü
##esun
##saydı
Radyo
sunmak
##mece
yapıları
sizlerle
geçirdim
beklediği
etkinlikler
Erdal
zorundadır
umurumda
Simon
Çiz
##yaka
soluk
##ılmalı
Kü
Söy
Zirv
kumar
yolculuğu
keç
##kanın
yazısında
değerlendirmek
Günün
yakalamak
ezber
oynamaya
açabilir
##fte
tarafına
Kimsenin
birbirimize
kolon
Garip
Yanı
işlemler
gene
sunucu
buzdolab
Cil
Billy
##ebileceğiniz
paten
çamur
atmaya
Hrist
Elizabeth
##CI
##cağının
##ağıt
direniş
yöntemler
gerçekte
fikrini
gideceğiz
##leks
##suru
kafe
otopark
kazanım
niteliği
Kaza
Cidden
Savcı
Nobel
##olojinin
okullar
Danimarka
orkest
##ubu
sanatçıların
##ptom
kafayı
çiç
şarkıları
çıktım
Sivil
##üsünü
KON
Afed
Arnavut
çalışıyordu
boşanma
Bayraktar
##akende
sürün
Yel
gerekirdi
Hülya
listesine
firması
##umuzda
##ÜM
düşünülen
Vakıf
olalım
Valiliği
edilmesini
hırsızlık
bulamaz
ilaçlar
##ünist
müziğin
91
##imum
yakınlarında
etmeyecek
oturum
Üzerinde
pazartesi
İkincisi
bağlayan
getirmeye
tartışmalar
bilgisay
dünyaca
hükümetinin
görüşü
gidece
haftalarda
görünüş
##AYIN
sanıyor
Premi
##lenebilir
olabilirler
simg
icat
karşılıyor
##ropol
çıkarıldı
Amaç
tanıyan
vesile
hizmetlerini
dökül
dk
konumu
Bağdat
##yurt
tescil
##iko
Giresun
##urn
adının
hassasiyet
Koy
Melek
Mate
Yemin
kullanmayı
Başkent
Restor
##21
çare
strateji
Hale
ekleyip
##pen
vatandaşın
verilere
objektif
Lübnan
Ücret
##ayıcı
siv
sınıfı
temelinde
dizisinde
##hid
yapabiliyor
Sağlıklı
Ee
Serkan
Kraliçe
sorulara
Geniş
sayfasında
Çeşit
beton
benzin
malum
noktaları
tarama
kadem
misyon
##eğimiz
Store
Sezer
ruhunu
birebir
anlık
balığı
Zo
Tali
##ikar
##ings
diyorsunuz
asır
omur
##ülin
akses
Çap
Akl
ilki
##ember
ülkelerinde
Phil
İslami
korsan
kahramanı
Tro
reg
koruyan
ikamet
düzenleyen
##SM
mesajları
olayla
polisler
Bizans
Eğit
##inler
Liz
tarla
kalkınma
##ışın
önlemleri
aman
Kızılay
Ani
yaşantı
verelim
Bilirsin
ilkokul
kıpır
memnuniyet
dille
kola
metrekar
##ilmeli
kalori
anlatacak
Başsavcılığı
PAR
##taşı
yönünden
nehir
ekibinin
Master
ziyareti
Kütah
Soruştur
kimliğini
Öğrenc
satıcı
çekiş
Zey
kibar
pasta
##lamasını
kaynaklanıyor
etmen
Anlam
Ayv
geçirilen
yans
Karaman
bunca
sını
yörüng
##lüğün
oya
##biye
çalan
bakınca
kapılarını
##ion
taşımak
çub
amatör
Konak
##bı
##ain
firmanın
birikim
Tokat
yaklaşan
doğanın
##ansu
pik
tanışma
Renk
##uvara
360
sola
özelliklerine
artacak
Brian
çocuklarına
temmuz
açmış
##ls
yapmasını
hesabını
huy
Erkekler
gal
##çinin
sisteminde
evleri
isterse
açıklamasını
mutlak
Prot
Rak
kapısını
Alın
çöl
##iyeri
##anıyla
ısıt
buğday
sürümü
##zet
##lamadım
birbiriyle
##emektedir
Sap
TÜRKİYE
bayım
yönden
##eliğin
##asyona
1989
Tekirdağ
kabar
Gençler
incelenmiş
1436
zırh
ekipman
başlatıldı
Sigara
##ahan
##oksi
Adem
saldırısı
##ileştir
istersin
sezonda
##oban
##yem
##ağan
##yınca
fet
sokaklarda
##melerin
##rolası
Beyler
şut
karı
paketi
##orit
düşmanı
taktik
sevindir
yarıda
filmini
arttığı
Brüksel
Core
##peri
iyim
##pir
Hit
töreninde
eksi
nefis
dünyadan
skandal
##onomik
FIFA
korkusu
Sağlığı
durup
##ostal
şem
Coşkun
takdim
Big
patlat
telefonları
##kini
TEK
ilişkisini
bük
##GS
duyul
3D
Geleneksel
harcan
Viv
plakalı
##ılmadan
elimizden
çil
##ağım
başkanları
köyü
Venedik
mevki
bileti
başarıya
Özlem
ürk
God
partisinin
GÜN
Ja
çıkarın
##kür
##arş
kulübü
hor
senedir
Kitabı
##tain
##lash
Jake
Musa
RTX
##mond
çalışmalarda
çoklu
heyeti
eylemi
oluşturul
##DIA
başlıyoruz
durumunun
Anti
arta
Vergi
Bunda
kep
dene
yonga
fiyatlar
yılbaşı
alayım
pist
ürettiği
rolünü
giderim
Tolga
kullanabilirsiniz
##iğini
DEV
yansıtan
mektubu
##bistan
ilgil
keyfi
açıkçası
başlangıcı
##DK
##üsünde
delir
gününe
minnettar
##ihazırda
ekosistem
yapıyordu
öylece
##ilmesinde
işimiz
Karat
##ds
iktidarı
mız
kalmıştı
sapta
ihtiyacını
kulaklık
Ziya
Ercan
arkadaşlarının
ithal
yapılacağı
desen
Model
Emekli
##poz
bırakıldı
Etk
hayatımda
Belir
İktidar
NVI
tutacak
##ahit
gövde
ster
yetki
##oroloji
tespiti
gecede
geldiler
tarihten
Şehrin
virüsü
Dışarıda
girdim
ekipler
sıralar
hazin
130
zahmet
Lit
##meyeceğini
odaya
yükse
Senar
bölgesindeki
içsel
yıldızlı
maddeler
##rettin
iktidarın
bakıma
korkuyorum
Dursun
çim
##cim
hiper
Yoğun
Birey
Komisyon
Devletin
NVIDIA
##stır
dereceye
##orma
şişe
terörle
dayat
Akif
açıklamıştı
##bor
Sizinle
mel
Erbakan
seti
Fethiye
Kuz
##işsel
litre
sadakat
Sün
site
binden
buluşma
Fed
##ics
gürült
kl
Wood
sl
dengeli
inde
kavramları
İp
Tev
daim
modeller
ero
çıktık
okut
zarf
Herhalde
ray
kısmına
Spi
Selçuklu
##kas
Ziraat
Sahnesi
şeydi
tahl
benzersiz
gördünüz
izledi
xx
mutab
köşesinde
MU
sınıfta
değinen
olursunuz
Zorlu
##stı
##och
##dığımızda
müşteriler
sesle
Ameri
önünden
önems
Gur
gerçekleştiren
idrar
yoğunluk
tecrübe
muciz
tahamm
Tommy
muydun
tırnak
etkinlikleri
dışarıya
çalışarak
Evlilik
##naz
izledim
Çavuşoğlu
sep
katlan
Taner
anlaşması
endeksi
geliştirdiği
Araştırmacılar
gizlice
geçmişe
imha
bilirim
söylenebilir
niyetli
arkasındaki
kalkıp
kendimize
istemek
##graf
vermiştir
coğrafy
dağın
konumunda
maf
bölümünün
hatası
arabayı
##tele
kurumları
ağacı
Kalesi
160
akrab
Redmi
adından
çalışın
kurmuş
fay
boru
Rick
##ern
harman
ileriye
sağa
haziran
Geb
##ongul
##rarı
Metro
zorlaştır
Babacan
baskısı
geçtikçe
Ulaştırma
özer
etmesine
İlg
terc
##uvale
##hisar
Neyin
##dis
oyu
Atlan
öğrencinin
yelken
dönüşü
zannet
##orth
##ceğimi
suda
sarım
##mann
##IKL
Kuran
evini
yama
olasılığı
kurumların
çabası
It
Lav
karabiber
koç
Kaplan
ismin
ifadeler
otorit
yuvarlak
özdeş
otuz
Ahmed
kadrosuna
başlangı
içerir
##larımda
şartlarda
Nak
beğeni
çıkarır
Lider
##ARI
kızdır
Reg
Akr
##delenin
112
ailesini
çıkmaktadır
bag
##Sİ
muyuz
uçağın
hayatımı
play
öğretmenlerin
modelini
aha
yeteri
##rojen
sorununu
Zongul
gelişmekte
sıkıntısı
yemiş
bedava
köpeği
hikayeleri
düşüncesi
işleyen
sust
aptalca
yurttaş
##acaksınız
Şafak
Koordin
Jason
fındık
Sizce
konulara
öğün
##ecan
Kongresi
Papa
cad
onar
dizisinin
kuruluşları
Politika
Bı
##ANI
Dalı
fot
başaran
anlaşmaya
Sevgi
ke
##ady
yolculuğa
edilmeye
düşkün
aktivite
çıkmasını
yıllara
ET
istisna
Viy
kazası
casus
Gil
Tec
##lamasıyla
nedenini
##mışım
akın
##elerimiz
ingil
eserin
nice
klip
##lerime
dayanışma
nüfusu
umudu
makro
demografik
Neş
Kole
##ado
doğuş
##gir
sorusunu
##ifi
göstermiş
Arthur
AI
Mül
Resim
Muhaf
##rut
##uyum
##minin
110
##ceğine
fu
Yarışması
##ydin
görüşlerini
KAD
##feti
##üsüne
Özbek
beraberlik
saçmalık
anıt
katılıyor
evrenin
##ux
Laur
##elektüel
olaydan
Mesele
karşılığını
140
Sanatçı
kurmaya
servisi
düşündüğünü
gelenler
görkemli
##ünüze
Binali
Zavallı
indi
İler
##mayacaksın
cesedi
İdaresi
##mezsin
ekibin
arkadaşının
özerk
##lanırken
oğlan
lam
olumsuzluk
Atak
United
##ülüğü
anladın
saklı
konusuna
zamanların
gücünün
ölümünden
ekranda
##mamızın
##kala
kuşat
soğu
kayda
yıkım
uygulanacak
hastalıklar
##antum
Walter
##memizi
Göcek
Vit
Haş
##sından
karakterini
teknolojileri
##yuz
onda
uygulamanın
##diyse
Anah
Birincisi
gönderme
okulun
Hoc
Başarılı
süpür
Zonguldak
olursun
##mektir
AVM
katılımcıların
Kemer
Bom
##maktadırlar
Gide
yapsın
monitör
yaptınız
içini
kayak
Kastam
mekanda
##eyken
##ikli
derinden
belirlenmiş
tuttur
hoşgör
üslup
çevrimiçi
katıla
tavr
yahu
ilerlem
Dördüncü
imalat
devi
değiştirme
Sahil
İlişk
##mad
Alice
##cesi
gerekmez
Arif
Andrew
##eddüt
Saadet
canı
##okal
kesintisi
firmaların
##alır
Akademisi
off
uzlaş
Beraber
Mul
şirin
Özgürlük
rutin
##kap
Başbakanlık
Niçin
operasyonda
fasul
Anladın
yazıyorum
##liğindeki
çözümler
Erzin
reaksiyon
belgeler
kazana
yaptığımı
Bilgin
##atlı
almasını
olmazdı
destekler
##mezse
heyecanla
eksen
içk
piksel
hesaba
Çiğ
Cannes
ödüllü
işveren
alındığını
basına
##bit
üretici
kolu
##ınacak
luk
vaziyet
##ekatı
##ılmasında
Cennet
şampiyonu
##ero
Oyuncular
yanda
duman
##unay
##ars
##leg
Basketbol
vi
##AÇ
##langıç
metrekare
Sm
önemine
karakterin
konuşmasını
Rey
taşım
ruhsat
ödemek
erit
Kariyer
varoluş
imar
şeyle
Sky
duygular
görevine
##lerimizden
filmlerin
kıskanç
CIA
##yonu
kanıtı
yapman
##oga
tutarlı
tutulması
ağzından
miydin
##utube
savundu
##leşti
Konut
çevresindeki
##lerimizle
Kaan
##eyerek
lav
yorul
azaltmak
talimatı
bulundukları
Ülkenin
##ico
sözcüğ
##aban
nör
Durumu
##CU
getirdik
mülakat
Hande
enerjisi
sahasında
Por
YÖK
##cam
getirip
Babamın
##mayacağız
siber
##oke
gazetecilerin
okyanus
semptom
##macı
komplo
##oluk
Merve
Kendisine
hayvanları
hatırlamıyorum
kemer
yaşlarda
Öğle
Dahası
hatırlatıyor
##aktif
Birden
enstr
Herkese
mikrofon
4K
##ışlı
##ifer
göstermesi
##iyen
##amayız
amca
kaşık
bilmiyorsun
kocası
bulunmayan
##ikaten
çalıştığım
pirinç
bölgeyi
kabus
cari
Andy
sers
coş
dokunu
çala
yapacağımı
##dalı
Nihayet
##atları
eks
##kuş
fotoğraflarını
kadınlarda
aksi
Kırık
ÖN
sayılan
##hy
konuşalım
irdelen
merkezleri
Aks
grev
ağırlığı
##dama
beye
##iyo
##ileceği
masaj
süreyle
karakterlerin
bitiyor
Yürü
bakılırsa
belirtmek
##ness
Arapça
İşletme
Kendiler
Tebrikler
sandım
Kadınların
doğmuş
alımı
##ardo
Anı
önyar
salgını
dönüşüyor
belirleyen
öldürme
sanmıştım
##lacağı
##iydin
Şeytan
##ladıkları
kombin
kutlu
##heimer
nesi
Leg
##ören
eşim
yır
muhtaç
değişimler
kahk
Kızım
kızının
tavan
yıllardan
askerlik
paylaşımı
Dürüst
##ocu
dergisi
dönemlerinde
##ilmelidir
yakalanan
sınıflandır
Sıra
##çin
felse
Hakem
sınırlarını
kavramının
firmalar
nitelikte
iyimser
sansür
##sıyla
tiş
diplomatik
bunda
programının
haberin
##kut
Annesi
sınavı
Sahip
AŞ
haberimizde
oluşturdu
karşısındaki
okullarda
noktadan
##mezler
ikiz
iddialar
Bern
İnc
konumda
##opol
oyununu
dalı
koşullarda
İnsanları
yakaladı
ikisinin
Esra
kafasını
Cün
Mümkün
telefonların
taksit
kötüsü
Yaşanan
Bush
uğrayan
değerinde
yıkan
nic
grupların
Müze
devlete
##lilere
are
emeği
Yapay
Ag
Viet
hatırlattı
Kazak
izleyiciler
damga
Ilı
Semih
##irve
PR
##yarak
belirtileri
All
Şenol
kesiş
çaldı
Tiyatroları
##usundan
şirketinin
sıkıntılar
filozof
##tezi
##arlör
Taylor
seg
Fikret
Trak
Brown
pilav
rezil
izini
hizmetler
Atilla
Meryem
önerileri
bül
yedir
versin
Hayatı
istiyordum
demeye
kaldırmak
magazin
ayna
Nam
##ömer
yapanlar
##eydim
aldığınız
çalışmalarında
tekstil
Hamil
general
olacaklar
##ılmamış
muayene
Vekili
Jür
Blo
Şev
Dun
Pic
mevs
rız
Üsküdar
Fur
geliştirilmesi
Las
yumurt
##ızda
adımları
uğramış
şiddete
havalı
##INI
Macaristan
##isar
##mişsin
dolaylı
abla
TOK
taraflı
Bura
##bis
sağlığını
kıdem
belirsizlik
cidden
Kedi
Oldu
IMDb
Venüs
kurallar
kef
Amy
go
Erzincan
##çının
##elebi
bakacak
boyutları
##eliyiz
Veya
çizen
##ılmasıyla
düşmesi
##lanmamış
##ope
şişman
Nin
anlaşmaz
muhafaza
psikiyat
etkileyecek
Doug
##etti
kalka
##tara
Tunceli
Rachel
ortaklık
gözünü
işlevsel
personeli
##zir
Evlen
Daire
TE
çıkmasına
deneysel
fikrin
Latin
diken
aza
belgeleri
yanıtladı
olmayacaktır
anahtarı
Güzin
kafası
##üyorsun
Til
telefonunu
Kütahya
balon
pembe
teması
Derviş
kesintisiz
##ılmaması
1987
Tru
törenine
aileleri
Adil
dikkatle
salonunda
örgütünün
Vla
öneri
yazılar
Sergi
Sektör
Altan
ötek
##ebilirler
köyünde
ahbap
olmamalı
bolca
soygun
hırs
gazeteciler
##vil
Gelir
paylaşılan
birşeyler
irtibat
dökü
hücum
##yeri
kabin
İşçi
##düğünüz
Toto
elimde
lez
pusu
parametr
##lock
sofra
keb
Ulaş
kategorisinde
Kastamonu
##kun
izlerini
hatıra
Ortaya
##oktey
Kül
bayrağı
düşündün
kararına
Pres
balı
sizleri
Greg
Kitabın
House
##dia
evlerine
kilogram
çıkarsa
İskoç
kırk
şuna
ekliyor
##boy
format
Lord
karşılaşma
toplayan
##lenmesine
başladığında
Kardeşim
gençlere
inanan
Ameliyat
hij
roket
##ağımız
##SS
kültürünün
kilise
pic
karşılamak
mektub
gerekebilir
çocuğum
Ford
basıl
##düler
konulan
antrenör
Esas
kızla
##mazsa
olmasıyla
Bağımsız
yaşını
teşebbüs
Çözüm
pa
Öner
Eleştir
##RU
Sendik
Tokyo
akşamlar
bırakarak
Sende
bitmiş
Tehlik
##layayım
tahsis
çukur
##çay
görevlileri
##UŞ
##ery
dokunulmaz
Hitler
akan
yöneten
tatile
kıta
Emma
##xel
lara
##ue
kamusal
##melerinin
potansiyeli
##çam
nedenlerle
##talım
Sedat
açığı
yazarlar
##ilemez
cerrahi
ailelerin
minibüs
##For
sürgün
gerçekleştirmek
ekiplerinin
Tey
##ıklık
gündemine
edemem
##tiklerini
sorgulama
##dig
##ader
##avv
##lendiğini
##viç
Cerrah
##kırım
DJ
çiftin
buyur
ağabey
Turkcell
Nokia
kimsin
tev
tenis
kayın
Mutfak
kalırsa
ikincisi
yükü
CNN
Bren
Pu
kısır
Borsa
alanların
fl
hastalar
Bunlara
yazının
189
##ınızla
Lisa
##lileri
amaçlanmıştır
##ydim
şeyim
düşüncelerini
##eçh
katına
Marmar
real
Dokuz
Pin
kafasına
çocuklarla
şehrinde
parayla
kayboldu
güçlerinin
Göğ
##metik
Vik
we
kiralık
toplantıya
nisan
Kele
beklentileri
Dilek
aldıktan
çıkınca
elle
##ulmuştu
vermektedir
kişilerle
Tatil
küçüm
dolardan
iştir
Diler
tarafsız
edilirken
Au
Inter
Beyin
##tij
civar
oyunların
Okyan
anlamını
sütü
Yahu
edebiliyor
##meyle
mevcuttur
böylesi
ili
sabahı
Edward
##İLER
dinleyi
##ston
konularında
kullanımına
Bakanlar
şiddetle
gidebilir
inş
dram
etmeliyiz
öldürülen
Oyunu
##cevher
gazetecilere
sıkıntılı
##yonun
##çalı
annemin
ettiniz
Bugünkü
geçit
Büt
Hul
dalgalan
##lamasının
tahıl
Ri
kurumu
orospu
metni
kullanımının
Filmde
grubuna
çarptı
##amadığı
Josh
değilsiniz
##ubay
##con
##kins
##lerimin
geleceğin
kullandıkları
##eteriner
vamp
Viyana
##oid
bahsediyor
Bakım
gitmeyi
programın
Sit
Okur
taşıdı
unutul
##memektedir
Yem
yazdık
çifti
esrar
duymuş
konsantr
Ceb
Federal
Efes
evler
##zed
performansını
düşündüğüm
karikatür
diyenler
tamamlayan
##laşmanın
sevgilim
##lot
Meydan
##mişim
##ksür
karışımı
eleştirel
Global
##ehan
Kilisesi
Piyan
konuşuluyor
nihai
kurab
yazdır
Cihan
yansıdı
##oliz
listem
unsuru
faş
mütev
Zih
Club
beklerken
gezilecek
Eyüp
helal
##latır
Buluş
kin
Sekiz
İndir
Müsteş
tavrı
##üfer
Şirketin
masada
eğitimin
malı
##ılmıyor
çalar
##ceğin
Nan
yurtdışında
Seyir
Maden
Yukarıda
kalmıştır
degil
güler
sırrı
##adın
bahçesinde
buhar
muhtar
vatandaşları
##leşiyor
Haw
kendiliğinden
##name
##aklık
Yasa
##emon
Yarışma
listesini
Tasar
çoğal
Vietnam
ekonominin
##lyn
##lisin
sesler
ipucu
Süm
Komitesi
güvenliğini
toplamak
çalışmamız
arkadaşlarıyla
bari
bankaların
dondurma
derse
##ous
kaçmak
ateşte
Hesap
üyeliği
kardeşin
Keskin
savaşta
##ins
biriyim
eleştirmen
##ning
savaşçı
etkiledi
aki
##tün
Fox
##tatör
ziyaretç
başvurusu
##madığım
##laştı
Ertesi
VER
##ansever
çalışmıyor
##inizdeki
Jen
dediğin
uyuya
Bra
çevresi
Devr
pank
gösterisi
buradayız
ölümsüz
zararı
abart
yapıda
konuşabilir
gelişmesi
Final
çalışanı
yürüttüğü
Adamın
Wars
tanımak
entelektüel
görülmesi
kırmızılı
1984
anlaşıldı
##adamı
bilgisini
üçte
Yolları
Duruş
Fuarı
koştur
işlere
vasıt
kırıklığı
olmadığından
##asyonel
Canım
Kağıt
fırtın
edebiliriz
şebek
Ayn
##ork
bulunu
##lıyordu
Iş
bron
ANKARA
karakterleri
faaliyetlerini
teknikleri
görmesi
##fie
dünyasını
##sizin
vel
##ümcek
oynarken
##akkak
##enizde
Küba
Sanatlar
##lenmeye
Erbil
şimdiki
eserlerin
eleştiriler
##acılık
eğitimini
yatırımlar
##leştirilmiş
büyüleyici
İlç
uncu
tim
was
##HK
SSD
Türklerin
Yalova
Gündüz
##eneğini
riske
süreliğine
##olm
dersleri
tasvir
##eliğini
mayıs
destekle
başındaki
Merkür
##ladığınız
tereyağı
arkaya
1982
öneme
sü
üretmek
ulaşmış
KPSS
üreticisi
ödüllendir
Şeyh
Herşey
iletişime
vereceğini
yaya
##dent
##Force
yukarıdaki
##ğinin
Servis
gelişmelerin
kazanma
KUR
çocuğunu
fiziki
fosil
şiddeti
kılıç
İstanbullu
bitecek
##İST
molekül
Cast
Gh
müvekk
saptanmıştır
değiştiren
##tanı
##asyonun
desteklemek
ürünlerini
mesafede
yaşanmış
Şişli
feda
ailesiyle
menz
Şar
yapıların
##RAM
vars
cenazesi
şansımız
bekar
Hırvat
##besi
kasa
Yumurta
oluyordu
Marmaris
olduğunca
##ülmüştür
testleri
aldıklarını
Orası
destan
yiyen
anlaşılan
Uygun
##parta
Kutsal
kaçta
##ct
almam
Onlarla
##MP
Olabilir
Sili
akışı
standar
milyona
tereddüt
nelerdir
III
Havaalan
Prenses
teşh
infaz
diyabet
tahammül
Öğrenci
sabaha
Bobby
Hayatın
##saspor
##ukla
kaçış
##peare
Defol
tüfek
##eley
##eceğinin
Ök
dönmesi
inanıyoruz
anlaşılır
##nar
kapıdan
yelp
yöntemiyle
Ağaç
Buyurun
taşımaktadır
yapılacağını
nazar
tanıya
sözleşmesi
olsaydım
porn
tanr
depremin
Teğmen
serüven
hamam
arttığını
##ddie
##ümin
##16
##etini
şanslar
##ülür
koyarak
haberini
alınıp
##22
Kalan
vermeyecek
videosu
Stratej
gerçekleştirilmiştir
ayrılmak
çıkarılması
çıldır
buradasın
Bursaspor
Siir
Hakkı
SGK
halkına
değerlendiren
##bine
belirleyici
Kütüphan
verebil
##amdan
##ektro
basamak
etkilediği
açılım
##kurt
Budap
birinden
yağışlı
düzenle
Len
pizza
##amızdan
mucize
Yeterince
Performan
Carter
istedin
kule
Baraj
Divan
AFAD
geleceğim
dahili
Hoşçak
dolaşan
Korku
programa
şiiri
sper
katılma
döndüm
mutluluğu
yönetimine
##oma
Moz
taç
vermeyen
haykır
evlenmek
Siirt
beklentisi
servise
Ergen
takımının
Shakes
Beğen
gümrük
fiyatlı
yaptıktan
söylemedim
ülkelerinin
##ges
ayından
Cav
##ALI
çevreye
fran
ultra
lerden
Pandemi
şefkat
açıklamak
alandaki
arıyorsun
##siyum
sırası
gelse
şarkının
##aton
militan
aylar
döng
prensip
gizem
Enflasyon
##bab
Yık
##ıv
etkinlikte
mevzuat
kente
kaldıra
öğretmenler
mevdu
sağlığ
##dunun
açıkladığı
esnada
Salon
süreçleri
##reden
yoğunluğu
##faat
türban
##ian
Arke
##Tok
Eyle
uygulamayı
transferi
Çelebi
görüşmeleri
bankalar
##istal
Orkest
##landım
ilişkilerinin
sigortası
evrimsel
bilinmektedir
Sizler
##masındaki
Whit
tanışmak
fantastik
bağı
Mans
projeye
kalmasını
yüzme
cehenneme
mekanik
yüce
içindir
girme
araştırması
##mon
temenn
zıp
Burhan
Serbest
Grand
##üyorlar
bölümüne
bahan
haftaya
yönüyle
düşünceleri
sark
this
Plajı
saatten
sistemde
arabaya
dayanıyor
taşıyacak
dünkü
bilgilerini
diyebil
##üel
başlayınca
cinayeti
semin
hazırlamak
okuldan
çalışanlarının
derseniz
yapılırken
##laştırılmış
dinleyin
pazarlık
şirketlerinin
öpüş
Ori
yorgunluk
çocukluğ
Emily
##coin
Sezen
sub
modu
##iyorlardı
müsabak
haritası
Nus
Adını
portr
ısrarla
ca
silahla
üzüldüm
gerekçe
##unuzda
tahrik
##dekli
çalışıyordum
poş
alanını
isteniyor
Isparta
gelecektir
sınava
Chica
güneşin
başkanlığı
müzakere
Plat
kalmamış
bulabilir
Kürtçe
mesai
alarm
koruy
##ömert
sular
perakende
gencin
Bölgede
Uzmanlar
##uld
##üsünün
##beli
emlak
Dİ
öldürecek
Tesla
anlatırken
yakalama
gitmeden
tanınmış
bazında
750
yokken
fırında
##leşmenin
olabildiğince
Yerli
EV
yanaş
sigortalı
yansıyan
Hıristiyan
Satış
##şaf
##uyordu
listeye
##lemenin
metaf
##edecek
Gümrük
##yık
yöne
tümüyle
##oksidan
sinin
256
babasını
OD
##ilmesiyle
Arada
ikisini
1986
algısı
yolunun
sürat
Sovyet
ayrılıyor
##CA
Rose
GeForce
delikanlı
bencil
affed
kaydır
bitkisel
##ase
Cüneyt
İf
kabuk
piyano
çıkmadan
##ozor
tasarlanan
##ıtma
Basit
ilköğretim
huz
Kendisini
çocuğunun
dalında
Yasası
Olayın
oynanacak
karg
Haydar
anlayacak
tutma
boşuna
Eddie
Atalay
sürerken
yazıları
projeyi
evcil
##alez
fren
##eşim
Çocukları
##üpiter
Kamer
enter
sunuldu
pırıl
kurallara
Orgeneral
lans
##enter
##ESCO
Joseph
görevleri
fikirler
gereksinim
yahut
Pis
istendi
Ney
eksiklik
haftadır
sis
##esiydi
olasılı
Shakespeare
kararıyla
edilmesine
cazi
Claire
EM
tutup
Cami
gerekiyorsa
görünüyordu
kullanın
birbirimizi
tokat
almanız
güzelliği
zıt
Atöl
asansör
##liyim
188
Jam
Yang
rastgele
maaşı
125
davranışı
Berg
tutku
çoğunluk
Düğün
olmalısınız
Sik
tecrübeli
gibisin
kızını
Uyku
inanmıyorum
Dy
Saldırı
Otomobil
Parayı
Portakal
Clin
gelebilecek
uyarınca
us
yapmalı
gösterim
söylerken
üniversiteye
gerginlik
çalışmasını
aydan
Ash
götürmek
patlayıcı
Hong
branş
jet
duyuyoruz
anki
takımda
raporda
##süne
farket
alabilecek
basınç
fare
##ELİ
Rektör
##mayacaktır
Qual
Dim
##else
Peder
programını
TikTok
Muş
Yangın
Muz
olim
##chi
hemşir
oluşturma
sertifik
Les
iri
kadrosu
Kaymakamı
şapka
kendilerinin
187
Evin
çekecek
deneyime
##leştirmek
Turkey
1988
kralı
hızlıca
##athan
Vinc
##yıldız
Başarı
arabası
eşini
mücadeleyi
##anızda
UNESCO
Laf
İkimiz
Jessi
##varı
mete
mücadelenin
kelimeler
##DAN
Üy
termin
arg
Komik
eliyle
Kong
##dıracak
artışla
Finland
sağlamaya
rehin
##duğumda
bahçe
Chicago
ül
##lali
##ahisar
##inceye
konulu
##ğından
##TA
suna
ödev
kupa
Sorum
operatör
etmeli
söyleyip
Hepimizin
sürüldü
menaj
##bre
hakkına
gayrimenkul
KOBİ
ürküt
yaparlar
Prime
slog
anlayabil
geçmeye
sergisi
Dead
arkadaşlık
hayatımın
##herine
Rabb
otomotiv
öldürdün
sıralarda
inceleyen
cadı
belirledi
yarışı
Yazıcı
tehlikesi
Aşkın
Wes
##icisi
sağlayacaktır
##EF
Yapamam
çocuklarda
karışım
##yapı
Başlangıç
beraat
##teydi
edersiniz
yapabilirsin
heyecanlandır
mobilya
telafi
##föy
##ardı
##gücü
But
sağol
Memnun
kuzeyinde
illa
bağlılık
umutsuz
ayıran
alanının
Bizden
çerçeve
1500
bire
alıyorlar
AÇ
Hun
link
ortalaması
çin
##tiğinin
##key
çıkın
Sürey
askıya
Dic
##ceye
şehirler
kelimesi
unsurları
hoparlör
Birileri
yaşamayı
Huzur
om
Acar
Başvuru
demokrat
##ELER
##tılacak
işlevi
hukuka
saygısız
##üphane
milleti
##miştik
aranan
açıklanacak
##ymiş
seçiminde
##our
milyondan
belirle
Oradan
dişi
Jüpiter
Altun
tadına
ılık
##iss
yargılama
##değer
herkesten
##acağınız
balıkçı
##ırsın
Lam
sorunlarına
sorununun
Conn
durma
##dine
sand
seçkin
Arama
kurtuluş
girerken
işlemciler
Street
şamp
zinciri
##ürler
etmedim
örn
1985
ülkesinde
köşede
Hill
bildirim
heyecanı
http
##YP
Sarık
Bizimle
##tığımı
Tayland
arındır
tayin
##icil
havayolu
zaf
Yasemin
##İNE
##onlar
karam
sorunsuz
##dimir
Sher
Fuat
##GE
bağlıdır
nispet
Öde
yazdığım
sağlayabilir
##verengi
Amas
##ÜŞ
özledim
bunlarla
pazarı
değerlendirmesinde
akı
##lumb
turistlerin
denemek
ediyordum
##iew
##izz
vurguluyor
Dergisi
eşitlik
##dında
##tısı
gözde
Binbaşı
Jerry
doların
ortaokul
turizmi
azar
okudu
Amca
Yanında
habersiz
travma
Ailem
BİL
##abilit
asistan
##irdi
##isyenler
Rev
dikkatleri
İstihbarat
##latıyor
aleyhine
Sinir
aklını
bitirdi
yargıç
büyüklüğü
Koyu
takıl
##elerce
##obik
bilişsel
Eğitimi
Oyunları
kalor
Gabri
ışıl
##ater
Tarkan
Sağlam
sahnesi
uğradı
Normalde
Bakırköy
##livan
Teor
kot
Alışveriş
garson
##etooth
##idge
VI
##tie
##oj
Tuna
unuta
alanlara
Lisans
taahhüt
Dük
cür
##ehr
##irsiniz
yaşın
Soph
Stephen
balkon
oyunculara
kalarak
##tes
kolları
kısımda
kadeh
satılıyor
katal
geliyorlar
Clark
##araya
Çeşitli
çıkmıyor
##encere
çoğunun
fahiş
arttıkça
bitkiler
amaçlayan
ziyaretçi
##DIR
##mezdi
problemler
damgasını
##CK
örgü
Aksoy
tanıdığım
ettikten
bahsediyoruz
alık
değişime
##aron
wh
adayların
bırakacak
##dakiler
ligde
Dek
Şehircilik
Dre
Mun
ticareti
Sonraki
etek
temelli
çekirdekli
Öf
Rem
Efsan
bakmaya
geceyi
oğlunu
attım
yakınında
bedelini
Dubai
manip
Yargıç
İşi
düşünüp
adliy
Mekan
civarı
Div
Kov
dinler
maddenin
çoğunu
Nazlı
Ston
avcı
tanıştım
yapılacaktır
ölmek
reel
##EST
malzemesi
isminin
dışa
Halen
sorunlu
kültürünü
bölgeden
Way
kına
askerlerin
Gold
suçun
sakınca
kılav
uzlaşma
buluyorum
saldırıları
edebiyatı
fiyata
Parmak
yerlerinde
arkadaşımız
##ght
Konferans
Cehenn
atıl
Telefonun
muhabiri
Kendinizi
Saygı
ısmar
oluyorlar
ilçede
Kızlar
##ito
ateşi
görmeyi
##pos
püs
##ınızdaki
duyduğunu
##avantaj
##deksi
başlarına
öğrenmeye
işadam
noktayı
Duvar
konuların
kaymak
nedense
##port
##tiğimi
kalabilir
##çer
Veri
popülasyon
izah
yığın
Yoz
tümör
##sanın
kavramlar
askerin
normalde
Seda
harik
Namaz
bakımı
Çocuğun
paralar
Kanser
markanın
otelin
##ague
yöneticiler
Eee
hasret
##INDA
sıcaklığı
##ıklar
from
krizin
düşündüğü
saniyede
##instein
bıç
yetmiyor
hazırım
##emeyeceğini
destin
çı
##azara
Guar
##arız
GÖR
##ladıktan
edeceksiniz
##dükleri
##elerindeki
Kahvaltı
##DS
söylerim
tedavisinde
görebilir
ötesi
oturdu
oranını
hayret
görevinden
img
hisseder
Cy
##via
istikamet
topluyor
yapılabilecek
##rensi
Petrol
Lüt
seferber
aff
kurallarına
Yönetmeni
alda
gösterin
ararım
özgüven
##lad
manken
##PO
fıs
ru
##amazsınız
Keç
planlanıyor
vatandaşlara
algorit
görüşmesi
piç
ateşe
Seren
oluşu
##cra
harç
grip
uygulamasını
uyguladığı
izlenim
##ister
kullanmış
reddetti
barındırıyor
##maca
söylemesi
Ergin
ideolojik
sarımsak
kuyru
olabiliriz
televizyonda
hatalar
koşu
##itleri
Harris
##mamıştır
felsefi
Luke
Bilemiyorum
Kurtar
karıştı
Miller
olabilmek
tanıttı
açarak
hedefleri
##IYOR
cüzdan
##lamıştır
muhatap
hukuku
kışkır
türünün
Dizinin
festivalin
baksana
Canan
Space
deplasmanda
felç
birazcık
yürüyen
örgütleri
öneririm
inceley
##ılacağını
Rec
baktı
götürecek
yaşlarında
görmem
söylendi
yazarken
alacağını
sözlerle
alıntı
Toplumsal
Pri
##tron
Karabağ
ını
gücün
##iğine
aksesuar
hil
sitesinden
Dig
Üstün
##TT
İdare
drama
1920
Trav
kıvam
##alp
aziz
Korkunç
koltuğunda
Düzce
##itt
parf
bildiğini
girdiğini
maddeleri
muayen
Saint
nasıldı
çıkarmış
hayatımıza
kalktı
##elerdeki
sonunu
##cığım
##fab
##ginin
SPSS
doğaya
değişiklikleri
##meyip
Sırbistan
olanağı
Bosna
yerlerini
mesajını
trajik
Yetiş
prestij
sonuçlarının
kulağa
burcunda
ilacı
edeceksin
Yör
görülecek
yetkisi
Uf
tutarak
Tuhaf
verildiğini
Kadının
Bağlantı
haberde
bölümün
##ruklu
yaparsın
kaybolan
kağıdı
susuz
merkezinin
deneyin
öncülüğ
fakült
rekab
##abiliyorsunuz
##fiye
bilginin
sorusunun
##mine
Fidan
sembolü
gittin
Bang
##comm
Elon
haberlere
getirme
hepimizi
Deb
SU
ameliyatı
oturduğu
kullanıyorum
önerisi
tercihi
##ebec
Deney
hallede
tipik
Şiddet
iktisadi
Gayet
İçeride
##ımızdaki
##dor
Sorumlu
##veti
nüfusun
##dut
bahane
bakarsanız
lens
##lacağını
taşıyı
mükelle
ulaşması
gey
##ree
AİH
DEĞ
lü
başımıza
öğrenen
Dak
Danıştay
fiyatlarının
cay
yıkıcı
edilip
bazılarının
uzmanları
1974
Tesis
sınırsız
tişört
katında
Uyuşturucu
##lıların
konuşul
nasip
kurtarmaya
açılışı
Person
lastik
kılın
##bilmektedir
##ECEK
##esteleri
konuşmam
filtr
Toplu
kusura
veremem
gerektirir
YK
ekonomisinin
anıms
Sibel
siyasetçi
Günay
satmak
tutulan
şubat
aralığında
##ileceğini
yaşadığım
olanın
Erc
spek
Kobani
hedefleyen
katta
etrafta
pamuk
Karşıyaka
seramik
yapısına
almakta
##batı
Başkanlık
rakamlar
çan
Kralı
topladı
oturmuş
çalışmasında
Tarık
söylemedin
##hidrat
Qualcomm
tekme
işlemlerinin
tutuş
##ebbet
internethaber
##bileceğiniz
edince
ülkelerine
##çılı
Albayrak
Birini
dengesiz
sekret
Gökçe
kızların
kongre
galip
##rov
YEN
mülteci
Karabük
lojistik
değerlendirdi
##melere
##sizliği
hijyen
##dra
ilke
getirebilir
çatlak
geçtim
bitiş
üm
davul
yapısal
EK
cevaplar
bildiğiniz
tesisi
450
Sonsuz
arkada
##eşte
##raft
notu
##ahür
yerle
Marg
konteyn
mutabakat
GEL
Hepiniz
çizdi
kızart
grupta
atıf
gösterdiğini
amer
##danoz
##ayız
Dava
yiyecekler
milletimizin
muhakkak
##hum
Cra
Anahtar
Cenk
buluşan
azalma
Bitlis
yitirdi
dolusu
##taat
imkanları
Sırf
ulaşılmıştır
sul
##INA
yelpaz
çarpan
büyümüş
gazetecilik
davayı
Opera
##uty
Tün
çapraz
##star
kadarı
##lemeleri
yaratma
hastalığa
boyutta
salonda
##kam
okulların
##lerimle
Patrick
anlatılan
mekanlar
yerleşik
##get
##larız
##ronot
##pon
istediler
Köp
Halkın
dinliyor
Burayı
düşecek
##asyonlar
Williams
##DEN
##gs
1080
tahsil
bilinmez
karşılaya
dilekç
tanıdığı
##wen
##üste
bulduğunu
temeli
uygulamaların
yatırımları
ulaştığı
sözcüsü
okuyu
silahlar
evlerinde
halihazırda
##elçi
bulunmuştu
senarist
Yetkil
bulunarak
##lığındaki
yatağa
##eman
##larınızda
Bağış
Krallık
bileşen
Nij
bölgeleri
deneyimli
şansını
eserlerini
kapanış
Sean
yazarları
Milletvekil
anlamadım
Ru
##üşü
kartları
kameraya
Onlardan
kuralı
Kelim
SOR
ellerinden
kastet
IN
sağlanacak
ürünlerinin
##sor
fırsatta
tutmuş
Ufak
##24
bedeni
Meteoroloji
yaratır
onarım
başarmış
EY
takıntı
kavur
kanama
giderse
kurtardı
peyniri
##mazdı
favor
teyit
tarımsal
metrelik
Finlandiya
bülten
torun
Binlerce
dilini
Takip
bahsediyorum
atama
Kafkas
nihayetinde
Mos
eğilimi
Mür
gelmeyecek
takılan
bırakalım
Çorum
durmadan
Oru
Karan
sorul
##leşmeye
güvence
söylemedi
##witch
fırça
görüştü
giydir
işadamı
etapta
öğüt
Yatak
Kürtler
futbolcular
tribün
motoru
köyde
iflas
takma
##inda
sizde
farkındayım
arabanın
MÖ
dez
yıldızlar
insanlarının
##hem
ifadelerine
gov
ur
param
benimsem
geçirdik
törenle
cazip
orda
yaşlan
konten
##aryak
ötesine
torba
Müf
DEAŞ
tabanca
gerçeğe
##üyordu
ilçesindeki
Ayrı
##cılara
Melis
Eşim
##OB
##ahil
Ci
pal
aileye
ağzına
hallederim
tet
gerisinde
kurulacak
kavramını
tedbirler
##rie
##emiştir
Cezaevi
##iyatronun
ısınma
yeş
hipo
oluşmuş
gülüms
muhabirine
trafiğe
ÇIK
durdurmak
Giy
mudur
Aşı
##lıyorlar
sanığın
##avul
kullanması
Hed
ortasına
ordusunun
Endü
vurul
müjde
Şem
##15
Fazıl
##mu
ekleyerek
öğlen
çiğn
Vücut
Çekil
adamların
dramatik
belde
üretken
anlattım
##feransı
davranışlar
Şair
benzerlik
Kişi
##abilmektedir
##rome
sent
yönetimindeki
Trakya
ücretli
geleneği
menfaat
alam
portakal
Ange
gösteriş
makarna
zarif
##İV
##LİK
kasım
##abileceğimiz
padişah
rahatça
seçil
arıza
karşınıza
##cen
temelini
tuttuğu
çağrısında
Dave
##hew
##pool
yüklen
yaşandığını
##emeyeceğim
AP
OK
TEM
staj
##tions
havalandır
ANAP
Lakin
yürüyerek
gürültülü
##ikan
jener
ünif
kuşk
Profesyonel
Kader
Hükümeti
erecek
dönemini
soykırım
modelinde
Vas
Meden
sahiplerinin
Otobüs
bölü
gözüyle
##culuğ
perşembe
Bitti
Gürc
Rüy
##güdü
##sedür
##aspor
askerleri
ardına
Kuru
##etiği
kompoz
villa
Çağlayan
Studi
##erse
Geriye
söyleyelim
vasıtasıyla
Taşı
eng
tutarı
savunu
üçün
ettiğin
dı
olmalıyız
dehşet
engeller
tezin
efekt
eleştiren
mübarek
diktatör
DC
feth
isteriz
##riye
##kim
Gerekli
By
avantajı
özelleştir
##düğün
suyla
Oto
yarıyor
puanları
##mamalı
afiş
izlenen
istes
içerikli
##kadir
##dian
tezahür
mücadeleye
##çağ
inek
binaların
##skop
kuruyor
Artvin
Yu
Stadı
kiralama
övgü
##ayn
halt
binin
##aklar
derdim
öksür
##YON
tatb
paylaşıyor
füze
Meğer
alıyordu
##uysa
getirmiştir
kültürün
Maz
çaplı
dezavantaj
beynin
##ımızla
sizce
soruşturması
Fey
demokrasinin
bizlerle
buluşuyor
unsurlar
açıktır
farklıdır
SEÇ
Özetle
bayılır
MB
1983
direktörü
hükümete
##ance
Katolik
başkalarına
sanata
BO
##miyorlar
menü
yapmaları
yapmalıyız
günlerin
İstediğin
enj
doğruyu
sürücüsü
##cısının
Merkel
vokal
kullandığını
Vedat
şudur
çeviri
bütünü
dilde
Miami
anları
##cial
yönetmenin
iyiye
mimarlık
Let
çıkacağını
davranıyor
Yozgat
çözüme
gebelik
kuşku
belirtir
##ely
müebbet
geçirme
Kocaman
cesed
pazarında
##tali
yayına
doğası
Alkol
Veysel
inanmak
kısıtlama
etiketiyle
Önceden
Cr
##acağımız
İstat
Yeri
araştırılmıştır
dede
170
Kaldı
##zade
yemeye
kokuyor
özelliklerinin
üniversitede
yükseliyor
aileden
etmiştim
güce
danışmanlık
##duğumu
Üye
çalışıp
müd
tekrardan
##iliğine
Oteli
manzarası
##elenen
istemedi
açıklamayı
Kurtulmuş
isimlerini
tozu
Aklım
müteahh
1979
binada
##ilebiliyor
eşyaları
Güngör
düşünmeden
sahiplerine
ödünç
yiyip
Edition
dedir
ünit
istemiştim
uçağa
Jun
Sec
Bebeğim
Hükümetin
bugünün
kabiliyet
##ililer
değiştirecek
aynısını
Vladimir
##32
##pas
umurunda
##abir
Albert
##abey
duyduk
geliyoruz
dolap
teori
Evli
favori
arsa
geçim
anlamış
iğn
arkadan
bulunmadığı
##mazsınız
girdik
mesleği
ateşli
##elisiniz
tuvale
finale
Zirvesi
götürüldü
geçtikten
örtü
Marie
soran
girmeden
Sovyetler
Bud
##brit
Ky
plat
Law
havadan
##nü
bilek
güçler
Gürcistan
Kelly
gelişimini
Girişim
Üm
Annemin
binalar
Teşkilatı
koktey
##dekiler
arkadaşlarımız
siyasete
Derya
yalancı
oyundan
Planı
##enha
sanıyorum
vurgulayarak
Münih
yoksulluk
oranına
##çılığı
gözetim
##had
vaj
Sıkı
yiyor
Hemş
şurada
##mega
görüyorsunuz
nispeten
Kazım
ortamlarda
Senaryo
Anıt
Afrin
topluluğ
kurumun
söylent
##ronik
##aliforn
##eke
Gazeteci
Egemen
##İNİ
dönme
kitabının
akıcı
Yasin
ağustos
##not
başlayın
##lecek
yaşarken
deş
yerlerinden
##LIK
##tive
Boğa
Julia
##doğdu
yazım
açıklaya
Borç
yaklaşıyor
dergisinde
bileyim
müf
dindar
lif
seans
kilometrelik
öyk
Utan
varım
konuma
vücudu
Kalif
kapandı
##karahisar
Hum
kova
siyasetin
Müthiş
Turn
kapattı
sonbahar
döş
aittir
mutfağı
Birinin
efendi
Esn
simgesi
hazırladı
istenilen
seçtiği
uyarlanan
politikalar
yetkin
icin
Şükrü
ederseniz
tarikat
satışları
tartışmaları
işlerine
tems
Romanya
##pri
cihazları
bahsetti
siste
Rap
##kanlı
salın
olmalıydı
Pete
tartışmalı
ehliyet
mücevher
azı
güçsüz
doyur
peygamber
açıklık
mezh
analizleri
geçiyorsun
yöntemlerle
##lov
##ırsak
mekanın
Karakter
##iley
bulması
##ılmalıdır
incelendiğinde
Nüf
##MAN
sahur
Aradan
fincan
dalış
##ologlar
ırkçı
Risk
TIR
hayranı
çekimi
çizim
##ouch
ıslak
Peg
bakıyoruz
talepleri
Nilüfer
##çeğini
Oran
##oyol
Katil
Blue
Uşak
Alevi
inanın
aks
özelliklerinden
Korkmaz
taraftarı
projesinin
çekebilir
kullanırken
star
gerçekleşiyor
mg
##furt
döneceğim
olmamak
işlen
planlar
merkezde
çatışmalar
GEÇ
konseri
kılıyor
motif
TOKİ
##düğüne
bölümleri
Hristiyan
söyledikleri
saldırının
otomobilin
##atını
metraj
##mamızda
kişilerden
konv
sahnesinde
Masa
##İP
MÜ
Maya
Büyükelçisi
##ayir
AİHM
memnuniyetini
##sky
Tayf
duyuruldu
işçilerin
Kovid
Satür
filmlerinden
Bluetooth
beta
tüc
##zheimer
##gy
##isiydi
geliştirilmiş
Anlaşılan
Love
etmekle
türkü
dere
saatlerce
Marka
daral
benimsen
element
iftira
Baksana
kahkaha
##veni
badem
doktorlar
unuttum
Günümüz
Hizmetleri
kısmından
evinden
gösteriliyor
Steven
Leo
şiddetin
Yun
yapmayın
inancı
mahrum
Güvenliği
medyadan
##donez
hızını
zirve
##bot
Eylem
##pazarı
hane
sektörüne
şan
Testi
yatkın
##iğinde
##cha
kapasiteli
dersler
##OĞLU
##99
yöntemle
analizler
Call
personelin
yürümek
müsait
yapmasına
zenginlik
##mayıp
Kun
##olos
cehennem
armağan
kapatma
çelişk
##esidir
kasten
segment
sağlayarak
kırdı
flört
##liliğin
ilerley
cezaevinde
pröm
hayattan
gazetesinin
sperm
Mari
1973
Media
fikirleri
Oğl
##arsa
Laborat
bitmedi
Kardeşler
lafı
maçını
aktarıyor
Şak
Korkarım
tüketicilerin
Dönemi
içimde
yapmamı
değerlerini
sakinleri
İlgili
Budapeşte
Çır
antioksidan
umurs
güzeli
BUR
yazarların
oluşturulması
Kosova
olimpiyat
##bara
##fle
##ilmi
seçti
sistemlerinin
Carlos
##zani
mola
müsabaka
Madde
çeşitlilik
Nijer
Olum
hazırlayan
çalışacağız
yavr
İhracat
hatam
Hatice
kulübün
kaynaklardan
uzaya
istemediğini
##ahattin
inov
erkeklere
başarıyor
##Plus
##esif
varsayım
evlendi
saygılı
davasında
saklan
Larry
gittiğimiz
geçme
dönmeye
Hikaye
kazasında
çalıştıklarını
uyarısı
##alifornia
##urlar
hoşlanıyor
tanıtımı
şarkısını
algılama
Kira
Uyar
romanın
Fon
halkla
Getir
hort
açmaya
##temiz
sokaklarında
Başrol
Susan
kıyısında
hareketler
yanlısı
Ailen
elbet
psikoloj
avantajlı
Kle
düşünüyorlar
biliyorlar
##AYA
duyurusunda
Brun
topa
isteyenlerin
Resul
Sekreter
başkaları
projede
rakamları
Yemen
##lemeler
Bulun
Ang
##lib
Hazret
inandırıcı
##lıklara
beslenen
müddet
##eğiniz
past
Ayş
##süel
federal
verdiğiniz
muaf
yayını
atılmış
kraliç
##iliğinin
Fernan
görelim
##ego
pandem
Honor
ekle
seçimlere
derinlemesine
keresinde
Bisiklet
Bruce
Roger
gösterildi
arayarak
ilişkilerde
Kaliforn
SSK
seçme
erdir
kaynaklarının
Morgan
##lağı
Fr
yapılmasına
artırıyor
imzası
kapıları
kuyu
gözünde
boğuş
##stanbul
haberim
Tuncay
karşılaştığı
ettiren
kumanda
hası
belirley
eşine
##sah
hastalıkların
adaylığı
Ülkemizin
##oksit
lap
Hatip
restorasyon
tanıdığımız
##peryal
Oradaki
##fone
Camp
##abilme
anak
bindir
yasadışı
Şirin
Nov
Sum
süresinin
Vegas
iman
gözaltı
##emeyeceği
entegr
Çılgın
Angela
##saf
Lew
##endisi
prodüksiyon
Bunca
sanatsever
barda
duruşu
dokunuş
arkadaşlarına
Eng
ölçekli
dum
merhamet
aralar
kuzu
başarısını
Jennifer
Shel
bölgesinin
gelmem
çözmeye
##MB
##ımılda
bağımsızlık
##ADI
Mutlaka
ST
hayatından
gelecekteki
ilgilenen
yılındaki
çatısı
konuşacak
kesildi
##iyeler
kontrollü
renkler
uçan
minimum
dayak
hedefle
ismiyle
##sterdam
Müşter
BEN
üvey
alerj
sefere
TR
özelliğine
Allen
yaşamına
okuyup
##uruz
Aktaş
resimler
milyonu
Rub
##ifik
kardeşler
##eliyim
yırt
başkasının
##muşsun
Finans
namus
##ırdım
etkilerinin
Gezeg
usulü
##çelik
gelişmelere
##anızın
sinde
değişimin
##balığı
Anth
söyleyemem
kaybetmek
dönüşür
İrfan
##ello
elli
##osta
Çeviri
kapının
üstünlüğü
Başsavcı
Ayvalık
##ox
Fethullah
Nazi
gölge
karakol
manev
yüzük
kavramsal
dönüşen
nişanlı
Satürn
gündeminde
aralıklarla
kuzen
Vural
IP
##hap
hazırız
Ordusu
konuşmalar
##aryakıt
Bilge
bugünlerde
pekala
mensuplarının
Howard
buton
kontrolünü
Cumhurbaşkanımız
iğne
zehirli
ekranın
sandalye
yetecek
kesip
erkeği
Life
mülkiyet
yıldızın
MEB
erim
Karay
News
##uver
gerçekleşmesi
MİL
koyacak
çalışacağım
arkadaşını
söylüyordu
çeyreğinde
paylaşımda
Dündar
etrafındaki
bahçesi
kadarki
##patik
##üh
metaboliz
hı
sinemasının
büyüdü
kendiniz
dakikaya
doğduğu
resimleri
Barzani
Full
##sion
Bilal
cansız
telefona
Refah
cok
konusudur
çorap
##NET
Dog
özlüyor
##ımdaki
Poz
Sid
kazanması
Hang
Almanca
Yaratıcı
rap
##Cİ
Hüc
##iret
Enver
##ceğimiz
geriledi
havacılık
Dark
bölgelere
Acun
kırp
denizin
bahseder
Afet
##lıcan
##dırma
##ABER
sihirli
##edikleri
Arzu
kırılgan
uygulamada
birincisi
mele
verilmesini
Çağrı
efsanevi
rahip
provok
ünü
arkeolojik
##larınızdan
##ometrik
elektro
yapıcı
kanıtlar
mekanizma
tembel
işliyor
##mişlerdir
çalışmasının
##ınının
kalbini
bırakılan
##ÖZ
Gecesi
hur
çevirdi
len
##CD
paraları
okuyarak
MERK
dolandır
oynamış
küçücük
Kanı
##irmen
##istlerin
duvara
dönemden
EL
bitirmek
Hastalıkları
##dına
faaliyete
resep
poli
çifte
##landığında
gazetelerde
olmayacağı
##ild
vatandaşlarımızın
Ergün
geçmişş
##asyonları
fenomen
kaybettiğini
yapısının
yeraltı
devral
Coun
ekonomisine
Afyonkarahisar
Burdur
kararlaştır
##sünün
##lekli
soğutma
vermeyeceğim
hack
Feri
ilkel
yürürken
tahmini
ali
renkleri
kullanılmaktadır
Endonez
kişilerde
Aralarında
Sinop
kapasite
gastr
canlandırdığı
duyma
geçirmeye
işimi
ödeyecek
##eticede
##dyum
şefi
##53
evlenme
söylemeliyim
hakkın
imsak
asıllı
korkutucu
Chuck
Kürdi
tutuklama
kurtula
Memleket
##ilmiyor
yapamaya
Tedavi
kararla
Jay
metod
kurula
eklendi
karıştırarak
California
Diyet
sınırlandır
Bulvarı
konumlandır
teorisi
alanlarının
önemsiz
Yöntem
rüt
kapatmak
inen
hissetmek
filmlerde
yapmakta
##lüğündeki
merm
diplomas
##nat
temp
Annie
Filiz
enflasyonun
mensubu
##ımar
gösterime
kullanımını
özetle
tabur
döngü
Tutuk
tencereye
duyduğumuz
direksiyon
yükümlülük
açılır
##vercin
akıntı
kodu
zirveye
itaat
anormal
Aykut
sıyr
Cemaat
gençleri
NBA
sağlanan
röportajda
Ülker
hataları
İlker
patent
Sanay
Metal
Flori
ög
kaçırma
adliyeye
gömlek
büyüyor
Bozdağ
döneminden
##ispor
White
düzensiz
örtüş
takipç
şaşırdım
adaya
Netanya
kaynakların
lah
yapmaktadır
çarşamba
##yoz
Benz
ikramiye
cezaevine
karşımızda
TIKL
Politik
yönetimin
##dırlar
kasted
iyileştirmeye
Haftası
tarafını
takı
birisinin
olanlardan
1975
katma
gitmez
Sıf
##ciye
enteresan
tükür
metrekarelik
enstrüman
babasına
Astr
içeriye
olsalar
hesapları
##aldo
yerlerine
millete
Amb
DEN
##lerinizin
gereklidir
gözünden
##ılacaktır
Şif
Felsef
devamında
Ankar
kaset
ucunda
etmeliyim
trafiği
Organize
sorunlarının
##eft
konulardan
çağırdı
##çıları
izlediği
hayatımızı
gerektiğinde
kapağı
çiftlik
birisidir
oyunlarını
karşılayacak
##ville
temalı
dinleyen
##tikçe
Gözlem
##falt
öncesinden
##asıI
medi
gerçeğini
annesini
Akrep
otele
Aslına
işleyiş
OnePlus
Mektup
Sizden
kardeşinin
Kaydet
edebiyatının
Cel
Amsterdam
Kimseye
büyükelç
prosedür
##ysan
##mıyorlar
terim
hukukun
Kraliyet
haklarının
kazanmaya
Bok
Müziği
çırpın
norm
zalim
siyaseti
yollara
cisim
Partili
##bs
##ikleri
konuşmuyor
##bus
demedim
kurulum
turda
mantığı
ODTÜ
##itch
Müj
bittiğinde
başarıyı
lazer
hedefe
have
##verdi
Victoria
Kyle
Sön
##EP
tutumu
atıştır
##ude
##lerimden
savcılık
karbonhidrat
cömert
yanınızda
Toplantısı
Sancak
##meyeceği
ağzını
eylemleri
gösterme
gibiyim
çekmeyi
keşfetmek
sırr
yansıması
##tex
yalın
Ross
Cro
Tunus
yollarla
girin
kalacağım
Nişantaşı
##VA
alışık
Ecza
göt
üstünden
##bire
şahsi
hücreleri
ramazan
##olk
Anlaya
Clinton
gördükleri
erkeklerde
düştüğünü
Eroğlu
Brit
Bilimleri
havanın
hatırlar
##ical
Beat
madem
##tığından
değerlendirmesi
teyz
Justin
kışın
endeks
Netanyahu
Lucy
Doğrusu
Ayı
gitmedi
yaşanabilir
sendika
Yakala
Spo
sürek
koruması
hızına
karşınızda
MERKEZ
Göztepe
SA
Liv
bro
##dirler
gücüyle
birisini
##tekar
dinin
##tici
tabut
Jet
verdiklerini
##Book
pomp
##ğit
Ülkemiz
##TÜK
Mine
sayısına
dokunma
1930
şunlar
##işey
##eleyen
Sineması
##uba
Dip
büyülü
gazetede
örgütüne
Tri
seviyesini
güncellemesi
##enny
Platformu
ayık
sebepten
Muhalefet
Forum
bagaj
ES
çorbası
Nö
boyutunda
Grace
adresinden
Bale
Alınan
mevz
vücudunuz
Raf
görünmez
DSP
TIKLAYIN
Kayser
HP
Christop
Gecenin
nitel
Kırım
neşeli
##gunu
Uh
Battle
##ule
üzülüyor
bakıyorsun
mahkemede
buldular
##duğundan
yönetmelik
##falet
evlerin
Burn
anneler
anlatılıyor
Vaz
but
konuşuyorsun
Om
Konuyla
##press
sağlaması
101
denizi
Pho
sosu
UY
Standart
yandaş
Sci
##çıl
gösterip
gittiler
manyetik
##lamenter
avukatları
kurbanı
kapsa
Aksaray
186
istikrarlı
detaylarını
taşındı
yapılmaktadır
birilerinin
Maked
Akademi
patronu
Topal
şansım
ipuçları
duruşma
saldırılar
hel
niyeti
##mediğim
davr
hayatınızda
tuzlu
Bitcoin
##dığa
##PT
Young
Valen
will
işlediği
##çekmece
Tale
ustası
bronz
Kaliforniya
sürül
Havacılık
buranın
kaçmaya
##gresif
büyümesi
Fiziksel
ayrılır
iyileşme
sonlarında
kurarak
##je
incelemeye
Kırklar
arat
oluşacak
Çiller
uzaklık
##att
sayım
öğrenmiş
##onim
seçimin
umuyorum
hayalini
Cry
Lucas
performansıyla
##iğinin
##ilet
##atar
baylar
nakil
BI
kabak
Pixel
##laşır
Şubesi
##yaşı
girişinde
Endişelenme
FPS
Hilmi
gezegenin
Açılış
She
Ekmek
umuyor
mermi
##elsea
##ture
##ilmeyen
ferah
Wilson
dikkatimi
YAR
beklenti
böylelikle
liler
uygulamasının
resm
saldırıyı
LED
Dünyadaki
sahneleri
filmlerinin
pahasına
KCK
verimlilik
uyuy
##çatı
Türkan
Ferhat
Boşan
Yayla
çabaları
mikrop
Liste
dinam
Vincent
##ucak
medyaya
karşılan
köfte
ayakları
Laura
OY
ihlali
Ton
denklem
ciğer
tempo
koordinasyon
düşünülmektedir
ihtiyar
arkadaşların
ekonomiye
sergile
##phy
Fikir
Halep
puanla
İktis
kazandıran
Ryzen
SD
özenle
başlangıc
yollardan
hücreler
##eyting
Bayanlar
beğendim
rahatlat
Elektronik
yansıtıyor
RTÜK
katılmış
mücadelesini
faaliyetlerinin
İkili
kuruluşlarının
##ded
Oruç
DT
kapatıp
aracılığı
##meyeceksin
Hamdi
filmlerinde
yaradı
uyanık
Hoşçakal
acilen
internete
İslamcı
Esnaf
olayım
hesaplama
rejimi
ortama
Birazdan
Düzenli
Titan
megapiksel
olmaksızın
kapıya
Rep
##LAM
göremiyorum
Clo
inanc
##yıla
gazetesinde
Sudan
1977
asi
Filmi
Kulesi
öğrendi
tanımlanan
kullanıcısı
Hub
cem
lob
karım
aydınlık
arasındadır
limit
hiz
topraklarda
üretime
##23
##ansın
seviyoruz
edecekler
##ografisi
Jüri
Habertürk
festivalde
1981
peşin
törende
birisin
Marşı
çekimleri
##abilitasyon
inter
##lamaktan
aydınlatma
koydum
diledi
Farkında
kullanışlı
yağma
##lop
üretimini
tıklayabilirsiniz
ödemesi
Enter
##vard
##lıoğlu
besinler
Britan
Galata
araçla
bombası
Had
Gib
zorunluluğu
240
hakikaten
##ıldıktan
geliştirmeye
bedensel
inçlik
şehirlerde
Tapın
uyruklu
durgun
##dol
##eğimi
##ivayet
halled
Ortada
Düşman
Sef
Çarp
Şeb
kapatın
internetten
zorluklar
##mektedirler
Bilimler
ilçelerinde
##emanın
##tansiyon
##ERS
dilin
##mark
kalabalı
ülkemizi
tabela
Aklı
Joy
Hur
dor
##ranç
atlet
güçlerini
derledik
festivali
kaybına
ağzı
Köprü
Olsun
Belgesel
##beti
Yaralı
seviyesinin
çocukken
tedbirleri
tesli
işlenen
sağlığına
adapte
##dının
görüşünü
##hassa
Alzheimer
İsim
##riz
arkadaşlarını
cins
bitim
1972
dağılımı
sandviç
birimleri
nakli
##haleye
istemeye
za
gecikme
karav
hol
kitaba
Halit
Müslümanlar
adındaki
bulunmadığını
duyunca
##lanmasıyla
Gösteri
nostal
düzene
Chelsea
başkanlığında
mühendislik
nezak
Saati
##ÖL
##akları
vampir
pürüz
rüyada
##yılı
##ayiş
Barry
##aslan
##landıracak
maçları
bulacağız
değişmesi
kahverengi
Tosun
my
kak
bilimi
Oliver
taşıt
buluna
mühür
sec
şirkete
Ankaragücü
büyükşehir
attır
##tiğinden
faaliyetlerine
çokça
almayan
kesimi
Öğrencilerin
##kay
##tia
medeni
motive
Lale
kafat
göndermek
memleketi
##ilde
##lemede
filmden
gizlilik
şikay
sonun
taviz
pekiştir
##rağı
hayatları
##eliğe
azalıyor
bölümünden
hipotez
Online
gösterebilir
Matematik
solo
##indan
##amamış
Kilo
kazada
Kep
Çoğun
düşündü
artmış
kapsamına
mensupları
##UB
çete
Sanık
Taliban
ri
filmiyle
planlı
Çağlar
Endonezya
yayı
yetişen
Hall
ambar
atalım
HAK
yetim
##miye
arıyoruz
maçına
opt
istiyorsa
yalnızlık
Depo
##tayım
danışmanı
fazladan
yolculuğuna
geleceğine
##ızın
##vanç
Singapur
##lanıyorum
Zamanı
Duygusal
##ingle
##EDİ
Alaçatı
Ürdün
Biliyorsunuz
Köse
geçişi
Erhan
olmamasına
1971
geçmesine
bakla
Mevlana
McG
Niğ
Parçalı
Cle
##usi
suçluyor
samimiyet
kariyeri
duyurmuştu
yankı
olmalıyım
Yengeç
bırakıyorum
pasif
Abdülham
Tac
yüksektir
KAL
ney
noktalar
başkasına
düşme
demesi
Dök
Tug
raporunda
almasına
antibiyotik
çıktıktan
Yıllık
##non
yerlerin
Sivasspor
mağduriyet
1968
çığlık
dilinde
Tahir
Nez
edemiyor
ine
devret
##gust
salat
Gizem
tom
cumhurbaşkanlığı
maydanoz
##fred
Gas
HTC
seçimlerin
##tasyon
Akk
tasavv
çıkmayı
##memize
alabilmek
bilgilendirme
sistemler
##TER
yararı
hom
Sarıgül
müraca
düştüğ
KİM
##VD
##ceğiniz
yazmıştım
sarma
faktörlerin
galer
##no
mahrem
1978
##ternational
ihrac
köşeye
femin
oyunlarda
Dean
##ides
Majesteleri
öğrenir
götüren
toplayıp
orantılı
OLED
zamankinden
Antal
artıran
sigar
sağlamaktadır
Rahmi
piknik
eğr
süresini
bulamadım
baya
##liğimiz
hedefler
bitmez
talebinde
mevduat
##sası
demiştin
yarısından
vahim
Pekin
yarıya
##DİR
yayıncı
##inecek
Youtube
doktoru
endüstriyel
Görsel
##irlik
görmüştüm
##MK
toplandı
aşısı
anlayışla
Muhtar
Haberi
eur
işlenmiş
üyeler
Kızın
uçakla
üretiminde
hemşire
Arena
köpekler
gündemi
konuşuruz
Fuar
görevler
yanan
yönünü
bilmeden
koşan
Mevlüt
bulduğumuz
türb
gor
sağlanıyor
olayını
havlu
görülmeye
kalsiyum
kitapların
gideyim
##edek
komed
Nathan
görevde
##abileceğim
gerçekleştiği
BAY
erkekleri
Kek
##adok
bahis
değişkenler
bağdaş
ölçüt
yurtdışı
Koronavirüs
selfie
özü
Emrah
Vergisi
santimet
şekillerde
etkiye
silahları
yetenekleri
Filip
edilmek
gelelim
flaş
zorlama
##formasyon
MK
OP
Soruşturma
Lise
Kiev
Ataş
liderleri
Afedersiniz
Caner
Ümran
hastaları
##eller
Chi
düzenliyor
hissediyorsun
Ayas
##ref
geçeceği
norma
yanıma
Şimdiden
gezgin
türkiye
dahaki
kırılma
etmektir
ekranlarında
KAY
##ayarak
dağınık
ank
çevrili
artırılması
Tatlıses
çıkarım
seçenekler
muhasebe
Hiz
ket
##tane
Kaçak
GTX
çıkartıyor
##atçı
içmeye
sevmem
kaos
Suz
ığı
dengesi
örneklerinden
soracak
Light
EP
içerdiği
##amızdaki
Sıfır
Hapis
merkezindeki
bulacağım
değerinin
empati
aralarındaki
Uslu
oluşturulmuş
cephe
statü
dönerim
Kolomb
##tırma
##artmanı
mükellef
gidem
özgürce
##cedes
sevmiyor
mazer
içinse
kadarını
yazarak
gerektiriyor
Yere
sevgisi
##cağınızı
Yolda
anısına
geçirir
Bez
ASUS
incelemesi
sessizlik
adaylarının
kalmadan
görüşmede
tl
eyaletinde
öncülük
severler
pazara
bulaştır
Jar
azaldı
desem
periy
hesabına
Power
Kulağa
görüşmeye
elime
Sadık
Masum
Muhammet
##lic
Kişilik
yasası
uzaylı
Stefan
##asan
yaşındayım
Ayakkabı
tanesini
söyleşi
virüsün
yapamazsın
masasına
Hayatını
getirdiğini
futbolu
##ction
kaka
ülkesinin
parasal
Arı
##bül
indirimi
süreleri
##ross
tanır
zorunluluk
yatırımı
Kürdistan
##onna
Smart
etmediği
Christian
cezasını
##deleri
olasılık
Temsilcisi
istasyonu
Kelebek
Hafif
İlköğretim
Çınar
##unlu
bildik
tasarıma
vaziyette
Im
##lari
evliliği
kıyamet
döndüğ
çuval
Olağanüstü
Kutlu
Kısaca
Destekle
Uludağ
sudan
yöneticilerinin
Sait
Erk
##yali
##tihar
dönemdeki
geçirecek
gelişimine
yürüyor
Kime
zorluyor
tümü
##ünüzde
Ömür
görürüz
##üyüm
Cooper
konuşuyorum
gideceğini
çıkacağı
karşılaştırma
pozisyonda
Üretim
bastı
Einstein
paç
##ikaydı
dükkanı
nasılsın
Zeh
kabl
hiyer
##atıyla
Gary
modelde
koruyacak
##liyesi
dibine
##emediğini
sahneler
elleri
sektöre
App
lansman
##MI
bilirsiniz
yapabilmek
insülin
edersen
Avşar
##törü
sözlük
buldunuz
sustur
Ari
Muhsin
şela
şartıyla
gezmek
gelirim
Mav
1967
hile
tamamlanan
bilişim
kullandığımız
##cro
sanatının
Home
astronot
Dua
Kafa
edenlerin
kendimiz
Elli
ufuk
faaliyetler
Mansur
bittiğini
Kırklareli
başlatan
videolar
yıldönüm
Ilıcalı
püskür
verirler
arabada
Jessica
Antalyaspor
milletvekillerinin
şuraya
ce
çekiliyor
azalması
##AZI
Aşağıda
önyargı
Bildiğiniz
belleğ
gelirleri
Finansal
hepiniz
üstlenen
İhtiyac
##SİAD
planlarını
##SKİ
GTA
maçının
uğradığı
olmanı
Adın
eleme
##acağımı
##gim
pazarda
huzursuz
kullanıldığını
çekerken
planını
tahrip
Malez
artmasına
üretmeye
uykuya
beyefendi
atölye
Çöp
Ebu
##eyip
arın
uygulamasına
doğrudur
Kıpır
üreme
Şanslı
tanımıyorum
yöresel
##sağ
getirmesi
Mada
Beach
Mitch
benlik
Kürtlerin
şantaj
Malum
Cezayir
##celer
iyisin
montaj
Karam
##abildiği
erdem
oluşumu
Pers
sorunumuz
tuzu
terfi
suları
##İLİ
Korkut
Düşük
diğerine
yönetimini
yapımcısı
temsilc
Seks
nüfusunun
pişmanlık
şerit
işinde
evime
sahipti
Lady
Konuşma
Elinde
##ento
uyuma
öldürdüğünü
Adayı
talihsiz
Voleybol
##alin
bakarım
aramış
hazırlıklı
yemeğine
YAŞ
yayımladı
albümün
Cevdet
kimya
bittikten
Som
elveriş
ayırmak
hakikat
Neredesin
ederdi
##peria
Fonu
araştırmaları
yenilg
nota
cihazların
##vri
Teknoloj
abartılı
Yur
yerinin
##IV
giydiği
hükmet
Spider
eller
##ingen
##mıs
arttırmak
bazlı
Sip
İns
kest
çocukla
Filistinli
##oğa
bayanlar
bekletin
##inger
beklediğini
1976
Pes
Oppo
Yaptığı
almadı
verebilecek
lirayı
İdlib
Tartış
Gram
gezen
cümleler
göb
neresi
##HD
yalı
ortalığı
yeğen
Barbar
Malzem
eziyet
yapılmadı
şikayetlere
arayın
bahsetmek
Amasya
##çık
yargıla
araştırmak
etrafı
yanıyor
insanlarda
burj
Alexander
cor
paydaş
##mayınca
vermesini
gittiğimde
edilebilecek
havalimanı
nezdinde
##üldüğünü
edemiyorum
sonucunu
Ardahan
##lendirmek
##ovo
sakinleştir
sormuş
hızında
hedefimiz
çarşı
Saraç
Anlamıyorum
##bardı
Kaide
geminin
suçlar
eğitimine
turistler
şoförü
parlamento
verilerek
Messi
getiril
mürette
##enko
şansın
yakışır
kullanıcılarının
yaptırmak
##jderha
Beyn
çiziyor
##ucker
Francisco
rolünde
Merhabalar
masanın
tedaviye
Pilot
##lotte
##loe
uçakları
5000
optik
ingiliz
koyma
uğu
konuşuyoruz
cahil
did
dezen
katili
görüntülendi
lardan
günlerini
##RS
Diyelim
##atch
barışı
testler
kapıda
korur
başlangıçta
fazladır
yerim
Kre
izliyoruz
opera
Music
hacmi
ülkelerinden
olmadığının
##hak
##idye
dolduran
##garenk
Night
Kapadok
altıncı
arkan
dinozor
etkilediğini
Time
yapacaklarını
hediyesi
Geliyor
bulunmamaktadır
##gic
alınmasını
mafya
##rab
##ladıklarını
üstünlük
##cast
geldiğimiz
Eşi
Gürsel
##alaj
konuğu
adada
Davran
##enhag
mekanları
##14
##lusun
önü
ifadesinde
##gers
dedikleri
Kasımpaşa
Sema
anlatayım
çıkıyorum
Niğde
bilinci
olasılıkla
bakışı
Karadağ
etse
eşyalar
Edinilen
##ydu
portföy
İkiniz
Dec
##gra
alanlarına
anlaşıl
denizde
oteller
tartışmalara
Masal
Cameron
kesti
vücutta
kadınlardan
İzn
Şela
kuantum
ayakkab
Salz
memnunum
Çalışan
mirası
tütün
sonda
A3
düzenlemeleri
##ÖY
türün
kılavuz
sanatçıları
görüyorsun
oyununda
yaptığına
Polisi
anlattık
öyledir
bozuldu
kategoride
Orkestrası
çeşitleri
Zer
devred
almaları
Yaşasın
Mikro
ulaşmaya
tepe
Venez
ödüyor
kazanarak
başlarken
dengesini
Sözleşmesi
alkollü
içgüdü
##subay
##lenmek
##sell
##ys
almanın
Arşiv
takıldı
Oğlak
korelasyon
Kova
##side
Şap
Florida
değerlerin
hatırlatarak
beyni
Numara
##mazdım
kariyerine
Nevşehir
araçlarının
Kimlik
kıyafetler
Bitir
sihir
##iyade
##otal
dönelim
görevlerini
kayıtsız
tik
kesen
kamuoyunun
Hırvatistan
kadim
hamilelik
##55
gerçekler
takımlar
değiştirmeye
Mercedes
Terörle
görmeden
##İSİ
Kuv
şeylerle
üretiminin
videoda
##ıldık
Tahran
##ısıra
Kapadokya
##elilerin
görünümü
bölümler
depremde
Anthony
eklenen
##ansta
hür
Araştırmaya
1969
Bilimsel
Buralarda
##ravo
fıstık
İstatistik
DÖ
sorunum
hastalarda
Topluluğu
korkak
##icileri
Tech
##laştığı
getirilmiş
iddiaya
##opi
istememiş
yaşananlar
edilmeli
Mala
soruna
takipçisi
sünnet
parfüm
ayet
##söz
oluştuğu
##limi
atandı
pankart
Deri
Gene
Üstüne
çalışkan
kavray
gelirler
Unutmayın
şimdilerde
enflasyonu
iyor
İyileş
kalkıyor
vücuda
Arkadaşım
düzeyine
Üzül
oyununun
##try
gittiğinde
HAY
ilahi
ilaçları
İtiraf
Sosy
üstündeki
bitince
BÜ
çayı
tehlikede
kaldırım
##düklerini
değiştirir
##ava
numarasını
sevdiğin
prof
Harvard
konumuna
Dünyayı
ağaçları
konuşmuş
zekalı
##raham
Tüketici
Kopenhag
ucuza
Pierre
Matthew
ov
##iplin
Que
Series
dönüşümü
geçelim
anlaşılması
gülümsem
verdiğin
istekli
yüzyıla
Karn
yapmalıyım
müvekkil
Sayan
Depr
uygulamak
kelep
Ked
köye
yarayacak
engelley
##izon
##lenmesini
iletişimi
partide
oluşması
diri
fizi
##ilebil
hareketin
sapan
Ade
kazanmıştır
isteyenlere
Ov
asılı
##mezdim
Christopher
Karl
ölümünün
cip
eldiven
kalkar
diplomat
sistemiyle
##dayı
çektim
##ramv
başvuruları
##ablo
golf
torunu
radyasyon
çekilmesi
gitmişti
aradığı
##hun
kapa
arkası
##oterapi
Kazakistan
##MET
karışma
isterken
anlatacağım
kristal
PS4
Sö
insanlığa
forvet
kamuoyunda
anlayışını
ık
paylaşmayı
amacına
yemeğini
üyelerine
termal
güçlerin
##lasın
açıklanmıştır
Spe
tüccar
ilgilidir
İddiaya
Lideri
##üfen
Gökyüz
SEÇİM
Toy
davranışlarını
ilinde
Faik
##osman
##lenmektedir
Wolf
yöneticilerin
sistematik
asfalt
içermektedir
aktarıldı
okuyun
##sit
Gökç
tabanc
##ibe
güveni
Cafe
sorumluluğunu
Xperia
CPU
Hı
##isli
etmemek
Sih
okum
şuan
yapmıyorum
pozisyonu
yüzünde
Konuk
kasıt
basan
psikoloji
yangını
Detaylar
##abına
##RI
kısalt
patlaması
tasarımcı
Oğuzhan
teknolojiyi
bahsettiğim
Mobile
Stres
kaldırdı
uçakta
bağımlılık
müziğe
birazdan
dör
Hayatımda
uygulamalarının
dolaşıyor
İzlanda
##HAL
Edebiyatı
aro
Danışman
Bara
evlerde
Şirketi
Colle
kaldın
eklemek
işlerde
##emiyorlar
aklınıza
ateşkes
Silivri
Yılı
Eşya
çekilin
Musul
yatay
Uyu
##cap
başvuran
Sırp
rekoru
kafes
ayları
annesine
soyun
Darbe
tükenmiş
##burt
çöpe
##ebiliyorsunuz
kooperatif
yarışması
suçlarından
arayışı
Jacob
sarsın
Parker
iddianamede
Özge
ilişkisinin
##aşüt
yerleştirme
rastlan
geldiğimde
##uto
koltuğuna
sorulan
kirlet
Değerli
Ufuk
voleybol
##mayarak
##tify
ilah
##alığını
okumayı
##lene
bölümüyle
kulis
##bani
hatip
çıkacaktır
düşünürsek
yapacağınız
güzellikleri
acık
nesne
içerikler
İbn
sunmaya
mahsur
İstersen
yudum
hissettiriyor
Ped
##latma
##koca
Hamam
kaldırılan
DYP
dinlenme
##azıt
kapsamı
sevmiyorum
ailesinden
indirmek
uzunluğunda
Charlotte
Bina
Kazada
Hanımefendi
Işı
uygulanabilir
güzelim
ilgileniyor
orkestra
##OC
Thor
araca
Kaldır
Fabrik
Nükleer
canav
seyirciler
atılım
Kendime
Kalem
Good
Ral
##ilmesinden
kaplumb
Emlak
sokakları
şifa
##yazı
Rön
yorumunu
tartışması
Harit
faci
satıyor
dub
Osmaniye
anma
pencere
oysa
##ADA
kıran
kolektif
mekana
izleyin
##nos
Dediğim
Karen
planın
Davis
Tw
##altında
tiyatronun
kaça
##uza
##lüğünden
bakarken
getireyim
aşka
Güvenli
##LEN
bilmediği
kalmasına
aşikar
ekolojik
durumdur
içeriğ
evdeki
Hata
faizi
##AMAN
konuşmaları
Yasak
atmosferi
kesmek
ideoloj
senaryosunu
##19
şeklini
Wall
durduğu
NFT
hafiflet
Hayalet
Ço
eğitimli
etmelisin
anlayan
Teklif
yukarıya
##BAK
ritüel
##zaman
uçurum
ışığın
gördüğümde
##anna
ajansı
etmemiş
sonuçlan
paylaşıldı
doldu
devrimci
##sch
katled
asil
arayacağım
şükran
birliktelik
İkizler
çekiliş
yüksekliği
yapıyordum
kullanıcının
Fort
Out
kokusunu
anlarda
getirdin
##lığımızı
##liğimizi
anlaşmanın
Hans
müfettiş
yatakta
kalanlar
kayıtlara
dururken
edeceklerini
dom
##elenmiş
Beth
başlanan
##ılmasından
gereğini
##ilirse
Mozart
yapmışlar
Tamer
Shan
ürper
ekonomide
kalabil
dünyasından
Berbat
İnci
Geçenlerde
yapıs
Havaliman
yanısıra
odağı
kirliliği
ormanda
duygusunu
miktarını
arız
kullanıp
gelmesiyle
Çevik
seçin
##bahç
Who
görünse
ulaşıyor
##tuğum
ilişkide
kili
Gelelim
##ends
demiyorum
acısı
Abdur
yargılanan
Ters
almıştım
##kapı
haklarına
##egül
odun
köpeğin
illerde
odam
duymadım
##cağında
tutanak
yurtdışına
##larlar
yayımladığı
bulguları
##osa
Doğulu
Berat
oluyorsun
kararsız
kaldırıp
##rant
##mayayım
3000
bilemem
Kıvanç
Zelanda
Fena
mam
emperyal
Komiser
tutuklanan
##ilecektir
gam
Çil
##abilecekleri
patladı
sessizce
imzaladı
açıklamasına
Bütçe
belirtiler
İşlemci
Aran
##icilerin
neb
Bekleyin
TÜB
Jordan
okuduğum
emzir
uygulayan
projesini
çiçeği
Malezya
metot
##veda
öteye
büyümeye
##ardan
Daily
kullanabilir
Problem
peri
katkıları
siteleri
yazılımı
##ANA
##13
unutmamak
çekirdeği
önerilen
ekiplerince
dikey
klavye
Ulusoy
Rica
##latacak
yapacaklar
bakteri
hissettiğini
kaybedecek
saçlı
edilmelidir
Arkadaşlar
Jesus
Eda
ritim
telif
beyazlı
Çoban
girerim
toprağı
İS
Karın
zenginleştir
##evler
ödülleri
Nel
hakkımda
odaklanan
##İTAK
sandığa
keder
##tila
Birşey
Doğuş
##burger
##ÖR
değişmez
kullanılmaya
yıpran
##oyd
düzeylerinin
hakkının
Harvey
temelde
bürokrat
anakart
Zamanla
babamı
##çiliği
yy
şe
oluşturmaya
Süreyya
Bölgesel
yedim
##İYET
becerileri
katılıyorum
benims
seminer
aldınız
ulaşma
Komşu
düzenleniyor
Gülüm
##abinde
##liliğinin
görmemiş
fiil
tamamının
havuç
canlandıran
Yeme
piyasalar
saldırdı
inip
karşıy
simülasyon
İddia
##vanı
sunulmuştur
1940
##ülmüştü
seçmek
Ever
politikasının
sorabilir
yanlışlıkla
incelemelerde
start
##ves
Başkanımız
Bayburt
salt
deyin
Jin
Hizmetler
oynamayı
boktan
##cid
aksak
düm
endüstri
filmlerden
İmdat
çocuğuna
kelimeleri
Nem
yaratacak
etmişler
tehdidi
yıprat
dist
karşılaştı
pür
##tayken
parçala
yaşları
çağın
prenses
aşkım
Harekatı
çağı
düzenley
##arat
Yorgun
Muam
protest
Kavga
eksiksiz
dizayn
Sahte
Yıllarca
hastalıklara
##LET
##Gİ
##emy
gözyaşı
##luğundan
muht
Gitmem
girebilir
##landıra
Raporu
Kasap
Tod
seviyorsun
akıllıca
##ALAR
##urnal
oh
elin
Up
##abel
gelmesine
kesici
Bow
##oç
incelenerek
hapiste
filmlerini
Ülkede
otobüsü
##deceğim
demeç
##ju
gerekeni
İsmi
yıkama
Büyükelçiliği
yaşamında
işaretleri
Amerikalılar
Antonio
##affer
biçimleri
amaçlıyor
katılımı
kadınlarla
pet
geciktir
kütüphane
kolunu
stratejisi
sahtekar
teklifini
kanalında
okuduğu
##kol
sendromu
ülkesine
resmini
Suat
aralıksız
bilgisayarı
yakalar
silahını
Peri
emisyon
Gidin
döndüğünü
geçirip
sindirim
siktir
175
oluşturulmuştur
gideriz
ettiğinde
##masınlar
1915
fasulye
Lyn
oranın
##enizin
##maye
Fev
kimseyle
çalışmasına
görmüyorum
prömiyer
dönerken
felsefesi
Anderson
##lesinin
Selin
mekansal
gerekenler
heykeli
Tavuk
Atay
İddianam
cir
##eciler
dönün
sorunlarla
özellikleriyle
Kub
kapılar
##çilere
uzağa
##ofya
kürs
taşıdığını
##leksi
##ss
telsiz
##rich
##dili
vergiler
teşhisi
Misafir
iye
kontenjan
Tob
##cuların
çalıştıkları
mahallede
##liğim
Parlamentosu
##ric
##77
dinlendir
Chloe
tepkisini
##visi
öldürmüş
Rektörü
wor
özelliklerin
acısını
geceye
muhalefetin
lin
yad
durulmuştur
kaynaklarını
verecektir
doğuştan
doğusunda
hayatımızın
##arth
sonuçların
ücretin
tarzını
Rade
##memeli
kesme
faktörleri
##kesi
çıkalım
halindeki
otoyol
Bozkurt
imzasını
onayı
Özkök
programlar
Kuruluş
Herkesi
Hamza
düzenlemesi
Kıl
İrem
teknolojisini
Ox
bozucu
agresif
##ier
##nova
oturur
Ciz
Sep
kontrolünde
mimarisi
açısıyla
hatırlatmak
uyardı
bekliyordum
##uela
kalça
eleştirdi
görülmemiş
oluşturacak
kitaplarını
Fenerbahç
Çen
Lük
108
enfes
etkinliğinde
##mamıştım
pot
geçmişti
sevda
etmelisiniz
##mamın
çözme
Alek
##ebilme
Sark
sürdüğünü
Lily
TAR
kahrolası
şampiyonluğu
##bes
Premier
haftaki
Marcus
ilişkilerinde
184
yapacaksınız
konteyner
Bulgu
farklılıkları
Dink
##ozan
edileceği
BA
sembolik
Neb
kavr
temizleme
Gazeteciler
ülkemizdeki
milliyetçi
sürdürmek
yapmayan
yürümeye
Bireysel
Caz
Limanı
şarkılarını
kata
Sıradan
SMS
arasın
olmalarını
Geliyorum
Slo
Necip
Topbaş
edilmesinin
DP
getirmişti
darp
Marc
kafasında
kullanıcılarına
dinlemeye
kub
belirlediği
İsterseniz
noktalara
Gordon
##ix
takılıyor
beklemeye
Chat
sına
bavul
sürmek
##lamaktadır
##asta
kaçıp
engelleyen
giş
maddelerin
##eva
##py
kaçıyor
fırsatları
uza
başın
Mario
taraması
Yakup
sıy
İmralı
Coğraf
mercek
##duğunuzda
gelebil
sınırında
taleplerini
CEV
TÜBİTAK
##lamasında
##tığımıza
Serg
tanıştığı
##otek
kararların
##lıyız
Konferansı
videoları
Efe
saatin
##iliş
Nurettin
Ful
rivayet
vermekten
bombardı
gerçekleştirecek
adımlarla
fal
markaların
perişan
kayıtlarını
açtım
Terazi
azaltır
sebebini
girmeyi
hazırlamış
vuruyor
yaşamının
##ME
kutusu
Diğerleri
##ilendirme
Federasyon
Makedonya
Bomba
Sayı
##İB
çalışılan
amaçları
azalır
geçmiyor
getirmeyi
düşünürken
Doc
Feli
reyting
tura
mıydın
185
yaparsan
Dili
öldürüyor
gitmesini
Joey
İzzet
babalar
rant
##nem
##meliydim
ilgilendirmez
Cihazın
toprakları
Sınavı
deleg
##tüst
kendilerinden
karşılaşılan
Donan
yastık
evim
kültürüne
Fetullah
mecra
##OF
adamsın
rehberlik
##üsün
bankanın
kocam
batary
diyebilir
ilaçların
bakışta
##xon
##til
alınca
##isiyat
##odyum
Hollandalı
##able
insanla
çevrede
veriyordu
Çukurova
##ido
hazine
gittiğim
Zehra
Denk
##arsın
senesinde
Diego
arayacak
canlılar
egz
İZM
izleyebilirsiniz
##lerinizle
Iğ
##amamak
hakimiyet
Naci
Beck
sınıfa
kulübe
bakır
Şaşır
Ayasofya
seslerini
Geçici
yazıya
sorununa
AC
maliyetleri
soktu
karşıladı
biletleri
ekmeği
yapısall
Günleri
##vanya
Dernek
uğraşan
Lewis
yıldızların
ayrımcılık
##üminyum
ustalık
koyul
##35
##gır
takibi
amc
bişey
sebebiyet
kaybediyor
değişikliğe
yoz
VR
105
toplantısına
Performans
riskleri
IV
gününden
American
yanlarında
##ırsanız
çıkıyoruz
denedim
ölçeği
sportif
nereli
##ojen
Atlas
bakanı
yapabileceğini
ayrımı
##lena
##ılışı
Heyecan
dönüşmüş
mevk
Necati
fotoğrafçı
dayandır
ettiğine
açtığını
1961
DVD
üzerini
tartışılan
##eing
unuttur
öyküsünü
bombalı
olmay
katlanabilir
forması
adi
basıncı
anlayışının
Denet
host
nan
##Ğİ
takımını
Ronaldo
politikasını
aracının
markalar
cinsellik
vermeyin
kazandım
İçki
etmediğini
görüntülerini
geçmişten
arabulu
##yağı
diğerlerinden
finalde
veriyorsun
erkenden
1923
arzusu
sıradaki
kuşlar
Pasifik
konforlu
kurtaracak
Cilt
çıkarmayı
##ĞI
dilen
turnuva
mul
işyeri
kullandım
akaryakıt
hikayelerini
bilan
silik
butik
ında
##cho
Müşteri
ızgara
birçoğ
alanlarını
Mumcu
##gız
yazımda
milyarlarca
sığınma
olsan
##oğlunun
kapatıldı
Mahal
Koray
hastalığının
piyasalarda
kademeli
Bilecik
##nur
kaderi
ayrıntıları
hocası
karşılama
##sindeki
göbek
istemiyle
##osuna
okuyorum
azınlık
bulunuyordu
beceri
ilkeleri
mekanizması
eşek
##bedi
eğitmen
yenilikler
Uçuş
ncı
sürerek
Elma
##18
sunulması
sınırına
sanıklar
##OLED
kuruluşlar
Riz
iği
new
baktığımda
Adaları
adıma
azala
tahvil
şahsen
##malılar
Cenev
masaüstü
sofr
dosyaları
kullanılabilecek
Evlat
Çif
##meyince
kült
öldürüldüğü
tamamıyla
os
yayılmış
Hann
odaklanıyor
Reis
duruyordu
sağlamıştır
çeşidi
kariz
##elikli
devletlerin
yemeğin
all
Büyükelçi
gerçekleşir
hazırlandı
bölümlerinde
konuldu
Hayırlı
##AND
Cole
yuk
Bildir
##uer
gerekçesi
porsiyon
##ogg
gidiyorlar
komünist
Değişim
doluluk
Sebas
kaçmış
kurumlarının
ofisi
İnsanlara
tavşan
bıçakla
Şikayetvar
kullanmıştı
belirtisi
sinemas
görevliler
##ırsan
Benj
İskoçya
##onca
##leyeceğim
##düğümüz
bulunmakta
doya
ettirmek
ödenecek
yardımına
umuyoruz
Amin
##sundan
kurallarını
bulunurken
Tüket
enerjiyi
Fan
projelerin
Ayşegül
Kayserispor
uykusuz
kutlamak
uyarısında
köyün
Bron
ihbarı
ÖTV
##fü
koşullarında
Salzburg
mama
görüştük
Epic
Karım
fizy
istenmeyen
##17
diyeyim
##bour
taşları
Lik
rektör
sabırlı
seve
grubunu
sevgiyle
katılır
##düle
Kamil
izledik
çıksın
Che
andıran
düzenin
Durdur
Dokun
bulunabilir
mahkemenin
##kine
zorundasınız
sayısal
uyguluyor
Alanı
Stone
zaaf
Abbas
yakının
cild
##ehlivan
yakıştır
savaştan
açılışını
aygı
durumla
##tus
teleskop
memnuniyeti
Yener
Kitapta
kontrolden
yemekten
1965
tetk
binasının
bırakmayı
mezhep
sayfalık
İncil
Akalın
üstlendi
sebepleri
meteor
önemliydi
yolcular
bulanık
insansız
Körfezi
##iva
##lake
##aydım
##ırsınız
işinin
değerlendirmeye
sokmak
algılanan
##tas
fikirde
Cesur
istir
Dat
seferde
##ciyi
önemsem
espri
Asgari
hayvanın
kardeşini
Kayb
bekliyorsun
Rotter
değerlendirmelerde
##uradaki
gözüne
kalanı
çalmaya
Jesse
##oyraz
serisini
geliyorsun
##ilince
yararına
odaları
sabahın
borcunu
gösterileri
Manav
belirleyecek
rakib
tarayı
Oğlu
büyüktür
karınca
ederdim
müzikleri
ekranlara
##anse
düzeye
ligin
çektiğini
havayı
işçinin
duydukları
gitmeliyim
bazılarını
Bloom
kolaylık
##sol
etmesinin
650
Formu
##pik
yaratmış
kavra
diziler
##iral
oluştuğunu
istemediği
bariz
sokaklara
tepkisi
Bacak
DÜN
yönetilen
isimlerle
terapi
Bilindiği
August
NTV
hastalığına
##PR
Hangisi
hayvanlara
öğrencilerine
Yaban
öğrenince
Radeon
anlatımı
Cidd
Bartın
##ünç
konsantrasyon
Mühendisliği
topluluğu
bölüme
kesilmiş
##lamanız
Britanya
##ımını
Squ
girdiğinde
kredisi
kıyafetleri
içimden
##abe
nedenlerden
International
savur
üretiyor
bildiren
Kırşehir
Vivo
vatandaşlık
reçet
müracaat
##icik
##dıklarında
Spotify
gu
golle
rahatsızlığı
##lant
yaştan
yapılmalı
gruplara
Tercih
attık
Raporda
orucu
gönderiyor
Kayn
otoriter
başkanlığını
Şık
##taraf
alınabilir
Group
##gunun
düştük
Marx
##kov
##puz
tapınak
aylığı
dayanış
önlenmesi
gerekti
numaraları
Stal
##inn
türünde
ilerledikçe
Oya
çıt
1200
ayağ
büf
Mim
##izik
okuyacak
Spr
zamanımız
yollarda
Gitmek
Lind
##abın
kasabada
vurmuş
##ümle
çarşaf
kaderini
Catherine
kurulduğu
gecesinde
vurgulandı
Sezgin
STK
single
##ecilik
oylama
içti
otopsi
Devrimi
başınıza
Gun
anayasal
Maggie
karamsar
one
Burda
Emred
artışın
Camisi
##bia
organizasyonu
##taur
modeline
##amıyorsun
##ebileceğimiz
andır
Bektaş
Unutma
İşbirliği
basını
Gündem
görmemiştim
borçlanma
##layım
alırız
acıyı
yemeğinde
##ebiliyorlar
sağladığını
Prag
ünifor
Luci
hocam
##ediniz
##lamayacağını
etrafa
arıtma
inanı
koymaya
Kimsin
##biliyorum
##layet
Teksas
fiyatının
Jenny
##lüler
maçlarda
##jet
Harp
kebap
Harun
sıkın
Julie
çıkararak
Hür
kullanılma
üretilmiş
geliştiren
##eleştir
Hekim
##uka
kraliyet
saçları
##baharda
##ett
benze
yaygınlaş
Gemi
PD
tarafların
ilgiyle
ihracatı
veremez
Jonathan
idrak
bugünden
Wag
alfab
modellerinin
giderilmesi
##SAN
adanın
Tit
bütünleş
düzeltmek
tarihindeki
türüne
hayalleri
##cesine
##ülemez
ödüller
işitme
##zy
##mayanlar
Vo
sertifika
##koz
kişiliği
aklımda
tarzda
car
##gis
Gabriel
##stat
Hastalık
devletler
güneyinde
##ıncaya
ille
günlere
insanının
Özen
Defne
garaj
aşağılık
fedakarlık
AMOLED
Rotterdam
geçersiz
##ador
değerlere
Ellerini
Ofisi
misali
Rahatsız
çember
##ydınız
girişimci
söylediklerini
Muammer
kabuğ
##eçhul
gönderen
futbolcunun
askere
kuv
out
Haftanın
garantisi
##ass
##amo
düşündüğümüz
erkeğe
öfkeli
değişecek
politikacı
geçirilmesi
##FE
açıklar
##bullah
oluşturmuştur
boşluğu
Yeşilçam
günlerce
özeti
Potter
##ıkçı
yediği
yönelim
Ersin
Gibi
kiminle
İZMİR
Pam
orayı
kesilen
Dedik
##BS
taraflar
##hanede
amaca
azdır
oluyorsunuz
Baran
olamazsın
Dağları
Beslenme
kararlarını
Neil
yaklaşımlar
katılarak
##ebileceğim
öldüreceğim
klavy
yaşaması
Lir
Zinc
üzen
yaşayanlar
battan
edebilirsin
Altında
sakıncası
hazırlıyor
vurmak
ifşa
İmkan
Dosya
##aye
olmama
kutladı
uyumu
yıldönümü
rüz
gazetenin
gidermek
stabil
kurduk
Tayvan
keyifle
dolaşıp
İğrenç
yönetime
İtfaiye
kılıf
istersiniz
önceydi
Dedim
Frankfurt
kozmetik
ilgiyi
Parlak
izinsiz
##hall
##larmış
Flash
1963
Konservat
##ista
seyirciye
ti
arkadaşıyla
##ordu
##tılıyor
acent
##deli
naf
##TAL
Direktör
birilerini
takın
Öp
çalmak
##İLM
faktörü
##casına
Gücü
gişe
yapıyı
firmaları
bakanlar
##meyerek
yaşananları
##ology
teröristlerin
Fizik
basında
şairin
anad
ayrıştır
SAY
##odi
##abilim
yatırımcıların
kılmak
##ebilmektedir
Russell
gevş
fiyatlarını
kuruluşların
rahmetli
##iyeleri
oturmak
Sabri
zırhlı
Uc
##lığınca
fakül
##sağlığı
tutuluyor
Sonuçlar
##odafone
Yahud
TAK
sürüş
Kasab
yerdir
yakını
karşılayan
Kerk
Yaman
##vah
yürüyüşe
DEM
##wart
##ünt
verilerini
korusun
yetkililerin
hazırda
Virgini
##SE
İranlı
Çiğdem
olsak
Adres
söylediğin
etmiyoruz
gidiyordu
##cuyu
takımına
dosyası
elverişli
arkadaşına
üretimin
Baz
kurmayı
##uter
konuştur
atılması
Long
##II
Kaybet
hazırlanmıştır
diyaf
teknolojiler
arabayla
Neymiş
dönemler
defasında
##nut
kurup
hoşlanma
katılımcılar
Telefonu
Maddi
Maçın
tahlil
Villa
##laj
enz
farz
geldiğimizde
döndüğünde
üyelerinden
Bankacılık
Vil
yapabileceği
başlıyorum
beyann
korunmak
Jamie
yürüme
galak
öğretmenin
HER
saygıyla
Babanın
##süzlük
istemezsin
çeşitliliği
##board
##amadık
##rence
Bugünlerde
##aseb
üstünü
değiştiriyor
hoşgel
Şent
Suy
gitmesine
Uysal
tiyatrosu
##ilmemesi
Pazarlama
satı
avro
##luktan
çiftçi
Yolculuk
mensuplarına
yuvası
##feder
yaratmaya
örgütlerinin
Bora
baharat
tarzında
tiyatroya
Iğdır
vaktim
Diana
doğruladı
##ave
yazmayı
elinizde
##rahman
##iverpool
sevdiğiniz
Alkan
çalışmaktadır
türler
yavaşça
Necdet
besleyen
patlıcan
bahsede
##İKA
hepsine
üreticileri
Kriz
yazımızda
harcamaları
##mamıştı
##lanmayı
çalışmalarla
müteahhit
veteriner
##TAN
Ortalama
İnsanlık
bağlantıları
##lanmasının
kabine
ayrılıp
##ılsın
düşürmek
onurlu
denetimi
ambalaj
nedenler
Adamı
çorb
Baha
varlığına
Duman
##dala
kitlesi
Stat
Olayla
öngörülüyor
Hacet
Ölç
yaratıcılık
Bot
##birlik
##esans
özelinde
temizlemek
türde
payını
manyak
##ifa
kayalık
Beşinci
kuramsal
Bayım
##mıyordu
Kanunun
ağacın
yetkilisi
hızıyla
kukla
##giler
talebini
who
imzalanan
kadından
##OĞAN
sensörü
prensi
çavuş
meseleyi
Restoran
söylentiler
Teşkilat
##deri
##forma
alacaksın
kalıntıları
Suçlu
kardeşlik
Abby
Kıya
bağlama
##lığınız
araştırılması
hafifçe
##dükçe
Kurumsal
almaktan
destinasyon
##gia
hayranları
Jackie
Sönmez
yapımında
katılması
belirlem
alışkanlığı
##PA
sentez
gitmeliyiz
bebekler
İhbar
sürtük
bağlar
Polisin
incelemeler
ormanlık
saz
zamanım
Kurşun
çeviren
psikolog
Lake
ibar
anlıyoruz
arkadaşımın
çiv
##ürek
##ılabiliyor
üretimine
sayfası
geldiğince
bulduğum
kanunun
Kalın
muhaseb
günümüzün
ağaçlar
##sünden
parçasını
ışıkları
##irme
##laşa
müdahalesi
Şili
doğada
önümüze
sevmek
yönetmek
##apı
severek
Kırgız
notlar
adamdı
olmamıştır
alıyorsun
duyguların
takımları
koşullarına
Çıkış
yarışmaya
##duy
##opoz
dikiş
karayol
meşin
Büro
uk
##hil
geldikten
Antak
kapısına
taktir
##liliğe
##ganın
faaliyeti
talip
##xt
aştı
vay
yanımızda
sıçra
Garanti
Valilik
motorlu
ürkütücü
OR
Sohbet
değişmiş
##tino
muydunuz
Cumhuriyetin
##asıya
kadroya
Ebeveyn
etkinliğe
yıldızları
parkı
yargıya
seyreden
mayın
##tunuz
Polisler
değersiz
bunalım
Kapısı
seyirciyle
nazaran
izlediğimiz
DHA
##laştırmak
çabala
coğrafyada
Makin
dediğiniz
##iper
manastır
ölümden
belaya
şiirler
Hafız
fikirlerini
Bıçak
ayarları
sosyolojik
ivme
sergileniyor
Analiz
desteklediği
Tevfik
sn
işiniz
atanan
1964
restore
##MAK
prova
uygulanıyor
annemi
videoyu
doktorun
sıkıntıları
Tır
Yetkililer
ÜN
##baç
haberlerin
başvurdu
Guardian
görüşünde
pencereden
Tara
##ather
adaylık
ifadelere
Aust
Vodafone
düzenlenmesi
Paş
azaltı
Ian
takviye
Furkan
Serhat
barınma
##EI
Duty
olaylardan
koyayım
akıllara
yetiştirmek
hatları
##amayacağını
Fahrettin
alırlar
Tuf
meb
gösterge
Tansu
konan
Tezin
üssü
Kuy
başvuruda
yayla
gerçekleştirdik
yapardım
Brezilyalı
başsağlığı
eğiliminde
Timur
komutanı
aynısı
Kolombiya
amaçlamaktadır
Çoğ
##ildikten
##ulları
iskelet
çalışanlarına
Nasılsınız
evreni
Hmm
yapardı
Mantık
Mahir
kun
Eyalet
metnin
krom
görülmüş
##düğünden
hareketsiz
Kocam
istemişti
Buranın
Kaybol
##iha
çıkardık
Avni
ortalıkta
üslub
sağlandı
Homer
anlatmış
##iliyordu
kameralar
Yapacak
hüzünlü
Kamyon
Linda
marif
eşiyle
alışver
karmaş
Benjamin
yasama
ihtimalini
##etz
##olitik
seçk
bakarsak
Dum
İcra
aren
##neğini
merkezlerinden
Gan
müzesi
Çiftçi
Radikal
engin
kaynaklara
hissedecek
Aras
kafalı
##siyete
Aramızda
bilgisayarlar
Taraftar
##ohut
zekanın
teslimat
Çocuğu
getirdiler
yanıtlayan
ölümüyle
Antren
boylu
##İLİR
belediyenin
değerine
kapsıyor
##ışım
tamamlanması
sorma
dokusu
Sürdür
tazminatı
Hizbullah
vali
hedefliyoruz
Barajı
bağımlılığı
ihtiş
yeteneklerini
Melik
Elimde
kokteyl
Şarap
tasarımını
becerik
Hırsız
uyumsuz
alabilirsin
yoğur
durması
Meta
Gönder
Babasının
toplanmıştır
DUR
##ılmadı
Ly
##play
kanunu
Şehri
Haldun
yerleştirin
şifre
Yiyecek
mümkünse
yüzyıldan
bozan
##enneti
pansiyon
Elimden
köft
Aylin
kaybetme
##ezalet
dolandırıcılık
Lite
Hastane
zik
teknolojiye
gazetecinin
Market
Tugay
Tir
vücudumuz
görebiliyorum
Taksi
mermer
opsiyon
öncülüğünde
Wol
İçine
Refer
tamamlamak
artırır
sahneyi
İde
söylemeyi
sezona
elektron
büyüklüğündeki
müşterilerin
Geliştirme
bale
ilgisiz
öğretmenlik
gibiler
bodrum
Rekabet
Psikolojik
ölümle
Yetişkin
##bps
ziyaretçiler
iddialarını
spr
bonser
artırarak
modellerini
verilebilir
hayatımızda
Beykoz
##ıd
içlerinde
gezisi
görüşmelerde
Bond
graf
kalıyorum
Ther
hob
olamayacak
##igen
Hareketi
BD
Anlamadım
bekledim
partileri
Sürpriz
Yunanlı
##sie
farkla
istiş
Stran
duydunuz
değiştiğini
operasyonlar
Tyler
Havaalanı
yaparsa
Kaynaklar
Sevgililer
Hayatımın
amacını
qu
fahişe
izleyecek
sayılabilir
Komp
Kırıkkale
Gerçeği
analizinde
lokant
paraz
##ism
geçiyoruz
nüfuz
serseri
dron
##yağ
durul
edilme
Demirspor
uyandıran
verdiniz
Olayı
Brook
akışını
BEL
##iyken
##house
kapitalist
TÜİK
Cad
Chrome
Bam
duyu
Arabayı
bör
kaynağını
güçlendirmek
normale
nitele
fırç
##liliğine
Eğlenceli
##tendo
##memeye
sosyalist
gasp
senede
öngörülen
kompozisyon
Kendin
avrup
yapacağımız
rengarenk
yarısına
Kooperatif
müdürlük
dürtü
hareketinin
hususunda
Endeksi
zarfında
başör
okulları
eserlerinin
politikalarının
adamdan
teröristler
yapanların
Tatar
Bahçesi
hizmetlerinin
Verilerin
boyuta
##modern
##amıyorlar
senaryosu
sayılabilecek
dibinde
görüşmelerin
Oyunda
##laşmayı
##özü
çevresine
BAK
ödenen
saygısızlık
göründüğü
Kalkan
hayranlık
sahibine
edinmek
rasyonel
yaşıyorlar
geçmesini
Toz
şüphelinin
Aven
Nadir
ağabeyi
zil
ölçmek
dop
##25
şerefsiz
mecburen
Boğazı
belediyeler
bitmek
olmakta
sergiler
böyledir
Robot
Virginia
savunmak
Baştan
santr
kelimesini
Şerefe
Kati
##anıza
Kraliç
##wan
bakıcı
Saddam
apart
parçalara
Dünyaya
##ANLI
##iyseniz
Kerkük
bilgisine
çapta
mühendisi
şaşırttı
arda
ilkesi
Universit
##ertu
aradığını
prestijli
olabilmesi
meğer
Yirmi
öğrenciye
çocuklarımız
rekabetçi
Değerlendirme
##mü
kitaptan
ettiğimi
Milano
Dayanışma
##dom
##rof
GEN
israf
düşünüyordu
gelmişken
Etkinlik
Eksik
dostlar
yerken
##tığımızı
İlham
##lubiyet
yandı
bittiği
abonelik
##oğol
sesin
Arist
öldürdüğü
Yaptığımız
##lığımı
##igo
tanığı
çatal
Ural
İD
çağında
dinledim
kibir
Dick
çevredeki
şehirden
sinsi
tv
toplar
##eba
karşıma
Galler
Center
attığını
kalanını
sayfada
Kentsel
Mont
TK
ücretleri
restoranda
##tagon
desteklenen
hareketlilik
tepeden
bakarsan
edemezsin
olmadığımı
Jeremy
104
Boeing
cildin
seyircinin
Kin
Pul
işver
yönleri
birdenbire
cüret
üçü
hedeflerine
yürütüyor
sahibiz
HDR
porno
LGB
mekanlarda
hizmetine
adın
unuttun
Sokağı
##leğini
binasında
yakınlarına
tesisleri
Anlıyor
Listesi
vadi
vası
##redat
yasaları
çılgınca
Lenovo
Cur
rahim
kuruma
araştırmalara
teminat
Disiplin
Liverpool
##ılınca
berabere
iltihap
aslı
##mazlık
atılacak
ök
Kültürel
ruhuna
duyacak
radar
sürdürüyoruz
kaygısı
altının
##uters
Okula
Madam
okunan
##ampar
stadyum
ürünlere
gidince
##osunun
Çub
##laşmak
sinemanın
sinemada
Maltepe
olursan
açıklamalarını
Tuğba
içim
anlatarak
hatırlama
fotoğrafın
iadesi
LCD
##oton
şahsiyet
aklından
metinler
##ülem
içen
engelliyor
maya
sunun
Altyapı
tasarrufu
HU
##ilmen
Şaban
sonlarına
karışan
Demirci
beklediğimiz
##severler
gayri
Piyasa
aşina
##gren
galaks
##bola
hepimize
Ezgi
Bilişim
##rix
baktığınızda
Çocuklara
finanse
izole
Elimizde
küçül
Evine
hesabında
##GA
çekiyorum
hazırladık
anlayışına
yararlanmak
Sophie
yarışmacı
##usundaki
rus
Rag
Belediyespor
gruplarının
bırakmaya
Yahya
##eseli
sözlerin
büyüğü
sonları
kaldıkları
belirleme
yaratılan
Johan
SONU
##oln
İntik
##gor
sporu
Phone
Konyaspor
tamamına
girince
Çim
kurş
bağlantılar
Cumhurbaşkanımızın
plaka
saldırısına
toplamı
konserler
Morris
Aksine
öldürdüm
yazıldı
elmas
Nesin
metafor
filmle
Nerde
tıraş
çalışmalarıyla
kavgaya
tekerlekli
##ida
##real
##salı
sunmaktadır
##idan
##layacağı
Göğüs
##oba
öğrenebilirsiniz
Sabır
hediyeler
##cardi
uzunluğu
##ilmem
evam
olsunlar
evlendir
depremzed
birçoğu
kurar
##ladınız
başlıklar
artmaktadır
Sıradaki
cıv
##tana
birlikleri
Bildiğim
Havayolları
Milliyetçi
Virüs
kurdukları
deneyimler
##latif
Yeşim
Buradayım
yığ
sitesine
Güc
birbirlerinden
karşılandı
gözlü
##lanırsa
ayağına
Müslümanların
geçirerek
hikayeye
geldiğim
kısacası
##dafi
hipertansiyon
fener
Annenin
obezite
görebiliyor
Akbank
şun
huzuru
##rett
umutlu
Yenik
nebze
Walt
kaçar
birleştiren
ayrımcı
TCMB
sekreter
##liyat
##açık
vereceksin
kutluyorum
eğlendir
Stock
amacımız
Fırtına
bulaşıcı
Dicle
Dinleyin
fişek
Venezuela
desin
ra
ağaçların
edine
zorlanıyor
krize
derb
hukukçu
Linc
##ANS
sporcular
ekibine
##gaç
yasanın
Asus
kaynat
kurumlarında
aşamasına
Karma
yaratıcısı
zamanları
atılır
rakamı
kameranın
Bilinç
##andan
end
##sia
berrak
volkan
dönemindeki
uh
tanısı
raporuna
ÇOK
##eceklerini
döndük
ayrılması
##owski
##vo
Anlaşma
seçtik
Popüler
parkta
##reni
##GM
##ECE
Dilerseniz
##amıştır
##ison
oranlarının
Hisar
##hop
anneme
çağırıyor
klas
duvarı
bölgesinden
vesileyle
##sche
almamız
damat
turuncu
konuşup
önerg
Amanda
çığır
Sevda
benzemiyor
##ilmeden
Last
çıkarıldığı
sevgisini
stratejileri
bölücü
YOK
##ople
Dra
çark
içiyor
üzerime
anlaşmayı
girişiminde
binaları
alabiliyor
çözer
oğluna
bulunduran
##guna
sorarsanız
sıradışı
sevgiyi
Pera
Topçu
##urucu
mütevazı
Rebec
nca
##mazsak
Sayfa
tuvalete
görüşler
yakınlarındaki
Takv
alsın
kuzeyindeki
bertaraf
anlatıldığı
Koru
pazarına
kulağı
satmaya
##abını
inanır
kediler
olmadım
Sarıyer
boğu
dul
topraklarında
çöküş
şiirleri
çatışmaların
duruşmada
##İNDE
çevirmek
Link
Tanıtım
Antakya
gezerken
ahlaksız
Ailenin
Domuz
Kule
sergiliyor
Michel
tablosu
##obi
##itli
uzunca
oradaydı
tanımlayan
söylenir
kitapçı
metreküp
##alet
##haneye
Dylan
liderler
Poyraz
gelirdi
kıvır
##sir
girmiştir
Alpar
değiştirerek
canlıların
CUM
durumdayız
mutluluğunu
Selen
##HAN
kısmi
##ilya
yüzlü
ucundan
düğüm
başının
##DER
##lid
döneceğiz
Fut
##iff
geçirdiğini
kalacağız
aid
aktr
görürsünüz
Şüpheli
##malara
##div
##ector
okurum
Zayıf
denek
konuşmamız
yaratı
Haftada
marş
poster
ağızdan
Muc
düzlem
ayağını
erişimi
ulaştığını
duyuran
Çarşı
DEVAM
Karatay
maddesinde
güveniyorum
uzmanlık
asa
olmamıştı
dinlet
Dinçer
##bük
Ünsal
çalışanlara
yayınlar
ölümün
polem
envan
ailede
ailelerine
Soma
saatinde
rakı
bozuklukları
üf
##abıta
işlemlerini
kırıldı
değerlerine
desteklem
##foni
Güreş
karanlıkta
nane
zorlukları
ender
alınmıştı
512
aktarılan
##ania
bıçağı
kesimin
yıkılan
hürriyet
bağlanma
Balyoz
eylemler
##latıcı
serpiştir
duruşmaya
Reuters
örgüte
##rosk
İKİ
##eta
partisine
dergisinin
yumuşat
argüman
gideceksin
Anlaştık
GER
##resi
yazıyordu
Uygur
geçerlidir
yaparsanız
partiden
övün
kazık
isterler
değişebilir
Dolunay
ego
Hank
karşılaştık
##aryen
Hepsinin
gördüğüme
açtık
yürüyüşü
Nintendo
cildi
kılacak
##aför
Michelle
Yarımada
FK
YENİ
üzerin
işlemlerin
##emeden
sakal
yaşındaydı
kanalları
##este
##omik
görüşlerine
anlatma
Savcısı
bıktım
bekliyorlar
bölünmüş
sinek
##uzun
Toplantıda
Kid
1945
sevdiğimi
gösterilmiştir
RX
TER
Milyonlarca
SS
çalıştığımız
devletinin
Afrik
Çolak
alacaklar
adliye
zulüm
nerden
yükümlü
Ahlak
Kaddafi
Çekir
##bağ
##dr
Istanbul
ararken
senedi
öneriyor
Well
sürdürdüğü
Personel
Anneler
##tala
cinsi
##agon
Araştırmalar
##esa
dilimi
Krem
##burnu
##mac
2025
gerçeğin
saatlerinden
Rady
Çer
ödüle
düzenlemek
gidiyorsunuz
ünün
unutmuş
olamayacağını
söylemiyorum
dolan
kurtuldu
micro
Gülşen
Çatal
tatbikat
##utu
başladıktan
Gürk
Emredersiniz
başlıkları
yazacak
düşürdü
akşamları
atlama
noktalarından
ihtiyaçlarına
mağlubiyet
biçiminde
Ela
hizmetlerin
bahsi
pır
gelmeyen
atması
karşılaştırmalı
##aire
kazanın
SAH
yapılmıştı
115
tahliy
evrimleş
kafam
verirseniz
notunu
hatırladım
cevapları
verebilirim
yaşamlarını
verimliliği
yapabileceğiniz
aber
çıkarları
gönderdim
üniversitenin
defol
Elec
bendim
SAL
Eşit
kenarına
yapısıyla
Apol
mutasyon
katkılar
karşıyayız
Yazın
ilanı
220
Yaka
kürek
Margaret
##anca
bakacağım
ilgimi
tutuksuz
Eczacı
nimet
##inip
sendin
Diren
hükümdar
uğunu
krav
Elvan
olurdum
kurak
düşünmemiştim
çekmişti
##mazsan
yükleme
çağda
Moon
delilik
paraşüt
Oyn
istikrarı
cesareti
seyreder
feminist
hün
Mesleki
bırakılması
Sürücü
takımında
kuşu
kartını
ayrılarak
regresyon
tekel
Miles
sunuyorum
çiçekler
Dönemin
DL
kalitesinin
Mezarlığı
##ms
gecelik
yürütme
GAZ
Bravo
kelimenin
konusunun
maçlar
öpücük
melan
HAV
beter
büyükann
birbirinin
maddesinin
Raj
##cağa
Bad
##esifik
günlerden
harici
evlerinin
haklar
Böylesi
Wayne
çocuklarımızın
ölçekte
koyduk
enerjinin
zammı
kuvvetleri
eşyalarını
##abiliyorlar
telaff
##göl
şirketlere
Nico
öngören
içindi
Fiyatı
hidrojen
oydu
##ents
yapmayacağım
hattında
düzenlemeye
buluşturan
istemesi
geçmişin
göstereceğim
Dest
bağlanan
sakla
Sünni
kuşağı
kilitli
türlerinin
koşuyor
sergileyen
takas
Corn
incelemede
Napoli
End
##ustur
başkanının
annelerin
sezonunun
Şart
olgus
yüc
##gnez
##anal
yorucu
Ric
karakterinin
Terry
üstleniyor
kompleks
Çankırı
lakin
lacivertli
oyunlarının
kızına
fiyatlarla
insandan
##fere
katan
hayatındaki
kü
dokunmatik
Okuma
sinirli
Cortex
Şükran
Alfred
defans
isteyebilirsiniz
##leştiren
Mimarlık
Gümüşhane
##enta
girmesine
yaşayıp
Sırt
ATV
yükünü
çıkardın
süslü
Reş
Wo
bildiğin
getireceğim
Haberler
mürettebat
Tuvalet
giye
isimlendir
İfa
##iyete
adaleti
firmasının
ülkelerdeki
##SV
kolaydır
İzmit
taşıyıcı
bahş
çağrıştır
zirvede
kası
##asu
oyunlara
Won
##sunu
tuttum
spora
mücadelem
konuşmasının
dolmuş
Gey
geçmiştir
kurulmuştur
sük
##tığının
Yılan
şeyde
burcuna
nesillere
özle
katarak
getiriliyor
sevdiğimiz
öyleydi
Ofis
Yurtdış
Hikayesi
düzeyinin
Darwin
bariyer
bilirk
taşınabilir
kapısında
adamlarının
Cru
##egel
geçenlerde
kimdi
Vakit
demiyor
evlere
demokrasiye
bulantı
moza
açıcı
tanıyorsun
##dyol
Kıv
Gard
Juan
olduysa
intikal
taburcu
Moğol
##imdir
İskan
meçhul
##emezler
olabileceğine
Hir
bilmesi
uğraşıyor
135
basınında
1966
uygulamalarını
güzeldir
Hayata
reklamları
titizlikle
Barbaros
Ayrıntı
muamelesi
Kahire
##LEM
binaya
havuzu
devamını
üretme
aklın
başlığıyla
azaltılması
yayınlayan
Müge
otorite
UF
##TİR
uzayda
gitmemiz
zorlayan
kaynaklarından
besteci
Dini
Pelin
belirliyor
##lımlı
cümleyi
akar
tercihleri
Keyif
##ondu
hazırlıkları
yenilenebilir
tezde
kapatılması
sütün
##unuzla
##odor
teknolojisinin
okuyunca
yoga
Mübarek
birbirlerinin
odan
##siness
olmalarına
tertemiz
vuruldu
fev
yaklaştı
yatırımcılar
performansları
aleti
Rebecca
bırakmadı
mesafeli
inceler
buluşmaya
birikimi
alışkanlıkları
Tuzla
konuşmanın
Fakir
federasyon
##atay
##ımına
107
yıkıldı
##ulum
Sarhoş
Samuel
müsl
##ekonomik
Nej
##meyecektir
hissetmiyorum
bahsettiğimiz
laptop
otururken
fesh
düşürül
çıkacağız
keser
Varlık
çıkardım
görünüşe
alırsın
TEKN
seviyeleri
Walker
göndermiş
##taurant
roz
vatandaşlarımız
endişeli
kenarda
Pac
Senatör
##maş
baktık
serisinde
üreticiler
Şebnem
Büyü
piyasasında
Edge
tarayıcı
Todd
##ılsa
bayılıyorum
yaralanma
##totip
çubuk
##ıltı
adan
düşüp
##lülüğ
##sünde
seçimlerine
sapık
düşünüyorsanız
kabartma
zamanını
Down
##usa
##üsüz
koymuştur
Servet
Pencer
sürmesi
dizileri
##Fi
duyum
Cenevre
teselli
kron
yazarlarından
kos
üniversiteler
bulurum
eğitimde
##ome
##rand
ağrıları
hastaya
terminal
PTT
Tef
Sesi
yazısını
gerekirken
Enis
Bilet
##ohen
##amayacağı
##pil
##jon
seçilmiştir
sarışın
sığdır
Akkaya
gördüklerini
Cizre
##rın
konuştuğu
elit
stop
almadım
##yaya
Kurucu
dilemek
oturun
düşünecek
##cısına
gelenleri
102
Turkish
Küb
içerikleri
##eksüel
##aro
çalıştılar
götürüp
girişiminin
yapılma
yükselmesi
Manavgat
Holmes
keman
##eğince
medyayı
temizliği
Türkçeye
toptan
değişimleri
ikonik
sonuçlandı
benimse
ihtiyacının
kuyruklu
##dyumu
##kurgu
örneğini
Santa
kocasının
karşılaştırıldığında
Lincoln
##lıdır
kura
tanıtmak
Bozuk
Biç
##holm
##ANK
İdris
##ART
evimde
ellerine
diziyi
hatırlatalım
Sonsuza
yayınev
denince
eleştirilere
Festivalin
Tartışma
##git
karısını
sevmez
##ough
Görüşlerinizi
koleksiyonu
ortaklaşa
finali
kaçırdı
oralarda
İnanç
##mah
matematiksel
deneyimleri
İstasyonu
aradaki
Ferit
indirimli
Moore
yakalayan
Almanlar
kelebek
Gökçen
görerek
1800
##osunda
hurda
Koleji
Oz
##sunlar
noktasını
sokaklar
##bridge
##abilirdi
Sebastian
jest
##kiye
Pendik
##tular
birbiri
kavurun
görgü
oldunuz
Alternatif
Patri
beklentilerini
diliyoruz
dansçı
Open
işlemini
tüz
##lasını
Sırrı
geliştirdi
yazışma
##ovan
Ataşehir
GPS
kurtaran
Arkeoloji
Arman
Realme
oğulları
##sson
##çekim
Kendinize
Pass
kaydedilen
bacağ
vermiştim
Neander
##ersey
##hel
Nedeni
depremden
aracına
kalemi
##isiyim
deniliyor
Kaçır
Cemiyeti
fenom
##amat
düzenlenmiş
fırsatını
Yetenek
sivri
Lah
##uss
sör
ağırlaştırılmış
Free
varlığının
inceledi
##iren
halkını
zenci
##ılmayacak
evlerini
sahasına
yapılanma
dokunun
yürekten
yaralandığı
Alem
Dondur
##seydin
##anıma
oz
kitlesel
aktiviteler
Ankaralı
kaynaklandığını
burçları
karantina
unun
kapsamındaki
Kuzu
hikayesine
yapacakları
çarpıyor
tercüme
başarının
Molly
almalı
büyümenin
felaketi
geldiğiniz
Karagöz
Seçimi
sahiplerini
koşarak
kategori
Nesli
gölgesinde
Ölen
kaldığımız
diğerlerine
sıfat
öldükten
acılar
cer
alınma
Doktorlar
çantası
Rehber
##larınca
sektöründeki
Yolcu
edildiğinde
bekliyordu
##bos
çevrildi
Madonna
atarken
unda
çocuklardan
Elmas
Müfettiş
Keçi
Pav
Dünyası
##nedy
##alie
fiyatına
girişimcilik
tutkun
##mediler
çocuklu
noktalarda
Okulda
Kıyafet
öder
##rumda
vazif
unvanını
##musun
Posta
##uku
insanım
sorduk
Manastır
Çakmak
Müsteşar
Isa
Hugh
103
sulama
Fakült
Feh
##erobik
Kullanıcılar
lamba
Fis
##SYK
Tuncer
yoldaş
yatırımların
##hh
HAL
sulu
##stığı
##yeşil
patlak
eserlerinden
işletmenin
olmayanlar
Denetim
##AW
halleri
Bakü
##iydik
eyleme
Depolama
işlemcisi
organı
HSYK
Görünen
yetersizliği
von
saattir
yanık
sevinc
getirilmiştir
evrende
nelere
hayattaki
görmedi
verirsen
ciddiyim
Gamze
kurultay
örneklerini
düzeltme
Numan
##gelen
Toplumun
Wen
artırdı
tüketen
soylu
namazının
durumlara
edinen
##muyoruz
doktorların
imkanlar
Emel
Mutluluk
mutfakta
##ware
altüst
kaldılar
taşınan
gezegeni
##iyev
sabun
Stanley
yapmayacak
güzelce
örümcek
Haliyle
alıkoy
kaldırma
edebiyatın
artırma
##şama
geçmez
kısık
aileyi
Davet
TOBB
##oviç
gazeteler
piyasası
Anabilim
Valla
dökülen
bilhassa
bulmalıyız
kaymakam
Kod
savaşan
direnc
indirme
öncek
##guay
kariyerinin
operasyonun
yaşıyorsun
Sabiha
##oğlan
artmaya
ortalık
Komünist
bitmiyor
babasıyla
fail
Hid
##abildi
kaybetmeden
olamadı
kesik
##LARIN
taşınmaz
pani
edilebiliyor
Sürdürülebilir
döndüğü
kaptanı
##lığımızın
korum
##kada
##luluğa
League
Boya
olsanız
##ations
bankaları
sıralamasında
leke
BÜY
Hacettepe
yürütül
Sebebi
Şüphesiz
varılmıştır
konuştun
Dönüşüm
suçları
davaya
talebin
tanımıyor
Trendyol
Fit
doğran
Arsen
Beklen
geldikleri
##omu
##ikalı
hatırladın
akıyor
oyuncuyu
kitabından
eşitliği
time
karşılaştım
yasalar
menajer
Hob
nasi
ydi
devri
izliyorum
Heykel
Nehir
amin
kemi
##esk
aşaması
Gray
polislerin
pala
Sanal
biriken
Arma
duymuştum
Harekat
gücümüz
feri
Kentin
açıklanması
habercisi
hissiyat
müzikle
nce
##amal
yağdır
kaybolmuş
ajanı
rez
Çant
##RE
Wagner
sınırlar
söylemiyor
##esih
amaçlar
platformlarda
Kanıt
Yazık
miydim
##sadı
çekildiği
##tuğumuz
promos
duymaya
istemiyorsun
Kendisinin
resepsiyon
parlayan
oluşmasına
yakınlık
becerilerini
uğraşmak
Gri
seyirciyi
sergilediği
Kalı
##vari
itham
riskler
İsrailli
penis
Bankalar
Duran
katılmaya
Leonardo
fiyatını
öğretti
vaad
satranç
tarihlerde
Ruslar
Taze
babama
nemlendir
Rö
tarçın
Nedim
ilişkilere
Demirören
Hüsnü
bulunmaz
bölümlerde
Manço
tıklayarak
##jin
alüminyum
Freud
partili
organları
ziyaretinde
Ut
takımdan
krizinin
ikilinin
KAP
##yasını
meselesini
buyurun
Hali
##kot
##asonu
Geceleri
şube
Parça
gruptan
polisiye
##gnezyum
##tma
##layamıyorum
550
##POR
PA
gelişi
merkezinden
iddiasını
atabilirsiniz
Kütüphanesi
Çeki
##ute
Şuraya
destekleyecek
iktisat
##ysam
##arch
Yazarın
temenni
##uan
konuşacağım
SÖZ
bulamıyorum
Simp
temkin
birliğiyle
hasarlı
kararında
dog
kurtulan
##mund
Konsey
gözünün
araçlarını
Yönetmeli
Yeterli
buluşmak
yerleşti
olmamı
sivr
##atema
salonuna
gidebil
günümüzdeki
Gog
günüm
##ISI
izleyerek
hedefleniyor
Olivia
EA
##kinin
##aname
yapmakla
Şevket
##chen
söze
kazandığını
uçaklar
sağlayıcı
abone
Kalabalık
siyasetçiler
kazandırmak
İhale
dediğimi
##opya
feci
giymiş
hisseden
poşet
Haliç
Hrant
Saçmalık
##iyeli
sürenin
##rd
inisiyat
ilginizi
sularında
eleştirileri
yarışmasında
kanadı
Live
sevenler
gözlerinin
filmdeki
paragraf
Sözcü
yılbaş
sitelerinde
Ret
seferleri
sesleniyorum
##nalı
silahların
soruşturmanın
##latmak
suçluluk
geliştirmeyi
verilmişti
Aksa
##layacağını
Anlaşması
##cem
##igan
eğitiminin
kumsal
##uhani
##ilmeyi
senenin
nadiren
##ces
uyarlaması
ALT
gözeterek
İLK
Kıyı
görünümlü
##lut
yaratabilir
Koreli
dolab
##garı
yurti
Adan
açıklayacak
YER
üçgen
vurdum
Şimdilerde
Fro
tanıtıldı
##umi
kimlerin
raporları
dileriz
Turgay
konsep
##sing
damak
##ışını
restoranı
etmenizi
faul
Jacqu
Aaron
Set
cezayı
Kıskan
SAR
açıldığı
Minik
##dist
Rıf
ayrıldıktan
yakalanma
Koleksiyon
Darb
sorularına
dansı
istifade
övg
gole
karşılaşacak
GÜ
sıkışmış
##masaydı
Faiz
küst
Ferdi
milit
Sonradan
hücrelerin
##emediğimiz
çıktılar
yolundaki
dostları
##amparça
Journal
özellikli
çözünürlüklü
dinsel
Derhal
gelinen
##dro
Atı
gösterirken
Dünyaca
müziğinin
taraftarlar
dos
bıraktığını
repertu
inatçı
Nina
vermediği
A7
yeteneğini
Aley
ordunun
South
trak
bürokras
Derken
Bag
tramv
adresini
Hilton
##iskop
etmelerini
komuta
ziyaf
dayanıklılık
binayı
sonuçlanan
yıka
lezzeti
##XX
##usan
evsiz
terbiy
Dai
taktirde
##lace
vermemek
kabuğu
ödenmesi
OHAL
gıdalar
neymiş
##emb
özn
hedefine
Hot
##iyenin
boyunda
Mahm
iddialarına
Mutf
Randev
partiyi
hayvanı
Çikolata
##uda
miktarının
##ılmayan
istanbul
gösterilecek
inşaatı
şahsın
aklında
Kiminle
Transfer
anımsatan
şeyini
listeleri
merkezlerinde
erkekle
Rönesans
ipek
Genetik
Yürüt
dediniz
tutmayı
yönetmeli
Eks
Ekşi
profesörü
dileğiyle
çevrelerinde
dengeyi
izlediğim
verenler
Pasaport
hasat
##elecek
isabetli
mühimmat
##latör
Kennedy
romanından
belirlenecek
Rakip
önlen
##adası
İdari
Lang
sözleşmeler
##üyse
vatandaşa
buluruz
kadros
öznel
sakinleş
sterlin
üzerimize
caiz
IPS
yaşamda
yaklaşımla
##ayabilir
ayrıcalığını
pişirme
Icardi
##pres
verilmedi
Lex
##lans
oyunlarından
tartışmanın
askerlerinin
soyunma
Off
##zek
oyların
##eber
içerde
178
Hersek
kavan
Mih
inanmıyor
kafaya
Zeker
toplantının
düşünüldüğünde
Muzaffer
Denn
görüntüleme
kullanıcıya
Cahit
geldiğine
##sellik
hakkım
oyuncularla
Delir
Tecr
sattı
##SUN
hareketlerini
Piyango
götürün
parçasıdır
Peyn
hastalarının
konumunu
anladık
yaklaştır
##ombi
##ünüzün
iyileştirme
bayı
yararlanarak
Töreni
Alparslan
##RET
katli
girmesini
Çocukluğ
renkte
kurabiye
olmadığım
etrafına
Blan
binasına
çeyrekte
cinsten
kaydıyla
Pep
Ciddiyim
enerjisini
fiyatlarında
şapk
tefek
önümüzde
Barbara
Haberde
ulaşılabilir
duvarları
Datça
Wit
hüs
çıkabiliyor
gence
filminden
özgürlüğünü
ric
##ürse
sığınak
ulaşacak
gerektiğinin
Albüm
Devletler
Soner
##üsten
ittifakı
Syd
hic
gereğince
##meyeceğiz
hapishane
bilmiyordu
derecesi
toplamaya
##hanesi
Belirli
edileceğini
yerleşen
yolladı
pişmiş
##MEK
çalışılıyor
bekleyecek
sahipliğinde
topladığı
Yaptığım
detaylara
İnternethaber
SÜR
tanıtılan
şekerli
kalbinde
zordu
kırmak
rengini
##sist
akımı
niyetinde
Hazırlama
ömrünü
Değişikliği
Ayla
Elena
saklamak
dalgası
dezenf
ının
uygunsuz
zer
##27
uzaklıktaki
dayanır
gökyüzü
toplanmış
farkın
bırakılmış
salona
karışmış
mutluyuz
kalacaksın
İnceleme
havalan
sırtını
PS5
##ürt
Kimseyi
çörek
sepet
##alak
suçlamasıyla
diyafram
değerlendirmede
tüketmek
Derek
yıllarını
Kişinin
Limon
##hay
oyuncularından
##ekke
##saydım
sup
##leyiciler
Sümer
sebeplerden
İlerleyen
Hulusi
1959
linç
toplumunun
odur
Deneyim
yaşayabilirsiniz
Sendikası
iştirak
##vali
hemfik
erkeklerden
TÜSİAD
parlamenter
trajedi
kıçını
cümlesi
Nag
##arısı
ağlıyor
sorunlardan
törene
##jo
##vidia
soracağım
##iyetin
savaşmak
uygulamalara
şartlarına
becerisi
yarışmada
Elini
ölmeden
##MAZ
projelere
Çalışmaya
romant
lokal
varil
sinyali
bulunup
telaffuz
aln
GS
##emiyorsun
odanın
Abdurrahman
National
buzul
##ablus
Başb
şehirleri
dakikasında
Projenin
birincil
sürdürülebilirlik
deposu
durmaya
dönüşmesi
aktarmak
##atikan
gayreti
gemiye
Sefer
bütünlük
Turnuv
Ajda
güvenin
nasıI
bankası
sözleşmeli
ART
Muhafız
##ecekondu
Ayşen
annesiyle
formülü
Dünkü
Guy
yürürlük
ezan
yedinci
Lab
bazda
bölgelerine
##emediğim
ayrıntılar
işçileri
tebliğ
istekleri
Grant
çürük
Görmek
mitoloj
ına
çilek
gelişti
kınıyor
##oku
büro
Mirası
sinemasever
herş
##lığınızı
televizyonu
alışverişi
##çiye
Bakanlığının
ergenlik
omz
Donna
##UI
hazırlıklarını
##33
çıkışlı
şehirdeki
haftası
gösteriler
bizlerin
ödemeleri
İmar
##sayı
##aker
demeyin
kanıtlamak
1962
Run
etkisinde
parçalarını
Bahse
çağrıda
yüzüme
tanıştık
işbirlik
etkiyi
eğitimler
Bilgiler
konularla
sürecinden
Bali
##ustik
hoşnut
##iğim
edebileceğiniz
Berber
fabrikası
Norman
görünmek
hastalara
çizer
dönerek
kurumlara
##tılır
faydaları
gemide
##lanmanın
##ebildiği
albümünü
börek
haberlerde
Afiyet
İngilizler
çizdiği
ulaşmayı
operasyonları
katmak
Harbiye
yeğ
##iyorsa
doyum
##els
yeterlilik
öneriyorum
Deng
kullanıyorlar
##ozu
ilim
incecik
##eğinizi
hektar
elemanı
çalışıyorsunuz
##iyes
doğar
anladı
adayın
gemileri
Ayağa
Rahmet
günlüğüne
oluşturmuş
saran
yolcuların
seneye
##senize
kariyerinde
antrop
Nüfus
boyutlarda
yaramıyor
karayolu
İşaret
##ılabil
imajı
ERD
bağları
suçlamaları
Kayak
##YO
yazıcı
seriyor
politikalarını
İntihar
çözülmesi
fiili
keçi
hayatlarına
basa
Sarıkaya
taslak
##lamayacağı
Tour
futbolcuların
takvimi
isteyerek
gelişmesine
##layabiliriz
boyutunu
tüt
belirler
aylarca
sitem
büyüklükte
Marcel
yerleştirilmiş
Yola
olmadık
Böylesine
olabilmektedir
değişikliğine
düzeyini
haram
şerif
yaşımda
Evden
##ARK
götürül
Kahrolası
Broad
##asy
ilişkilerine
şiirin
geçmişini
cezaları
konsantre
Rio
##layanlar
what
filmlere
alınırken
tuttuk
tartışmaların
Macron
görevlilerinin
köpük
##eceli
girmişti
belirttiği
sanıkların
evlenen
girmesiyle
Kolları
##dırıcı
anlamıyor
komün
ünlüler
depremler
##aval
bulgulara
bağımlısı
Hocam
başardık
University
Sorunun
geyik
Marshall
Demokras
Mezun
bankaya
aşkını
hamuru
Alı
görüntülerin
Yüzlerce
lüt
peşini
tutkulu
Balkanlar
istediğinizi
okullara
etkilemektedir
arabasını
adaletin
izlenimi
##hattan
incelemektir
Anıtı
taşınması
şansınız
yapılmaya
Fırsat
hortum
Sunu
rezalet
beğenisine
görüntülü
##sındaki
ekonomiyi
alacaktır
ödemeler
olanakları
türlerin
toplumların
Kuşadası
GD
karaktere
rastlanan
##ptün
anılar
pili
trop
##şağı
vurur
Aklıma
Günler
nezaket
Jorge
Resulullah
Ağaoğlu
Davranış
stand
vermedim
aracını
alamayan
##adır
ON
##kö
##lard
haberleşme
yemekte
vatandaşlarının
iletti
ahmak
artarken
elimi
Yürüyüş
Bayındır
Öldü
Bahset
Katie
Silahı
yazlık
almamış
engelleme
Hastaneye
yapılmak
aklımıza
Roc
Vatikan
viski
##AF
taşeron
kaldığım
hesaplar
##zı
düzenini
Hugo
Abdülhamid
tamamlamış
yapımcılığını
mevsimi
modül
Serisi
##tırken
Halka
##İNİN
pey
karakterine
alınmasına
Seyhan
Oxford
çın
seçmenin
yazmıştı
rolüyle
oyla
Apr
sürüp
Açıklama
etkinliklere
altyapısı
dosyayı
konulması
gerçektir
Yılbaşı
boğul
yamaç
Efend
##dö
kullanıyoruz
hayatınızı
başlamasıyla
hazırlanması
##amazlar
Başkons
Barack
milletimiz
ailelere
Nvidia
bilgisayarın
buralara
abd
Gaming
aralıklı
bezi
diline
iyiliği
maçtan
##leridir
çıkabilecek
kaplama
##umet
senet
bahçesine
##yaleti
uyarlama
aranıyor
HB
başladın
Cumhuriyetçi
olacaksa
şikayeti
Land
kalkmış
Yukarıdaki
Cop
imparatorluk
##hara
depreme
SONUÇ
konuşarak
aracılık
yaygınlaştır
Antep
sırayla
ortamın
kuvveti
tamamlanmış
Old
Gözaltına
sempatik
kavuştu
birleşme
##ulaf
madaly
davasının
kanalda
uzanıyor
uyuştur
##osuyla
vermeniz
Eva
Hilal
Gürkan
sökü
artırmaya
nesnel
yitirmiş
spesifik
finalinde
kn
gard
yatıştır
Neandertal
diyorsanız
iddialara
sözlerinin
kud
Frances
söylenemez
tanınıyor
kiralan
gelindiğinde
tesadüfen
##ursuz
DAK
umud
yüzyıllar
Julian
Kabil
##zede
##sık
biraraya
kriterleri
Fren
kimisi
oranlarını
tanımlan
yuf
açılışında
doğayı
dakikadan
kıyafeti
olmadıklarını
bilincinde
Sally
Nefret
Uçan
hiyerarş
##ush
sıklığı
kalkacak
gösteriyordu
kandil
acılı
kararlılıkla
nemli
sında
düşününce
desek
Cenaze
giriyoruz
İtiraz
##mil
yaşatan
Çocukluk
görebiliriz
aşamaya
haklarında
yağlar
##ememesi
over
##elerdir
çöktü
önerdi
değişikliklere
yapabileceğim
İddianamede
##oe
kliş
##evski
İntikam
halinin
açıklamasının
minnettarım
BT
şımar
oyuncuya
144
örnekleme
ahır
##oshi
endişelendir
götüreceğim
arkadaşımla
Kın
paramı
yenik
çiftinin
##echt
oyunla
yaşıyordu
##siyesi
dinlerken
önerilerde
denizden
##craft
##lanacaktır
Tv
borçları
galeri
Phi
modellerinde
savunmasız
İnsanı
attılar
##layabilirim
olaylarla
hikmet
defil
şelale
Nice
Şayet
desteklen
Orospu
biliyordun
##leyelim
##eum
müşterileri
Cris
bik
##malık
Ağız
bahçede
Çöl
suçladı
Patlama
reaktör
##68
##okim
##arıma
Zeybek
Saha
cü
derde
korunma
Banyo
##uli
arıyorlar
Kont
kaleye
satıldı
kaldırmaya
değiştirmiş
kaynaklan
yaklaşımları
bulacaksınız
##culuğu
milletinin
yüzeysel
Sİ
koşullarını
Binası
Pey
##iyad
Yapılacak
hayallerini
##ileşme
başlayacağız
çiftçiler
öğretmenleri
sözüm
yenerek
Yazılım
Sac
yaşamanın
atışı
sanatları
boyutlara
oteli
Makine
başkal
prototip
İnanın
karakteristik
seyirler
Geride
Engelli
bıraktık
artıracak
ıssız
yakalanması
tadında
##sizce
ekiplerinden
kalacağını
turuna
bereket
Jung
Epey
kelimesinin
edilmemiş
Lawrence
broş
onlarda
öğrenecek
peşe
Lozan
##lısın
##nett
##ATA
Pedro
derdin
taşlar
göstereyim
Bellek
aciz
Değiştir
ml
yapmanı
##asıdır
Ath
KÜ
zevkli
nicel
vuruşunda
##dinav
demokrasiyi
til
edemeyiz
güvenini
sunuyoruz
##gide
öğrendiğim
tutumları
##ÇE
süreçten
Diplo
##work
edebilirler
##iyormuş
raporlar
Orijinal
suçum
geliştirilmiştir
Liman
##itin
Buruk
İspanyolca
Reyhan
oyunculuğ
OLDU
koşullarının
yetmezliği
##FC
yayınlanmış
büyüğ
arıyordum
araçta
Taha
##şete
vurduğu
hatırlamak
Mann
Gözlerini
inanış
##lıyım
yemeyi
gelmeyi
kopuk
numarayı
##ball
##malıydım
Günah
balıklar
Teoman
##ulabilir
##app
Müdürlüğüne
Sırada
##OX
hayaller
olunması
mezuniyet
esirg
yaşadığınız
inovasyon
erg
Craig
güçlerine
hammad
araştırıyor
Kadar
Boris
##yayı
##ğim
reddeden
##elenin
filmine
geçiştir
kelepç
iyon
Ambulan
Simpson
##ceğe
oynanış
Ivan
hazırlığı
Hamile
albümde
##ated
listenin
Ferrar
bütçesi
Plastik
belada
##evk
akabinde
Tıbbi
seyrede
BİZ
ediyorsanız
Sabit
Yasal
##yatür
işinden
##ream
dövme
etmemi
Mide
Zehir
##mettin
olmalılar
yitiren
Şarkıcı
Lop
Meriç
batısında
duyguyu
müess
##ALIK
##rones
##alo
Magic
##itlerin
turları
unutmayalım
stresli
4G
##light
ayrış
yerleştirilen
Nah
##İMİZ
biskü
izleyiciye
Irmak
DDR
isimle
##lym
ilçenin
Ajans
olaylarının
Rena
Öteki
##laman
ifadeyle
NASIL
sevdir
yaralar
görmekten
Tanrıya
Aşağıdaki
Hayatımı
toprağın
Hannah
##dünüz
gaza
Tehlikeli
ütop
gösterimi
yapmıştım
balta
Onay
değerlerinin
MSI
Pad
tra
##labil
##enen
Amacımız
anlatıcı
##ılmayı
Halis
tanımlama
##kıran
vekalet
gözlerin
Syl
Vel
##ode
gördüğünde
##tha
diğerlerinin
Cher
hikayesinin
ikincil
Başbuğ
sele
gerçekliği
##leyebilirsiniz
sağlıksız
saçlarını
Pembe
ydı
Satın
Lirası
İlki
bahseden
karıştığı
kullanılmak
mutfağının
rön
kamaş
gözyaşları
Keza
güvercin
eriyor
Yakası
akşama
çaldığı
ıspan
Cesaret
##eğinizin
Sergen
yakaladım
Fay
önleyici
adamdır
Sabahattin
##yapıt
konuştuğunu
Arnavutluk
Protokol
##lera
başlarda
sergiledi
Böcek
pürüzsüz
cent
uyut
kaplan
köpeklerin
yayılıyor
tüketiciler
rapora
milyonluk
saklama
sinirlen
getireceğiz
999
Olacak
kalbin
yazdıkları
planladığı
yakalamış
##ilmedi
##kett
hastanenin
kullanılabiliyor
##mezsen
anlayışıyla
zamanlarında
aktara
suçtan
Selan
Termin
Tayfun
düşüren
Kızılder
##izof
parasız
Said
davranmak
##ılmadığı
ablası
saatini
Lion
##eze
engeli
hareketini
Siyasal
Best
tamamında
gördüğün
vef
yolların
Alfa
gelişmeye
İskele
doludur
Çağatay
McK
Patates
tiro
katıyor
Kıç
çıkışını
##lıyorsunuz
merkezini
Haksız
düşüncenin
barajı
##eddin
eserlerinde
Bürosu
Tesisleri
Pow
##ilikle
Işın
İhtiyaç
görece
kurnaz
sağcı
Homo
Vazgeç
##abildiğini
Müsa
London
##vador
denebilir
kaldırıldığı
çevirmen
isteyip
görenler
Monica
Yazıcıoğlu
senelik
bütünlüğü
Geçti
katılımcılara
isteğini
kulağ
korktum
bisik
##IT
##ininin
Neo
inceleyerek
örtülü
mürekk
taşınıyor
orgaz
vesayet
adrese
üyeliğ
defned
spekülasyon
ayrıldığı
saldırıların
tutsak
desteğin
söylediğine
paylaşarak
Manhattan
tasarımları
çıkartmak
melod
YKS
belirti
kaltak
yakınlarının
katkılarıyla
fiilen
beklediklerini
malzemelerin
Şof
oyları
kültüre
notları
tatlısı
görebileceğiniz
##abilmeleri
Bulgular
yapamıyor
sürmüş
düşeni
Topu
sahnele
##sos
karargah
Samet
varyant
Sız
Borsası
unsurların
azıcık
MYK
kaçma
açılardan
sandın
basının
##pozyum
Gözden
omurg
giderler
çizerek
çekilme
barınak
##odoks
ihtişam
Joker
Trac
kaybetmişti
niteliğindeki
Lezz
Pok
##inson
elim
Başlangıçta
##kabir
Kıymet
PO
##lary
telef
##Ch
tarafındaki
girdiler
Asayiş
yargılandığı
burnunu
##larınla
absür
Nevzat
ocaktan
incelenen
Özg
tanıtan
anıları
##ruyor
##leşir
oynadığını
Omega
Konuyu
tahri
ortaklığı
karşılaşmada
Fındık
veli
onurlandır
otomobili
Süreç
dana
gösterdikleri
Carrie
yargının
Boyn
Sermaye
özgürlüğüne
Duydun
Felsefe
sergilenen
adapt
yaptığımızı
doğrayın
dediğine
##ılmakta
sera
##ales
Bell
BİN
biziz
aşçı
konsolos
bulmamız
margar
salgının
Scar
oluşturduğunu
sitede
Urla
fert
içecekler
söylemeden
Otomotiv
gözüken
##rasya
Peker
toplantılar
Nijerya
demet
ediliyordu
Çocukken
kesimleri
Lut
yü
Ern
Bahadır
Bül
duracak
ultr
Neticede
ayrılmaz
gezip
teknolojisine
sicil
##66
hızda
##age
##right
##elerim
olamıyor
kazandık
Golden
kurca
parçalı
başvurular
Premium
anlayamıyorum
oruc
uygulandığı
inanma
kürtaj
YGS
özünde
güçlen
koymaktadır
telefonlarını
Cook
katilin
Uran
nev
öğrenilen
Bekar
departman
Oğul
bebeklerin
çoğunda
##içeği
Fars
ağırlığında
kaldıracak
Üzgün
ticaretin
Nancy
##ıdvan
diyar
rehberi
düştüm
##izden
Fold
TT
##erto
itici
kullandığınız
##elendirme
Ül
##kara
bozdu
verilmektedir
fidan
içip
güzelmiş
tedbirli
düşüncesiyle
dama
gitmiyorum
kafamda
tezi
Necmettin
işlerden
Konuşmak
Fair
tadi
demem
açması
##cide
köpekleri
türündeki
İlkokulu
Galeri
çalışırlar
Aydemir
gerilimi
temkinli
sıçrama
keşfede
kudret
gelişiyor
kel
durmuş
Gus
eşdeğer
Sorgu
sütun
Kımılda
girişimleri
halleder
insaf
raporunu
Firma
Ceren
olamam
tüketilen
engellemeye
1080p
Tin
yedin
çocuklarıyla
Geçiş
Bağır
Yolun
bütünüyle
Turhan
tüketiminin
Clay
Fos
##worth
geçebilir
çevreyi
duymuyor
yaşanması
Akıncı
alamıyorum
##under
gereç
##angir
Miz
Cho
dengele
laiklik
ağlama
anlaşmalar
başrolünde
##lamalıyız
gerçekleştiğini
TUR
Fikri
sentetik
saman
sakız
Somali
projesine
geceki
Pentagon
BÖL
##GO
farklar
gözüm
olmaktır
paylaşabilirsiniz
İmza
uyumak
Eğlence
vermenin
ekseninde
atmayı
tapu
Pizza
esen
iddiasına
Çağı
temsili
Marina
tatsız
siyasette
tuzağa
Denktaş
Duru
kavşak
kayıpları
sının
bozulmuş
Veriler
tavsiyem
işgali
işgücü
balıkları
tohumu
yaptırdığı
çatışmada
parmağı
yeğeni
değiştirilmesi
hükümlü
gönülden
yanılt
sarısı
Kadro
oynaması
paralı
seçimden
##ılmadık
törenin
Tuğgeneral
ısrarcı
##oslav
Parlamento
Atık
ailelerinin
Hadise
davranmaya
gömülü
giydi
##ilebilmesi
derd
lazımdı
üzerlerine
anlatılmıştır
çekilecek
Özgün
Sokakta
beklentilerin
bitene
gözükmüyor
DOĞ
Olym
izleyip
##ıştı
işime
##abilmiş
genelindeki
##AMA
Ethan
epeyce
Ayar
Nolan
mahvol
kişide
çıkışında
yangında
santimetre
Şii
Tanıştığımıza
atıfta
Rıdvan
başlanmıştır
vakası
soğukkanlı
gastronomi
grubundaki
başarıları
torb
Stadyumu
rağbet
değişikliğinin
##olla
olmadıkları
hiçe
##luğundaki
skoru
Little
left
saldıran
verirse
çiftler
##OLU
açıklamış
süreyi
milyonun
üniversitelerin
başlayacağını
trafikte
astım
Reno
##YS
güçl
kalamaz
##ağaç
##amamaktayız
##LÜ
bağışık
Marco
Spencer
uygulamasında
uğradığını
Düzenleme
Gönüllü
bilmeniz
hazırlayın
getirmektedir
Island
Selman
meyveler
Edip
ulaştık
olaylarda
Müvekk
teps
##dekileri
Yüzük
Müsteşarı
EUR
tabaka
Sunal
Dolma
Enes
sistemlerini
Lap
bilemezsin
ettirecek
ROG
Çayı
##yana
##CÜ
tasfiye
filmindeki
karavan
Alas
depremi
yaşanır
Ticari
##war
ördek
EYT
sevinci
##lanıyordu
alerjik
Cola
ılımlı
##run
dağa
Rome
şaşkınlık
düğmeye
CEVAP
konulmuştur
kansere
Varol
Anıtkabir
sunamamaktayız
bandı
Zamanın
yakar
araştırılıyor
seviyelerde
amına
YAPIL
Nate
Sina
##lamadığı
##tiyse
beklendiği
##kardeş
uygarlık
Hazreti
##34
Diğeri
Gitme
Burun
çıkarılmış
Ellen
sevindirici
Kendimizi
##MEN
##iza
cenneti
Heyeti
bitirdim
Yavru
##amily
gelenin
ifadesine
kaybetmesi
ertelendi
##lılık
anın
yaşlanma
papaz
##EHİR
Meksik
Kilise
##vaz
Dennis
##aht
dönümü
Kafka
##zie
çalışmam
##ostan
etiketi
Lara
kapasitesine
farklılaş
öldürürüm
belirtirken
AH
##laha
deriz
modellerin
##beyli
yatar
kararnam
Çalışması
harikaydı
İlyas
programlarının
sound
esneklik
çalkan
kelimeyi
Glen
Niş
Formula
giysiler
foto
yapısında
gazetesine
ekiplerine
söyleyince
alanlardan
Avrasya
Gelişmiş
planlıyoruz
Afrikalı
Glass
püf
hepsinden
doluydu
Afedersin
PUB
diyordum
milletimize
diziye
önlemlerin
Yetk
kıskançlık
iddiaların
karşılıksız
eşinden
haftadan
sandıkta
##laf
Sözleş
##EDEN
festivale
birliğine
Henri
bilmediğimiz
yazacağım
Başına
restoranlar
yaşatmak
kalmayıp
Get
##likaya
yayıldı
davranan
mezarı
AIDS
Pur
tıb
kamuya
konuşmacı
bilmediğim
Tif
çıksa
futbolcusu
kameraları
Caroline
yöntemin
Hastanede
DEĞİL
Grafik
öldürülmüş
rehabilitasyon
##diyseniz
Egzersiz
neleri
değiştirip
etkilemiş
tatilde
Wa
durdurma
Log
##nm
HIV
anasını
diğerinin
kazanılan
oyununa
varlıklar
liderin
##ilebilen
kırgın
vizesi
bucak
Jud
##itenin
gruplarına
numun
##cimek
gösterişli
yapılıp
güvenle
canımı
rakamlara
Cab
dönemleri
mahkemece
Creed
##kalade
fış
anons
düşerek
seçtim
Yaprak
Kupa
yansım
##liyorsun
atıksu
özlüyorum
geçmedi
yadır
sunarak
bulunuyoruz
türünden
brüt
harcı
savr
işçisi
geldiklerini
ambulansla
##oğuş
Ereğ
yıldırım
Depresyon
engelleri
düşünebilirsiniz
görmesini
tutulur
kariyerini
dursun
ARM
keh
nohut
tarafları
geçmeyi
güdü
içime
Sinem
##erin
Subaşı
East
içindeyiz
geceden
HDMI
siyahi
##pot
kapağını
hatayı
Endüstri
ilçesinin
##mün
olacağından
aylardır
müzede
bozma
fizyolojik
herkesle
Umurumda
konserde
##izma
alınmaktadır
Sevgilim
Cos
merte
ödemeye
incir
konuşuldu
barışçıl
sevkiyat
avrupa
Didem
komplik
Selanik
Jess
sersem
##sizliğin
This
##75
anlamaz
belirtilmiştir
Maur
Koçak
kaybının
Gitti
kavgası
High
Asliye
devrimi
oynayarak
Royal
Haç
çalışmalarımız
şehirlerin
aktarma
teyze
dakikalar
Yoksul
değindi
konfer
ağlar
Kadına
nesli
Direct
ligi
mücadelesinde
Kiraz
##ızlık
öldüğünde
Sonu
promosyon
Bri
kokan
Yerleş
yanar
mevsiminde
##TIR
cihazlarda
PUBG
efend
göreceksin
reklamı
1948
##üzyon
sözün
barışın
lakap
öksürük
Dala
lilerin
kırıp
makineleri
hücrelerinin
##ords
başlığını
yağıyor
zaferi
##ige
gerçekleşmiş
vermeleri
bulundum
bağlamak
sopa
kaldıran
muhar
İkiz
bitiren
##ilmekte
yorumlanır
AĞ
önemse
gari
çene
istemiyorlar
##ILI
miydiniz
sevme
perdeye
etkinliğini
heyecanını
Romantik
çarpışma
yakınlaş
genişleme
##bun
içeriden
yenisini
yiyin
Bakış
oluşturuldu
yapabilen
##talı
kademe
Mahmud
Gedik
hum
olayının
davranıyorsun
tuğla
uçağının
Şehirde
PCI
Loto
##misin
kavramların
bahsetmiş
hazırlanırken
##ğındaki
gerçi
tartışmak
Nicole
güveniyor
Sas
stoper
Yerlikaya
##bach
duydu
katılacağı
vaktimiz
çile
##mışsınız
olayına
Lütfi
yöntemini
Örümcek
##last
##opik
görüştüm
okullarında
ayındaki
bakıyorsunuz
paylaşma
enerjik
kalıyoruz
sermayenin
çürüt
kaldırır
Çizgi
puanlık
inşası
Numar
sözcüğü
annemle
Gust
edildikten
yerleşmiş
edebileceği
Sayılı
İzninizle
##alığına
sayılıyor
Hic
##seli
göründü
##uluğa
iptali
Kadı
kazanmıştı
Sandık
kahretsin
okuluna
Cehennem
zorlayıcı
Beta
Zelen
görsün
savcılığa
kürk
tabanı
geçirmeyi
işlerle
başkanın
toplanması
kurulumu
dekorasyon
Sendrom
söylerdi
bankacı
Toros
Luis
Tören
Press
özelleştirme
suyunun
propagandası
İskandinav
las
Yüzyılı
çalınan
Buyur
Buck
araçlara
tanımlıyor
Eczacıbaşı
etmesiyle
yönüne
diyeceksiniz
##isteki
role
zirvesinde
Mithat
Etik
Uzaktan
şenlik
Ümraniye
##iyal
elleriyle
iktidarda
Zeka
Dakika
halinden
Birbirimizi
Gezegen
Bala
Diye
North
##oco
stresi
danışma
görüşmenin
çevrenin
İğ
fiyatların
Togg
##mavi
##amadığını
bulunuldu
Kongr
küçükken
Ned
tutması
Yapmak
Cinsiyet
krema
sayfasına
bozulur
deşif
desteğinin
Watson
İşletim
konuşmasına
sonrasını
programlarına
ziyarette
##lamakta
Tekstil
riskinin
münaseb
Köşkü
Dövüş
##lesinde
kovala
uymayan
ıslah
##çik
##larm
vuracak
davetiye
Emirlikleri
rejiminin
Esenyurt
sultan
imp
kaynaklarına
Savcılık
##lasi
Merdiven
Finan
##adak
##layabilecek
piyasadaki
kayıtlarına
çoğalt
Çubuk
Blake
yenen
mesleklerimizi
belediyelerin
hayatıma
polisleri
işletmeleri
Cihangir
etkisine
devrede
güzelsin
Shar
şölen
Aur
Oc
##laştıran
Blair
entegrasyon
Murphy
kalbine
Water
KHK
nm
başyapıt
okuru
mesa
korkarım
lisede
Siber
edilecektir
faşist
haberinde
İşini
partilere
popül
primi
Taşın
##ulo
Türkçesi
söylemi
yönetiyor
ulaşı
##ılcım
ishal
ikinc
seçer
Götür
değişikliklerin
uğruyor
Ceph
ilişkisine
direnci
Analizi
Lum
yakaladık
bakmayı
baktığımız
sağlığa
faaliyetlerin
kuyruğ
edersek
yolundan
Sanmıyorum
Frankie
urum
Tanık
alıştır
sebzeler
ediyorsa
kağıda
verilmeye
Teyze
##averse
elimizdeki
gönderir
Science
baktığı
bıraktın
basket
fiyatlarındaki
ruhun
puana
##aly
##hava
açmıştır
yetiyor
Vahşi
açmıştı
egemenlik
bilemez
olmayınca
Sade
Başkanlığına
adımların
İzmirli
işlevini
yürüdü
olgusu
tedavisinin
deneyimlerini
##dle
##mışız
yazımı
karşılanması
bölgelerin
Yeryüz
evinizde
dörtlü
Peru
yetkililerinin
Philips
Aud
olursam
kızlara
embr
temizle
edebileceğini
##aks
sonrasına
dörtte
Pom
edilmez
Ferrari
Kamuoy
sayan
Beyazıt
Adamım
çözümleri
Durmuş
1938
Ortaç
metreye
Dana
kaybettir
emret
BÜYÜK
kimileri
kahramanları
DO
##acağımızı
alışkın
Talat
keşfedilen
istila
şekilleri
155
##lalet
neşe
önceleri
720
görevinde
Yükseköğretim
hediyelik
kişidir
sabık
olunan
##biyen
hormonu
##rara
##meyeyim
tepkileri
Zekeriya
sancı
Servisi
##binlerce
ida
belirtmişti
ışıklar
Barbie
bulamayan
##oney
sisteminden
Malzemeler
tahribat
##uhuş
Rom
durağı
taran
aktarın
Becer
etkinliğin
davetli
terörü
hafife
Amiral
zarara
##EKİ
Buyr
Thrones
##abız
yaratılmış
unutmuşum
Martha
##şısı
aklımdan
##layıcısı
müstak
##eceğime
Toplamda
##ozom
Buldum
Üzüm
oluşumunu
ortaöğretim
oluşturarak
gördükten
anlayamadım
binip
uygulamalarına
araştırmalarda
bayıldım
TM
kaynaş
yapılabiliyor
konuşacağız
alınabilecek
Yağış
Tina
##amaması
çevreniz
kasıtlı
##iyüz
sağlamayı
Kibar
Mam
kapatan
tematik
Ekme
##latılan
seçeneğini
destekleme
katılmıştır
eczan
Lef
bakkal
##abileceğine
Osmangazi
yapsa
genişlete
başarısızlık
sakatlık
manevra
Akademik
Kendilerine
efsanesi
Gates
seçeneğine
yapmadık
süreçler
##ular
##gılı
isimlerinin
##abiliyoruz
Özhas
vurarak
##teyim
örneklerle
kalitede
bulamadı
girdikten
sokan
Cum
##ayede
Evan
sesiyle
[...]
