{
  "version": "1.0",
  "truncation": {
    "direction": "Right",
    "max_length": 128,
    "strategy": "LongestFirst",
    "stride": 0
  },
  "padding": {
    "strategy": {
      "Fixed": 128
    },
    "direction": "Right",
    "pad_to_multiple_of": null,
    "pad_id": 0,
    "pad_type_id": 0,
    "pad_token": "[PAD]"
  },
  "added_tokens": [
    {
      "id": 0,
      "content": "[PAD]",
      "single_word": false,
      "lstrip": false,
      "rstrip": false,
      "normalized": false,
      "special": true
    },
    {
      "id": 1,
      "content": "[UNK]",
      "single_word": false,
      "lstrip": false,
      "rstrip": false,
      "normalized": false,
      "special": true
    },
    {
      "id": 2,
      "content": "[CLS]",
      "single_word": false,
      "lstrip": false,
      "rstrip": false,
      "normalized": false,
      "special": true
    },
    {
      "id": 3,
      "content": "[SEP]",
      "single_word": false,
      "lstrip": false,
      "rstrip": false,
      "normalized": false,
      "special": true
    },
    {
      "id": 4,
      "content": "[MASK]",
      "single_word": false,
      "lstrip": false,
      "rstrip": false,
      "normalized": false,
      "special": true
    }
  ],
  "normalizer": {
    "type": "BertNormalizer",
    "clean_text": true,
    "handle_chinese_chars": true,
    "strip_accents": null,
    "lowercase": false
  },
  "pre_tokenizer": {
    "type": "BertPreTokenizer"
  },
  "post_processor": {
    "type": "TemplateProcessing",
    "single": [
      {
        "SpecialToken": {
          "id": "[CLS]",
          "type_id": 0
        }
      },
      {
        "Sequence": {
          "id": "A",
          "type_id": 0
        }
      },
      {
        "SpecialToken": {
          "id": "[SEP]",
          "type_id": 0
        }
      }
    ],
    "pair": [
      {
        "SpecialToken": {
          "id": "[CLS]",
          "type_id": 0
        }
      },
      {
        "Sequence": {
          "id": "A",
          "type_id": 0
        }
      },
      {
        "SpecialToken": {
          "id": "[SEP]",
          "type_id": 0
        }
      },
      {
        "Sequence": {
          "id": "B",
          "type_id": 1
        }
      },
      {
        "SpecialToken": {
          "id": "[SEP]",
          "type_id": 1
        }
      }
    ],
    "special_tokens": {
      "[CLS]": {
        "id": "[CLS]",
        "ids": [
          2
        ],
        "tokens": [
          "[CLS]"
        ]
      },
      "[SEP]": {
        "id": "[SEP]",
        "ids": [
          3
        ],
        "tokens": [
          "[SEP]"
        ]
      }
    }
  },
  "decoder": {
    "type": "WordPiece",
    "prefix": "##",
    "cleanup": true
  },
  "model": {
    "type": "WordPiece",
    "unk_token": "[UNK]",
    "continuing_subword_prefix": "##",
    "max_input_chars_per_word": 100,
    "vocab": {
      "[PAD]": 0,
      "[UNK]": 1,
      "[CLS]": 2,
      "[SEP]": 3,
      "[MASK]": 4,
      "!": 5,
      "\"": 6,
      "#": 7,
      "$": 8,
      "%": 9,
      "&": 10,
      "'": 11,
      "(": 12,
      ")": 13,
      "*": 14,
      "+": 15,
      ",": 16,
      "-": 17,
      ".": 18,
      "/": 19,
      "0": 20,
      "1": 21,
      "2": 22,
      "3": 23,
      "4": 24,
      "5": 25,
      "6": 26,
      "7": 27,
      "8": 28,
      "9": 29,
      ":": 30,
      ";": 31,
      "<": 32,
      "=": 33,
      ">": 34,
      "?": 35,
      "@": 36,
      "A": 37,
      "B": 38,
      "C": 39,
      "D": 40,
      "E": 41,
      "F": 42,
      "G": 43,
      "H": 44,
      "I": 45,
      "J": 46,
      "K": 47,
      "L": 48,
      "M": 49,
      "N": 50,
      "O": 51,
      "P": 52,
      "Q": 53,
      "R": 54,
      "S": 55,
      "T": 56,
      "U": 57,
      "V": 58,
      "W": 59,
      "X": 60,
      "Y": 61,
      "Z": 62,
      "[": 63,
      "\\": 64,
      "]": 65,
      "^": 66,
      "_": 67,
      "`": 68,
      "a": 69,
      "b": 70,
      "c": 71,
      "d": 72,
      "e": 73,
      "f": 74,
      "g": 75,
      "h": 76,
      "i": 77,
      "j": 78,
      "k": 79,
      "l": 80,
      "m": 81,
      "n": 82,
      "o": 83,
      "p": 84,
      "q": 85,
      "r": 86,
      "s": 87,
      "t": 88,
      "u": 89,
      "v": 90,
      "w": 91,
      "x": 92,
      "y": 93,
      "z": 94,
      "{": 95,
      "|": 96,
      "}": 97,
      "~": 98,
      "¡": 99,
      "¢": 100,
      "£": 101,
      "¤": 102,
      "¥": 103,
      "·": 104,
      "¼": 105,
      "½": 106,
      "¾": 107,
      "Ç": 108,
      "Ö": 109,
      "Ü": 110,
      "ß": 111,
      "ç": 112,
      "ö": 113,
      "÷": 114,
      "ü": 115,
      "Ğ": 116,
      "ğ": 117,
      "İ": 118,
      "ı": 119,
      "Ş": 120,
      "ş": 121,
      "##v": 122,
      "##a": 123,
      "##m": 124,
      "##l": 125,
      "##r": 126,
      "##e": 127,
      "##ç": 128,
      "##b": 129,
      "##i": 130,
      "##s": 131,
      "##n": 132,
      "##z": 133,
      "##ö": 134,
      "##ş": 135,
      "##ı": 136,
      "##d": 137,
      "##t": 138,
      "##0": 139,
      "##3": 140,
      "##2": 141,
      "##5": 142,
      "##o": 143,
      "##k": 144,
      "##ü": 145,
      "##c": 146,
      "##y": 147,
      "##g": 148,
      "##ğ": 149,
      "##f": 150,
      "##h": 151,
      "##Ü": 152,
      "##K": 153,
      "##R": 154,
      "##M": 155,
      "##E": 156,
      "##D": 157,
      "##İ": 158,
      "##u": 159,
      "##Ş": 160,
      "##L": 161,
      "##N": 162,
      "##8": 163,
      "##4": 164,
      "##p": 165,
      "##j": 166,
      "##x": 167,
      "##I": 168,
      "##O": 169,
      "##Ğ": 170,
      "##A": 171,
      "##B": 172,
      "##1": 173,
      "##9": 174,
      "##Q": 175,
      "##7": 176,
      "##q": 177,
      "##Y": 178,
      "##6": 179,
      "##F": 180,
      "##C": 181,
      "##U": 182,
      "##J": 183,
      "##Ç": 184,
      "##w": 185,
      "##T": 186,
      "##P": 187,
      "##S": 188,
      "##H": 189,
      "##G": 190,
      "##Z": 191,
      "##V": 192,
      "##W": 193,
      "##X": 194,
      "##Ö": 195,
      "##ß": 196,
      "##¤": 197,
      "##½": 198,
      "##£": 199,
      "##¢": 200,
      "##÷": 201,
      "##¼": 202,
      "##¾": 203,
      "##¥": 204,
      "##la": 205,
      "##er": 206,
      "##in": 207,
      "##an": 208,
      "##en": 209,
      "##ın": 210,
      "##ir": 211,
      "##ar": 212,
      "##il": 213,
      "##lar": 214,
      "##ma": 215,
      "##ek": 216,
      "##or": 217,
      "##le": 218,
      "##ak": 219,
      "##un": 220,
      "##el": 221,
      "##iy": 222,
      "##da": 223,
      "##de": 224,
      "##im": 225,
      "bir": 226,
      "##lı": 227,
      "##ler": 228,
      "##et": 229,
      "##ay": 230,
      "##on": 231,
      "##at": 232,
      "##es": 233,
      "##iz": 234,
      "ve": 235,
      "##dı": 236,
      "##ik": 237,
      "##ur": 238,
      "de": 239,
      "##ün": 240,
      "ya": 241,
      "##lan": 242,
      "##as": 243,
      "##di": 244,
      "##al": 245,
      "##em": 246,
      "ol": 247,
      "##ey": 248,
      "##ır": 249,
      "da": 250,
      "##ür": 251,
      "##am": 252,
      "##um": 253,
      "##is": 254,
      "##iş": 255,
      "##aş": 256,
      "bu": 257,
      "##ım": 258,
      "##den": 259,
      "##yor": 260,
      "##ız": 261,
      "##iyor": 262,
      "##ok": 263,
      "##ların": 264,
      "ka": 265,
      "##ıl": 266,
      "gö": 267,
      "##st": 268,
      "##it": 269,
      "##ık": 270,
      "##dan": 271,
      "##ya": 272,
      "iç": 273,
      "##du": 274,
      "##ış": 275,
      "##ce": 276,
      "##ini": 277,
      "##li": 278,
      "##ab": 279,
      "##ul": 280,
      "yap": 281,
      "##ağ": 282,
      "##az": 283,
      "##ol": 284,
      "##ları": 285,
      "ar": 286,
      "##ında": 287,
      "##ine": 288,
      "##ah": 289,
      "için": 290,
      "##ti": 291,
      "##üz": 292,
      "##tı": 293,
      "##ük": 294,
      "##ta": 295,
      "in": 296,
      "##ını": 297,
      "##unu": 298,
      "##üm": 299,
      "##mas": 300,
      "gör": 301,
      "an": 302,
      "##inde": 303,
      "##ev": 304,
      "##cak": 305,
      "##uş": 306,
      "##mak": 307,
      "et": 308,
      "##te": 309,
      "##ra": 310,
      "##iler": 311,
      "baş": 312,
      "##me": 313,
      "Bu": 314,
      "##alı": 315,
      "##iye": 316,
      "##oğ": 317,
      "##esi": 318,
      "oldu": 319,
      "değ": 320,
      "##bil": 321,
      "##eler": 322,
      "##eç": 323,
      "al": 324,
      "bil": 325,
      "##ğı": 326,
      "kar": 327,
      "##üş": 328,
      "##leri": 329,
      "##inin": 330,
      "gel": 331,
      "##ği": 332,
      "son": 333,
      "##yle": 334,
      "##ut": 335,
      "ön": 336,
      "ne": 337,
      "##mek": 338,
      "##ına": 339,
      "ver": 340,
      "ger": 341,
      "##ön": 342,
      "##ıyor": 343,
      "##dir": 344,
      "##uk": 345,
      "##us": 346,
      "##ec": 347,
      "##eni": 348,
      "gi": 349,
      "##lik": 350,
      "##uz": 351,
      "il": 352,
      "##dır": 353,
      "kon": 354,
      "##ha": 355,
      "##ıs": 356,
      "##se": 357,
      "##lık": 358,
      "var": 359,
      "##len": 360,
      "##mış": 361,
      "ile": 362,
      "ed": 363,
      "çok": 364,
      "##ki": 365,
      "##tir": 366,
      "##ara": 367,
      "##man": 368,
      "ist": 369,
      "kad": 370,
      "##bi": 371,
      "##miş": 372,
      "en": 373,
      "##tır": 374,
      "##ez": 375,
      "##cı": 376,
      "ay": 377,
      "##larak": 378,
      "sö": 379,
      "yer": 380,
      "iş": 381,
      "##laş": 382,
      "olduğ": 383,
      "##ca": 384,
      "##ül": 385,
      "##av": 386,
      "olarak": 387,
      "##anı": 388,
      "daha": 389,
      "##aki": 390,
      "##ması": 391,
      "çık": 392,
      "##ından": 393,
      "##ro": 394,
      "ola": 395,
      "##eki": 396,
      "##ka": 397,
      "##ap": 398,
      "##lu": 399,
      "aç": 400,
      "##tan": 401,
      "##iniz": 402,
      "yıl": 403,
      "##alış": 404,
      "##eş": 405,
      "##ası": 406,
      "yaş": 407,
      "##ürk": 408,
      "olan": 409,
      "gün": 410,
      "##op": 411,
      "gibi": 412,
      "##eye": 413,
      "bul": 414,
      "on": 415,
      "##imiz": 416,
      "sür": 417,
      "##ama": 418,
      "değil": 419,
      "or": 420,
      "##san": 421,
      "##üy": 422,
      "##ının": 423,
      "##aman": 424,
      "şey": 425,
      "##ip": 426,
      "geç": 427,
      "##lama": 428,
      "çalış": 429,
      "##ör": 430,
      "##ken": 431,
      "An": 432,
      "##aya": 433,
      "##ele": 434,
      "Bir": 435,
      "kadar": 436,
      "##bilir": 437,
      "her": 438,
      "##ed": 439,
      "Türk": 440,
      "20": 441,
      "##om": 442,
      "ken": 443,
      "##lay": 444,
      "##ana": 445,
      "##sa": 446,
      "##uy": 447,
      "ben": 448,
      "##zer": 449,
      "##diğ": 450,
      "##yon": 451,
      "düş": 452,
      "##ece": 453,
      "##ci": 454,
      "##lerin": 455,
      "##yi": 456,
      "yar": 457,
      "##dım": 458,
      "olma": 459,
      "##cağ": 460,
      "##ecek": 461,
      "kur": 462,
      "##ili": 463,
      "##ark": 464,
      "zaman": 465,
      "kul": 466,
      "##sun": 467,
      "##üt": 468,
      "##isi": 469,
      "##ilm": 470,
      "oy": 471,
      "##iç": 472,
      "##iyorum": 473,
      "##ılı": 474,
      "##ru": 475,
      "ama": 476,
      "##dığ": 477,
      "##ımız": 478,
      "kal": 479,
      "sor": 480,
      "##iyle": 481,
      "##lü": 482,
      "gerek": 483,
      "##yla": 484,
      "bel": 485,
      "hay": 486,
      "bö": 487,
      "sa": 488,
      "uy": 489,
      "kullan": 490,
      "##daki": 491,
      "##unda": 492,
      "mi": 493,
      "dön": 494,
      "##let": 495,
      "##larını": 496,
      "##lara": 497,
      "##oy": 498,
      "Ne": 499,
      "dur": 500,
      "##enin": 501,
      "nin": 502,
      "##leş": 503,
      "##maya": 504,
      "##ep": 505,
      "ın": 506,
      "##eri": 507,
      "söyle": 508,
      "##oc": 509,
      "üzer": 510,
      "Ben": 511,
      "öz": 512,
      "##ğr": 513,
      "tek": 514,
      "##af": 515,
      "##os": 516,
      "##şı": 517,
      "##eh": 518,
      "##ih": 519,
      "##üyük": 520,
      "##uyor": 521,
      "##dığı": 522,
      "##ada": 523,
      "yan": 524,
      "yön": 525,
      "kay": 526,
      "##ede": 527,
      "ev": 528,
      "yok": 529,
      "##ilen": 530,
      "##inden": 531,
      "##art": 532,
      "den": 533,
      "##unun": 534,
      "##ad": 535,
      "sah": 536,
      "yaz": 537,
      "yüz": 538,
      "##ers": 539,
      "##tur": 540,
      "##ist": 541,
      "##eli": 542,
      "##lam": 543,
      "Ev": 544,
      "##lem": 545,
      "##asında": 546,
      "bak": 547,
      "sonra": 548,
      "ak": 549,
      "##ten": 550,
      "Baş": 551,
      "doğ": 552,
      "dev": 553,
      "yak": 554,
      "##çek": 555,
      "##arı": 556,
      "ise": 557,
      "Türkiye": 558,
      "##abil": 559,
      "yeni": 560,
      "##dim": 561,
      "gü": 562,
      "iyi": 563,
      "ki": 564,
      "mı": 565,
      "##ınız": 566,
      "top": 567,
      "##ran": 568,
      "sağ": 569,
      "##iyet": 570,
      "##diği": 571,
      "##ter": 572,
      "##men": 573,
      "##ğer": 574,
      "##una": 575,
      "sev": 576,
      "##gi": 577,
      "##deki": 578,
      "##üyor": 579,
      "biz": 580,
      "kat": 581,
      "insan": 582,
      "##ılan": 583,
      "##gu": 584,
      "el": 585,
      "##tık": 586,
      "##cu": 587,
      "##ot": 588,
      "##lat": 589,
      "bulun": 590,
      "büyük": 591,
      "olduğunu": 592,
      "##der": 593,
      "##sel": 594,
      "##araf": 595,
      "düşün": 596,
      "san": 597,
      "kap": 598,
      "##if": 599,
      "hak": 600,
      "açık": 601,
      "##dece": 602,
      "##est": 603,
      "##imi": 604,
      "##lerini": 605,
      "##larda": 606,
      "##dü": 607,
      "taraf": 608,
      "##yı": 609,
      "##ic": 610,
      "ek": 611,
      "say": 612,
      "##lk": 613,
      "uz": 614,
      "##eb": 615,
      "##dür": 616,
      "yol": 617,
      "##si": 618,
      "##muş": 619,
      "karşı": 620,
      "##ğini": 621,
      "bur": 622,
      "##ret": 623,
      "önem": 624,
      "##ster": 625,
      "gir": 626,
      "##kan": 627,
      "un": 628,
      "On": 629,
      "öl": 630,
      "kiş": 631,
      "neden": 632,
      "Ar": 633,
      "belir": 634,
      "nın": 635,
      "Hay": 636,
      "gerçek": 637,
      "şek": 638,
      "gen": 639,
      "##yan": 640,
      "ilg": 641,
      "ilk": 642,
      "pro": 643,
      "##ısı": 644,
      "hal": 645,
      "##ley": 646,
      "##larının": 647,
      "ada": 648,
      "do": 649,
      "tar": 650,
      "##kin": 651,
      "##aç": 652,
      "göre": 653,
      "mil": 654,
      "fark": 655,
      "##dık": 656,
      "##arak": 657,
      "alan": 658,
      "öğr": 659,
      "##id": 660,
      "##bir": 661,
      "konuş": 662,
      "##tü": 663,
      "Al": 664,
      "böl": 665,
      "çek": 666,
      "Er": 667,
      "##re": 668,
      "mu": 669,
      "##oş": 670,
      "özel": 671,
      "##ala": 672,
      "19": 673,
      "Evet": 674,
      "hiç": 675,
      "çoc": 676,
      "ort": 677,
      "##sin": 678,
      "##eyi": 679,
      "hem": 680,
      "Ama": 681,
      "tan": 682,
      "önce": 683,
      "kö": 684,
      "##asıl": 685,
      "as": 686,
      "dün": 687,
      "göster": 688,
      "bağ": 689,
      "##dik": 690,
      "##bul": 691,
      "olduğu": 692,
      "##etir": 693,
      "iz": 694,
      "sen": 695,
      "##ğu": 696,
      "##amam": 697,
      "##tu": 698,
      "duy": 699,
      "hayat": 700,
      "##ans": 701,
      "düz": 702,
      "##lıyor": 703,
      "##uç": 704,
      "getir": 705,
      "##tr": 706,
      "##larına": 707,
      "##ıp": 708,
      "ok": 709,
      "##lığı": 710,
      "Ay": 711,
      "##meye": 712,
      "##gün": 713,
      "kendi": 714,
      "göz": 715,
      "##ika": 716,
      "##ac": 717,
      "##met": 718,
      "##aber": 719,
      "##00": 720,
      "diye": 721,
      "git": 722,
      "##kü": 723,
      "##ram": 724,
      "durum": 725,
      "har": 726,
      "##rı": 727,
      "es": 728,
      "değiş": 729,
      "##esinde": 730,
      "mü": 731,
      "##elik": 732,
      "seç": 733,
      "##cek": 734,
      "edil": 735,
      "##iyat": 736,
      "par": 737,
      "bek": 738,
      "##lığ": 739,
      "zor": 740,
      "##erek": 741,
      "##mesi": 742,
      "kim": 743,
      "##iv": 744,
      "##sız": 745,
      "siz": 746,
      "##maz": 747,
      "##erk": 748,
      "kor": 749,
      "iki": 750,
      "der": 751,
      "##lere": 752,
      "sır": 753,
      "bin": 754,
      "##unuz": 755,
      "yet": 756,
      "tut": 757,
      "##acak": 758,
      "##tür": 759,
      "er": 760,
      "##daş": 761,
      "etti": 762,
      "##üzel": 763,
      "at": 764,
      "##eğ": 765,
      "yaptı": 766,
      "İn": 767,
      "oyun": 768,
      "##sın": 769,
      "##azla": 770,
      "yük": 771,
      "##oz": 772,
      "##eleri": 773,
      "##tik": 774,
      "ih": 775,
      "önemli": 776,
      "##raf": 777,
      "aş": 778,
      "##nı": 779,
      "başla": 780,
      "##larında": 781,
      "##mem": 782,
      "olur": 783,
      "ser": 784,
      "tak": 785,
      "##sı": 786,
      "alt": 787,
      "devam": 788,
      "oluş": 789,
      "şekil": 790,
      "##ayı": 791,
      "##aba": 792,
      "fazla": 793,
      "##fa": 794,
      "etk": 795,
      "söz": 796,
      "##leştir": 797,
      "kaz": 798,
      "##ven": 799,
      "te": 800,
      "yay": 801,
      "has": 802,
      "##han": 803,
      "##tar": 804,
      "olacak": 805,
      "ülk": 806,
      "##kanı": 807,
      "##ındaki": 808,
      "##lardan": 809,
      "##dığını": 810,
      "çocuk": 811,
      "##ımı": 812,
      "##dur": 813,
      "Bak": 814,
      "201": 815,
      "az": 816,
      "nasıl": 817,
      "İst": 818,
      "tarafından": 819,
      "sahip": 820,
      "##üs": 821,
      "hat": 822,
      "Bur": 823,
      "##azı": 824,
      "##ırak": 825,
      "##od": 826,
      "##mes": 827,
      "öğren": 828,
      "##öz": 829,
      "ede": 830,
      "di": 831,
      "##ünü": 832,
      "##ça": 833,
      "ad": 834,
      "##ileri": 835,
      "birlik": 836,
      "is": 837,
      "##imdi": 838,
      "tarih": 839,
      "##olo": 840,
      "##aret": 841,
      "Öz": 842,
      "##abilir": 843,
      "##dum": 844,
      "##siniz": 845,
      "##siz": 846,
      "dış": 847,
      "bile": 848,
      "İş": 849,
      "ilgili": 850,
      "dönem": 851,
      "##usu": 852,
      "##ale": 853,
      "arasında": 854,
      "Hayır": 855,
      "##eceğ": 856,
      "##liği": 857,
      "geliş": 858,
      "film": 859,
      "şekilde": 860,
      "tüm": 861,
      "Son": 862,
      "##lah": 863,
      "##ile": 864,
      "##ünde": 865,
      "ko": 866,
      "çalışma": 867,
      "##ayan": 868,
      "##ef": 869,
      "##lerinin": 870,
      "Biz": 871,
      "içinde": 872,
      "##azır": 873,
      "tem": 874,
      "##likle": 875,
      "benim": 876,
      "##lerde": 877,
      "eğ": 878,
      "güzel": 879,
      "##larla": 880,
      "bırak": 881,
      "##asyon": 882,
      "kız": 883,
      "##esin": 884,
      "çıkar": 885,
      "iliş": 886,
      "değer": 887,
      "kend": 888,
      "görün": 889,
      "sadece": 890,
      "##mıştır": 891,
      "##ünkü": 892,
      "##iyoruz": 893,
      "##makta": 894,
      "ter": 895,
      "biri": 896,
      "ye": 897,
      "##ıla": 898,
      "saat": 899,
      "yönet": 900,
      "birlikte": 901,
      "##üp": 902,
      "aynı": 903,
      "##ıyorum": 904,
      "##ne": 905,
      "##çe": 906,
      "farklı": 907,
      "gelen": 908,
      "hakk": 909,
      "##ilik": 910,
      "##diğini": 911,
      "kıs": 912,
      "ağ": 913,
      "arka": 914,
      "##lerine": 915,
      "##oloj": 916,
      "En": 917,
      "##rup": 918,
      "##lendir": 919,
      "alın": 920,
      "##up": 921,
      "##ıldı": 922,
      "Sen": 923,
      "##bet": 924,
      "##ıcı": 925,
      "konu": 926,
      "veya": 927,
      "Her": 928,
      "böyle": 929,
      "taş": 930,
      "uygu": 931,
      "mes": 932,
      "##mez": 933,
      "haf": 934,
      "10": 935,
      "boy": 936,
      "##din": 937,
      "##öyle": 938,
      "sat": 939,
      "kaç": 940,
      "dav": 941,
      "##aştır": 942,
      "##min": 943,
      "##anbul": 944,
      "sav": 945,
      "Ve": 946,
      "doğru": 947,
      "##ütün": 948,
      "##ket": 949,
      "ün": 950,
      "ör": 951,
      "bas": 952,
      "adam": 953,
      "##sek": 954,
      "hazır": 955,
      "##acağ": 956,
      "İstanbul": 957,
      "##ebilir": 958,
      "##ig": 959,
      "bunu": 960,
      "eş": 961,
      "Ak": 962,
      "##mekte": 963,
      "##liğ": 964,
      "dik": 965,
      "şu": 966,
      "##düğ": 967,
      "üst": 968,
      "##iyas": 969,
      "bana": 970,
      "##estek": 971,
      "diğer": 972,
      "##hur": 973,
      "düzen": 974,
      "olmak": 975,
      "ik": 976,
      "alı": 977,
      "Gen": 978,
      "##isin": 979,
      "##kat": 980,
      "##ulu": 981,
      "dan": 982,
      "##elen": 983,
      "tele": 984,
      "##tığ": 985,
      "##miştir": 986,
      "##ağı": 987,
      "yardım": 988,
      "kadın": 989,
      "başka": 990,
      "##laya": 991,
      "karar": 992,
      "sık": 993,
      "bun": 994,
      "##por": 995,
      "##istem": 996,
      "Bil": 997,
      "kit": 998,
      "##anın": 999,
      "##ilerin": 1000,
      "ediyor": 1001,
      "##manın": 1002,
      "##masını": 1003,
      "##erkez": 1004,
      "kam": 1005,
      "onu": 1006,
      "##he": 1007,
      "##üç": 1008,
      "sal": 1009,
      "##elim": 1010,
      "güven": 1011,
      "##oğlu": 1012,
      "##fon": 1013,
      "##eyen": 1014,
      "##fen": 1015,
      "##mayı": 1016,
      "kazan": 1017,
      "destek": 1018,
      "##dem": 1019,
      "bit": 1020,
      "Çok": 1021,
      "##üne": 1022,
      "##larından": 1023,
      "ortaya": 1024,
      "##ri": 1025,
      "Av": 1026,
      "Kar": 1027,
      "yem": 1028,
      "##tör": 1029,
      "##malı": 1030,
      "##tım": 1031,
      "##ehir": 1032,
      "bilg": 1033,
      "##lak": 1034,
      "##dar": 1035,
      "görev": 1036,
      "##layan": 1037,
      "hep": 1038,
      "##ani": 1039,
      "İs": 1040,
      "##lanan": 1041,
      "eden": 1042,
      "##osy": 1043,
      "güç": 1044,
      "##mam": 1045,
      "eder": 1046,
      "içer": 1047,
      "##dın": 1048,
      "im": 1049,
      "##larımız": 1050,
      "##tiy": 1051,
      "bölg": 1052,
      "tür": 1053,
      "oyn": 1054,
      "tab": 1055,
      "San": 1056,
      "##ildi": 1057,
      "Kur": 1058,
      "##masına": 1059,
      "##cü": 1060,
      "gele": 1061,
      "##umhur": 1062,
      "pol": 1063,
      "##uv": 1064,
      "mut": 1065,
      "yat": 1066,
      "su": 1067,
      "##ali": 1068,
      "dedi": 1069,
      "##luk": 1070,
      "anlam": 1071,
      "tes": 1072,
      "##tin": 1073,
      "yapılan": 1074,
      "##mal": 1075,
      "Or": 1076,
      "burada": 1077,
      "##lerinde": 1078,
      "As": 1079,
      "beni": 1080,
      "görüş": 1081,
      "istem": 1082,
      "ara": 1083,
      "ulaş": 1084,
      "##ırım": 1085,
      "##maktadır": 1086,
      "üç": 1087,
      "##tim": 1088,
      "##ahat": 1089,
      "##esine": 1090,
      "hav": 1091,
      "yüzde": 1092,
      "##eket": 1093,
      "##leme": 1094,
      "Ancak": 1095,
      "olabilir": 1096,
      "üret": 1097,
      "ner": 1098,
      "##ob": 1099,
      "El": 1100,
      "##iyon": 1101,
      "##eniz": 1102,
      "kan": 1103,
      "##baş": 1104,
      "##det": 1105,
      "##iyorsun": 1106,
      "din": 1107,
      "çev": 1108,
      "geçir": 1109,
      "bazı": 1110,
      "Sa": 1111,
      "söy": 1112,
      "ot": 1113,
      "haber": 1114,
      "##olu": 1115,
      "sistem": 1116,
      "Gün": 1117,
      "Ken": 1118,
      "##eden": 1119,
      "##esini": 1120,
      "##ov": 1121,
      "sorun": 1122,
      "dikkat": 1123,
      "bölüm": 1124,
      "his": 1125,
      "##lerden": 1126,
      "Par": 1127,
      "geri": 1128,
      "ihtiy": 1129,
      "olduk": 1130,
      "##sunuz": 1131,
      "AB": 1132,
      "Tamam": 1133,
      "##ebil": 1134,
      "sı": 1135,
      "##rar": 1136,
      "##gil": 1137,
      "##ikay": 1138,
      "##lum": 1139,
      "biraz": 1140,
      "##ümüz": 1141,
      "##adi": 1142,
      "##gı": 1143,
      "##alan": 1144,
      "##itim": 1145,
      "anla": 1146,
      "##lerle": 1147,
      "##tığı": 1148,
      "##sal": 1149,
      "202": 1150,
      "tekn": 1151,
      "olması": 1152,
      "##ekk": 1153,
      "can": 1154,
      "onun": 1155,
      "arkadaş": 1156,
      "##aha": 1157,
      "Dün": 1158,
      "##üçük": 1159,
      "Kon": 1160,
      "##duğ": 1161,
      "Cumhur": 1162,
      "##tal": 1163,
      "Başkanı": 1164,
      "inan": 1165,
      "##kı": 1166,
      "koy": 1167,
      "##rıca": 1168,
      "üzerine": 1169,
      "uzun": 1170,
      "Dev": 1171,
      "##lerinden": 1172,
      "##tiğ": 1173,
      "önc": 1174,
      "hız": 1175,
      "artık": 1176,
      "##duğu": 1177,
      "##mektedir": 1178,
      "##ing": 1179,
      "öyle": 1180,
      "milyon": 1181,
      "iste": 1182,
      "200": 1183,
      "##osyal": 1184,
      "##izi": 1185,
      "yür": 1186,
      "nun": 1187,
      "##arım": 1188,
      "##for": 1189,
      "yapıl": 1190,
      "##dından": 1191,
      "telefon": 1192,
      "##çı": 1193,
      "hakkında": 1194,
      "araştır": 1195,
      "sanat": 1196,
      "##gram": 1197,
      "##gan": 1198,
      "Bay": 1199,
      "##okt": 1200,
      "art": 1201,
      "pay": 1202,
      "tamam": 1203,
      "##oğan": 1204,
      "##umuz": 1205,
      "15": 1206,
      "##mer": 1207,
      "belirt": 1208,
      "##uh": 1209,
      "kişi": 1210,
      "##mel": 1211,
      "##lus": 1212,
      "yüksek": 1213,
      "##bol": 1214,
      "yaklaş": 1215,
      "##eled": 1216,
      "##ge": 1217,
      "tam": 1218,
      "##bar": 1219,
      "##mi": 1220,
      "Çünkü": 1221,
      "vur": 1222,
      "##sam": 1223,
      "##usunda": 1224,
      "gön": 1225,
      "plan": 1226,
      "##ladı": 1227,
      "yakın": 1228,
      "üzerinde": 1229,
      "bah": 1230,
      "ala": 1231,
      "12": 1232,
      "kez": 1233,
      "##onom": 1234,
      "orta": 1235,
      "##rak": 1236,
      "##uma": 1237,
      "hiçbir": 1238,
      "##gun": 1239,
      "##müş": 1240,
      "bugün": 1241,
      "olay": 1242,
      "yarat": 1243,
      "Mar": 1244,
      "Pro": 1245,
      "dünya": 1246,
      "##lük": 1247,
      "##eşekk": 1248,
      "mus": 1249,
      "müz": 1250,
      "##akat": 1251,
      "oluyor": 1252,
      "genel": 1253,
      "##suz": 1254,
      "##asına": 1255,
      "yapıyor": 1256,
      "##eşekkür": 1257,
      "##alık": 1258,
      "Mil": 1259,
      "Bunu": 1260,
      "##van": 1261,
      "Yar": 1262,
      "##meler": 1263,
      "##pr": 1264,
      "##irket": 1265,
      "hafta": 1266,
      "oluştur": 1267,
      "senin": 1268,
      "dak": 1269,
      "karş": 1270,
      "##ivers": 1271,
      "##gin": 1272,
      "##miyor": 1273,
      "##las": 1274,
      "bütün": 1275,
      "kır": 1276,
      "kayn": 1277,
      "öldür": 1278,
      "ta": 1279,
      "söyledi": 1280,
      "yılında": 1281,
      "başar": 1282,
      "hasta": 1283,
      "kav": 1284,
      "##iversit": 1285,
      "sonu": 1286,
      "##lüğ": 1287,
      "##tem": 1288,
      "suç": 1289,
      "kı": 1290,
      "met": 1291,
      "##çok": 1292,
      "yayın": 1293,
      "##ub": 1294,
      "##isinde": 1295,
      "Bel": 1296,
      "kr": 1297,
      "kes": 1298,
      "hareket": 1299,
      "##ültür": 1300,
      "ifa": 1301,
      "geldi": 1302,
      "uç": 1303,
      "çöz": 1304,
      "##mıştı": 1305,
      "sonr": 1306,
      "Tan": 1307,
      "ilişk": 1308,
      "Daha": 1309,
      "##oğraf": 1310,
      "##ızı": 1311,
      "Tek": 1312,
      "ardından": 1313,
      "ür": 1314,
      "##unca": 1315,
      "##ber": 1316,
      "etmek": 1317,
      "para": 1318,
      "isim": 1319,
      "tat": 1320,
      "süre": 1321,
      "##lenen": 1322,
      "##izmet": 1323,
      "ayr": 1324,
      "dil": 1325,
      "##lantı": 1326,
      "pek": 1327,
      "Mü": 1328,
      "yanı": 1329,
      "##og": 1330,
      "ifade": 1331,
      "ses": 1332,
      "tas": 1333,
      "söyley": 1334,
      "##azet": 1335,
      "##diğim": 1336,
      "##ren": 1337,
      "##eti": 1338,
      "Şimdi": 1339,
      "üzere": 1340,
      "İyi": 1341,
      "##ii": 1342,
      "açıklama": 1343,
      "##eme": 1344,
      "yaşa": 1345,
      "##ba": 1346,
      "mah": 1347,
      "paylaş": 1348,
      "gid": 1349,
      "##lında": 1350,
      "nde": 1351,
      "##ch": 1352,
      "##atı": 1353,
      "##kek": 1354,
      "sek": 1355,
      "seb": 1356,
      "##ize": 1357,
      "sonuç": 1358,
      "iy": 1359,
      "tanı": 1360,
      "##indeki": 1361,
      "kabul": 1362,
      "##ime": 1363,
      "olsun": 1364,
      "anlat": 1365,
      "Benim": 1366,
      "merkez": 1367,
      "mod": 1368,
      "genç": 1369,
      "şimdi": 1370,
      "tur": 1371,
      "##mir": 1372,
      "yaşam": 1373,
      "##ddi": 1374,
      "##atan": 1375,
      "Bunun": 1376,
      "##undan": 1377,
      "##aten": 1378,
      "Genel": 1379,
      "##imizi": 1380,
      "yaptığı": 1381,
      "##ide": 1382,
      "##mişti": 1383,
      "##çi": 1384,
      "##ilmesi": 1385,
      "Mer": 1386,
      "mer": 1387,
      "##esinin": 1388,
      "yine": 1389,
      "tah": 1390,
      "bulunan": 1391,
      "Yani": 1392,
      "ancak": 1393,
      "Eğer": 1394,
      "##larıyla": 1395,
      "##kinci": 1396,
      "##asını": 1397,
      "Ön": 1398,
      "Avrup": 1399,
      "küçük": 1400,
      "seni": 1401,
      "##duk": 1402,
      "##landı": 1403,
      "Peki": 1404,
      "gece": 1405,
      "gelir": 1406,
      "yaşan": 1407,
      "kork": 1408,
      "##deş": 1409,
      "ABD": 1410,
      "##may": 1411,
      "yerine": 1412,
      "herk": 1413,
      "##meyi": 1414,
      "bar": 1415,
      "##net": 1416,
      "##tiv": 1417,
      "res": 1418,
      "Ün": 1419,
      "geliyor": 1420,
      "##lım": 1421,
      "sun": 1422,
      "eski": 1423,
      "##bak": 1424,
      "şirket": 1425,
      "##doğan": 1426,
      "bey": 1427,
      "Yap": 1428,
      "##iyim": 1429,
      "##inizi": 1430,
      "Neden": 1431,
      "sıra": 1432,
      "bilin": 1433,
      "30": 1434,
      "İşte": 1435,
      "##eg": 1436,
      "##sak": 1437,
      "hizmet": 1438,
      "##işim": 1439,
      "##sınız": 1440,
      "geçen": 1441,
      "##AR": 1442,
      "seçim": 1443,
      "sosyal": 1444,
      "##etim": 1445,
      "##aj": 1446,
      "muh": 1447,
      "birçok": 1448,
      "##trol": 1449,
      "##tiği": 1450,
      "bizim": 1451,
      "olmuş": 1452,
      "Kim": 1453,
      "ail": 1454,
      "bunun": 1455,
      "dönüş": 1456,
      "Doğ": 1457,
      "##HP": 1458,
      "##ceğ": 1459,
      "man": 1460,
      "ber": 1461,
      "##ban": 1462,
      "rahat": 1463,
      "misin": 1464,
      "##alım": 1465,
      "##ök": 1466,
      "##ünün": 1467,
      "kötü": 1468,
      "##iyi": 1469,
      "##ılması": 1470,
      "##eyim": 1471,
      "##umu": 1472,
      "eğitim": 1473,
      "##rada": 1474,
      "savaş": 1475,
      "Avrupa": 1476,
      "siyas": 1477,
      "##ılıyor": 1478,
      "Büyük": 1479,
      "eki": 1480,
      "##per": 1481,
      "otur": 1482,
      "##AN": 1483,
      "##ğa": 1484,
      "sana": 1485,
      "hatır": 1486,
      "##ıyoruz": 1487,
      "##öl": 1488,
      "##ver": 1489,
      "büy": 1490,
      "##ışma": 1491,
      "##set": 1492,
      "##tif": 1493,
      "##meden": 1494,
      "diy": 1495,
      "yor": 1496,
      "edilen": 1497,
      "si": 1498,
      "##landır": 1499,
      "istiyorum": 1500,
      "##uyu": 1501,
      "Ek": 1502,
      "sak": 1503,
      "##lo": 1504,
      "##ıt": 1505,
      "Ger": 1506,
      "İl": 1507,
      "düşünüyor": 1508,
      "##üc": 1509,
      "konusunda": 1510,
      "##mey": 1511,
      "##ince": 1512,
      "maç": 1513,
      "yapan": 1514,
      "##ira": 1515,
      "Erdoğan": 1516,
      "##ınır": 1517,
      "proj": 1518,
      "##uluk": 1519,
      "mak": 1520,
      "Dem": 1521,
      "mal": 1522,
      "##gel": 1523,
      "##na": 1524,
      "gönder": 1525,
      "##edef": 1526,
      "##isini": 1527,
      "##rim": 1528,
      "##otoğraf": 1529,
      "##siyon": 1530,
      "Ch": 1531,
      "11": 1532,
      "fiyat": 1533,
      "uzak": 1534,
      "Ank": 1535,
      "Yeni": 1536,
      "gerekiyor": 1537,
      "##teş": 1538,
      "Har": 1539,
      "##azar": 1540,
      "değerlendir": 1541,
      "mo": 1542,
      "iddi": 1543,
      "##ılmış": 1544,
      "##madan": 1545,
      "anlaş": 1546,
      "##elerin": 1547,
      "ekonom": 1548,
      "##cağını": 1549,
      "sey": 1550,
      "Ayrıca": 1551,
      "mek": 1552,
      "han": 1553,
      "Yıl": 1554,
      "istiyor": 1555,
      "kom": 1556,
      "per": 1557,
      "##cağı": 1558,
      "dah": 1559,
      "yani": 1560,
      "##kün": 1561,
      "bab": 1562,
      "taki": 1563,
      "Gör": 1564,
      "##laştır": 1565,
      "Es": 1566,
      "##oğun": 1567,
      "ona": 1568,
      "kurul": 1569,
      "program": 1570,
      "Sadece": 1571,
      "demek": 1572,
      "kontrol": 1573,
      "bilim": 1574,
      "ziy": 1575,
      "kolay": 1576,
      "##üküm": 1577,
      "18": 1578,
      "At": 1579,
      "##ciler": 1580,
      "hes": 1581,
      "musun": 1582,
      "##gın": 1583,
      "toplum": 1584,
      "##sik": 1585,
      "kil": 1586,
      "Beled": 1587,
      "fır": 1588,
      "alıyor": 1589,
      "ister": 1590,
      "Ankara": 1591,
      "##amaz": 1592,
      "nerede": 1593,
      "gerçekleştir": 1594,
      "##kaç": 1595,
      "Fran": 1596,
      "##lüyor": 1597,
      "Bana": 1598,
      "Bakan": 1599,
      "##sanız": 1600,
      "üy": 1601,
      "##ıntı": 1602,
      "mas": 1603,
      "hemen": 1604,
      "fa": 1605,
      "##nız": 1606,
      "##urt": 1607,
      "##dül": 1608,
      "kendis": 1609,
      "##eceği": 1610,
      "düny": 1611,
      "işlem": 1612,
      "##ela": 1613,
      "vardı": 1614,
      "AK": 1615,
      "##lamak": 1616,
      "li": 1617,
      "çağ": 1618,
      "kitap": 1619,
      "##eşit": 1620,
      "##uyla": 1621,
      "##eceğini": 1622,
      "daki": 1623,
      "Başkan": 1624,
      "taşı": 1625,
      "soru": 1626,
      "##ER": 1627,
      "zorunda": 1628,
      "##tiğini": 1629,
      "erkek": 1630,
      "tekrar": 1631,
      "gez": 1632,
      "##ütfen": 1633,
      "Onu": 1634,
      "altında": 1635,
      "##emiz": 1636,
      "##ılır": 1637,
      "diyor": 1638,
      "##leyen": 1639,
      "sok": 1640,
      "##unuyor": 1641,
      "Oy": 1642,
      "##ünden": 1643,
      "saldır": 1644,
      "##masının": 1645,
      "ince": 1646,
      "##yacak": 1647,
      "hikay": 1648,
      "sab": 1649,
      "sağlık": 1650,
      "hedef": 1651,
      "##şam": 1652,
      "yi": 1653,
      "günü": 1654,
      "Hiç": 1655,
      "anda": 1656,
      "##ekli": 1657,
      "yeniden": 1658,
      "##oh": 1659,
      "cez": 1660,
      "##be": 1661,
      "Seni": 1662,
      "İz": 1663,
      "şeyi": 1664,
      "oyuncu": 1665,
      "başladı": 1666,
      "nedeniyle": 1667,
      "ann": 1668,
      "##ıda": 1669,
      "##ga": 1670,
      "yağ": 1671,
      "yüzden": 1672,
      "yen": 1673,
      "##fet": 1674,
      "gider": 1675,
      "##ust": 1676,
      "çıkan": 1677,
      "##ümkün": 1678,
      "zamanda": 1679,
      "birbir": 1680,
      "şeyler": 1681,
      "ele": 1682,
      "çalışan": 1683,
      "##yanın": 1684,
      "cin": 1685,
      "fotoğraf": 1686,
      "Dünya": 1687,
      "yapmak": 1688,
      "Amer": 1689,
      "##nek": 1690,
      "biliyor": 1691,
      "##ılacak": 1692,
      "kültür": 1693,
      "Ada": 1694,
      "Siz": 1695,
      "##lış": 1696,
      "##dak": 1697,
      "yemek": 1698,
      "##arası": 1699,
      "kah": 1700,
      "dakika": 1701,
      "Ok": 1702,
      "Burada": 1703,
      "bize": 1704,
      "##iydi": 1705,
      "değiştir": 1706,
      "hala": 1707,
      "kısa": 1708,
      "##ola": 1709,
      "gazet": 1710,
      "##uştur": 1711,
      "sınır": 1712,
      "Ara": 1713,
      "Böyle": 1714,
      "Dr": 1715,
      "İlk": 1716,
      "##ydı": 1717,
      "##madı": 1718,
      "14": 1719,
      "##istan": 1720,
      "##enk": 1721,
      "şark": 1722,
      "İç": 1723,
      "##uğ": 1724,
      "Hal": 1725,
      "boyunca": 1726,
      "unut": 1727,
      "kaynak": 1728,
      "##dele": 1729,
      "geliştir": 1730,
      "na": 1731,
      "Geç": 1732,
      "tart": 1733,
      "teh": 1734,
      "Mah": 1735,
      "##isinin": 1736,
      "mey": 1737,
      "Tab": 1738,
      "Hadi": 1739,
      "çeşit": 1740,
      "ask": 1741,
      "Ah": 1742,
      "iti": 1743,
      "uygulama": 1744,
      "boş": 1745,
      "nda": 1746,
      "##leriyle": 1747,
      "##yız": 1748,
      "kol": 1749,
      "##liyor": 1750,
      "vatan": 1751,
      "##azım": 1752,
      "cev": 1753,
      "##alt": 1754,
      "mümkün": 1755,
      "##kın": 1756,
      "ağır": 1757,
      "Bun": 1758,
      "takım": 1759,
      "mev": 1760,
      "##asının": 1761,
      "aldı": 1762,
      "kas": 1763,
      "görül": 1764,
      "16": 1765,
      "davran": 1766,
      "##umlu": 1767,
      "##lemek": 1768,
      "devlet": 1769,
      "of": 1770,
      "Bey": 1771,
      "millet": 1772,
      "tav": 1773,
      "##cağım": 1774,
      "um": 1775,
      "gereken": 1776,
      "Hak": 1777,
      "olsa": 1778,
      "Has": 1779,
      "ziyaret": 1780,
      "Beni": 1781,
      "ürün": 1782,
      "model": 1783,
      "##yım": 1784,
      "##medi": 1785,
      "##ört": 1786,
      "çiz": 1787,
      "Özel": 1788,
      "mem": 1789,
      "fik": 1790,
      "##ost": 1791,
      "yal": 1792,
      "oldukça": 1793,
      "##asındaki": 1794,
      "mad": 1795,
      "İngil": 1796,
      "çar": 1797,
      "med": 1798,
      "tük": 1799,
      "beraber": 1800,
      "rağ": 1801,
      "##diğimiz": 1802,
      "Kor": 1803,
      "##abı": 1804,
      "Şu": 1805,
      "özellik": 1806,
      "Rus": 1807,
      "bağlı": 1808,
      "Hat": 1809,
      "##imizin": 1810,
      "uygun": 1811,
      "##cih": 1812,
      "##amp": 1813,
      "sürec": 1814,
      "rek": 1815,
      "çünkü": 1816,
      "##ülen": 1817,
      "müca": 1818,
      "kut": 1819,
      "Di": 1820,
      "kardeş": 1821,
      "13": 1822,
      "##ilmiş": 1823,
      "Ma": 1824,
      "koş": 1825,
      "gelecek": 1826,
      "rağmen": 1827,
      "25": 1828,
      "hey": 1829,
      "çevr": 1830,
      "diz": 1831,
      "##ere": 1832,
      "araştırma": 1833,
      "##mıyor": 1834,
      "##vek": 1835,
      "tep": 1836,
      "Çoc": 1837,
      "gerçekten": 1838,
      "##ici": 1839,
      "bay": 1840,
      "konusu": 1841,
      "Üniversit": 1842,
      "##oman": 1843,
      "götür": 1844,
      "kaybet": 1845,
      "##ümü": 1846,
      "söylüyor": 1847,
      "çıktı": 1848,
      "##tın": 1849,
      "##tıyor": 1850,
      "##yar": 1851,
      "ikinci": 1852,
      "##ilere": 1853,
      "tercih": 1854,
      "yaptığ": 1855,
      "dair": 1856,
      "##ayet": 1857,
      "karış": 1858,
      "İnsan": 1859,
      "pat": 1860,
      "hoş": 1861,
      "##of": 1862,
      "boz": 1863,
      "dolar": 1864,
      "kesin": 1865,
      "Senin": 1866,
      "##diler": 1867,
      "özellikle": 1868,
      "##düm": 1869,
      "##taş": 1870,
      "dir": 1871,
      "##larım": 1872,
      "araç": 1873,
      "dolay": 1874,
      "kapsam": 1875,
      "teknoloj": 1876,
      "oku": 1877,
      "ait": 1878,
      "Cumhurbaş": 1879,
      "CHP": 1880,
      "deki": 1881,
      "beklen": 1882,
      "##ow": 1883,
      "dost": 1884,
      "izin": 1885,
      "ma": 1886,
      "##adan": 1887,
      "##dav": 1888,
      "##ener": 1889,
      "olabil": 1890,
      "yönelik": 1891,
      "sar": 1892,
      "##ıyla": 1893,
      "av": 1894,
      "##elerini": 1895,
      "Bugün": 1896,
      "verdi": 1897,
      "##iyatro": 1898,
      "##mesini": 1899,
      "ban": 1900,
      "##fer": 1901,
      "##okr": 1902,
      "adım": 1903,
      "yeter": 1904,
      "grup": 1905,
      "Hem": 1906,
      "Öyle": 1907,
      "Ser": 1908,
      "Se": 1909,
      "##lacak": 1910,
      "##ısında": 1911,
      "Top": 1912,
      "Kan": 1913,
      "Gel": 1914,
      "olmaz": 1915,
      "kaldır": 1916,
      "Uz": 1917,
      "sürdür": 1918,
      "vak": 1919,
      "17": 1920,
      "##dun": 1921,
      "ders": 1922,
      "hüküm": 1923,
      "TL": 1924,
      "temel": 1925,
      "silah": 1926,
      "örg": 1927,
      "##dip": 1928,
      "şöyle": 1929,
      "elde": 1930,
      "olmalı": 1931,
      "vardır": 1932,
      "zar": 1933,
      "Pek": 1934,
      "##ısından": 1935,
      "##ve": 1936,
      "##sen": 1937,
      "##utbol": 1938,
      "yapar": 1939,
      "karak": 1940,
      "##can": 1941,
      "##dığım": 1942,
      "oda": 1943,
      "##uru": 1944,
      "üz": 1945,
      "okul": 1946,
      "Sana": 1947,
      "##ate": 1948,
      "##lim": 1949,
      "##vet": 1950,
      "##ayın": 1951,
      "birkaç": 1952,
      "engel": 1953,
      "zaten": 1954,
      "##oğu": 1955,
      "nok": 1956,
      "part": 1957,
      "oran": 1958,
      "ayrı": 1959,
      "##dığımız": 1960,
      "des": 1961,
      "##eği": 1962,
      "##efer": 1963,
      "la": 1964,
      "Em": 1965,
      "##oktor": 1966,
      "Sav": 1967,
      "Han": 1968,
      "Parti": 1969,
      "sahi": 1970,
      "##imde": 1971,
      "Onun": 1972,
      "##ort": 1973,
      "cid": 1974,
      "##cel": 1975,
      "if": 1976,
      "##fes": 1977,
      "oğ": 1978,
      "yalnız": 1979,
      "takip": 1980,
      "##imize": 1981,
      "Kö": 1982,
      "polit": 1983,
      "ac": 1984,
      "polis": 1985,
      "üzerinden": 1986,
      "dok": 1987,
      "gec": 1988,
      "yı": 1989,
      "öğret": 1990,
      "##üle": 1991,
      "##ift": 1992,
      "Gerçek": 1993,
      "yüksel": 1994,
      "00": 1995,
      "Bar": 1996,
      "Hep": 1997,
      "Belki": 1998,
      "##erj": 1999,
      "nokta": 2000,
      "şeh": 2001,
      "yöntem": 2002,
      "##miyorum": 2003,
      "100": 2004,
      "Sur": 2005,
      "içerisinde": 2006,
      "etkin": 2007,
      "edecek": 2008,
      "##şık": 2009,
      "yapı": 2010,
      "bilgi": 2011,
      "ku": 2012,
      "Ner": 2013,
      "##ezon": 2014,
      "##esel": 2015,
      "lazım": 2016,
      "mar": 2017,
      "##ılım": 2018,
      "##rub": 2019,
      "mücadele": 2020,
      "##ly": 2021,
      "##isyon": 2022,
      "##eğin": 2023,
      "veril": 2024,
      "##ışı": 2025,
      "##za": 2026,
      "##ilerini": 2027,
      "hayır": 2028,
      "##cret": 2029,
      "Ko": 2030,
      "Sağ": 2031,
      "aday": 2032,
      "Af": 2033,
      "for": 2034,
      "##yse": 2035,
      "herkes": 2036,
      "yazar": 2037,
      "adı": 2038,
      "orada": 2039,
      "konuştu": 2040,
      "Ali": 2041,
      "Müdür": 2042,
      "##hangi": 2043,
      "Os": 2044,
      "akıl": 2045,
      "değişik": 2046,
      "##ast": 2047,
      "Tur": 2048,
      "etkil": 2049,
      "itibar": 2050,
      "Dur": 2051,
      "##ari": 2052,
      "##ent": 2053,
      "Tom": 2054,
      "vatandaş": 2055,
      "##bakan": 2056,
      "Nasıl": 2057,
      "geniş": 2058,
      "size": 2059,
      "##luslar": 2060,
      "##ternet": 2061,
      "olmayan": 2062,
      "merak": 2063,
      "##menin": 2064,
      "Alman": 2065,
      "dışında": 2066,
      "##hale": 2067,
      "##izm": 2068,
      "insanlar": 2069,
      "##amı": 2070,
      "akşam": 2071,
      "##cısı": 2072,
      "Sor": 2073,
      "hava": 2074,
      "kaf": 2075,
      "bor": 2076,
      "şehir": 2077,
      "##sed": 2078,
      "görüntü": 2079,
      "durumda": 2080,
      "##lek": 2081,
      "Kap": 2082,
      "sektör": 2083,
      "Çocuk": 2084,
      "Ab": 2085,
      "öde": 2086,
      "Kay": 2087,
      "##iğ": 2088,
      "##eceğim": 2089,
      "öner": 2090,
      "##laması": 2091,
      "teşekkür": 2092,
      "ölüm": 2093,
      "inc": 2094,
      "ilç": 2095,
      "ortak": 2096,
      "Kad": 2097,
      "##pit": 2098,
      "aslında": 2099,
      "ederim": 2100,
      "Tem": 2101,
      "##ton": 2102,
      "veren": 2103,
      "kalan": 2104,
      "Meh": 2105,
      "##gür": 2106,
      "##enüz": 2107,
      "edin": 2108,
      "terör": 2109,
      "199": 2110,
      "##luslararası": 2111,
      "ayak": 2112,
      "Hey": 2113,
      "##cağız": 2114,
      "uğr": 2115,
      "##ant": 2116,
      "sit": 2117,
      "ihtiyac": 2118,
      "Der": 2119,
      "şans": 2120,
      "geçmiş": 2121,
      "amacı": 2122,
      "eser": 2123,
      "##dıkları": 2124,
      "##era": 2125,
      "yara": 2126,
      "ücret": 2127,
      "##masında": 2128,
      "##ia": 2129,
      "##lin": 2130,
      "##bilirsiniz": 2131,
      "rol": 2132,
      "##üler": 2133,
      "##dük": 2134,
      "Sam": 2135,
      "belki": 2136,
      "kayb": 2137,
      "##ron": 2138,
      "##dün": 2139,
      "##sil": 2140,
      "ana": 2141,
      "The": 2142,
      "yaklaşık": 2143,
      "50": 2144,
      "yoğun": 2145,
      "##mesine": 2146,
      "gerçekleş": 2147,
      "örnek": 2148,
      "tale": 2149,
      "##ulan": 2150,
      "işte": 2151,
      "Do": 2152,
      "sezon": 2153,
      "##lardır": 2154,
      "##rım": 2155,
      "##elere": 2156,
      "##lanıyor": 2157,
      "##üğ": 2158,
      "##pan": 2159,
      "kurum": 2160,
      "##meyen": 2161,
      "##forman": 2162,
      "yapma": 2163,
      "yere": 2164,
      "ila": 2165,
      "##isine": 2166,
      "beri": 2167,
      "##br": 2168,
      "Cumhuriyet": 2169,
      "Teşekkür": 2170,
      "##edi": 2171,
      "##isk": 2172,
      "hızlı": 2173,
      "kendini": 2174,
      "Yaş": 2175,
      "##yl": 2176,
      "yanında": 2177,
      "biç": 2178,
      "##üst": 2179,
      "Can": 2180,
      "##elerde": 2181,
      "benzer": 2182,
      "yanlış": 2183,
      "spor": 2184,
      "hale": 2185,
      "##son": 2186,
      "##dana": 2187,
      "ilişkin": 2188,
      "##üb": 2189,
      "##ınca": 2190,
      "Ol": 2191,
      "##üf": 2192,
      "mik": 2193,
      "ettiği": 2194,
      "arasındaki": 2195,
      "iddia": 2196,
      "em": 2197,
      "ten": 2198,
      "medya": 2199,
      "müzik": 2200,
      "Hav": 2201,
      "alış": 2202,
      "In": 2203,
      "Kal": 2204,
      "##izyon": 2205,
      "ekip": 2206,
      "##lanmış": 2207,
      "##manı": 2208,
      "yapacağ": 2209,
      "Sev": 2210,
      "yorum": 2211,
      "tedav": 2212,
      "katıl": 2213,
      "karşılaş": 2214,
      "bildir": 2215,
      "Fakat": 2216,
      "milyar": 2217,
      "Merkez": 2218,
      "tespit": 2219,
      "kapat": 2220,
      "Üniversitesi": 2221,
      "sizin": 2222,
      "dayan": 2223,
      "sin": 2224,
      "başv": 2225,
      "the": 2226,
      "derece": 2227,
      "güçlü": 2228,
      "dol": 2229,
      "##yo": 2230,
      "giz": 2231,
      "##diş": 2232,
      "Mehmet": 2233,
      "##diğiniz": 2234,
      "çalışıyor": 2235,
      "##estiv": 2236,
      "##inci": 2237,
      "##esinden": 2238,
      "##ukuk": 2239,
      "##etin": 2240,
      "yönetim": 2241,
      "ark": 2242,
      "dahil": 2243,
      "##ektr": 2244,
      "##deceğ": 2245,
      "##düğü": 2246,
      "##ıza": 2247,
      "Sonra": 2248,
      "Kom": 2249,
      "##maları": 2250,
      "##ayda": 2251,
      "##lüğü": 2252,
      "yerde": 2253,
      "Yön": 2254,
      "##ısıyla": 2255,
      "herhangi": 2256,
      "ilet": 2257,
      "açısından": 2258,
      "amaç": 2259,
      "belli": 2260,
      "mutlu": 2261,
      "##haba": 2262,
      "sahn": 2263,
      "##ayım": 2264,
      "kısm": 2265,
      "##emez": 2266,
      "##muyor": 2267,
      "performan": 2268,
      "biliyorum": 2269,
      "giriş": 2270,
      "##muz": 2271,
      "ölç": 2272,
      "Man": 2273,
      "St": 2274,
      "karakter": 2275,
      "##ınıf": 2276,
      "##ard": 2277,
      "##tiğimiz": 2278,
      "beb": 2279,
      "dört": 2280,
      "buraya": 2281,
      "piyas": 2282,
      "bizi": 2283,
      "##sat": 2284,
      "Çalış": 2285,
      "başına": 2286,
      "##şa": 2287,
      "adlı": 2288,
      "fin": 2289,
      "##ımda": 2290,
      "##aliyet": 2291,
      "süreç": 2292,
      "##lerce": 2293,
      "##iyesi": 2294,
      "Kız": 2295,
      "tarihi": 2296,
      "Tüm": 2297,
      "Ban": 2298,
      "hisset": 2299,
      "nokt": 2300,
      "##ser": 2301,
      "##sine": 2302,
      "Bab": 2303,
      "##üsü": 2304,
      "konuda": 2305,
      "##kem": 2306,
      "##lis": 2307,
      "24": 2308,
      "Devlet": 2309,
      "Yaz": 2310,
      "gerekir": 2311,
      "mesaj": 2312,
      "##ucu": 2313,
      "Muh": 2314,
      "sonunda": 2315,
      "işi": 2316,
      "ünlü": 2317,
      "yaptık": 2318,
      "ediyorum": 2319,
      "almak": 2320,
      "##apor": 2321,
      "eleştir": 2322,
      "yatırım": 2323,
      "indir": 2324,
      "21": 2325,
      "cih": 2326,
      "##ırı": 2327,
      "enerj": 2328,
      "futbol": 2329,
      "kuş": 2330,
      "##bah": 2331,
      "İzmir": 2332,
      "başkan": 2333,
      "Ya": 2334,
      "görüyor": 2335,
      "##ilir": 2336,
      "sıcak": 2337,
      "##lamaya": 2338,
      "##fi": 2339,
      "mıs": 2340,
      "Kara": 2341,
      "buna": 2342,
      "Film": 2343,
      "toplantı": 2344,
      "yardımcı": 2345,
      "##amamen": 2346,
      "##leyi": 2347,
      "anal": 2348,
      "dem": 2349,
      "##ısını": 2350,
      "pazar": 2351,
      "##emi": 2352,
      "##bette": 2353,
      "giy": 2354,
      "hayal": 2355,
      "artır": 2356,
      "det": 2357,
      "##acı": 2358,
      "nedenle": 2359,
      "Böl": 2360,
      "##mayan": 2361,
      "Kas": 2362,
      "saç": 2363,
      "örgüt": 2364,
      "##inç": 2365,
      "##lilik": 2366,
      "Haz": 2367,
      "olmadığını": 2368,
      "etme": 2369,
      "##ormal": 2370,
      "##ılmıştır": 2371,
      "olup": 2372,
      "kent": 2373,
      "Araştır": 2374,
      "##olojik": 2375,
      "##aşı": 2376,
      "düzey": 2377,
      "Bizim": 2378,
      "##luluk": 2379,
      "##su": 2380,
      "satış": 2381,
      "aldığı": 2382,
      "değildir": 2383,
      "##tığını": 2384,
      "Ann": 2385,
      "##memiş": 2386,
      "##luğ": 2387,
      "cevap": 2388,
      "##aray": 2389,
      "##vekili": 2390,
      "Başbakan": 2391,
      "emin": 2392,
      "şekl": 2393,
      "dar": 2394,
      "İki": 2395,
      "##fendim": 2396,
      "Tr": 2397,
      "##azi": 2398,
      "##iliyor": 2399,
      "Beş": 2400,
      "##ati": 2401,
      "Dav": 2402,
      "##taj": 2403,
      "aktar": 2404,
      "yık": 2405,
      "roman": 2406,
      "bes": 2407,
      "zarar": 2408,
      "ruh": 2409,
      "##sini": 2410,
      "ekran": 2411,
      "dönemde": 2412,
      "görmek": 2413,
      "Mes": 2414,
      "kişinin": 2415,
      "##larca": 2416,
      "Aç": 2417,
      "hastan": 2418,
      "ciddi": 2419,
      "yav": 2420,
      "savun": 2421,
      "Cumhurbaşkanı": 2422,
      "ödül": 2423,
      "beş": 2424,
      "Yak": 2425,
      "##lığını": 2426,
      "##ade": 2427,
      "edildi": 2428,
      "Yardım": 2429,
      "sebep": 2430,
      "kalı": 2431,
      "##ladığı": 2432,
      "çeşitli": 2433,
      "##enek": 2434,
      "oper": 2435,
      "Bakanı": 2436,
      "halk": 2437,
      "depr": 2438,
      "##edik": 2439,
      "renk": 2440,
      "Pol": 2441,
      "mis": 2442,
      "hangi": 2443,
      "mekan": 2444,
      "isteyen": 2445,
      "buluş": 2446,
      "##talya": 2447,
      "sahibi": 2448,
      "doğr": 2449,
      "Millet": 2450,
      "##iyorlar": 2451,
      "kullanıcı": 2452,
      "Artık": 2453,
      "işlet": 2454,
      "Merhaba": 2455,
      "ateş": 2456,
      "bulunuyor": 2457,
      "sefer": 2458,
      "dünyanın": 2459,
      "##dığında": 2460,
      "şarkı": 2461,
      "##imin": 2462,
      "Tabii": 2463,
      "sürekli": 2464,
      "hesap": 2465,
      "toplam": 2466,
      "##AM": 2467,
      "dal": 2468,
      "##afa": 2469,
      "çözüm": 2470,
      "nit": 2471,
      "Deniz": 2472,
      "Güzel": 2473,
      "sınıf": 2474,
      "##ou": 2475,
      "yapacak": 2476,
      "##emin": 2477,
      "##iliğ": 2478,
      "##edim": 2479,
      "asla": 2480,
      "yetiş": 2481,
      "##layacak": 2482,
      "##liğini": 2483,
      "alır": 2484,
      "zen": 2485,
      "yaban": 2486,
      "##inc": 2487,
      "haline": 2488,
      "tanım": 2489,
      "temiz": 2490,
      "insanların": 2491,
      "##bilecek": 2492,
      "işaret": 2493,
      "Mart": 2494,
      "it": 2495,
      "##anet": 2496,
      "pu": 2497,
      "##ilerine": 2498,
      "Eğ": 2499,
      "onları": 2500,
      "##mayacak": 2501,
      "sayesinde": 2502,
      "internet": 2503,
      "yaşayan": 2504,
      "kurtar": 2505,
      "Osman": 2506,
      "sırasında": 2507,
      "kamu": 2508,
      "22": 2509,
      "başarılı": 2510,
      "##mada": 2511,
      "yaşında": 2512,
      "arada": 2513,
      "fir": 2514,
      "grub": 2515,
      "açı": 2516,
      "40": 2517,
      "kab": 2518,
      "##eceğiz": 2519,
      "##lanması": 2520,
      "organ": 2521,
      "##lığın": 2522,
      "##ry": 2523,
      "##mayın": 2524,
      "doğal": 2525,
      "##ılmaz": 2526,
      "##diğinde": 2527,
      "vide": 2528,
      "acı": 2529,
      "verdiği": 2530,
      "##pek": 2531,
      "Tar": 2532,
      "##esiyle": 2533,
      "Ap": 2534,
      "##EN": 2535,
      "##uc": 2536,
      "Haber": 2537,
      "num": 2538,
      "##dikleri": 2539,
      "fayda": 2540,
      "##ylül": 2541,
      "Ör": 2542,
      "##azen": 2543,
      "##ırken": 2544,
      "Ke": 2545,
      "araya": 2546,
      "##mamız": 2547,
      "keş": 2548,
      "##ye": 2549,
      "neler": 2550,
      "hap": 2551,
      "##iyiz": 2552,
      "Ber": 2553,
      "eğlen": 2554,
      "##üph": 2555,
      "##ilerinin": 2556,
      "tartış": 2557,
      "##alle": 2558,
      "canlı": 2559,
      "Belediye": 2560,
      "Hayat": 2561,
      "verir": 2562,
      "##tay": 2563,
      "##alar": 2564,
      "hatta": 2565,
      "##ımıza": 2566,
      "çift": 2567,
      "May": 2568,
      "yazı": 2569,
      "parç": 2570,
      "ihtiyaç": 2571,
      "mez": 2572,
      "Gül": 2573,
      "sine": 2574,
      "pop": 2575,
      "ülke": 2576,
      "Allah": 2577,
      "kala": 2578,
      "##ET": 2579,
      "##eyin": 2580,
      "men": 2581,
      "yana": 2582,
      "Kür": 2583,
      "faaliyet": 2584,
      "kimse": 2585,
      "str": 2586,
      "yandan": 2587,
      "Su": 2588,
      "##ke": 2589,
      "##meleri": 2590,
      "Kendi": 2591,
      "deste": 2592,
      "henüz": 2593,
      "Gü": 2594,
      "kalk": 2595,
      "yetk": 2596,
      "##cut": 2597,
      "sizi": 2598,
      "ekonomik": 2599,
      "tamamen": 2600,
      "##lanma": 2601,
      "##lerimiz": 2602,
      "2023": 2603,
      "Buna": 2604,
      "yum": 2605,
      "test": 2606,
      "tasar": 2607,
      "işe": 2608,
      "##bo": 2609,
      "Yok": 2610,
      "Aynı": 2611,
      "##anlı": 2612,
      "asker": 2613,
      "siyasi": 2614,
      "kavram": 2615,
      "##iir": 2616,
      "lis": 2617,
      "kaldı": 2618,
      "dolayı": 2619,
      "mağ": 2620,
      "sabah": 2621,
      "koru": 2622,
      "detay": 2623,
      "##İN": 2624,
      "##gar": 2625,
      "##eder": 2626,
      "benz": 2627,
      "Müz": 2628,
      "##dız": 2629,
      "##ulmuş": 2630,
      "##iran": 2631,
      "çarp": 2632,
      "##lendi": 2633,
      "##rik": 2634,
      "yarar": 2635,
      "olmaya": 2636,
      "kurt": 2637,
      "uyar": 2638,
      "Pekala": 2639,
      "Sh": 2640,
      "deniz": 2641,
      "Kah": 2642,
      "boyut": 2643,
      "##elerinin": 2644,
      "tehlik": 2645,
      "##mat": 2646,
      "##matik": 2647,
      "##eyn": 2648,
      "yabancı": 2649,
      "dö": 2650,
      "hayvan": 2651,
      "Rusya": 2652,
      "##dek": 2653,
      "sonrası": 2654,
      "##say": 2655,
      "dışarı": 2656,
      "##sta": 2657,
      "teş": 2658,
      "##isay": 2659,
      "Ter": 2660,
      "bulundu": 2661,
      "Tanrım": 2662,
      "net": 2663,
      "hukuk": 2664,
      "##one": 2665,
      "##lasyon": 2666,
      "##ıyorsun": 2667,
      "##etik": 2668,
      "güvenlik": 2669,
      "##amız": 2670,
      "Tay": 2671,
      "##luğu": 2672,
      "Aslında": 2673,
      "başarı": 2674,
      "tabii": 2675,
      "list": 2676,
      "##asa": 2677,
      "öğrenc": 2678,
      "dile": 2679,
      "##mar": 2680,
      "##lıkla": 2681,
      "eğer": 2682,
      "yoksa": 2683,
      "##ite": 2684,
      "özgür": 2685,
      "##ısına": 2686,
      "görünüyor": 2687,
      "ortam": 2688,
      "elektr": 2689,
      "##AL": 2690,
      "aşk": 2691,
      "temsil": 2692,
      "iler": 2693,
      "##ie": 2694,
      "çevir": 2695,
      "Herk": 2696,
      "yıldız": 2697,
      "ip": 2698,
      "günde": 2699,
      "köy": 2700,
      "çat": 2701,
      "Özellikle": 2702,
      "bağım": 2703,
      "değilim": 2704,
      "Ga": 2705,
      "Söz": 2706,
      "teknik": 2707,
      "##abilirsiniz": 2708,
      "cihaz": 2709,
      "##şehir": 2710,
      "İk": 2711,
      "yıllık": 2712,
      "Demir": 2713,
      "Kr": 2714,
      "yansı": 2715,
      "gerektiğini": 2716,
      "##AK": 2717,
      "##uzey": 2718,
      "olmas": 2719,
      "kıy": 2720,
      "##dığınız": 2721,
      "##ağa": 2722,
      "Bütün": 2723,
      "içeri": 2724,
      "ifad": 2725,
      "##ene": 2726,
      "ayında": 2727,
      "emek": 2728,
      "incelen": 2729,
      "##ımızı": 2730,
      "##rafik": 2731,
      "##manız": 2732,
      "##ğın": 2733,
      "doktor": 2734,
      "st": 2735,
      "Öl": 2736,
      "Sal": 2737,
      "Lütfen": 2738,
      "çal": 2739,
      "##meli": 2740,
      "ham": 2741,
      "##inize": 2742,
      "bulunduğu": 2743,
      "##duğunu": 2744,
      "##AT": 2745,
      "sonuc": 2746,
      "##iliği": 2747,
      "Çin": 2748,
      "tanış": 2749,
      "##iksel": 2750,
      "adet": 2751,
      "kims": 2752,
      "adına": 2753,
      "##ılma": 2754,
      "##form": 2755,
      "durumu": 2756,
      "kayıt": 2757,
      "gide": 2758,
      "ıs": 2759,
      "Uy": 2760,
      "Li": 2761,
      "##uvar": 2762,
      "Eylül": 2763,
      "Yan": 2764,
      "parça": 2765,
      "23": 2766,
      "Bek": 2767,
      "tane": 2768,
      "##blem": 2769,
      "lira": 2770,
      "Gerçekten": 2771,
      "zam": 2772,
      "olun": 2773,
      "yürüt": 2774,
      "##lığa": 2775,
      "katkı": 2776,
      "anne": 2777,
      "şaş": 2778,
      "İngiliz": 2779,
      "hayatını": 2780,
      "rapor": 2781,
      "##geç": 2782,
      "duyur": 2783,
      "Bakanlığı": 2784,
      "Biraz": 2785,
      "kapsamında": 2786,
      "şid": 2787,
      "##asından": 2788,
      "baba": 2789,
      "ah": 2790,
      "##ina": 2791,
      "ler": 2792,
      "zengin": 2793,
      "Orta": 2794,
      "Ot": 2795,
      "##meni": 2796,
      "du": 2797,
      "şart": 2798,
      "inşa": 2799,
      "ayrıca": 2800,
      "Bah": 2801,
      "Suriye": 2802,
      "Kadın": 2803,
      "sene": 2804,
      "Yüz": 2805,
      "veriyor": 2806,
      "##sef": 2807,
      "bitir": 2808,
      "vaz": 2809,
      "içine": 2810,
      "Dış": 2811,
      "ilgilen": 2812,
      "Tak": 2813,
      "198": 2814,
      "##ıldığı": 2815,
      "Aş": 2816,
      "Oyun": 2817,
      "başında": 2818,
      "sol": 2819,
      "Ro": 2820,
      "##ampiyon": 2821,
      "fikir": 2822,
      "çocuğ": 2823,
      "##diğin": 2824,
      "kir": 2825,
      "Ad": 2826,
      "yaşanan": 2827,
      "##ılıç": 2828,
      "Kat": 2829,
      "##günüm": 2830,
      "tutuk": 2831,
      "aşağı": 2832,
      "risk": 2833,
      "##ınav": 2834,
      "derin": 2835,
      "Ahmet": 2836,
      "##osu": 2837,
      "belg": 2838,
      "sonucu": 2839,
      "le": 2840,
      "##latform": 2841,
      "önceki": 2842,
      "operasyon": 2843,
      "müş": 2844,
      "deneyim": 2845,
      "##vizyon": 2846,
      "itibaren": 2847,
      "##IN": 2848,
      "Amerika": 2849,
      "oyna": 2850,
      "lütfen": 2851,
      "##evi": 2852,
      "##omo": 2853,
      "##ünüz": 2854,
      "fak": 2855,
      "yapılacak": 2856,
      "Ona": 2857,
      "##tep": 2858,
      "dolu": 2859,
      "türlü": 2860,
      "şah": 2861,
      "akıllı": 2862,
      "##atif": 2863,
      "##atik": 2864,
      "Must": 2865,
      "saldırı": 2866,
      "tüket": 2867,
      "mevcut": 2868,
      "üniversit": 2869,
      "Milli": 2870,
      "varsa": 2871,
      "dağı": 2872,
      "kendim": 2873,
      "Üç": 2874,
      "##hal": 2875,
      "önünde": 2876,
      "kapı": 2877,
      "heyec": 2878,
      "Mo": 2879,
      "kararı": 2880,
      "##eğen": 2881,
      "aile": 2882,
      "halde": 2883,
      "Temmuz": 2884,
      "De": 2885,
      "Sanırım": 2886,
      "##ücü": 2887,
      "##lif": 2888,
      "##ileş": 2889,
      "##oloji": 2890,
      "##eşil": 2891,
      "Amerik": 2892,
      "Yine": 2893,
      "don": 2894,
      "aracı": 2895,
      "tiyatro": 2896,
      "##eyle": 2897,
      "yurt": 2898,
      "##lardı": 2899,
      "And": 2900,
      "yolu": 2901,
      "ap": 2902,
      "oluşan": 2903,
      "düşük": 2904,
      "yapmaya": 2905,
      "fakat": 2906,
      "vurgu": 2907,
      "çıkıyor": 2908,
      "Sak": 2909,
      "##fak": 2910,
      "seviy": 2911,
      "Ka": 2912,
      "##enler": 2913,
      "geçer": 2914,
      "##altı": 2915,
      "Fener": 2916,
      "##uvvet": 2917,
      "Br": 2918,
      "Anad": 2919,
      "Mec": 2920,
      "sig": 2921,
      "##lıklı": 2922,
      "verilen": 2923,
      "##isayar": 2924,
      "düşünc": 2925,
      "ettik": 2926,
      "##ıma": 2927,
      "ettiğ": 2928,
      "yanıt": 2929,
      "##teki": 2930,
      "Yor": 2931,
      "yaptır": 2932,
      "nedir": 2933,
      "gol": 2934,
      "##sem": 2935,
      "bat": 2936,
      "##rol": 2937,
      "Le": 2938,
      "pan": 2939,
      "##uyorum": 2940,
      "ces": 2941,
      "lider": 2942,
      "şüph": 2943,
      "Mustafa": 2944,
      "demokr": 2945,
      "etmeye": 2946,
      "Sah": 2947,
      "##biliyor": 2948,
      "##yıl": 2949,
      "Şub": 2950,
      "alacak": 2951,
      "etmiş": 2952,
      "##ilecek": 2953,
      "altına": 2954,
      "yaşındaki": 2955,
      "ederek": 2956,
      "Gö": 2957,
      "Kemal": 2958,
      "##üme": 2959,
      "##üncü": 2960,
      "olmadığı": 2961,
      "öne": 2962,
      "##abilecek": 2963,
      "problem": 2964,
      "duygu": 2965,
      "bağlantı": 2966,
      "yıldır": 2967,
      "##ayla": 2968,
      "##anlar": 2969,
      "kelim": 2970,
      "eyle": 2971,
      "##biyat": 2972,
      "gidiyor": 2973,
      "anlay": 2974,
      "şeklinde": 2975,
      "gül": 2976,
      "sokak": 2977,
      "kaçır": 2978,
      "##cılar": 2979,
      "ayır": 2980,
      "çocuklar": 2981,
      "##abet": 2982,
      "üretim": 2983,
      "Göz": 2984,
      "##diniz": 2985,
      "başlayan": 2986,
      "am": 2987,
      "##po": 2988,
      "##res": 2989,
      "Bazı": 2990,
      "##isel": 2991,
      "##dern": 2992,
      "poz": 2993,
      "Anadolu": 2994,
      "Sab": 2995,
      "##isan": 2996,
      "Mic": 2997,
      "normal": 2998,
      "nes": 2999,
      "tasarım": 3000,
      "##meyecek": 3001,
      "##öy": 3002,
      "tic": 3003,
      "yılı": 3004,
      "tahmin": 3005,
      "talep": 3006,
      "kanı": 3007,
      "performans": 3008,
      "Tam": 3009,
      "sorum": 3010,
      "bekle": 3011,
      "resmi": 3012,
      "##raman": 3013,
      "New": 3014,
      "harika": 3015,
      "bakım": 3016,
      "gördüğ": 3017,
      "##unan": 3018,
      "imkan": 3019,
      "##ital": 3020,
      "Hol": 3021,
      "##elerinde": 3022,
      "halinde": 3023,
      "defa": 3024,
      "##elerine": 3025,
      "##layarak": 3026,
      "##ukarı": 3027,
      "Gök": 3028,
      "yavaş": 3029,
      "bundan": 3030,
      "Güven": 3031,
      "##ku": 3032,
      "key": 3033,
      "yalan": 3034,
      "##lulu": 3035,
      "re": 3036,
      "Üst": 3037,
      "Mayıs": 3038,
      "vermek": 3039,
      "Diğer": 3040,
      "ab": 3041,
      "Et": 3042,
      "##tere": 3043,
      "##mızı": 3044,
      "peş": 3045,
      "##air": 3046,
      "##asıyla": 3047,
      "##nun": 3048,
      "##çiler": 3049,
      "artış": 3050,
      "Bul": 3051,
      "##lığına": 3052,
      "Başka": 3053,
      "##İR": 3054,
      "##AS": 3055,
      "Genç": 3056,
      "efendim": 3057,
      "tip": 3058,
      "video": 3059,
      "gar": 3060,
      "##bahçe": 3061,
      "##lıkları": 3062,
      "##ınızı": 3063,
      "##ham": 3064,
      "birey": 3065,
      "ceza": 3066,
      "filmi": 3067,
      "Part": 3068,
      "sanatçı": 3069,
      "kok": 3070,
      "##rail": 3071,
      "alma": 3072,
      "öğretmen": 3073,
      "Ac": 3074,
      "yarış": 3075,
      "##haf": 3076,
      "Haziran": 3077,
      "##lanacak": 3078,
      "sırada": 3079,
      "sayısı": 3080,
      "banka": 3081,
      "Git": 3082,
      "beled": 3083,
      "##laka": 3084,
      "##lıklar": 3085,
      "##işleri": 3086,
      "yapım": 3087,
      "##ceğim": 3088,
      "be": 3089,
      "yolc": 3090,
      "güncel": 3091,
      "bilmiyorum": 3092,
      "edeceğ": 3093,
      "##rans": 3094,
      "Ver": 3095,
      "##rin": 3096,
      "fırsat": 3097,
      "gerekli": 3098,
      "##ova": 3099,
      "evet": 3100,
      "Ağ": 3101,
      "olursa": 3102,
      "##ersin": 3103,
      "sap": 3104,
      "##lamış": 3105,
      "uluslararası": 3106,
      "##kenin": 3107,
      "##enn": 3108,
      "##çak": 3109,
      "kalit": 3110,
      "odak": 3111,
      "##bay": 3112,
      "tarz": 3113,
      "meydana": 3114,
      "Yer": 3115,
      "Kır": 3116,
      "kendine": 3117,
      "Kılıç": 3118,
      "##gen": 3119,
      "Öğr": 3120,
      "##ledi": 3121,
      "Almanya": 3122,
      "platform": 3123,
      "##sü": 3124,
      "##larınız": 3125,
      "##üper": 3126,
      "Adam": 3127,
      "Eski": 3128,
      "köş": 3129,
      "##lerim": 3130,
      "rahatsız": 3131,
      "##ons": 3132,
      "kuruluş": 3133,
      "##taki": 3134,
      "##bur": 3135,
      "##eter": 3136,
      "basın": 3137,
      "##dit": 3138,
      "tör": 3139,
      "puan": 3140,
      "satın": 3141,
      "aylık": 3142,
      "Bayan": 3143,
      "Kı": 3144,
      "Sanat": 3145,
      "##ever": 3146,
      "beyaz": 3147,
      "bilir": 3148,
      "lar": 3149,
      "arab": 3150,
      "##amaya": 3151,
      "##larımızı": 3152,
      "Bilm": 3153,
      "gitti": 3154,
      "##ete": 3155,
      "piş": 3156,
      "Um": 3157,
      "##medim": 3158,
      "Kurulu": 3159,
      "##ES": 3160,
      "onlar": 3161,
      "ileri": 3162,
      "mesele": 3163,
      "##gus": 3164,
      "##lev": 3165,
      "bi": 3166,
      "kür": 3167,
      "psik": 3168,
      "madde": 3169,
      "bula": 3170,
      "erken": 3171,
      "##yip": 3172,
      "##teri": 3173,
      "28": 3174,
      "yapmış": 3175,
      "bunlar": 3176,
      "Prof": 3177,
      "##yum": 3178,
      "Yük": 3179,
      "meş": 3180,
      "##go": 3181,
      "Jo": 3182,
      "Sür": 3183,
      "##imleri": 3184,
      "##eydi": 3185,
      "##ikayet": 3186,
      "ikti": 3187,
      "##ısının": 3188,
      "günümüz": 3189,
      "şiir": 3190,
      "Kit": 3191,
      "Ekim": 3192,
      "olduğuna": 3193,
      "Yal": 3194,
      "##endi": 3195,
      "edilm": 3196,
      "##niyet": 3197,
      "##cılık": 3198,
      "##lıyorum": 3199,
      "##dıktan": 3200,
      "çer": 3201,
      "bakalım": 3202,
      "müda": 3203,
      "##vis": 3204,
      "soy": 3205,
      "soğ": 3206,
      "##tığımız": 3207,
      "Selam": 3208,
      "##ilerek": 3209,
      "cam": 3210,
      "##siy": 3211,
      "koşul": 3212,
      "##çev": 3213,
      "##KK": 3214,
      "##müyor": 3215,
      "##neğin": 3216,
      "##yen": 3217,
      "endiş": 3218,
      "Fenerbahçe": 3219,
      "##layın": 3220,
      "Oh": 3221,
      "##deniz": 3222,
      "katılım": 3223,
      "alb": 3224,
      "Az": 3225,
      "##50": 3226,
      "analiz": 3227,
      "İsrail": 3228,
      "sistemi": 3229,
      "Teşekkürler": 3230,
      "Kasım": 3231,
      "yayım": 3232,
      "dakik": 3233,
      "##dıklarını": 3234,
      "etkili": 3235,
      "Un": 3236,
      "Eğitim": 3237,
      "başlat": 3238,
      "düzenlenen": 3239,
      "alınan": 3240,
      "##malar": 3241,
      "##leşme": 3242,
      "##İL": 3243,
      "##imizde": 3244,
      "##ura": 3245,
      "##her": 3246,
      "27": 3247,
      "otel": 3248,
      "oyunu": 3249,
      "##umsuz": 3250,
      "onların": 3251,
      "##aka": 3252,
      "##maktan": 3253,
      "##tiler": 3254,
      "öğrenciler": 3255,
      "##rek": 3256,
      "##luyor": 3257,
      "Re": 3258,
      "Kul": 3259,
      "##erson": 3260,
      "yeri": 3261,
      "davet": 3262,
      "uçak": 3263,
      "iletişim": 3264,
      "gazetec": 3265,
      "politika": 3266,
      "ihti": 3267,
      "##lkenin": 3268,
      "kamera": 3269,
      "##lamaz": 3270,
      "falan": 3271,
      "kop": 3272,
      "dünyada": 3273,
      "##AY": 3274,
      "tarihinde": 3275,
      "deprem": 3276,
      "davranış": 3277,
      "Hiçbir": 3278,
      "sıkıntı": 3279,
      "neredeyse": 3280,
      "sayıda": 3281,
      "eksik": 3282,
      "kişiler": 3283,
      "çerçev": 3284,
      "##gisi": 3285,
      "dedim": 3286,
      "Din": 3287,
      "malz": 3288,
      "amacıyla": 3289,
      "İslam": 3290,
      "belirlen": 3291,
      "60": 3292,
      "kullandı": 3293,
      "##mıyorum": 3294,
      "Mur": 3295,
      "Tele": 3296,
      "günlük": 3297,
      "##ohn": 3298,
      "##rem": 3299,
      "000": 3300,
      "Si": 3301,
      "Go": 3302,
      "nef": 3303,
      "##emek": 3304,
      "##gü": 3305,
      "İngiltere": 3306,
      "oyunc": 3307,
      "##ond": 3308,
      "evlen": 3309,
      "düşünüyorum": 3310,
      "enf": 3311,
      "Sar": 3312,
      "mısın": 3313,
      "geçti": 3314,
      "eve": 3315,
      "fiz": 3316,
      "diler": 3317,
      "yeterli": 3318,
      "parti": 3319,
      "Nisan": 3320,
      "kullanılan": 3321,
      "Kam": 3322,
      "##seniz": 3323,
      "değildi": 3324,
      "televizyon": 3325,
      "##eksiyon": 3326,
      "döv": 3327,
      "Belediyesi": 3328,
      "güc": 3329,
      "kart": 3330,
      "##iyordu": 3331,
      "##ple": 3332,
      "söylen": 3333,
      "dışı": 3334,
      "önüne": 3335,
      "uzman": 3336,
      "##ektör": 3337,
      "Diy": 3338,
      "##atürk": 3339,
      "bilgisayar": 3340,
      "##leti": 3341,
      "başvur": 3342,
      "belirten": 3343,
      "##ımın": 3344,
      "tatil": 3345,
      "ışık": 3346,
      "##şey": 3347,
      "sonrasında": 3348,
      "şunu": 3349,
      "##ack": 3350,
      "altı": 3351,
      "##dam": 3352,
      "sınav": 3353,
      "etraf": 3354,
      "Üz": 3355,
      "No": 3356,
      "min": 3357,
      "##wit": 3358,
      "197": 3359,
      "çıkış": 3360,
      "Galat": 3361,
      "AKP": 3362,
      "beğen": 3363,
      "500": 3364,
      "##anlık": 3365,
      "gelmiş": 3366,
      "##daşı": 3367,
      "başlıyor": 3368,
      "##asaray": 3369,
      "imza": 3370,
      "Dan": 3371,
      "##uldu": 3372,
      "Hatta": 3373,
      "soruştur": 3374,
      "##tesi": 3375,
      "##ğust": 3376,
      "Bağ": 3377,
      "Am": 3378,
      "Kültür": 3379,
      "vazgeç": 3380,
      "insanın": 3381,
      "PKK": 3382,
      "##lisi": 3383,
      "Beşik": 3384,
      "Per": 3385,
      "Ülk": 3386,
      "Bence": 3387,
      "popüler": 3388,
      "Car": 3389,
      "##iyeti": 3390,
      "##üya": 3391,
      "kendisine": 3392,
      "bahset": 3393,
      "Galatasaray": 3394,
      "yıllarda": 3395,
      "düşür": 3396,
      "HD": 3397,
      "açıklamada": 3398,
      "yüzyıl": 3399,
      "John": 3400,
      "Mal": 3401,
      "Herkes": 3402,
      "Atatürk": 3403,
      "Tekn": 3404,
      "ni": 3405,
      "##edeki": 3406,
      "Kend": 3407,
      "##lanmıştır": 3408,
      "almış": 3409,
      "yüzünden": 3410,
      "tık": 3411,
      "##imler": 3412,
      "##gör": 3413,
      "##tuk": 3414,
      "##tuğ": 3415,
      "tez": 3416,
      "##iyer": 3417,
      "##asyonu": 3418,
      "##abiliyor": 3419,
      "##laşma": 3420,
      "şiddet": 3421,
      "##ilmiştir": 3422,
      "ilgi": 3423,
      "##irken": 3424,
      "devr": 3425,
      "seyir": 3426,
      "not": 3427,
      "##arken": 3428,
      "##uğu": 3429,
      "reklam": 3430,
      "deney": 3431,
      "##ick": 3432,
      "giden": 3433,
      "günlerde": 3434,
      "uyan": 3435,
      "##ros": 3436,
      "Seç": 3437,
      "##hat": 3438,
      "memnun": 3439,
      "değişiklik": 3440,
      "##estor": 3441,
      "26": 3442,
      "Açık": 3443,
      "##ceği": 3444,
      "Küçük": 3445,
      "##onu": 3446,
      "##imd": 3447,
      "##EL": 3448,
      "tu": 3449,
      "durdur": 3450,
      "Beşiktaş": 3451,
      "onlara": 3452,
      "uğ": 3453,
      "kural": 3454,
      "Festiv": 3455,
      "zek": 3456,
      "bunları": 3457,
      "şaşır": 3458,
      "öğ": 3459,
      "Geçen": 3460,
      "ayar": 3461,
      "sem": 3462,
      "enerji": 3463,
      "##ni": 3464,
      "buradan": 3465,
      "Fat": 3466,
      "##liğin": 3467,
      "Tanrı": 3468,
      "hüc": 3469,
      "##ğustos": 3470,
      "Doğru": 3471,
      "##ündeki": 3472,
      "istemiyorum": 3473,
      "etkinlik": 3474,
      "##redi": 3475,
      "tec": 3476,
      "hükümet": 3477,
      "karşısında": 3478,
      "kitab": 3479,
      "hissed": 3480,
      "##omet": 3481,
      "##tacak": 3482,
      "##lediği": 3483,
      "politik": 3484,
      "Kürt": 3485,
      "olacaktır": 3486,
      "##layıp": 3487,
      "Val": 3488,
      "##yim": 3489,
      "Devam": 3490,
      "Güney": 3491,
      "alıp": 3492,
      "##best": 3493,
      "çab": 3494,
      "##eliğ": 3495,
      "##ane": 3496,
      "##esiz": 3497,
      "miyim": 3498,
      "işin": 3499,
      "##dat": 3500,
      "çoğu": 3501,
      "##ıyorlar": 3502,
      "com": 3503,
      "Düş": 3504,
      "##bat": 3505,
      "##cisi": 3506,
      "Samsun": 3507,
      "trans": 3508,
      "bom": 3509,
      "yürüy": 3510,
      "Antalya": 3511,
      "##düğünü": 3512,
      "yola": 3513,
      "Arka": 3514,
      "yakala": 3515,
      "ediliyor": 3516,
      "mutlaka": 3517,
      "Yunan": 3518,
      "toprak": 3519,
      "yerel": 3520,
      "olacağını": 3521,
      "insanları": 3522,
      "Spor": 3523,
      "konuşma": 3524,
      "##ud": 3525,
      "Yılmaz": 3526,
      "birini": 3527,
      "ilan": 3528,
      "Irak": 3529,
      "##lemeye": 3530,
      "##orm": 3531,
      "##ula": 3532,
      "yerleş": 3533,
      "atı": 3534,
      "ilaç": 3535,
      "##les": 3536,
      "Oğ": 3537,
      "gem": 3538,
      "##imar": 3539,
      "döneminde": 3540,
      "miktar": 3541,
      "rak": 3542,
      "başta": 3543,
      "##masından": 3544,
      "Sosyal": 3545,
      "yoktur": 3546,
      "dek": 3547,
      "birisi": 3548,
      "girişim": 3549,
      "olumsuz": 3550,
      "##undaki": 3551,
      "##ho": 3552,
      "##ceğini": 3553,
      "Nerede": 3554,
      "bilgiler": 3555,
      "borç": 3556,
      "sonucunda": 3557,
      "Sp": 3558,
      "Baba": 3559,
      "ilginç": 3560,
      "edebil": 3561,
      "##terek": 3562,
      "Ocak": 3563,
      "Bat": 3564,
      "##ykü": 3565,
      "##diklerini": 3566,
      "ülkenin": 3567,
      "marka": 3568,
      "Bunlar": 3569,
      "gösteriyor": 3570,
      "ettim": 3571,
      "##başı": 3572,
      "##mamış": 3573,
      "Tiyatro": 3574,
      "##emiş": 3575,
      "##eyecek": 3576,
      "yönetmen": 3577,
      "Eş": 3578,
      "##lanır": 3579,
      "Sır": 3580,
      "##ıştır": 3581,
      "##ris": 3582,
      "##uluyor": 3583,
      "Ha": 3584,
      "Kıs": 3585,
      "##leyin": 3586,
      "Onlar": 3587,
      "kullanım": 3588,
      "##sizlik": 3589,
      "yerinde": 3590,
      "bekliyor": 3591,
      "hayata": 3592,
      "Bas": 3593,
      "terk": 3594,
      "hepsi": 3595,
      "##unları": 3596,
      "##iyah": 3597,
      "Birliği": 3598,
      "##atej": 3599,
      "##ell": 3600,
      "gidip": 3601,
      "evde": 3602,
      "##lenme": 3603,
      "kadro": 3604,
      "##kası": 3605,
      "kendisi": 3606,
      "##ebilirsiniz": 3607,
      "##EK": 3608,
      "Yol": 3609,
      "##urken": 3610,
      "aray": 3611,
      "kendisini": 3612,
      "cep": 3613,
      "tatlı": 3614,
      "##istik": 3615,
      "##tüğ": 3616,
      "##iri": 3617,
      "po": 3618,
      "iP": 3619,
      "##ivil": 3620,
      "verecek": 3621,
      "##lusal": 3622,
      "##yken": 3623,
      "##UR": 3624,
      "##OR": 3625,
      "##larındaki": 3626,
      "day": 3627,
      "##memiz": 3628,
      "tartışma": 3629,
      "2015": 3630,
      "Anne": 3631,
      "##zu": 3632,
      "##ock": 3633,
      "sonraki": 3634,
      "askeri": 3635,
      "nden": 3636,
      "açıkladı": 3637,
      "##oya": 3638,
      "##urum": 3639,
      "bakış": 3640,
      "Kaz": 3641,
      "Uzun": 3642,
      "##enc": 3643,
      "arama": 3644,
      "yoktu": 3645,
      "belirtti": 3646,
      "müdahale": 3647,
      "##biliriz": 3648,
      "siyaset": 3649,
      "Büyükşehir": 3650,
      "İkinci": 3651,
      "##acağım": 3652,
      "Gazet": 3653,
      "İran": 3654,
      "bazen": 3655,
      "##omobil": 3656,
      "çeken": 3657,
      "imz": 3658,
      "##ükem": 3659,
      "##ray": 3660,
      "farkında": 3661,
      "##ag": 3662,
      "##isiyle": 3663,
      "istiyorsun": 3664,
      "güneş": 3665,
      "Bal": 3666,
      "##liğe": 3667,
      "##ze": 3668,
      "##tern": 3669,
      "Gir": 3670,
      "Fransa": 3671,
      "##masıyla": 3672,
      "yalnızca": 3673,
      "##uzur": 3674,
      "kriz": 3675,
      "Ge": 3676,
      "##ımızın": 3677,
      "karıştır": 3678,
      "and": 3679,
      "gizli": 3680,
      "cinsel": 3681,
      "yerini": 3682,
      "bağımsız": 3683,
      "Aralık": 3684,
      "##neği": 3685,
      "ilişki": 3686,
      "bebek": 3687,
      "tedavi": 3688,
      "##ck": 3689,
      "dizi": 3690,
      "##par": 3691,
      "##işi": 3692,
      "ülkemiz": 3693,
      "yapıyorsun": 3694,
      "etkisi": 3695,
      "Pat": 3696,
      "##üstü": 3697,
      "##ınıza": 3698,
      "2018": 3699,
      "##artesi": 3700,
      "eylem": 3701,
      "teslim": 3702,
      "yasak": 3703,
      "29": 3704,
      "başlan": 3705,
      "bilinen": 3706,
      "Sin": 3707,
      "##otor": 3708,
      "anlamına": 3709,
      "Merkezi": 3710,
      "Şah": 3711,
      "seviyorum": 3712,
      "edebiyat": 3713,
      "##daroğlu": 3714,
      "Söyle": 3715,
      "sert": 3716,
      "##duğumuz": 3717,
      "##dy": 3718,
      "dilerim": 3719,
      "##meniz": 3720,
      "ez": 3721,
      "##ücu": 3722,
      "##hone": 3723,
      "##ükemmel": 3724,
      "kilo": 3725,
      "teklif": 3726,
      "olduğumuz": 3727,
      "isimli": 3728,
      "##ise": 3729,
      "uğraş": 3730,
      "Wil": 3731,
      "Böylece": 3732,
      "Araştırma": 3733,
      "##eceğiniz": 3734,
      "yukarı": 3735,
      "balık": 3736,
      "kayde": 3737,
      "sorunu": 3738,
      "##anan": 3739,
      "gören": 3740,
      "Ağustos": 3741,
      "##ümüzdeki": 3742,
      "##erim": 3743,
      "gündem": 3744,
      "şikayet": 3745,
      "##elt": 3746,
      "##AD": 3747,
      "yasa": 3748,
      "se": 3749,
      "Osmanlı": 3750,
      "Bor": 3751,
      "kanıt": 3752,
      "yılın": 3753,
      "yılda": 3754,
      "##aşa": 3755,
      "##adde": 3756,
      "hadi": 3757,
      "Fa": 3758,
      "Fil": 3759,
      "Şubat": 3760,
      "##iter": 3761,
      "ettir": 3762,
      "dolaş": 3763,
      "haklı": 3764,
      "altın": 3765,
      "##elerden": 3766,
      "af": 3767,
      "göç": 3768,
      "##uro": 3769,
      "alanda": 3770,
      "sakin": 3771,
      "taz": 3772,
      "ihtiyacı": 3773,
      "itir": 3774,
      "basit": 3775,
      "anlamda": 3776,
      "196": 3777,
      "dokun": 3778,
      "iyileş": 3779,
      "##hi": 3780,
      "##to": 3781,
      "kalp": 3782,
      "Tat": 3783,
      "##dikten": 3784,
      "##ezz": 3785,
      "2022": 3786,
      "anlama": 3787,
      "yapabilir": 3788,
      "Tayyip": 3789,
      "sağlıklı": 3790,
      "Kılıçdaroğlu": 3791,
      "##liğinde": 3792,
      "##ire": 3793,
      "sunu": 3794,
      "##gili": 3795,
      "##esindeki": 3796,
      "tehdit": 3797,
      "Elbette": 3798,
      "Hemen": 3799,
      "aya": 3800,
      "Yönet": 3801,
      "heyecan": 3802,
      "tuz": 3803,
      "olumlu": 3804,
      "dostum": 3805,
      "##str": 3806,
      "açıkla": 3807,
      "gördüm": 3808,
      "Mas": 3809,
      "şeyin": 3810,
      "Res": 3811,
      "##dınız": 3812,
      "yiye": 3813,
      "bal": 3814,
      "##witter": 3815,
      "sona": 3816,
      "beden": 3817,
      "##larımızın": 3818,
      "##imli": 3819,
      "##AŞ": 3820,
      "kans": 3821,
      "Ham": 3822,
      "Şey": 3823,
      "pas": 3824,
      "Tarih": 3825,
      "bol": 3826,
      "çağır": 3827,
      "yönetic": 3828,
      "##tum": 3829,
      "adını": 3830,
      "##ukat": 3831,
      "La": 3832,
      "##gesi": 3833,
      "Dön": 3834,
      "yıllar": 3835,
      "onunla": 3836,
      "Sorun": 3837,
      "elektrik": 3838,
      "##sas": 3839,
      "modern": 3840,
      "bölümde": 3841,
      "##onya": 3842,
      "hastalık": 3843,
      "##meyin": 3844,
      "şar": 3845,
      "seyahat": 3846,
      "Fransız": 3847,
      "sayı": 3848,
      "##fed": 3849,
      "##kadem": 3850,
      "gösteren": 3851,
      "raki": 3852,
      "çeki": 3853,
      "##muştur": 3854,
      "asıl": 3855,
      "##alim": 3856,
      "##gıç": 3857,
      "Sayın": 3858,
      "müt": 3859,
      "Park": 3860,
      "##üman": 3861,
      "Hastan": 3862,
      "mahk": 3863,
      "##lerdir": 3864,
      "tepki": 3865,
      "Mut": 3866,
      "##rum": 3867,
      "konum": 3868,
      "bec": 3869,
      "ettiğini": 3870,
      "##ısız": 3871,
      "##asi": 3872,
      "konser": 3873,
      "Ağa": 3874,
      "bunların": 3875,
      "31": 3876,
      "##co": 3877,
      "restor": 3878,
      "yas": 3879,
      "serbest": 3880,
      "##eyse": 3881,
      "##mesinin": 3882,
      "eg": 3883,
      "doldur": 3884,
      "hesab": 3885,
      "##ore": 3886,
      "##atör": 3887,
      "misiniz": 3888,
      "##mur": 3889,
      "90": 3890,
      "azından": 3891,
      "Var": 3892,
      "aşırı": 3893,
      "Zaten": 3894,
      "Gala": 3895,
      "binlerce": 3896,
      "##veriş": 3897,
      "##elç": 3898,
      "diyerek": 3899,
      "##iği": 3900,
      "##miştim": 3901,
      "kara": 3902,
      "80": 3903,
      "red": 3904,
      "üçüncü": 3905,
      "Ödül": 3906,
      "hed": 3907,
      "Zaman": 3908,
      "parçası": 3909,
      "lik": 3910,
      "hafif": 3911,
      "olmadan": 3912,
      "form": 3913,
      "##rika": 3914,
      "##ıyordu": 3915,
      "ha": 3916,
      "mec": 3917,
      "alanı": 3918,
      "Apple": 3919,
      "mark": 3920,
      "##ong": 3921,
      "dök": 3922,
      "Güneş": 3923,
      "##elikle": 3924,
      "stan": 3925,
      "eğit": 3926,
      "Orada": 3927,
      "2020": 3928,
      "##imden": 3929,
      "azal": 3930,
      "kuvvet": 3931,
      "gitmek": 3932,
      "başlar": 3933,
      "##rac": 3934,
      "##ınızda": 3935,
      "yerleştir": 3936,
      "##ulması": 3937,
      "##temelen": 3938,
      "Cam": 3939,
      "söylemek": 3940,
      "##adaki": 3941,
      "Değ": 3942,
      "##sim": 3943,
      "##ner": 3944,
      "##LAR": 3945,
      "##har": 3946,
      "üzerindeki": 3947,
      "musunuz": 3948,
      "çay": 3949,
      "##eza": 3950,
      "etkilen": 3951,
      "kem": 3952,
      "cen": 3953,
      "##ED": 3954,
      "söyleyen": 3955,
      "ir": 3956,
      "##sul": 3957,
      "Kaç": 3958,
      "##ğında": 3959,
      "bahsed": 3960,
      "gözlem": 3961,
      "Müdürlüğü": 3962,
      "ters": 3963,
      "##ger": 3964,
      "del": 3965,
      "hayatı": 3966,
      "##düz": 3967,
      "iktidar": 3968,
      "Doğu": 3969,
      "##tarı": 3970,
      "35": 3971,
      "##landa": 3972,
      "##kar": 3973,
      "alg": 3974,
      "MHP": 3975,
      "##lığıyla": 3976,
      "##ind": 3977,
      "belirterek": 3978,
      "##madım": 3979,
      "ndan": 3980,
      "Haydi": 3981,
      "yaşadığı": 3982,
      "olmuştur": 3983,
      "çıkacak": 3984,
      "merkezi": 3985,
      "ediyoruz": 3986,
      "herkesin": 3987,
      "istiyoruz": 3988,
      "kaydet": 3989,
      "stratej": 3990,
      "pak": 3991,
      "dans": 3992,
      "##rag": 3993,
      "##ena": 3994,
      "ağr": 3995,
      "sanırım": 3996,
      "45": 3997,
      "Aman": 3998,
      "yetkil": 3999,
      "TV": 4000,
      "##acağız": 4001,
      "kesinlikle": 4002,
      "gaz": 4003,
      "kulak": 4004,
      "eşi": 4005,
      "İm": 4006,
      "##ht": 4007,
      "hapis": 4008,
      "eriş": 4009,
      "##ülü": 4010,
      "işler": 4011,
      "##ON": 4012,
      "biliyorsun": 4013,
      "##landığı": 4014,
      "zih": 4015,
      "süt": 4016,
      "meslek": 4017,
      "##jital": 4018,
      "##sur": 4019,
      "olmasına": 4020,
      "doğum": 4021,
      "##ori": 4022,
      "fil": 4023,
      "gelenek": 4024,
      "fon": 4025,
      "##med": 4026,
      "Batı": 4027,
      "Bin": 4028,
      "##elerinden": 4029,
      "##ebilecek": 4030,
      "servis": 4031,
      "otomobil": 4032,
      "isten": 4033,
      "nedeni": 4034,
      "##ışık": 4035,
      "##eytin": 4036,
      "2019": 4037,
      "##amıyorum": 4038,
      "Örneğin": 4039,
      "Yüksek": 4040,
      "olmayacak": 4041,
      "dünyaya": 4042,
      "##we": 4043,
      "süreci": 4044,
      "Sonuç": 4045,
      "##mür": 4046,
      "yaptım": 4047,
      "öykü": 4048,
      "Emin": 4049,
      "uc": 4050,
      "yu": 4051,
      "hata": 4052,
      "##ildiği": 4053,
      "yapıldı": 4054,
      "ticaret": 4055,
      "Kuzey": 4056,
      "Bayram": 4057,
      "huzur": 4058,
      "##EM": 4059,
      "düğ": 4060,
      "gelip": 4061,
      "aldım": 4062,
      "izle": 4063,
      "Bundan": 4064,
      "gur": 4065,
      "##üyle": 4066,
      "Evrim": 4067,
      "Aydın": 4068,
      "sunuyor": 4069,
      "##oyu": 4070,
      "Buraya": 4071,
      "cüm": 4072,
      "##ğan": 4073,
      "##emli": 4074,
      "##ürüz": 4075,
      "##ahim": 4076,
      "birinci": 4077,
      "##ebi": 4078,
      "##ona": 4079,
      "zamanı": 4080,
      "Lig": 4081,
      "##ult": 4082,
      "##inizin": 4083,
      "diyen": 4084,
      "##arında": 4085,
      "York": 4086,
      "rad": 4087,
      "edilmiş": 4088,
      "dava": 4089,
      "##ayi": 4090,
      "serg": 4091,
      "ora": 4092,
      "milli": 4093,
      "##dığına": 4094,
      "taşın": 4095,
      "istedi": 4096,
      "##ülebilir": 4097,
      "##yas": 4098,
      "getiren": 4099,
      "ins": 4100,
      "ülkede": 4101,
      "##eng": 4102,
      "nüf": 4103,
      "##sinin": 4104,
      "umut": 4105,
      "##land": 4106,
      "olmasını": 4107,
      "malzem": 4108,
      "keyif": 4109,
      "senar": 4110,
      "##elerle": 4111,
      "geçtiğimiz": 4112,
      "edip": 4113,
      "yarın": 4114,
      "bilmiyor": 4115,
      "ayrıl": 4116,
      "toplumsal": 4117,
      "Haf": 4118,
      "Sağlık": 4119,
      "Milletvekili": 4120,
      "festiv": 4121,
      "finans": 4122,
      "park": 4123,
      "##ilebilir": 4124,
      "##lenmiş": 4125,
      "##ladım": 4126,
      "nefret": 4127,
      "hayatta": 4128,
      "anlayış": 4129,
      "gib": 4130,
      "##mediği": 4131,
      "Çev": 4132,
      "baskı": 4133,
      "mektu": 4134,
      "kızı": 4135,
      "rast": 4136,
      "##İY": 4137,
      "Harika": 4138,
      "##süz": 4139,
      "Meclis": 4140,
      "kanal": 4141,
      "alanında": 4142,
      "Bilmiyorum": 4143,
      "yakalan": 4144,
      "kitabı": 4145,
      "ilişkiler": 4146,
      "##ılabilir": 4147,
      "birinin": 4148,
      "2016": 4149,
      "edilmiştir": 4150,
      "şeker": 4151,
      "deng": 4152,
      "faiz": 4153,
      "##liğine": 4154,
      "Gür": 4155,
      "adamı": 4156,
      "##avi": 4157,
      "almaya": 4158,
      "##dağ": 4159,
      "ata": 4160,
      "def": 4161,
      "kırmızı": 4162,
      "çalışmaları": 4163,
      "Yardımcısı": 4164,
      "çap": 4165,
      "hakim": 4166,
      "Biliyorum": 4167,
      "faktör": 4168,
      "esn": 4169,
      "albüm": 4170,
      "kişilik": 4171,
      "Müs": 4172,
      "##panya": 4173,
      "##ecep": 4174,
      "anlamlı": 4175,
      "##lal": 4176,
      "edilmesi": 4177,
      "##unç": 4178,
      "şampiyon": 4179,
      "köpek": 4180,
      "##dılar": 4181,
      "##usunu": 4182,
      "Gi": 4183,
      "Önce": 4184,
      "##ılarak": 4185,
      "##ıldız": 4186,
      "Dolay": 4187,
      "##sever": 4188,
      "##teşem": 4189,
      "##mit": 4190,
      "##diğine": 4191,
      "alk": 4192,
      "saygı": 4193,
      "##irüs": 4194,
      "civ": 4195,
      "otob": 4196,
      "sorgu": 4197,
      "Lis": 4198,
      "yaşlı": 4199,
      "Rob": 4200,
      "70": 4201,
      "Hala": 4202,
      "olası": 4203,
      "Co": 4204,
      "##dal": 4205,
      "bence": 4206,
      "##larınızı": 4207,
      "içi": 4208,
      "Ho": 4209,
      "##jan": 4210,
      "sorumlu": 4211,
      "Mus": 4212,
      "##ayıf": 4213,
      "Uluslararası": 4214,
      "dağ": 4215,
      "Recep": 4216,
      "Doktor": 4217,
      "getirdi": 4218,
      "oranı": 4219,
      "Amerikan": 4220,
      "##tak": 4221,
      "yaygın": 4222,
      "tören": 4223,
      "##va": 4224,
      "##siye": 4225,
      "büt": 4226,
      "##lığının": 4227,
      "pr": 4228,
      "kişisel": 4229,
      "soğuk": 4230,
      "kere": 4231,
      "Murat": 4232,
      "ondan": 4233,
      "##çeği": 4234,
      "gücü": 4235,
      "Üzgünüm": 4236,
      "ted": 4237,
      "##madığı": 4238,
      "pla": 4239,
      "Nur": 4240,
      "sinema": 4241,
      "##ij": 4242,
      "##ersiz": 4243,
      "Polis": 4244,
      "##are": 4245,
      "elbette": 4246,
      "##ğını": 4247,
      "sivil": 4248,
      "dahi": 4249,
      "Mac": 4250,
      "kurtul": 4251,
      "oldum": 4252,
      "araba": 4253,
      "##onik": 4254,
      "başvuru": 4255,
      "kıl": 4256,
      "Çağ": 4257,
      "olmadı": 4258,
      "sebeb": 4259,
      "##içek": 4260,
      "şiş": 4261,
      "fi": 4262,
      "##nen": 4263,
      "2017": 4264,
      "Dik": 4265,
      "aşı": 4266,
      "ef": 4267,
      "kahraman": 4268,
      "Say": 4269,
      "##ecektir": 4270,
      "hır": 4271,
      "çocukların": 4272,
      "yapabil": 4273,
      "öncesi": 4274,
      "##kiler": 4275,
      "Bo": 4276,
      "harca": 4277,
      "arası": 4278,
      "##abz": 4279,
      "eşit": 4280,
      "yarı": 4281,
      "gelin": 4282,
      "##bin": 4283,
      "hisse": 4284,
      "lim": 4285,
      "atan": 4286,
      "##elek": 4287,
      "özür": 4288,
      "Olay": 4289,
      "yargı": 4290,
      "Bi": 4291,
      "idar": 4292,
      "iPhone": 4293,
      "##meliyat": 4294,
      "becer": 4295,
      "Mahalle": 4296,
      "Oku": 4297,
      "alarak": 4298,
      "edebilir": 4299,
      "söyler": 4300,
      "##xy": 4301,
      "##cık": 4302,
      "çocuğu": 4303,
      "gay": 4304,
      "gelişmeler": 4305,
      "belediye": 4306,
      "2021": 4307,
      "##lenmesi": 4308,
      "lir": 4309,
      "Dolayısıyla": 4310,
      "##İM": 4311,
      "arkadaşı": 4312,
      "korun": 4313,
      "duygus": 4314,
      "tır": 4315,
      "sanki": 4316,
      "kilomet": 4317,
      "yapılması": 4318,
      "##diğimi": 4319,
      "benimle": 4320,
      "giren": 4321,
      "Müdürü": 4322,
      "person": 4323,
      "Mahkem": 4324,
      "to": 4325,
      "##erken": 4326,
      "kadının": 4327,
      "aydın": 4328,
      "Jap": 4329,
      "Haberin": 4330,
      "ortalama": 4331,
      "##don": 4332,
      "##liler": 4333,
      "giderek": 4334,
      "##iyan": 4335,
      "##ohbet": 4336,
      "cinayet": 4337,
      "önlem": 4338,
      "32": 4339,
      "Vak": 4340,
      "Fer": 4341,
      "ic": 4342,
      "Don": 4343,
      "##SK": 4344,
      "koc": 4345,
      "##do": 4346,
      "biçimde": 4347,
      "ışı": 4348,
      "sinir": 4349,
      "arttır": 4350,
      "Ağacı": 4351,
      "##ındır": 4352,
      "##stan": 4353,
      "kredi": 4354,
      "seçenek": 4355,
      "duruyor": 4356,
      "##ersiniz": 4357,
      "babası": 4358,
      "Pa": 4359,
      "##ess": 4360,
      "sur": 4361,
      "yapılmış": 4362,
      "##ation": 4363,
      "diş": 4364,
      "##ayasa": 4365,
      "##ilim": 4366,
      "çalışmalar": 4367,
      "boğ": 4368,
      "özellikleri": 4369,
      "yaşama": 4370,
      "ide": 4371,
      "Hava": 4372,
      "##red": 4373,
      "üyesi": 4374,
      "vücu": 4375,
      "geçiş": 4376,
      "bayram": 4377,
      "çaba": 4378,
      "ifadelerini": 4379,
      "takdir": 4380,
      "Altın": 4381,
      "sevgil": 4382,
      "##acağı": 4383,
      "hatırla": 4384,
      "verildi": 4385,
      "##lardaki": 4386,
      "##alesef": 4387,
      "açıdan": 4388,
      "##celi": 4389,
      "##ılış": 4390,
      "teknoloji": 4391,
      "kalır": 4392,
      "ordu": 4393,
      "Partisi": 4394,
      "yaptığını": 4395,
      "rakam": 4396,
      "##car": 4397,
      "##udi": 4398,
      "tarif": 4399,
      "Char": 4400,
      "##qu": 4401,
      "Den": 4402,
      "konut": 4403,
      "##layıcı": 4404,
      "##malıdır": 4405,
      "##ich": 4406,
      "kullanarak": 4407,
      "müh": 4408,
      "##cilik": 4409,
      "2014": 4410,
      "Konuş": 4411,
      "lezz": 4412,
      "kalma": 4413,
      "Kaf": 4414,
      "içerik": 4415,
      "saniye": 4416,
      "nı": 4417,
      "Mon": 4418,
      "salon": 4419,
      "çoğun": 4420,
      "birden": 4421,
      "##emem": 4422,
      "##ogle": 4423,
      "##lasik": 4424,
      "vergi": 4425,
      "##utan": 4426,
      "kaşı": 4427,
      "##itik": 4428,
      "beklent": 4429,
      "gündeme": 4430,
      "profes": 4431,
      "değerli": 4432,
      "barış": 4433,
      "oğlu": 4434,
      "muy": 4435,
      "mahkem": 4436,
      "kullanıl": 4437,
      "mesaf": 4438,
      "filmin": 4439,
      "2010": 4440,
      "etmesi": 4441,
      "##altına": 4442,
      "##tıcı": 4443,
      "##mız": 4444,
      "##dırım": 4445,
      "Gazi": 4446,
      "öldü": 4447,
      "kapalı": 4448,
      "cil": 4449,
      "gönül": 4450,
      "##pany": 4451,
      "anlatıyor": 4452,
      "vakit": 4453,
      "zayıf": 4454,
      "yeşil": 4455,
      "bakan": 4456,
      "ism": 4457,
      "şeye": 4458,
      "Arab": 4459,
      "##leyici": 4460,
      "duruş": 4461,
      "sağlayan": 4462,
      "kültürel": 4463,
      "##ug": 4464,
      "##yal": 4465,
      "Te": 4466,
      "Be": 4467,
      "prot": 4468,
      "ortadan": 4469,
      "şunları": 4470,
      "##duğum": 4471,
      "So": 4472,
      "verme": 4473,
      "Kork": 4474,
      "36": 4475,
      "Size": 4476,
      "Kral": 4477,
      "Önc": 4478,
      "##müştür": 4479,
      "##eci": 4480,
      "vermiş": 4481,
      "Çık": 4482,
      "girdi": 4483,
      "Müsl": 4484,
      "şef": 4485,
      "kahv": 4486,
      "sp": 4487,
      "alındı": 4488,
      "##iya": 4489,
      "okur": 4490,
      "##ydi": 4491,
      "##uar": 4492,
      "bölümünde": 4493,
      "süren": 4494,
      "##sında": 4495,
      "##ağın": 4496,
      "noktada": 4497,
      "Ail": 4498,
      "##anak": 4499,
      "Halk": 4500,
      "benden": 4501,
      "Tah": 4502,
      "kuru": 4503,
      "GB": 4504,
      "##mesiyle": 4505,
      "dönüştür": 4506,
      "##dunuz": 4507,
      "küresel": 4508,
      "yaklaşım": 4509,
      "Mi": 4510,
      "hab": 4511,
      "genellikle": 4512,
      "##isinden": 4513,
      "##masın": 4514,
      "durumunda": 4515,
      "kış": 4516,
      "Sizin": 4517,
      "süredir": 4518,
      "yaparak": 4519,
      "Sul": 4520,
      "Kab": 4521,
      "##siyet": 4522,
      "##vekil": 4523,
      "çoğ": 4524,
      "olamaz": 4525,
      "siyah": 4526,
      "##ımızda": 4527,
      "##mı": 4528,
      "kalmış": 4529,
      "milletvekili": 4530,
      "İnan": 4531,
      "sevin": 4532,
      "##leniyor": 4533,
      "tr": 4534,
      "turizm": 4535,
      "taşıyan": 4536,
      "dinle": 4537,
      "##emeye": 4538,
      "##nak": 4539,
      "değişim": 4540,
      "##ücut": 4541,
      "zamanlarda": 4542,
      "##lerimizi": 4543,
      "##izasyon": 4544,
      "Cem": 4545,
      "içindeki": 4546,
      "kapas": 4547,
      "müdür": 4548,
      "Kesin": 4549,
      "metre": 4550,
      "Paris": 4551,
      "koca": 4552,
      "##ST": 4553,
      "##ator": 4554,
      "işbir": 4555,
      "ayı": 4556,
      "##üldü": 4557,
      "##ann": 4558,
      "mükemmel": 4559,
      "Fin": 4560,
      "tabi": 4561,
      "##eğe": 4562,
      "katıldı": 4563,
      "düşman": 4564,
      "yazık": 4565,
      "##ky": 4566,
      "Alan": 4567,
      "yerden": 4568,
      "##rah": 4569,
      "enflasyon": 4570,
      "Fak": 4571,
      "##acağını": 4572,
      "Bit": 4573,
      "kum": 4574,
      "##IR": 4575,
      "Ku": 4576,
      "Gar": 4577,
      "##arlı": 4578,
      "Uk": 4579,
      "Geri": 4580,
      "oraya": 4581,
      "sonuçları": 4582,
      "ihtimal": 4583,
      "kısmı": 4584,
      "kayıp": 4585,
      "insanı": 4586,
      "##larımı": 4587,
      "öt": 4588,
      "olsay": 4589,
      "##malıyız": 4590,
      "uçuş": 4591,
      "Süper": 4592,
      "tıp": 4593,
      "istedim": 4594,
      "Yıldırım": 4595,
      "TÜ": 4596,
      "ade": 4597,
      "Hoş": 4598,
      "##dul": 4599,
      "Festivali": 4600,
      "Türkçe": 4601,
      "özelliği": 4602,
      "Bırak": 4603,
      "Mek": 4604,
      "Erkek": 4605,
      "hızla": 4606,
      "Trabz": 4607,
      "orman": 4608,
      "Twitter": 4609,
      "yaşıyor": 4610,
      "kazandır": 4611,
      "##amazan": 4612,
      "onay": 4613,
      "oyunun": 4614,
      "Çek": 4615,
      "Savaş": 4616,
      "HDP": 4617,
      "##gr": 4618,
      "istih": 4619,
      "##lie": 4620,
      "sürede": 4621,
      "sonuna": 4622,
      "##cağına": 4623,
      "Duy": 4624,
      "ismi": 4625,
      "sayf": 4626,
      "Burası": 4627,
      "makin": 4628,
      "kaybol": 4629,
      "ufak": 4630,
      "Google": 4631,
      "##AZ": 4632,
      "Fatih": 4633,
      "yetiştir": 4634,
      "desteği": 4635,
      "##ısır": 4636,
      "ağaç": 4637,
      "bağır": 4638,
      "Bankası": 4639,
      "Ukray": 4640,
      "ayrıntı": 4641,
      "futbolcu": 4642,
      "Yıldız": 4643,
      "doğrudan": 4644,
      "ölçü": 4645,
      "sağlıyor": 4646,
      "Arkadaş": 4647,
      "sohbet": 4648,
      "##sızlık": 4649,
      "Yas": 4650,
      "##indi": 4651,
      "Met": 4652,
      "##rav": 4653,
      "kaşığı": 4654,
      "yarg": 4655,
      "görevi": 4656,
      "bölgede": 4657,
      "ilçesinde": 4658,
      "akl": 4659,
      "tren": 4660,
      "##ysa": 4661,
      "çıkart": 4662,
      "düzenlem": 4663,
      "şeyleri": 4664,
      "##ert": 4665,
      "yolunda": 4666,
      "unsur": 4667,
      "##memek": 4668,
      "kapan": 4669,
      "##medik": 4670,
      "Yav": 4671,
      "alışveriş": 4672,
      "öğrenci": 4673,
      "bahç": 4674,
      "ref": 4675,
      "##ity": 4676,
      "karşılık": 4677,
      "sız": 4678,
      "Samsung": 4679,
      "arasına": 4680,
      "birik": 4681,
      "istediğim": 4682,
      "Th": 4683,
      "desteğ": 4684,
      "##AP": 4685,
      "istediği": 4686,
      "sebebi": 4687,
      "nün": 4688,
      "uygula": 4689,
      "##hane": 4690,
      "gali": 4691,
      "##mekten": 4692,
      "tanıt": 4693,
      "numar": 4694,
      "çalışıyoruz": 4695,
      "anlatan": 4696,
      "bekl": 4697,
      "aptal": 4698,
      "ağz": 4699,
      "##usuna": 4700,
      "nak": 4701,
      "gördük": 4702,
      "buz": 4703,
      "Şehir": 4704,
      "##dart": 4705,
      "sahne": 4706,
      "olanlar": 4707,
      "üstüne": 4708,
      "##İT": 4709,
      "##orta": 4710,
      "çekil": 4711,
      "kağı": 4712,
      "Galaxy": 4713,
      "##leyecek": 4714,
      "sağlamak": 4715,
      "kendimi": 4716,
      "bugüne": 4717,
      "transfer": 4718,
      "##istin": 4719,
      "Tıp": 4720,
      "##ko": 4721,
      "geldiği": 4722,
      "Cumhurbaşkan": 4723,
      "TB": 4724,
      "çö": 4725,
      "sim": 4726,
      "##liye": 4727,
      "suyu": 4728,
      "Demek": 4729,
      "azalt": 4730,
      "300": 4731,
      "ton": 4732,
      "##İK": 4733,
      "İh": 4734,
      "##makla": 4735,
      "##gal": 4736,
      "karşılı": 4737,
      "Telefon": 4738,
      "##urta": 4739,
      "Hüs": 4740,
      "##yap": 4741,
      "festival": 4742,
      "hayran": 4743,
      "Bursa": 4744,
      "##mıştım": 4745,
      "namaz": 4746,
      "Onları": 4747,
      "##atür": 4748,
      "##İD": 4749,
      "olduğundan": 4750,
      "##hiş": 4751,
      "Yazının": 4752,
      "katılan": 4753,
      "##pt": 4754,
      "hücr": 4755,
      "Pr": 4756,
      "niyet": 4757,
      "Van": 4758,
      "duvar": 4759,
      "Görün": 4760,
      "müşter": 4761,
      "pil": 4762,
      "Öte": 4763,
      "seninle": 4764,
      "sağlaya": 4765,
      "Gele": 4766,
      "bed": 4767,
      "maddi": 4768,
      "çalışmaya": 4769,
      "##ker": 4770,
      "kus": 4771,
      "Mor": 4772,
      "bina": 4773,
      "kamer": 4774,
      "vermeye": 4775,
      "##ood": 4776,
      "kadınlar": 4777,
      "motor": 4778,
      "##sey": 4779,
      "okuy": 4780,
      "büyüm": 4781,
      "lezzet": 4782,
      "ır": 4783,
      "geleceğ": 4784,
      "Yayın": 4785,
      "##inizde": 4786,
      "bölge": 4787,
      "##uva": 4788,
      "yaparken": 4789,
      "Dep": 4790,
      "Şeh": 4791,
      "kalıyor": 4792,
      "Sey": 4793,
      "küt": 4794,
      "##ılıp": 4795,
      "##rens": 4796,
      "babam": 4797,
      "##eyiz": 4798,
      "bekleniyor": 4799,
      "##amıyor": 4800,
      "##ülüyor": 4801,
      "geçiyor": 4802,
      "Hazır": 4803,
      "dijital": 4804,
      "kıya": 4805,
      "çalışmada": 4806,
      "avukat": 4807,
      "istik": 4808,
      "geldiğini": 4809,
      "##allah": 4810,
      "demiş": 4811,
      "yanına": 4812,
      "##ny": 4813,
      "Yönetim": 4814,
      "Taş": 4815,
      "fiziksel": 4816,
      "kamp": 4817,
      "arz": 4818,
      "sürü": 4819,
      "göl": 4820,
      "##kaya": 4821,
      "nesil": 4822,
      "##ığ": 4823,
      "bölümü": 4824,
      "##ternatif": 4825,
      "##dığın": 4826,
      "##tılar": 4827,
      "sil": 4828,
      "proje": 4829,
      "##sını": 4830,
      "cumhur": 4831,
      "öngör": 4832,
      "gerekç": 4833,
      "firma": 4834,
      "fel": 4835,
      "##roid": 4836,
      "gözaltına": 4837,
      "##ılmasına": 4838,
      "pişir": 4839,
      "yolcu": 4840,
      "nereden": 4841,
      "##emiyorum": 4842,
      "ameliyat": 4843,
      "##uyoruz": 4844,
      "##OS": 4845,
      "Yoksa": 4846,
      "şimd": 4847,
      "##ebiliyor": 4848,
      "istedik": 4849,
      "biliyoruz": 4850,
      "teor": 4851,
      "##sün": 4852,
      "##ınar": 4853,
      "paket": 4854,
      "##leyerek": 4855,
      "çekti": 4856,
      "Kol": 4857,
      "Mat": 4858,
      "biy": 4859,
      "iyisi": 4860,
      "Arap": 4861,
      "##pe": 4862,
      "##liğinin": 4863,
      "yönetimi": 4864,
      "##ruk": 4865,
      "Mak": 4866,
      "haz": 4867,
      "resim": 4868,
      "biçim": 4869,
      "kadınların": 4870,
      "Sok": 4871,
      "##şi": 4872,
      "Bize": 4873,
      "Dir": 4874,
      "edeceğiz": 4875,
      "##ilendir": 4876,
      "oldukları": 4877,
      "Ju": 4878,
      "esas": 4879,
      "##emen": 4880,
      "Devamını": 4881,
      "bür": 4882,
      "nefes": 4883,
      "görsel": 4884,
      "kafa": 4885,
      "bakın": 4886,
      "ederken": 4887,
      "sorunun": 4888,
      "##IK": 4889,
      "adamın": 4890,
      "Mem": 4891,
      "önümüzdeki": 4892,
      "bı": 4893,
      "şehit": 4894,
      "Kil": 4895,
      "olayı": 4896,
      "korku": 4897,
      "anı": 4898,
      "gözük": 4899,
      "##alıyor": 4900,
      "arkadaşım": 4901,
      "hakkı": 4902,
      "yiyecek": 4903,
      "iptal": 4904,
      "##ülük": 4905,
      "karşılaştır": 4906,
      "söyleyebilir": 4907,
      "dam": 4908,
      "yayınlanan": 4909,
      "kişilerin": 4910,
      "##anacak": 4911,
      "gezeg": 4912,
      "çıkmış": 4913,
      "Ukrayna": 4914,
      "Pazar": 4915,
      "teşekkürler": 4916,
      "##amet": 4917,
      "cümle": 4918,
      "konuşan": 4919,
      "Devamı": 4920,
      "##spor": 4921,
      "vit": 4922,
      "##mos": 4923,
      "niye": 4924,
      "##cıların": 4925,
      "Jack": 4926,
      "olacağı": 4927,
      "avan": 4928,
      "reh": 4929,
      "zev": 4930,
      "Lond": 4931,
      "##elin": 4932,
      "##tanın": 4933,
      "##ekim": 4934,
      "##lerdi": 4935,
      "isters": 4936,
      "gıda": 4937,
      "##anız": 4938,
      "Kurt": 4939,
      "##cil": 4940,
      "##iklet": 4941,
      "Abdul": 4942,
      "aşık": 4943,
      "Hepsi": 4944,
      "Ed": 4945,
      "koruma": 4946,
      "Sarı": 4947,
      "öden": 4948,
      "sessiz": 4949,
      "gurur": 4950,
      "Oysa": 4951,
      "##tıkları": 4952,
      "##muştu": 4953,
      "çocukları": 4954,
      "gösterdi": 4955,
      "zamanlar": 4956,
      "ho": 4957,
      "Birleş": 4958,
      "Gez": 4959,
      "Proj": 4960,
      "ihtiyacım": 4961,
      "Ceza": 4962,
      "Güvenlik": 4963,
      "hikaye": 4964,
      "olmayı": 4965,
      "uzat": 4966,
      "##arlar": 4967,
      "pozisyon": 4968,
      "##MM": 4969,
      "##rom": 4970,
      "birşey": 4971,
      "Dışişleri": 4972,
      "##ph": 4973,
      "başkanı": 4974,
      "aktif": 4975,
      "gür": 4976,
      "tecr": 4977,
      "##ames": 4978,
      "##IL": 4979,
      "Yalnız": 4980,
      "zorun": 4981,
      "Diyar": 4982,
      "##leğ": 4983,
      "##yonel": 4984,
      "uğra": 4985,
      "##insel": 4986,
      "kalın": 4987,
      "depo": 4988,
      "anket": 4989,
      "Babam": 4990,
      "Hüküm": 4991,
      "##isiz": 4992,
      "aşama": 4993,
      "içeren": 4994,
      "##UL": 4995,
      "kaydetti": 4996,
      "çalışması": 4997,
      "Kes": 4998,
      "yapıla": 4999,
      "Koç": 5000,
      "başlaya": 5001,
      "olduğumu": 5002,
      "piyasaya": 5003,
      "##eğim": 5004,
      "2013": 5005,
      "bulmak": 5006,
      "tanık": 5007,
      "Tes": 5008,
      "tesis": 5009,
      "Pan": 5010,
      "##orn": 5011,
      "Özür": 5012,
      "programı": 5013,
      "Kitap": 5014,
      "uzay": 5015,
      "post": 5016,
      "görülen": 5017,
      "##lanarak": 5018,
      "##priz": 5019,
      "Üstelik": 5020,
      "kaçın": 5021,
      "istediğini": 5022,
      "edi": 5023,
      "olduğum": 5024,
      "##book": 5025,
      "Çar": 5026,
      "çağr": 5027,
      "sıf": 5028,
      "##LER": 5029,
      "##liliğ": 5030,
      "kimi": 5031,
      "İtalya": 5032,
      "gidecek": 5033,
      "Yat": 5034,
      "##bakır": 5035,
      "fiyatı": 5036,
      "lı": 5037,
      "##ıldığını": 5038,
      "modeli": 5039,
      "##cının": 5040,
      "##brahim": 5041,
      "suy": 5042,
      "Men": 5043,
      "kapasit": 5044,
      "muhteşem": 5045,
      "##20": 5046,
      "birer": 5047,
      "##bilirim": 5048,
      "##lor": 5049,
      "güvenli": 5050,
      "##ekt": 5051,
      "##ideri": 5052,
      "##eceğimiz": 5053,
      "buldu": 5054,
      "##var": 5055,
      "Me": 5056,
      "Silah": 5057,
      "ölü": 5058,
      "saçma": 5059,
      "kanser": 5060,
      "coğraf": 5061,
      "uyum": 5062,
      "##balık": 5063,
      "Mev": 5064,
      "vücut": 5065,
      "şer": 5066,
      "##larımıza": 5067,
      "ücretsiz": 5068,
      "toplu": 5069,
      "Adana": 5070,
      "##int": 5071,
      "diren": 5072,
      "Is": 5073,
      "##ezer": 5074,
      "ani": 5075,
      "kalacak": 5076,
      "sarı": 5077,
      "anlaya": 5078,
      "##olog": 5079,
      "dür": 5080,
      "grubu": 5081,
      "nereye": 5082,
      "##ayacak": 5083,
      "görüşmeler": 5084,
      "gerektir": 5085,
      "##bek": 5086,
      "Diyarbakır": 5087,
      "Oda": 5088,
      "##lerinizi": 5089,
      "##leyip": 5090,
      "gelişim": 5091,
      "##lemesi": 5092,
      "adeta": 5093,
      "Emniyet": 5094,
      "##zi": 5095,
      "Ramazan": 5096,
      "bozuk": 5097,
      "verici": 5098,
      "süreçte": 5099,
      "aktiv": 5100,
      "evren": 5101,
      "veri": 5102,
      "tanın": 5103,
      "çekiyor": 5104,
      "Şirket": 5105,
      "Beb": 5106,
      "kuzey": 5107,
      "Kimse": 5108,
      "Bahç": 5109,
      "geçerli": 5110,
      "Sek": 5111,
      "mahalle": 5112,
      "2011": 5113,
      "günler": 5114,
      "başlayacak": 5115,
      "Kardeş": 5116,
      "mimar": 5117,
      "##liyet": 5118,
      "çatışma": 5119,
      "çocuğun": 5120,
      "dolayısıyla": 5121,
      "##racat": 5122,
      "anlattı": 5123,
      "Sü": 5124,
      "##ümüzde": 5125,
      "##rop": 5126,
      "##gaz": 5127,
      "rö": 5128,
      "rekabet": 5129,
      "memur": 5130,
      "##tion": 5131,
      "Fark": 5132,
      "Umarım": 5133,
      "05": 5134,
      "Mu": 5135,
      "Mark": 5136,
      "##bu": 5137,
      "Hasan": 5138,
      "kendilerini": 5139,
      "##tığım": 5140,
      "sıkı": 5141,
      "Mısır": 5142,
      "Dünyanın": 5143,
      "Okul": 5144,
      "Bazen": 5145,
      "Sultan": 5146,
      "olduklarını": 5147,
      "##irv": 5148,
      "kazandı": 5149,
      "Hanım": 5150,
      "saf": 5151,
      "paylaşım": 5152,
      "öğretim": 5153,
      "getirmek": 5154,
      "söyledim": 5155,
      "yazılı": 5156,
      "For": 5157,
      "yolculu": 5158,
      "##türk": 5159,
      "harit": 5160,
      "##mediğini": 5161,
      "karma": 5162,
      "dönemi": 5163,
      "##meliyiz": 5164,
      "##dil": 5165,
      "İsv": 5166,
      "sağlayacak": 5167,
      "##ancı": 5168,
      "elinde": 5169,
      "##itir": 5170,
      "##demir": 5171,
      "##dukları": 5172,
      "##ai": 5173,
      "nitelik": 5174,
      "olurdu": 5175,
      "maliyet": 5176,
      "önceden": 5177,
      "kariyer": 5178,
      "karşıya": 5179,
      "Başkanlığı": 5180,
      "mac": 5181,
      "##ica": 5182,
      "##jen": 5183,
      "karanlık": 5184,
      "değin": 5185,
      "toz": 5186,
      "##all": 5187,
      "Sizi": 5188,
      "tor": 5189,
      "may": 5190,
      "üstünde": 5191,
      "alternatif": 5192,
      "33": 5193,
      "avantaj": 5194,
      "Alt": 5195,
      "tavsiye": 5196,
      "Yarın": 5197,
      "belirtildi": 5198,
      "Boğ": 5199,
      "##luluğ": 5200,
      "işlev": 5201,
      "istif": 5202,
      "##sinde": 5203,
      "insanlara": 5204,
      "##ump": 5205,
      "Boz": 5206,
      "fazlası": 5207,
      "Dar": 5208,
      "garip": 5209,
      "hatırlat": 5210,
      "soruşturma": 5211,
      "Birkaç": 5212,
      "##sına": 5213,
      "sürüyor": 5214,
      "##uşturucu": 5215,
      "##lığında": 5216,
      "birbirine": 5217,
      "Ses": 5218,
      "çizgi": 5219,
      "eşya": 5220,
      "Düz": 5221,
      "ihtiyacımız": 5222,
      "Yapılan": 5223,
      "veriler": 5224,
      "Bununla": 5225,
      "##nan": 5226,
      "çök": 5227,
      "km": 5228,
      "hassas": 5229,
      "yaşay": 5230,
      "Android": 5231,
      "İbrahim": 5232,
      "##lup": 5233,
      "Mad": 5234,
      "##lıkta": 5235,
      "##lerken": 5236,
      "verdim": 5237,
      "okuma": 5238,
      "##lav": 5239,
      "anlatı": 5240,
      "Bizi": 5241,
      "##kal": 5242,
      "standart": 5243,
      "Yet": 5244,
      "##bon": 5245,
      "gündüz": 5246,
      "Derneği": 5247,
      "##osya": 5248,
      "Yür": 5249,
      "Far": 5250,
      "Gid": 5251,
      "##ua": 5252,
      "diyorum": 5253,
      "iyice": 5254,
      "DE": 5255,
      "##ıyordum": 5256,
      "kavuş": 5257,
      "Po": 5258,
      "##ows": 5259,
      "milletvekil": 5260,
      "bağlam": 5261,
      "##ach": 5262,
      "Tim": 5263,
      "üzgünüm": 5264,
      "Mey": 5265,
      "##isyen": 5266,
      "tepk": 5267,
      "##ame": 5268,
      "yönlendir": 5269,
      "rüya": 5270,
      "teki": 5271,
      "dakikada": 5272,
      "trafik": 5273,
      "kimin": 5274,
      "yenil": 5275,
      "RAM": 5276,
      "##etrol": 5277,
      "##imizden": 5278,
      "##vik": 5279,
      "yakından": 5280,
      "kaynağı": 5281,
      "##aza": 5282,
      "kısı": 5283,
      "Koca": 5284,
      "muhab": 5285,
      "ekipleri": 5286,
      "Mahallesi": 5287,
      "yaka": 5288,
      "##ang": 5289,
      "kimlik": 5290,
      "başken": 5291,
      "##mıyoruz": 5292,
      "Görüş": 5293,
      "evlilik": 5294,
      "##embe": 5295,
      "##lamayı": 5296,
      "##odrum": 5297,
      "birine": 5298,
      "##afer": 5299,
      "Londra": 5300,
      "Mc": 5301,
      "##parator": 5302,
      "laf": 5303,
      "bitti": 5304,
      "tehlikeli": 5305,
      "adayı": 5306,
      "TBMM": 5307,
      "karşımıza": 5308,
      "Şahin": 5309,
      "##meliyim": 5310,
      "Fır": 5311,
      "ep": 5312,
      "sağla": 5313,
      "Şampiyon": 5314,
      "##isiniz": 5315,
      "##ırlar": 5316,
      "geldim": 5317,
      "##tepe": 5318,
      "Hasta": 5319,
      "konuşmak": 5320,
      "kalb": 5321,
      "bilet": 5322,
      "demektir": 5323,
      "belirli": 5324,
      "telefonu": 5325,
      "kök": 5326,
      "kıyafet": 5327,
      "Anlaş": 5328,
      "uygulan": 5329,
      "Ale": 5330,
      "##dağı": 5331,
      "savunma": 5332,
      "2012": 5333,
      "tedbir": 5334,
      "nüfus": 5335,
      "sorunları": 5336,
      "yerli": 5337,
      "kateg": 5338,
      "##luluğu": 5339,
      "müthiş": 5340,
      "##doğu": 5341,
      "bilimsel": 5342,
      "verilm": 5343,
      "Qu": 5344,
      "arac": 5345,
      "##tifak": 5346,
      "çekir": 5347,
      "piyasa": 5348,
      "##unma": 5349,
      "ülkeler": 5350,
      "Mel": 5351,
      "doğrult": 5352,
      "bilinç": 5353,
      "fab": 5354,
      "##lenecek": 5355,
      "##ansı": 5356,
      "geleneksel": 5357,
      "İnsanlar": 5358,
      "mobil": 5359,
      "Saat": 5360,
      "Bunların": 5361,
      "Dikkat": 5362,
      "süresi": 5363,
      "yürüyüş": 5364,
      "pah": 5365,
      "etmem": 5366,
      "AN": 5367,
      "##likte": 5368,
      "##eral": 5369,
      "göm": 5370,
      "kulüp": 5371,
      "canlandır": 5372,
      "derec": 5373,
      "##üzgar": 5374,
      "Köy": 5375,
      "##amış": 5376,
      "bulama": 5377,
      "düşündüm": 5378,
      "##ahmet": 5379,
      "akadem": 5380,
      "sağlam": 5381,
      "utan": 5382,
      "yapılıyor": 5383,
      "yapmayı": 5384,
      "##ike": 5385,
      "yitir": 5386,
      "##lerindeki": 5387,
      "##tüm": 5388,
      "konuşuyor": 5389,
      "Yunanistan": 5390,
      "Yah": 5391,
      "sözleş": 5392,
      "Fakül": 5393,
      "##anda": 5394,
      "çıkıp": 5395,
      "##halde": 5396,
      "Afrika": 5397,
      "dey": 5398,
      "güçlendir": 5399,
      "##brıs": 5400,
      "manz": 5401,
      "Doğan": 5402,
      "meydan": 5403,
      "##illa": 5404,
      "##akar": 5405,
      "annesi": 5406,
      "kendilerine": 5407,
      "##ürr": 5408,
      "##madığını": 5409,
      "attı": 5410,
      "başı": 5411,
      "34": 5412,
      "Demokr": 5413,
      "##liliği": 5414,
      "Kısa": 5415,
      "turist": 5416,
      "görmüş": 5417,
      "##inal": 5418,
      "Zira": 5419,
      "değilsin": 5420,
      "darbe": 5421,
      "varmış": 5422,
      "##elle": 5423,
      "büyü": 5424,
      "gayet": 5425,
      "##my": 5426,
      "##ürken": 5427,
      "tuhaf": 5428,
      "##afir": 5429,
      "Balık": 5430,
      "etki": 5431,
      "parmak": 5432,
      "sorumluluk": 5433,
      "##halefet": 5434,
      "Kıbrıs": 5435,
      "yaptıkları": 5436,
      "çalışmanın": 5437,
      "beyin": 5438,
      "##eliği": 5439,
      "komş": 5440,
      "##amızda": 5441,
      "haberi": 5442,
      "dis": 5443,
      "kısıt": 5444,
      "dük": 5445,
      "Roma": 5446,
      "yeten": 5447,
      "beklenen": 5448,
      "gidelim": 5449,
      "numara": 5450,
      "Dil": 5451,
      "olanak": 5452,
      "duygusal": 5453,
      "ölçüde": 5454,
      "mor": 5455,
      "##stagram": 5456,
      "final": 5457,
      "kitle": 5458,
      "yeterince": 5459,
      "klasik": 5460,
      "çevre": 5461,
      "potan": 5462,
      "Ömer": 5463,
      "Euro": 5464,
      "sever": 5465,
      "##asın": 5466,
      "komp": 5467,
      "Con": 5468,
      "görür": 5469,
      "çerçevesinde": 5470,
      "çalışıyorum": 5471,
      "oğlum": 5472,
      "kimsenin": 5473,
      "##ash": 5474,
      "kullanan": 5475,
      "sürpriz": 5476,
      "Cadde": 5477,
      "kesim": 5478,
      "Bekle": 5479,
      "yumurta": 5480,
      "mektup": 5481,
      "mens": 5482,
      "Mahkemesi": 5483,
      "2000": 5484,
      "est": 5485,
      "Üzer": 5486,
      "ima": 5487,
      "terörist": 5488,
      "Sistem": 5489,
      "sayfa": 5490,
      "yarım": 5491,
      "##mail": 5492,
      "bl": 5493,
      "##usuz": 5494,
      "sevk": 5495,
      "kulüb": 5496,
      "bağış": 5497,
      "##ıf": 5498,
      "##endis": 5499,
      "Akdeniz": 5500,
      "haft": 5501,
      "dip": 5502,
      "etik": 5503,
      "yolculuk": 5504,
      "buldum": 5505,
      "Müslüman": 5506,
      "işç": 5507,
      "böylece": 5508,
      "##day": 5509,
      "Şen": 5510,
      "boyu": 5511,
      "Yeşil": 5512,
      "Bilim": 5513,
      "danış": 5514,
      "Hangi": 5515,
      "##PS": 5516,
      "baştan": 5517,
      "mantık": 5518,
      "##ney": 5519,
      "kanun": 5520,
      "acaba": 5521,
      "Cen": 5522,
      "##ektif": 5523,
      "alak": 5524,
      "dalga": 5525,
      "efsan": 5526,
      "madd": 5527,
      "Nereye": 5528,
      "algı": 5529,
      "hazırlanan": 5530,
      "kons": 5531,
      "yılından": 5532,
      "maaş": 5533,
      "buy": 5534,
      "peki": 5535,
      "ren": 5536,
      "##lerimi": 5537,
      "##ilerden": 5538,
      "Kut": 5539,
      "zevk": 5540,
      "##mesinde": 5541,
      "aralarında": 5542,
      "adalet": 5543,
      "Keş": 5544,
      "yaratıcı": 5545,
      "##aydı": 5546,
      "##iki": 5547,
      "emekli": 5548,
      "Anayasa": 5549,
      "tutum": 5550,
      "##tor": 5551,
      "Mesela": 5552,
      "arkasında": 5553,
      "Hüseyin": 5554,
      "##cebook": 5555,
      "Mary": 5556,
      "çıkarı": 5557,
      "pis": 5558,
      "ekibi": 5559,
      "otobüs": 5560,
      "Cumhuriyeti": 5561,
      "Sabah": 5562,
      "##iyorsunuz": 5563,
      "Beyaz": 5564,
      "kurulan": 5565,
      "Düşün": 5566,
      "Hakan": 5567,
      "olmuştu": 5568,
      "evine": 5569,
      "##kır": 5570,
      "##üye": 5571,
      "Savaşı": 5572,
      "şarj": 5573,
      "##gah": 5574,
      "400": 5575,
      "Niye": 5576,
      "satışa": 5577,
      "Zor": 5578,
      "üstün": 5579,
      "uyarı": 5580,
      "cenaz": 5581,
      "Para": 5582,
      "kira": 5583,
      "Geor": 5584,
      "yapılır": 5585,
      "kaza": 5586,
      "##uyucu": 5587,
      "##liam": 5588,
      "kırık": 5589,
      "tablo": 5590,
      "##ıldığında": 5591,
      "##ükle": 5592,
      "##andar": 5593,
      "##UN": 5594,
      "hayatın": 5595,
      "şif": 5596,
      "düştü": 5597,
      "taraftan": 5598,
      "görüyoruz": 5599,
      "##soy": 5600,
      "##uzu": 5601,
      "ndeki": 5602,
      "zeytin": 5603,
      "Çalışma": 5604,
      "üniversite": 5605,
      "He": 5606,
      "##bilmek": 5607,
      "sermay": 5608,
      "##maması": 5609,
      "lideri": 5610,
      "mül": 5611,
      "yedi": 5612,
      "Futbol": 5613,
      "isterim": 5614,
      "##yiz": 5615,
      "Avust": 5616,
      "muhtemelen": 5617,
      "olağan": 5618,
      "##gele": 5619,
      "##AH": 5620,
      "Onunla": 5621,
      "##ürriyet": 5622,
      "dönemin": 5623,
      "Feder": 5624,
      "yapımı": 5625,
      "##ılmasını": 5626,
      "##kur": 5627,
      "##eth": 5628,
      "birleş": 5629,
      "Lanet": 5630,
      "rakip": 5631,
      "Karşı": 5632,
      "##AB": 5633,
      "##ill": 5634,
      "Sch": 5635,
      "Grub": 5636,
      "Aşk": 5637,
      "iyileştir": 5638,
      "önemi": 5639,
      "bulgu": 5640,
      "öğrencilerin": 5641,
      "rej": 5642,
      "izlen": 5643,
      "kazanan": 5644,
      "lig": 5645,
      "##bilirsin": 5646,
      "müşteri": 5647,
      "##ks": 5648,
      "İngilizce": 5649,
      "açılış": 5650,
      "Seninle": 5651,
      "uyku": 5652,
      "##İZ": 5653,
      "##anta": 5654,
      "çalıştır": 5655,
      "edilir": 5656,
      "Kesinlikle": 5657,
      "Net": 5658,
      "eğlenceli": 5659,
      "şair": 5660,
      "194": 5661,
      "yapacağız": 5662,
      "ikna": 5663,
      "Abdullah": 5664,
      "Barış": 5665,
      "##larken": 5666,
      "birleştir": 5667,
      "kov": 5668,
      "yapay": 5669,
      "48": 5670,
      "##üny": 5671,
      "potansiy": 5672,
      "evlat": 5673,
      "medyada": 5674,
      "kişiye": 5675,
      "miyiz": 5676,
      "##suzluk": 5677,
      "yazdığı": 5678,
      "##FA": 5679,
      "yetenek": 5680,
      "##amik": 5681,
      "##dığından": 5682,
      "##ral": 5683,
      "sevg": 5684,
      "önemlidir": 5685,
      "kale": 5686,
      "ucuz": 5687,
      "sahib": 5688,
      "Cev": 5689,
      "Kav": 5690,
      "bakar": 5691,
      "yararlan": 5692,
      "anlaşma": 5693,
      "değeri": 5694,
      "yatır": 5695,
      "doğrultusunda": 5696,
      "Oyuncu": 5697,
      "gittik": 5698,
      "##10": 5699,
      "##kel": 5700,
      "War": 5701,
      "yazarı": 5702,
      "bakımından": 5703,
      "Ekonom": 5704,
      "##his": 5705,
      "kana": 5706,
      "##hael": 5707,
      "##encer": 5708,
      "Art": 5709,
      "derg": 5710,
      "Cuma": 5711,
      "sam": 5712,
      "##irim": 5713,
      "##sör": 5714,
      "##iştir": 5715,
      "eğitimi": 5716,
      "Yaklaş": 5717,
      "düşünür": 5718,
      "dönüşüm": 5719,
      "cesaret": 5720,
      "buluyor": 5721,
      "sürece": 5722,
      "çor": 5723,
      "köt": 5724,
      "Pas": 5725,
      "profesyonel": 5726,
      "Tic": 5727,
      "##arap": 5728,
      "kaybetti": 5729,
      "Adı": 5730,
      "##ınıyor": 5731,
      "burası": 5732,
      "Gaz": 5733,
      "##fı": 5734,
      "civarında": 5735,
      "Port": 5736,
      "kaps": 5737,
      "Ligi": 5738,
      "yönünde": 5739,
      "kilometre": 5740,
      "yıllardır": 5741,
      "##ograf": 5742,
      "yazılım": 5743,
      "yatak": 5744,
      "besin": 5745,
      "kilit": 5746,
      "izleyi": 5747,
      "##mamı": 5748,
      "dikkate": 5749,
      "##rama": 5750,
      "dikkatli": 5751,
      "##araj": 5752,
      "düşen": 5753,
      "##eceğine": 5754,
      "istemiyor": 5755,
      "##lıktan": 5756,
      "söylemiş": 5757,
      "inanılmaz": 5758,
      "denk": 5759,
      "barındır": 5760,
      "öp": 5761,
      "##pa": 5762,
      "bulur": 5763,
      "zorluk": 5764,
      "maruz": 5765,
      "Amerikalı": 5766,
      "yla": 5767,
      "Soy": 5768,
      "cezası": 5769,
      "altını": 5770,
      "üs": 5771,
      "##tiğim": 5772,
      "konuk": 5773,
      "aracılığıyla": 5774,
      "##RT": 5775,
      "Ateş": 5776,
      "##ulur": 5777,
      "##portaj": 5778,
      "Geçtiğimiz": 5779,
      "öf": 5780,
      "sürecinde": 5781,
      "önde": 5782,
      "tad": 5783,
      "üretic": 5784,
      "kayded": 5785,
      "##şallah": 5786,
      "Önemli": 5787,
      "gerektiği": 5788,
      "maçı": 5789,
      "##ıyorsunuz": 5790,
      "##iktir": 5791,
      "yapılmıştır": 5792,
      "süper": 5793,
      "##leriniz": 5794,
      "Birçok": 5795,
      "##leyman": 5796,
      "##landığını": 5797,
      "duyurdu": 5798,
      "##elaket": 5799,
      "##ceğiz": 5800,
      "eminim": 5801,
      "mon": 5802,
      "Trump": 5803,
      "başlamış": 5804,
      "lok": 5805,
      "David": 5806,
      "##ülmüş": 5807,
      "##kırı": 5808,
      "ihracat": 5809,
      "##tren": 5810,
      "Ph": 5811,
      "##und": 5812,
      "gr": 5813,
      "keşfet": 5814,
      "##ube": 5815,
      "tarım": 5816,
      "##steri": 5817,
      "ortada": 5818,
      "##cele": 5819,
      "alama": 5820,
      "harekete": 5821,
      "kategor": 5822,
      "##leye": 5823,
      "hediye": 5824,
      "##rist": 5825,
      "Of": 5826,
      "Özgür": 5827,
      "##lete": 5828,
      "##gre": 5829,
      "##umartesi": 5830,
      "Ulusal": 5831,
      "sahiptir": 5832,
      "kullandığı": 5833,
      "psikolojik": 5834,
      "Bilg": 5835,
      "açılan": 5836,
      "örgütü": 5837,
      "Star": 5838,
      "##likleri": 5839,
      "evr": 5840,
      "geldik": 5841,
      "Bodrum": 5842,
      "##lendiği": 5843,
      "##vi": 5844,
      "Tut": 5845,
      "kullanımı": 5846,
      "Çelik": 5847,
      "baz": 5848,
      "düzenli": 5849,
      "##alandır": 5850,
      "çekici": 5851,
      "##mamak": 5852,
      "gördün": 5853,
      "kral": 5854,
      "başlangıç": 5855,
      "düzelt": 5856,
      "verin": 5857,
      "sonuçlar": 5858,
      "komik": 5859,
      "38": 5860,
      "2009": 5861,
      "yolda": 5862,
      "ob": 5863,
      "Tor": 5864,
      "##yn": 5865,
      "##leket": 5866,
      "duruma": 5867,
      "Ödülü": 5868,
      "tok": 5869,
      "eşlik": 5870,
      "##oft": 5871,
      "yağmur": 5872,
      "##uman": 5873,
      "Wind": 5874,
      "özen": 5875,
      "Kore": 5876,
      "korumak": 5877,
      "öncesinde": 5878,
      "Sine": 5879,
      "Tabi": 5880,
      "##kale": 5881,
      "Neler": 5882,
      "Müzesi": 5883,
      "Boş": 5884,
      "çabuk": 5885,
      "ödeme": 5886,
      "teşvik": 5887,
      "olmuyor": 5888,
      "Program": 5889,
      "yasal": 5890,
      "sigara": 5891,
      "Yen": 5892,
      "yoluyla": 5893,
      "##aydın": 5894,
      "devletin": 5895,
      "zamandır": 5896,
      "bomba": 5897,
      "metin": 5898,
      "Facebook": 5899,
      "FET": 5900,
      "döndü": 5901,
      "noktası": 5902,
      "alına": 5903,
      "ro": 5904,
      "ekib": 5905,
      "mir": 5906,
      "##kabı": 5907,
      "Süleyman": 5908,
      "Gerek": 5909,
      "kahve": 5910,
      "dosya": 5911,
      "Rüya": 5912,
      "Filistin": 5913,
      "oradan": 5914,
      "##talyan": 5915,
      "konus": 5916,
      "yaptın": 5917,
      "noktaya": 5918,
      "acil": 5919,
      "yangın": 5920,
      "##dığımı": 5921,
      "##line": 5922,
      "aşa": 5923,
      "##liy": 5924,
      "teb": 5925,
      "güney": 5926,
      "Ardından": 5927,
      "Plan": 5928,
      "Turizm": 5929,
      "değişken": 5930,
      "Ste": 5931,
      "bulundur": 5932,
      "anlamı": 5933,
      "Öğren": 5934,
      "dedik": 5935,
      "##ilerle": 5936,
      "##onun": 5937,
      "Konya": 5938,
      "Da": 5939,
      "bulunmaktadır": 5940,
      "##eceksin": 5941,
      "kurban": 5942,
      "Adalet": 5943,
      "Roman": 5944,
      "çıl": 5945,
      "bağımlı": 5946,
      "kavga": 5947,
      "getiriyor": 5948,
      "sınırlı": 5949,
      "IŞ": 5950,
      "bulut": 5951,
      "Saç": 5952,
      "adlandır": 5953,
      "Erz": 5954,
      "Yağ": 5955,
      "##miyoruz": 5956,
      "##lası": 5957,
      "düzeyde": 5958,
      "Fi": 5959,
      "mezar": 5960,
      "Siyas": 5961,
      "seçen": 5962,
      "##şe": 5963,
      "sebebiyle": 5964,
      "##tel": 5965,
      "##ezil": 5966,
      "ib": 5967,
      "Alex": 5968,
      "yenilik": 5969,
      "Henüz": 5970,
      "##MD": 5971,
      "##malısın": 5972,
      "##ilip": 5973,
      "##melisin": 5974,
      "sıv": 5975,
      "ulusal": 5976,
      "alışkan": 5977,
      "Ür": 5978,
      "olunca": 5979,
      "sanık": 5980,
      "köp": 5981,
      "FETÖ": 5982,
      "Hastanesi": 5983,
      "vitam": 5984,
      "düşünce": 5985,
      "sergil": 5986,
      "2008": 5987,
      "İy": 5988,
      "Red": 5989,
      "katı": 5990,
      "özgü": 5991,
      "##nik": 5992,
      "Yo": 5993,
      "yarışma": 5994,
      "##emiyor": 5995,
      "çiçek": 5996,
      "##öğr": 5997,
      "Fakültesi": 5998,
      "yaşat": 5999,
      "kalem": 6000,
      "herkese": 6001,
      "75": 6002,
      "Aile": 6003,
      "biridir": 6004,
      "Instagram": 6005,
      "Ünlü": 6006,
      "Sc": 6007,
      "Müzik": 6008,
      "darb": 6009,
      "moda": 6010,
      "yiy": 6011,
      "Annem": 6012,
      "hanım": 6013,
      "Sim": 6014,
      "uyuşturucu": 6015,
      "65": 6016,
      "bölgesinde": 6017,
      "dini": 6018,
      "artan": 6019,
      "geldiğinde": 6020,
      "##ema": 6021,
      "##yer": 6022,
      "aldık": 6023,
      "Emre": 6024,
      "tit": 6025,
      "taşıyor": 6026,
      "Karak": 6027,
      "Michael": 6028,
      "Max": 6029,
      "elb": 6030,
      "düşündüğ": 6031,
      "195": 6032,
      "evinde": 6033,
      "Kendim": 6034,
      "##manızı": 6035,
      "Kiş": 6036,
      "##işan": 6037,
      "demir": 6038,
      "yör": 6039,
      "##ilerde": 6040,
      "Koc": 6041,
      "193": 6042,
      "##DI": 6043,
      "yöntemi": 6044,
      "etmektedir": 6045,
      "felsef": 6046,
      "##bileceği": 6047,
      "köpr": 6048,
      "Benimle": 6049,
      "kıyas": 6050,
      "gördü": 6051,
      "göğ": 6052,
      "katil": 6053,
      "IŞİD": 6054,
      "##ümüş": 6055,
      "inceleme": 6056,
      "küç": 6057,
      "##oto": 6058,
      "şeyden": 6059,
      "##arya": 6060,
      "personel": 6061,
      "itibariyle": 6062,
      "olmasa": 6063,
      "dağıt": 6064,
      "İçeri": 6065,
      "##by": 6066,
      "incelenmiştir": 6067,
      "gelince": 6068,
      "Sig": 6069,
      "şirketi": 6070,
      "yapıyoruz": 6071,
      "uygulaması": 6072,
      "organizasyon": 6073,
      "lanet": 6074,
      "Yeter": 6075,
      "İt": 6076,
      "Hakk": 6077,
      "##itif": 6078,
      "##isa": 6079,
      "##ulmaz": 6080,
      "dolarlık": 6081,
      "özgürlük": 6082,
      "##abilmek": 6083,
      "uzaklaş": 6084,
      "konuyu": 6085,
      "kurulu": 6086,
      "hali": 6087,
      "işleri": 6088,
      "olmaktan": 6089,
      "ailesi": 6090,
      "imkanı": 6091,
      "##abiliriz": 6092,
      "sip": 6093,
      "37": 6094,
      "##ülmesi": 6095,
      "mahkum": 6096,
      "korkunç": 6097,
      "sonsuz": 6098,
      "##ydım": 6099,
      "edildiği": 6100,
      "ış": 6101,
      "İtalyan": 6102,
      "yönde": 6103,
      "birbirinden": 6104,
      "##elendir": 6105,
      "Teknik": 6106,
      "istemez": 6107,
      "yaşamak": 6108,
      "inti": 6109,
      "Pi": 6110,
      "##ese": 6111,
      "55": 6112,
      "işletmeler": 6113,
      "misafir": 6114,
      "etmez": 6115,
      "##ağını": 6116,
      "##arda": 6117,
      "liste": 6118,
      "Çocuklar": 6119,
      "##indistan": 6120,
      "bayan": 6121,
      "geride": 6122,
      "Efendim": 6123,
      "##barı": 6124,
      "kişiyi": 6125,
      "alkol": 6126,
      "##zersiz": 6127,
      "yumuş": 6128,
      "kullanmak": 6129,
      "sorunlar": 6130,
      "Col": 6131,
      "##ördün": 6132,
      "güvenilir": 6133,
      "##fendi": 6134,
      "petrol": 6135,
      "##tığında": 6136,
      "olsaydı": 6137,
      "##isyonu": 6138,
      "##tuğu": 6139,
      "sürdürülebilir": 6140,
      "inşaat": 6141,
      "destekçiler": 6142,
      "hip": 6143,
      "ısı": 6144,
      "yapısı": 6145,
      "Bro": 6146,
      "##ünür": 6147,
      "atmos": 6148,
      "Siv": 6149,
      "##ding": 6150,
      "sigorta": 6151,
      "##ümde": 6152,
      "##irler": 6153,
      "Ey": 6154,
      "##ulmuştur": 6155,
      "taban": 6156,
      "##ilerinden": 6157,
      "##tiğinde": 6158,
      "mutluluk": 6159,
      "##ilmez": 6160,
      "##mede": 6161,
      "oto": 6162,
      "sevgi": 6163,
      "yemeği": 6164,
      "##OL": 6165,
      "doy": 6166,
      "##esto": 6167,
      "maalesef": 6168,
      "bask": 6169,
      "felaket": 6170,
      "olduğunda": 6171,
      "##itler": 6172,
      "Ana": 6173,
      "incelem": 6174,
      "çalışır": 6175,
      "çekim": 6176,
      "saatlerinde": 6177,
      "bilgileri": 6178,
      "##tis": 6179,
      "senden": 6180,
      "Grup": 6181,
      "anti": 6182,
      "##biy": 6183,
      "evi": 6184,
      "anah": 6185,
      "##tüğü": 6186,
      "etmeyi": 6187,
      "günün": 6188,
      "bardağı": 6189,
      "##latı": 6190,
      "halkın": 6191,
      "bazıları": 6192,
      "uyu": 6193,
      "Unut": 6194,
      "mezun": 6195,
      "bis": 6196,
      "kör": 6197,
      "kardeşim": 6198,
      "You": 6199,
      "aksine": 6200,
      "##asız": 6201,
      "atıyor": 6202,
      "ürünleri": 6203,
      "Kahraman": 6204,
      "onur": 6205,
      "denetim": 6206,
      "anlar": 6207,
      "Windows": 6208,
      "röportaj": 6209,
      "Esk": 6210,
      "hazırlık": 6211,
      "hikayesi": 6212,
      "cinsiyet": 6213,
      "zeka": 6214,
      "##fik": 6215,
      "Cor": 6216,
      "yerlerde": 6217,
      "##emizi": 6218,
      "Tekrar": 6219,
      "Ege": 6220,
      "kararlı": 6221,
      "büny": 6222,
      "Hürriyet": 6223,
      "Play": 6224,
      "II": 6225,
      "Sokak": 6226,
      "yapıp": 6227,
      "##cılığı": 6228,
      "esk": 6229,
      "evrim": 6230,
      "rekor": 6231,
      "Vatan": 6232,
      "Günü": 6233,
      "ağrı": 6234,
      "Bölg": 6235,
      "##vel": 6236,
      "halen": 6237,
      "Ala": 6238,
      "mağdur": 6239,
      "parlak": 6240,
      "çıktığı": 6241,
      "genelinde": 6242,
      "Dost": 6243,
      "Sanki": 6244,
      "derken": 6245,
      "patron": 6246,
      "sağlar": 6247,
      "Kup": 6248,
      "##çın": 6249,
      "duydum": 6250,
      "ves": 6251,
      "Cih": 6252,
      "açtı": 6253,
      "##NA": 6254,
      "pahalı": 6255,
      "seviye": 6256,
      "altyap": 6257,
      "şehrin": 6258,
      "Asya": 6259,
      "##utin": 6260,
      "inanç": 6261,
      "##ung": 6262,
      "Tok": 6263,
      "##azartesi": 6264,
      "##dev": 6265,
      "150": 6266,
      "toplumun": 6267,
      "isimler": 6268,
      "tecrüb": 6269,
      "üye": 6270,
      "aklı": 6271,
      "muhalefet": 6272,
      "kuy": 6273,
      "##tük": 6274,
      "Kuş": 6275,
      "tatlım": 6276,
      "sekiz": 6277,
      "##abi": 6278,
      "takv": 6279,
      "öncelikle": 6280,
      "bulaş": 6281,
      "sıradan": 6282,
      "sesi": 6283,
      "kaybeden": 6284,
      "olabileceğini": 6285,
      "hastalığı": 6286,
      "Uğ": 6287,
      "kalabalık": 6288,
      "Ven": 6289,
      "gideceğ": 6290,
      "##ette": 6291,
      "Cid": 6292,
      "ekr": 6293,
      "olacağım": 6294,
      "##ihayet": 6295,
      "zinc": 6296,
      "İsmail": 6297,
      "Ki": 6298,
      "imkansız": 6299,
      "##antep": 6300,
      "kod": 6301,
      "Biri": 6302,
      "##osun": 6303,
      "herif": 6304,
      "Bla": 6305,
      "##lamıyorum": 6306,
      "görme": 6307,
      "edilecek": 6308,
      "##cileri": 6309,
      "Gece": 6310,
      "##üyü": 6311,
      "Gaziantep": 6312,
      "yağış": 6313,
      "##ington": 6314,
      "performansı": 6315,
      "##dışı": 6316,
      "##unuzu": 6317,
      "yükselt": 6318,
      "mit": 6319,
      "günden": 6320,
      "bıçak": 6321,
      "istek": 6322,
      "##ült": 6323,
      "##zat": 6324,
      "alması": 6325,
      "##unacak": 6326,
      "olaylar": 6327,
      "hepimiz": 6328,
      "mesela": 6329,
      "düşüş": 6330,
      "çıkma": 6331,
      "yetersiz": 6332,
      "Kuvvet": 6333,
      "mini": 6334,
      "bulan": 6335,
      "ekonomi": 6336,
      "Ta": 6337,
      "gerçekleştirilen": 6338,
      "##ÜN": 6339,
      "Karadeniz": 6340,
      "gerçeği": 6341,
      "##ight": 6342,
      "alınması": 6343,
      "##diy": 6344,
      "senaryo": 6345,
      "##mali": 6346,
      "bilmek": 6347,
      "ülkemizde": 6348,
      "halle": 6349,
      "testi": 6350,
      "Uç": 6351,
      "AL": 6352,
      "##ens": 6353,
      "çalışmak": 6354,
      "içinden": 6355,
      "benzeri": 6356,
      "##yesi": 6357,
      "##bileceğini": 6358,
      "Geçmiş": 6359,
      "kağıt": 6360,
      "mat": 6361,
      "42": 6362,
      "taraftar": 6363,
      "temas": 6364,
      "üyeleri": 6365,
      "Kir": 6366,
      "takımı": 6367,
      "Tas": 6368,
      "mısınız": 6369,
      "lük": 6370,
      "##miyorsun": 6371,
      "kalmak": 6372,
      "ödey": 6373,
      "Hollanda": 6374,
      "sırt": 6375,
      "karşısına": 6376,
      "oğl": 6377,
      "sayede": 6378,
      "ilçe": 6379,
      "gelişmiş": 6380,
      "Yemek": 6381,
      "yapıyorum": 6382,
      "gelmesi": 6383,
      "birim": 6384,
      "istat": 6385,
      "kaş": 6386,
      "2007": 6387,
      "renkli": 6388,
      "##ps": 6389,
      "##ımdan": 6390,
      "erk": 6391,
      "projesi": 6392,
      "itiraz": 6393,
      "##andarma": 6394,
      "bende": 6395,
      "vizyon": 6396,
      "Muham": 6397,
      "yolunu": 6398,
      "finansal": 6399,
      "günümüzde": 6400,
      "Frank": 6401,
      "virüs": 6402,
      "Kaya": 6403,
      "Nor": 6404,
      "##ates": 6405,
      "##ary": 6406,
      "yılları": 6407,
      "dua": 6408,
      "sanmıyorum": 6409,
      "Str": 6410,
      "açıklan": 6411,
      "Sakin": 6412,
      "Kurul": 6413,
      "halka": 6414,
      "##elçuk": 6415,
      "##ğına": 6416,
      "##sana": 6417,
      "görmeye": 6418,
      "##lerdeki": 6419,
      "tarafında": 6420,
      "va": 6421,
      "suçlu": 6422,
      "39": 6423,
      "boşan": 6424,
      "Grubu": 6425,
      "yapması": 6426,
      "ekmek": 6427,
      "CE": 6428,
      "refer": 6429,
      "detaylı": 6430,
      "##mr": 6431,
      "yargılan": 6432,
      "br": 6433,
      "inci": 6434,
      "başlama": 6435,
      "Boy": 6436,
      "seviyor": 6437,
      "peyn": 6438,
      "olmasın": 6439,
      "cilt": 6440,
      "##masız": 6441,
      "Orhan": 6442,
      "istis": 6443,
      "sosy": 6444,
      "Yurt": 6445,
      "##lerimizin": 6446,
      "izley": 6447,
      "##alimanı": 6448,
      "sözleri": 6449,
      "##lemiş": 6450,
      "büyüme": 6451,
      "##ebilmek": 6452,
      "İnternet": 6453,
      "##ılmaya": 6454,
      "kartı": 6455,
      "Bayramı": 6456,
      "bomb": 6457,
      "Selçuk": 6458,
      "tutar": 6459,
      "tanesi": 6460,
      "Kent": 6461,
      "##th": 6462,
      "süs": 6463,
      "selam": 6464,
      "##ami": 6465,
      "##ülent": 6466,
      "##lılar": 6467,
      "Kullan": 6468,
      "Wal": 6469,
      "##gul": 6470,
      "##mesinden": 6471,
      "##çilik": 6472,
      "BM": 6473,
      "192": 6474,
      "zirv": 6475,
      "farklılık": 6476,
      "dünyayı": 6477,
      "##yasal": 6478,
      "ideal": 6479,
      "Ordu": 6480,
      "olmanın": 6481,
      "tüketim": 6482,
      "##ülüğ": 6483,
      "##tek": 6484,
      "etmiyor": 6485,
      "##tınız": 6486,
      "saati": 6487,
      "Saray": 6488,
      "usta": 6489,
      "redde": 6490,
      "Ticaret": 6491,
      "Caddesi": 6492,
      "Terör": 6493,
      "zehir": 6494,
      "##ıklı": 6495,
      "fikr": 6496,
      "Hır": 6497,
      "ortasında": 6498,
      "filmde": 6499,
      "##otik": 6500,
      "Dair": 6501,
      "Bülent": 6502,
      "##elli": 6503,
      "##ektörü": 6504,
      "ikisi": 6505,
      "ödem": 6506,
      "yıla": 6507,
      "özet": 6508,
      "Ba": 6509,
      "dep": 6510,
      "parayı": 6511,
      "belediy": 6512,
      "##old": 6513,
      "##ıb": 6514,
      "Kons": 6515,
      "İspanya": 6516,
      "hit": 6517,
      "kıv": 6518,
      "demokratik": 6519,
      "64": 6520,
      "##EC": 6521,
      "hast": 6522,
      "başrol": 6523,
      "çey": 6524,
      "Paul": 6525,
      "sakın": 6526,
      "sözü": 6527,
      "44": 6528,
      "oynay": 6529,
      "##io": 6530,
      "Seçim": 6531,
      "genelde": 6532,
      "Suç": 6533,
      "##yalet": 6534,
      "düşünüyorsun": 6535,
      "##ördüncü": 6536,
      "bilen": 6537,
      "##melerini": 6538,
      "çen": 6539,
      "silahlı": 6540,
      "##sh": 6541,
      "##ste": 6542,
      "##uf": 6543,
      "Sı": 6544,
      "kamuoy": 6545,
      "Uğur": 6546,
      "adr": 6547,
      "bütç": 6548,
      "##EY": 6549,
      "sembol": 6550,
      "hissediyorum": 6551,
      "Gec": 6552,
      "##tedir": 6553,
      "##çu": 6554,
      "Bakın": 6555,
      "görülüyor": 6556,
      "kadını": 6557,
      "##OK": 6558,
      "##eleriyle": 6559,
      "kelime": 6560,
      "maden": 6561,
      "Hindistan": 6562,
      "##emeyen": 6563,
      "##allı": 6564,
      "dükkan": 6565,
      "edece": 6566,
      "aralık": 6567,
      "Kart": 6568,
      "sahipliği": 6569,
      "oranında": 6570,
      "##diğinden": 6571,
      "eb": 6572,
      "##danı": 6573,
      "##stit": 6574,
      "sürük": 6575,
      "##gül": 6576,
      "diplo": 6577,
      "tarihleri": 6578,
      "türü": 6579,
      "sıfır": 6580,
      "verg": 6581,
      "seven": 6582,
      "pozitif": 6583,
      "sağlan": 6584,
      "ısrar": 6585,
      "Buradan": 6586,
      "sunan": 6587,
      "##urun": 6588,
      "yansıt": 6589,
      "##okul": 6590,
      "öğle": 6591,
      "restoran": 6592,
      "herhalde": 6593,
      "Başar": 6594,
      "pen": 6595,
      "Sol": 6596,
      "##alif": 6597,
      "Dal": 6598,
      "ticari": 6599,
      "##tiniz": 6600,
      "serisi": 6601,
      "##ony": 6602,
      "iklim": 6603,
      "kaçak": 6604,
      "##uyorsun": 6605,
      "ayakta": 6606,
      "versiyon": 6607,
      "##abor": 6608,
      "##gam": 6609,
      "çıkardı": 6610,
      "hakları": 6611,
      "Onların": 6612,
      "Ede": 6613,
      "sanatç": 6614,
      "dışına": 6615,
      "Birinci": 6616,
      "James": 6617,
      "sayılı": 6618,
      "sahte": 6619,
      "Sat": 6620,
      "##cilerin": 6621,
      "##mesin": 6622,
      "tarafı": 6623,
      "Na": 6624,
      "##avuş": 6625,
      "çizg": 6626,
      "Ob": 6627,
      "derecede": 6628,
      "ira": 6629,
      "geriye": 6630,
      "dönüyor": 6631,
      "konularda": 6632,
      "tali": 6633,
      "konak": 6634,
      "##oks": 6635,
      "yerler": 6636,
      "Güç": 6637,
      "Sn": 6638,
      "##retsin": 6639,
      "beklem": 6640,
      "olmaması": 6641,
      "farkı": 6642,
      "gözden": 6643,
      "gelişme": 6644,
      "sabit": 6645,
      "itiraf": 6646,
      "##DA": 6647,
      "##işehir": 6648,
      "Yaklaşık": 6649,
      "##80": 6650,
      "değiliz": 6651,
      "##raj": 6652,
      "##ata": 6653,
      "Şark": 6654,
      "##ses": 6655,
      "başarısız": 6656,
      "##yüz": 6657,
      "##cüsü": 6658,
      "##ith": 6659,
      "##şet": 6660,
      "ortamda": 6661,
      "sipar": 6662,
      "dürüst": 6663,
      "bez": 6664,
      "OL": 6665,
      "##ükleer": 6666,
      "oluşturan": 6667,
      "söyleme": 6668,
      "Onlara": 6669,
      "yüzey": 6670,
      "aynen": 6671,
      "stres": 6672,
      "Min": 6673,
      "kullanıyor": 6674,
      "getirdiği": 6675,
      "şirketin": 6676,
      "mensup": 6677,
      "ilişkisi": 6678,
      "##lukla": 6679,
      "aldığını": 6680,
      "rüzgar": 6681,
      "##elidir": 6682,
      "annem": 6683,
      "delik": 6684,
      "Hen": 6685,
      "etkileş": 6686,
      "yaptığımız": 6687,
      "İmam": 6688,
      "##öğretim": 6689,
      "##IM": 6690,
      "etkileri": 6691,
      "##ehenn": 6692,
      "başa": 6693,
      "alabilir": 6694,
      "##satı": 6695,
      "Ker": 6696,
      "##lamada": 6697,
      "aykırı": 6698,
      "varlık": 6699,
      "Med": 6700,
      "anlatır": 6701,
      "Cin": 6702,
      "alım": 6703,
      "yapıldığı": 6704,
      "bahse": 6705,
      "yorgun": 6706,
      "Dinle": 6707,
      "##ayas": 6708,
      "ndaki": 6709,
      "Sonr": 6710,
      "Ağır": 6711,
      "Neyse": 6712,
      "halkı": 6713,
      "##ildiğini": 6714,
      "cumhurbaş": 6715,
      "inç": 6716,
      "##üce": 6717,
      "Dağ": 6718,
      "Tun": 6719,
      "işini": 6720,
      "yönel": 6721,
      "gezegen": 6722,
      "##los": 6723,
      "Metin": 6724,
      "dediği": 6725,
      "geçici": 6726,
      "donan": 6727,
      "##işe": 6728,
      "makale": 6729,
      "Azer": 6730,
      "##eğine": 6731,
      "Pen": 6732,
      "mikro": 6733,
      "stat": 6734,
      "kemik": 6735,
      "##lel": 6736,
      "fat": 6737,
      "demokrasi": 6738,
      "yapacağım": 6739,
      "bireysel": 6740,
      "sürdü": 6741,
      "Affed": 6742,
      "##ilmesini": 6743,
      "gecik": 6744,
      "yle": 6745,
      "##içi": 6746,
      "##UM": 6747,
      "gitmiş": 6748,
      "mahkeme": 6749,
      "Japonya": 6750,
      "##acık": 6751,
      "şük": 6752,
      "kızım": 6753,
      "Eve": 6754,
      "Haklı": 6755,
      "akr": 6756,
      "Davut": 6757,
      "analizi": 6758,
      "bekleyen": 6759,
      "##omi": 6760,
      "doğa": 6761,
      "nu": 6762,
      "ilişkileri": 6763,
      "George": 6764,
      "antren": 6765,
      "##memesi": 6766,
      "Bunları": 6767,
      "gereği": 6768,
      "##mana": 6769,
      "##demi": 6770,
      "kaliteli": 6771,
      "çıkması": 6772,
      "girecek": 6773,
      "karmaşık": 6774,
      "çözünür": 6775,
      "canım": 6776,
      "hasar": 6777,
      "gerçekleşen": 6778,
      "##iski": 6779,
      "kısım": 6780,
      "Toplum": 6781,
      "hastaneye": 6782,
      "gök": 6783,
      "##ymış": 6784,
      "##iller": 6785,
      "verebilir": 6786,
      "bilimin": 6787,
      "gergin": 6788,
      "##ınızın": 6789,
      "##maktır": 6790,
      "Dışarı": 6791,
      "##masyon": 6792,
      "durumun": 6793,
      "egzersiz": 6794,
      "Rum": 6795,
      "olacağız": 6796,
      "yarattığı": 6797,
      "memleket": 6798,
      "beslenme": 6799,
      "hakkındaki": 6800,
      "Kötü": 6801,
      "yenilen": 6802,
      "##tra": 6803,
      "ayakkabı": 6804,
      "veriyorum": 6805,
      "##ji": 6806,
      "Otur": 6807,
      "tel": 6808,
      "söylüyorum": 6809,
      "Biliyor": 6810,
      "türk": 6811,
      "devrim": 6812,
      "##lamaları": 6813,
      "Merak": 6814,
      "işbirliği": 6815,
      "sporcu": 6816,
      "başk": 6817,
      "##tılan": 6818,
      "##malarını": 6819,
      "Vay": 6820,
      "işgal": 6821,
      "keyifli": 6822,
      "başından": 6823,
      "yakında": 6824,
      "kurgu": 6825,
      "##isindeki": 6826,
      "başladım": 6827,
      "miydi": 6828,
      "Del": 6829,
      "##malıyım": 6830,
      "öğrenmek": 6831,
      "##etler": 6832,
      "vah": 6833,
      "Jim": 6834,
      "beyn": 6835,
      "##edin": 6836,
      "sitesi": 6837,
      "##tez": 6838,
      "Savunma": 6839,
      "##irin": 6840,
      "##ladık": 6841,
      "gittim": 6842,
      "43": 6843,
      "disip": 6844,
      "inanıyorum": 6845,
      "ulaşım": 6846,
      "##imle": 6847,
      "mavi": 6848,
      "Gre": 6849,
      "koleksiyon": 6850,
      "hissettir": 6851,
      "seks": 6852,
      "neyse": 6853,
      "çalıştı": 6854,
      "41": 6855,
      "korkut": 6856,
      "alet": 6857,
      "cidd": 6858,
      "çöp": 6859,
      "gidiyorum": 6860,
      "Yazı": 6861,
      "ürünü": 6862,
      "##errah": 6863,
      "##kil": 6864,
      "destekçilerimiz": 6865,
      "dayalı": 6866,
      "tutan": 6867,
      "##liğiyle": 6868,
      "güne": 6869,
      "##berg": 6870,
      "İnce": 6871,
      "gelebilir": 6872,
      "Ata": 6873,
      "hac": 6874,
      "güzellik": 6875,
      "arıyor": 6876,
      "topr": 6877,
      "krizi": 6878,
      "plana": 6879,
      "denem": 6880,
      "kullanılmıştır": 6881,
      "dersin": 6882,
      "iken": 6883,
      "Çift": 6884,
      "Kendini": 6885,
      "Yazar": 6886,
      "##ordin": 6887,
      "##ediler": 6888,
      "##cıları": 6889,
      "epey": 6890,
      "Turk": 6891,
      "benziyor": 6892,
      "şok": 6893,
      "##cağınız": 6894,
      "##ole": 6895,
      "hayatına": 6896,
      "##abileceği": 6897,
      "##emizde": 6898,
      "İlçe": 6899,
      "hus": 6900,
      "görüyorum": 6901,
      "çalıştığı": 6902,
      "Orman": 6903,
      "kardeşi": 6904,
      "peşinde": 6905,
      "##alığı": 6906,
      "Yargı": 6907,
      "##wood": 6908,
      "hakaret": 6909,
      "görebil": 6910,
      "açan": 6911,
      "##ice": 6912,
      "gördüğü": 6913,
      "mesleğ": 6914,
      "##ğeri": 6915,
      "sk": 6916,
      "olabilirsiniz": 6917,
      "tıpkı": 6918,
      "##İS": 6919,
      "kendisinin": 6920,
      "öv": 6921,
      "51": 6922,
      "Nec": 6923,
      "Şimd": 6924,
      "Kulüb": 6925,
      "damar": 6926,
      "Naz": 6927,
      "doğur": 6928,
      "##çası": 6929,
      "çıkmak": 6930,
      "##avüz": 6931,
      "hazırlan": 6932,
      "PC": 6933,
      "ediyorlar": 6934,
      "kamyon": 6935,
      "Hizmet": 6936,
      "so": 6937,
      "##eveyn": 6938,
      "##RK": 6939,
      "müziğ": 6940,
      "şarap": 6941,
      "ahlak": 6942,
      "Ölüm": 6943,
      "temin": 6944,
      "yoğ": 6945,
      "açıklaması": 6946,
      "ettiler": 6947,
      "##etici": 6948,
      "##ily": 6949,
      "Kızıl": 6950,
      "kalıcı": 6951,
      "ülkelerin": 6952,
      "##tılı": 6953,
      "Bahçeli": 6954,
      "tac": 6955,
      "demeden": 6956,
      "zorunlu": 6957,
      "lerin": 6958,
      "dert": 6959,
      "adres": 6960,
      "fiyatları": 6961,
      "idi": 6962,
      "hoşlan": 6963,
      "Aziz": 6964,
      "karşın": 6965,
      "ilave": 6966,
      "kasab": 6967,
      "Sevgili": 6968,
      "bildirdi": 6969,
      "dolara": 6970,
      "46": 6971,
      "takdirde": 6972,
      "nö": 6973,
      "##SB": 6974,
      "##AC": 6975,
      "sığın": 6976,
      "gerekmektedir": 6977,
      "kaldığı": 6978,
      "başladığı": 6979,
      "##use": 6980,
      "##tıktan": 6981,
      "Vakfı": 6982,
      "##fe": 6983,
      "##ikat": 6984,
      "gösteri": 6985,
      "##laştırma": 6986,
      "##ino": 6987,
      "bırakın": 6988,
      "kampany": 6989,
      "Gön": 6990,
      "şanslı": 6991,
      "endü": 6992,
      "yüzlerce": 6993,
      "deli": 6994,
      "##örü": 6995,
      "99": 6996,
      "Stan": 6997,
      "uyandır": 6998,
      "şehr": 6999,
      "ran": 7000,
      "geleceği": 7001,
      "evin": 7002,
      "Keşke": 7003,
      "istifa": 7004,
      "Aj": 7005,
      "Örg": 7006,
      "iade": 7007,
      "##cer": 7008,
      "##burg": 7009,
      "örgütün": 7010,
      "##lamıyor": 7011,
      "görünce": 7012,
      "aşkın": 7013,
      "köken": 7014,
      "İr": 7015,
      "mekaniz": 7016,
      "2006": 7017,
      "Çak": 7018,
      "olduğunun": 7019,
      "##rat": 7020,
      "uzan": 7021,
      "lisans": 7022,
      "oyunları": 7023,
      "kaybı": 7024,
      "Dis": 7025,
      "istemiş": 7026,
      "##gusu": 7027,
      "isteme": 7028,
      "Fo": 7029,
      "kritik": 7030,
      "##lament": 7031,
      "tutk": 7032,
      "##etiyle": 7033,
      "Akıl": 7034,
      "Dört": 7035,
      "##itan": 7036,
      "mim": 7037,
      "##abilen": 7038,
      "çak": 7039,
      "##abilirsin": 7040,
      "##pat": 7041,
      "2005": 7042,
      "hepsini": 7043,
      "##ullah": 7044,
      "Pla": 7045,
      "##ezerv": 7046,
      "Uygu": 7047,
      "zamanında": 7048,
      "gazeteci": 7049,
      "Aslan": 7050,
      "karışık": 7051,
      "##yalı": 7052,
      "##zan": 7053,
      "harc": 7054,
      "ilgilendir": 7055,
      "Kamu": 7056,
      "##uyorlar": 7057,
      "alınarak": 7058,
      "edilebilir": 7059,
      "işletme": 7060,
      "zamana": 7061,
      "##şembe": 7062,
      "olabilecek": 7063,
      "tap": 7064,
      "##bel": 7065,
      "mutf": 7066,
      "edici": 7067,
      "##aborat": 7068,
      "Def": 7069,
      "Sem": 7070,
      "Hukuk": 7071,
      "som": 7072,
      "gerekirse": 7073,
      "miktarda": 7074,
      "##osk": 7075,
      "##sav": 7076,
      "##anada": 7077,
      "vakti": 7078,
      "herkesi": 7079,
      "Pak": 7080,
      "seyirc": 7081,
      "##uydu": 7082,
      "ayda": 7083,
      "Tarihi": 7084,
      "elinden": 7085,
      "yazdı": 7086,
      "##GB": 7087,
      "devreye": 7088,
      "##diven": 7089,
      "##slan": 7090,
      "Giz": 7091,
      "gücünü": 7092,
      "ömr": 7093,
      "ilham": 7094,
      "##tıklarını": 7095,
      "okun": 7096,
      "One": 7097,
      "kedi": 7098,
      "Lo": 7099,
      "Hız": 7100,
      "##usuf": 7101,
      "kolaylaştır": 7102,
      "47": 7103,
      "üstü": 7104,
      "Cumhurbaşkanlığı": 7105,
      "bilgiye": 7106,
      "öncelik": 7107,
      "##ağının": 7108,
      "##ciğer": 7109,
      "gösterir": 7110,
      "itibarı": 7111,
      "İliş": 7112,
      "işçi": 7113,
      "etrafında": 7114,
      "##itesi": 7115,
      "gelmez": 7116,
      "rob": 7117,
      "tanıtım": 7118,
      "potansiyel": 7119,
      "2002": 7120,
      "istikrar": 7121,
      "kahvaltı": 7122,
      "almaktadır": 7123,
      "diyal": 7124,
      "Jon": 7125,
      "##ağına": 7126,
      "##enip": 7127,
      "Je": 7128,
      "Birbir": 7129,
      "##iliğini": 7130,
      "kula": 7131,
      "eseri": 7132,
      "2004": 7133,
      "bununla": 7134,
      "Ondan": 7135,
      "paylaştı": 7136,
      "göstermek": 7137,
      "geril": 7138,
      "kalmadı": 7139,
      "taleb": 7140,
      "Mutlu": 7141,
      "kesint": 7142,
      "yılının": 7143,
      "##duğunuz": 7144,
      "tarafta": 7145,
      "49": 7146,
      "Sık": 7147,
      "bulunur": 7148,
      "Paşa": 7149,
      "Birleşik": 7150,
      "denet": 7151,
      "şüpheli": 7152,
      "sevgili": 7153,
      "arkadaşları": 7154,
      "Komutan": 7155,
      "gram": 7156,
      "##fil": 7157,
      "uygulanan": 7158,
      "Tez": 7159,
      "Lev": 7160,
      "vererek": 7161,
      "anlamak": 7162,
      "##oth": 7163,
      "##ATO": 7164,
      "##des": 7165,
      "sel": 7166,
      "sabır": 7167,
      "odaklan": 7168,
      "Üçüncü": 7169,
      "##tun": 7170,
      "kup": 7171,
      "açıklandı": 7172,
      "Oper": 7173,
      "protesto": 7174,
      "##atematik": 7175,
      "##umun": 7176,
      "##omuz": 7177,
      "hesabından": 7178,
      "isteye": 7179,
      "##lığından": 7180,
      "görüşme": 7181,
      "insana": 7182,
      "Öncelikle": 7183,
      "hük": 7184,
      "##ülasyon": 7185,
      "intihar": 7186,
      "Rad": 7187,
      "düğün": 7188,
      "Hatay": 7189,
      "kızın": 7190,
      "mıydı": 7191,
      "seferlik": 7192,
      "##dış": 7193,
      "bok": 7194,
      "##rosoft": 7195,
      "muhaf": 7196,
      "Vali": 7197,
      "oranda": 7198,
      "##usun": 7199,
      "##lüğe": 7200,
      "olayın": 7201,
      "istihdam": 7202,
      "içki": 7203,
      "Hatır": 7204,
      "##bilen": 7205,
      "ker": 7206,
      "şirketler": 7207,
      "yarısı": 7208,
      "##AV": 7209,
      "##eyici": 7210,
      "emniyet": 7211,
      "##cev": 7212,
      "##mini": 7213,
      "Mars": 7214,
      "oyuncular": 7215,
      "191": 7216,
      "sıvı": 7217,
      "Op": 7218,
      "##mışlar": 7219,
      "Diz": 7220,
      "vic": 7221,
      "çocuklara": 7222,
      "kullanma": 7223,
      "okula": 7224,
      "Mez": 7225,
      "çıkara": 7226,
      "gelmiyor": 7227,
      "600": 7228,
      "kutu": 7229,
      "pilot": 7230,
      "gözler": 7231,
      "##TÜ": 7232,
      "bizden": 7233,
      "ırk": 7234,
      "ayn": 7235,
      "##şamba": 7236,
      "aklım": 7237,
      "dizisi": 7238,
      "Şim": 7239,
      "adıyla": 7240,
      "Yusuf": 7241,
      "merkezinde": 7242,
      "fırsatı": 7243,
      "52": 7244,
      "maçta": 7245,
      "53": 7246,
      "Ola": 7247,
      "NATO": 7248,
      "##yası": 7249,
      "diyecek": 7250,
      "Gu": 7251,
      "seri": 7252,
      "##HA": 7253,
      "eğlence": 7254,
      "bıraktı": 7255,
      "Kale": 7256,
      "Öğret": 7257,
      "kaybed": 7258,
      "geçtik": 7259,
      "Fik": 7260,
      "bulduk": 7261,
      "Sivas": 7262,
      "##stik": 7263,
      "06": 7264,
      "03": 7265,
      "##ord": 7266,
      "platformu": 7267,
      "sahneye": 7268,
      "Emek": 7269,
      "işten": 7270,
      "sürücü": 7271,
      "##üphan": 7272,
      "ailenin": 7273,
      "##tığımızda": 7274,
      "Wash": 7275,
      "##ilmesine": 7276,
      "çekmek": 7277,
      "##ruf": 7278,
      "söylediği": 7279,
      "##ağında": 7280,
      "Microsoft": 7281,
      "bileş": 7282,
      "##ald": 7283,
      "heykel": 7284,
      "##barat": 7285,
      "##abilirim": 7286,
      "ulaştı": 7287,
      "sanayi": 7288,
      "##ott": 7289,
      "##mut": 7290,
      "##bakanı": 7291,
      "Peter": 7292,
      "diyorsun": 7293,
      "geldin": 7294,
      "etmişti": 7295,
      "Alo": 7296,
      "kusur": 7297,
      "Fotoğraf": 7298,
      "meselesi": 7299,
      "tasarımı": 7300,
      "##lenir": 7301,
      "vaka": 7302,
      "açıldı": 7303,
      "kaleme": 7304,
      "Mersin": 7305,
      "##gari": 7306,
      "topu": 7307,
      "02": 7308,
      "makam": 7309,
      "Benden": 7310,
      "traf": 7311,
      "ört": 7312,
      "me": 7313,
      "Onur": 7314,
      "Hz": 7315,
      "kimyasal": 7316,
      "çoktan": 7317,
      "yaralı": 7318,
      "Kurumu": 7319,
      "ilgisi": 7320,
      "hayli": 7321,
      "ikram": 7322,
      "bekley": 7323,
      "##ikola": 7324,
      "kıymet": 7325,
      "PS": 7326,
      "Noel": 7327,
      "müs": 7328,
      "Sence": 7329,
      "Eskişehir": 7330,
      "dışarıda": 7331,
      "başlıklı": 7332,
      "bedel": 7333,
      "görevl": 7334,
      "Karab": 7335,
      "olağanüstü": 7336,
      "Işık": 7337,
      "konular": 7338,
      "doğrusu": 7339,
      "amac": 7340,
      "şehri": 7341,
      "Destek": 7342,
      "##ksiyon": 7343,
      "bölgeye": 7344,
      "##memi": 7345,
      "ihale": 7346,
      "şansı": 7347,
      "yaşamını": 7348,
      "bırakıp": 7349,
      "yapın": 7350,
      "Kanunu": 7351,
      "Mis": 7352,
      "##desi": 7353,
      "meyve": 7354,
      "yetişkin": 7355,
      "oluşuyor": 7356,
      "Yanlış": 7357,
      "gayret": 7358,
      "Bob": 7359,
      "id": 7360,
      "##oper": 7361,
      "kampanya": 7362,
      "mali": 7363,
      "##mara": 7364,
      "##dular": 7365,
      "motiv": 7366,
      "saatleri": 7367,
      "aj": 7368,
      "Kapı": 7369,
      "oynayan": 7370,
      "aktör": 7371,
      "elektronik": 7372,
      "kendinizi": 7373,
      "alınmıştır": 7374,
      "kıyı": 7375,
      "ülkeye": 7376,
      "siyasal": 7377,
      "tutul": 7378,
      "yazıyor": 7379,
      "gidiyoruz": 7380,
      "öğrenildi": 7381,
      "##biyet": 7382,
      "##lamanın": 7383,
      "##şek": 7384,
      "##ebiliriz": 7385,
      "yoluna": 7386,
      "yürüm": 7387,
      "kısmında": 7388,
      "büyüy": 7389,
      "##cusu": 7390,
      "Prens": 7391,
      "kapsamlı": 7392,
      "sahil": 7393,
      "##baycan": 7394,
      "##sk": 7395,
      "Pap": 7396,
      "##iti": 7397,
      "Kadir": 7398,
      "##lerimize": 7399,
      "Mir": 7400,
      "##unus": 7401,
      "masa": 7402,
      "sus": 7403,
      "Tav": 7404,
      "edebilirsiniz": 7405,
      "Trabzon": 7406,
      "turn": 7407,
      "Washington": 7408,
      "##eceksiniz": 7409,
      "toplan": 7410,
      "##ledik": 7411,
      "Hikay": 7412,
      "##abileceğini": 7413,
      "saha": 7414,
      "çif": 7415,
      "eyalet": 7416,
      "bugünkü": 7417,
      "tüketic": 7418,
      "İdar": 7419,
      "sayg": 7420,
      "120": 7421,
      "##çesi": 7422,
      "Air": 7423,
      "istediğiniz": 7424,
      "250": 7425,
      "Eb": 7426,
      "Bölge": 7427,
      "far": 7428,
      "komşu": 7429,
      "Gr": 7430,
      "##menizi": 7431,
      "sığ": 7432,
      "etkile": 7433,
      "usul": 7434,
      "Wat": 7435,
      "Boğaz": 7436,
      "grafik": 7437,
      "çıkarak": 7438,
      "Azerbaycan": 7439,
      "sisteminin": 7440,
      "kullanılarak": 7441,
      "edeceğim": 7442,
      "seçimi": 7443,
      "meden": 7444,
      "Kahretsin": 7445,
      "kimseye": 7446,
      "Takım": 7447,
      "gecesi": 7448,
      "cami": 7449,
      "önemlisi": 7450,
      "##isti": 7451,
      "anım": 7452,
      "Hareket": 7453,
      "##seri": 7454,
      "saatte": 7455,
      "Kupası": 7456,
      "çağrı": 7457,
      "büyüt": 7458,
      "zamanla": 7459,
      "##ima": 7460,
      "göze": 7461,
      "koya": 7462,
      "##ikal": 7463,
      "web": 7464,
      "Seb": 7465,
      "sesini": 7466,
      "##ümr": 7467,
      "buluştur": 7468,
      "##duğunda": 7469,
      "erkekler": 7470,
      "mutfak": 7471,
      "biber": 7472,
      "verilmiştir": 7473,
      "demokras": 7474,
      "##onspor": 7475,
      "yaptığım": 7476,
      "##ish": 7477,
      "plaj": 7478,
      "olayları": 7479,
      "eğil": 7480,
      "Muhtemelen": 7481,
      "amaçlı": 7482,
      "kanat": 7483,
      "meşgul": 7484,
      "miy": 7485,
      "Farklı": 7486,
      "dalg": 7487,
      "Sonunda": 7488,
      "vir": 7489,
      "Lu": 7490,
      "Stev": 7491,
      "Yab": 7492,
      "prote": 7493,
      "şidde": 7494,
      "no": 7495,
      "tarzı": 7496,
      "Rich": 7497,
      "##mayacağım": 7498,
      "yaşandı": 7499,
      "BB": 7500,
      "##eceğimi": 7501,
      "mühendis": 7502,
      "düşünmüyor": 7503,
      "Trabzonspor": 7504,
      "Davutoğlu": 7505,
      "düzenleme": 7506,
      "düşünül": 7507,
      "##wn": 7508,
      "Vol": 7509,
      "ölen": 7510,
      "##ralı": 7511,
      "ast": 7512,
      "##lüğünü": 7513,
      "##rad": 7514,
      "gösterdiği": 7515,
      "Gelecek": 7516,
      "##gat": 7517,
      "ağız": 7518,
      "##tiğine": 7519,
      "##VI": 7520,
      "gerekiyordu": 7521,
      "Berlin": 7522,
      "##tına": 7523,
      "yayımlanan": 7524,
      "İmparator": 7525,
      "gönüllü": 7526,
      "Havalimanı": 7527,
      "endişelen": 7528,
      "dondur": 7529,
      "üzül": 7530,
      "araz": 7531,
      "Japon": 7532,
      "ismini": 7533,
      "##oşk": 7534,
      "YouT": 7535,
      "açıkça": 7536,
      "çıkarmak": 7537,
      "##emeyecek": 7538,
      "tavır": 7539,
      "olmasının": 7540,
      "filan": 7541,
      "haberler": 7542,
      "izlemek": 7543,
      "Nit": 7544,
      "Çanak": 7545,
      "Sanayi": 7546,
      "kaygı": 7547,
      "bizimle": 7548,
      "##köy": 7549,
      "BİR": 7550,
      "görüşürüz": 7551,
      "tutun": 7552,
      "öldürül": 7553,
      "üretimi": 7554,
      "şimdiye": 7555,
      "Kims": 7556,
      "AT": 7557,
      "tetik": 7558,
      "kurtu": 7559,
      "metrek": 7560,
      "tecavüz": 7561,
      "meşhur": 7562,
      "hayatım": 7563,
      "##irli": 7564,
      "##ester": 7565,
      "##astik": 7566,
      "Zen": 7567,
      "2003": 7568,
      "rehber": 7569,
      "katıldığı": 7570,
      "galiba": 7571,
      "Karar": 7572,
      "Akadem": 7573,
      "frag": 7574,
      "istasyon": 7575,
      "bekliyoruz": 7576,
      "Robert": 7577,
      "##wei": 7578,
      "hoc": 7579,
      "##usunun": 7580,
      "İsveç": 7581,
      "amaçla": 7582,
      "milyonlarca": 7583,
      "09": 7584,
      "döviz": 7585,
      "Enerj": 7586,
      "Edebiyat": 7587,
      "##lıca": 7588,
      "değişen": 7589,
      "reddet": 7590,
      "##lenmiştir": 7591,
      "##lıyoruz": 7592,
      "yürü": 7593,
      "##ülecek": 7594,
      "Ex": 7595,
      "Gelen": 7596,
      "##çisi": 7597,
      "durumlarda": 7598,
      "yapalım": 7599,
      "##eld": 7600,
      "##ee": 7601,
      "Yaşam": 7602,
      "##nam": 7603,
      "##meme": 7604,
      "port": 7605,
      "##hu": 7606,
      "##lesi": 7607,
      "##ink": 7608,
      "oynama": 7609,
      "Fu": 7610,
      "eşliğinde": 7611,
      "lan": 7612,
      "oluşum": 7613,
      "Küt": 7614,
      "fena": 7615,
      "veda": 7616,
      "koltuk": 7617,
      "Öyleyse": 7618,
      "##bey": 7619,
      "##malısınız": 7620,
      "hizmeti": 7621,
      "Sel": 7622,
      "Cumartesi": 7623,
      "Örgüt": 7624,
      "gidin": 7625,
      "sön": 7626,
      "##elal": 7627,
      "##ersen": 7628,
      "unutmayın": 7629,
      "##şun": 7630,
      "kavramı": 7631,
      "etkisini": 7632,
      "##elikop": 7633,
      "##ende": 7634,
      "alanları": 7635,
      "evli": 7636,
      "Sinan": 7637,
      "Ros": 7638,
      "##lamalar": 7639,
      "##Hz": 7640,
      "verim": 7641,
      "olanı": 7642,
      "##liyoruz": 7643,
      "##lanabilir": 7644,
      "Yönetmen": 7645,
      "attığı": 7646,
      "Tarım": 7647,
      "bulunduğunu": 7648,
      "akış": 7649,
      "kalıp": 7650,
      "ülkelerde": 7651,
      "sevdiğim": 7652,
      "sorular": 7653,
      "dilek": 7654,
      "tazmin": 7655,
      "taze": 7656,
      "ürünler": 7657,
      "giriyor": 7658,
      "günleri": 7659,
      "örneği": 7660,
      "##likler": 7661,
      "Asla": 7662,
      "##ılmak": 7663,
      "karbon": 7664,
      "##büs": 7665,
      "##ısal": 7666,
      "##emize": 7667,
      "esnaf": 7668,
      "##suna": 7669,
      "konuya": 7670,
      "Ul": 7671,
      "İçişleri": 7672,
      "Banka": 7673,
      "##paşa": 7674,
      "##ğe": 7675,
      "54": 7676,
      "tara": 7677,
      "söylem": 7678,
      "alırken": 7679,
      "alay": 7680,
      "##ecekler": 7681,
      "budur": 7682,
      "hayatında": 7683,
      "Günaydın": 7684,
      "antik": 7685,
      "gidiş": 7686,
      "yoksul": 7687,
      "katılın": 7688,
      "Yakın": 7689,
      "gerekçesiyle": 7690,
      "uydur": 7691,
      "yıldan": 7692,
      "hariç": 7693,
      "Sus": 7694,
      "Hayvan": 7695,
      "ulaşmak": 7696,
      "Hua": 7697,
      "Maç": 7698,
      "ederiz": 7699,
      "şüphel": 7700,
      "otomatik": 7701,
      "tarihsel": 7702,
      "kendime": 7703,
      "etkileyen": 7704,
      "pencer": 7705,
      "Meg": 7706,
      "##lip": 7707,
      "##lob": 7708,
      "umur": 7709,
      "56": 7710,
      "##luğa": 7711,
      "numaralı": 7712,
      "Gençlik": 7713,
      "pratik": 7714,
      "cezalandır": 7715,
      "##racak": 7716,
      "aran": 7717,
      "tey": 7718,
      "hakem": 7719,
      "##dıkça": 7720,
      "yapama": 7721,
      "oynan": 7722,
      "##fat": 7723,
      "diyorlar": 7724,
      "Gidelim": 7725,
      "##ınan": 7726,
      "ihlal": 7727,
      "sayısının": 7728,
      "payı": 7729,
      "düzenlediği": 7730,
      "Antik": 7731,
      "planı": 7732,
      "uygulamaları": 7733,
      "Çetin": 7734,
      "geçirmek": 7735,
      "kader": 7736,
      "alana": 7737,
      "Nev": 7738,
      "diyet": 7739,
      "öle": 7740,
      "fonksiyon": 7741,
      "bet": 7742,
      "duyarlı": 7743,
      "amb": 7744,
      "Dok": 7745,
      "artıyor": 7746,
      "plak": 7747,
      "belgesel": 7748,
      "verdik": 7749,
      "ettikleri": 7750,
      "Chris": 7751,
      "haftada": 7752,
      "geceler": 7753,
      "Ort": 7754,
      "Albay": 7755,
      "altındaki": 7756,
      "ulaştır": 7757,
      "##lüğüne": 7758,
      "şık": 7759,
      "bulmuş": 7760,
      "AR": 7761,
      "##emesi": 7762,
      "vad": 7763,
      "dili": 7764,
      "##box": 7765,
      "Sun": 7766,
      "resmen": 7767,
      "beslen": 7768,
      "birinde": 7769,
      "çılgın": 7770,
      "görünüm": 7771,
      "##cin": 7772,
      "##kusuz": 7773,
      "kolayca": 7774,
      "##ıplak": 7775,
      "##uğla": 7776,
      "ça": 7777,
      "##ketbol": 7778,
      "girmek": 7779,
      "kadına": 7780,
      "Aşağı": 7781,
      "Otel": 7782,
      "enfeksiyon": 7783,
      "sergilen": 7784,
      "##igür": 7785,
      "seçmen": 7786,
      "Yapma": 7787,
      "dünyasında": 7788,
      "bilgilendir": 7789,
      "Profes": 7790,
      "atmosfer": 7791,
      "Muhammed": 7792,
      "prim": 7793,
      "konuyla": 7794,
      "salg": 7795,
      "sağlığı": 7796,
      "anahtar": 7797,
      "girer": 7798,
      "##ita": 7799,
      "Joe": 7800,
      "olmazsa": 7801,
      "kutsal": 7802,
      "##azz": 7803,
      "faydalı": 7804,
      "taşıma": 7805,
      "şur": 7806,
      "maçında": 7807,
      "öte": 7808,
      "##eygam": 7809,
      "Emir": 7810,
      "##ılığı": 7811,
      "değerlendirme": 7812,
      "Normal": 7813,
      "görüldü": 7814,
      "Çanakkale": 7815,
      "kullanıla": 7816,
      "Rüyada": 7817,
      "YouTube": 7818,
      "Brezil": 7819,
      "##umuzu": 7820,
      "Hafta": 7821,
      "##ılmıştı": 7822,
      "alınmış": 7823,
      "tarihinin": 7824,
      "Ayak": 7825,
      "##okol": 7826,
      "yaralandı": 7827,
      "##DE": 7828,
      "yel": 7829,
      "Kırmızı": 7830,
      "nesn": 7831,
      "icra": 7832,
      "ikili": 7833,
      "Eminim": 7834,
      "85": 7835,
      "isyan": 7836,
      "hayatının": 7837,
      "##lit": 7838,
      "toplantısında": 7839,
      "Günümüzde": 7840,
      "verdiğini": 7841,
      "##Yİ": 7842,
      "##müştü": 7843,
      "Ra": 7844,
      "Suudi": 7845,
      "nükleer": 7846,
      "Şek": 7847,
      "Hükümet": 7848,
      "hükümeti": 7849,
      "Huawei": 7850,
      "Vic": 7851,
      "yeme": 7852,
      "Sta": 7853,
      "atık": 7854,
      "bozul": 7855,
      "miz": 7856,
      "01": 7857,
      "ediyorsun": 7858,
      "##lemeyi": 7859,
      "1980": 7860,
      "şimdiden": 7861,
      "tanıyor": 7862,
      "itibarıyla": 7863,
      "bahar": 7864,
      "radyo": 7865,
      "zeytinya": 7866,
      "##and": 7867,
      "uyumlu": 7868,
      "edemez": 7869,
      "oyuna": 7870,
      "##gn": 7871,
      "çağdaş": 7872,
      "Festival": 7873,
      "bunlardan": 7874,
      "To": 7875,
      "çalışırken": 7876,
      "atöl": 7877,
      "tavuk": 7878,
      "girmiş": 7879,
      "ust": 7880,
      "We": 7881,
      "oynuyor": 7882,
      "ölçek": 7883,
      "Kanun": 7884,
      "göçmen": 7885,
      "giderken": 7886,
      "çekin": 7887,
      "Elektr": 7888,
      "##sene": 7889,
      "##için": 7890,
      "vatandaşlar": 7891,
      "DNA": 7892,
      "kalkın": 7893,
      "##daly": 7894,
      "bizzat": 7895,
      "günah": 7896,
      "tarihli": 7897,
      "##ty": 7898,
      "haksız": 7899,
      "olmaları": 7900,
      "bunlara": 7901,
      "masum": 7902,
      "yed": 7903,
      "gelmek": 7904,
      "KO": 7905,
      "paralel": 7906,
      "sakat": 7907,
      "##ebe": 7908,
      "belirtiliyor": 7909,
      "Gelin": 7910,
      "oyuncusu": 7911,
      "tutmak": 7912,
      "hakkını": 7913,
      "alabil": 7914,
      "pişman": 7915,
      "bakma": 7916,
      "İST": 7917,
      "##luğun": 7918,
      "Rek": 7919,
      "ailesinin": 7920,
      "birliği": 7921,
      "şö": 7922,
      "imzala": 7923,
      "##anti": 7924,
      "Yukarı": 7925,
      "kurumsal": 7926,
      "Zeyn": 7927,
      "söyleyeyim": 7928,
      "gözet": 7929,
      "##şiv": 7930,
      "##onav": 7931,
      "ilerle": 7932,
      "gelmiştir": 7933,
      "çalışmalarını": 7934,
      "oyunlar": 7935,
      "sermaye": 7936,
      "emir": 7937,
      "Kurum": 7938,
      "th": 7939,
      "etkileyici": 7940,
      "##larsa": 7941,
      "akşamı": 7942,
      "Kör": 7943,
      "Değiş": 7944,
      "bildirildi": 7945,
      "sıkış": 7946,
      "##tt": 7947,
      "aktivit": 7948,
      "çır": 7949,
      "##so": 7950,
      "sebeple": 7951,
      "elini": 7952,
      "seyret": 7953,
      "Cas": 7954,
      "##lüğünde": 7955,
      "edelim": 7956,
      "verilecek": 7957,
      "Tatlı": 7958,
      "##acaktır": 7959,
      "Wh": 7960,
      "##engiz": 7961,
      "Köpr": 7962,
      "mantıklı": 7963,
      "gülüm": 7964,
      "boya": 7965,
      "nihayet": 7966,
      "##erseniz": 7967,
      "adamım": 7968,
      "iyiyim": 7969,
      "oynadığı": 7970,
      "##uvalet": 7971,
      "randev": 7972,
      "cevab": 7973,
      "vermesi": 7974,
      "Bebek": 7975,
      "fikri": 7976,
      "sürdürüyor": 7977,
      "topar": 7978,
      "##ledim": 7979,
      "mevsim": 7980,
      "Pay": 7981,
      "girip": 7982,
      "Toplantı": 7983,
      "burc": 7984,
      "Charlie": 7985,
      "lüks": 7986,
      "Yaşar": 7987,
      "##inizle": 7988,
      "onlardan": 7989,
      "meyv": 7990,
      "intik": 7991,
      "Ray": 7992,
      "elbis": 7993,
      "ayrım": 7994,
      "Yalan": 7995,
      "##emizin": 7996,
      "##irkin": 7997,
      "aylarında": 7998,
      "mür": 7999,
      "yapmam": 8000,
      "merkezli": 8001,
      "Fir": 8002,
      "verimli": 8003,
      "Oscar": 8004,
      "Marmara": 8005,
      "##ayol": 8006,
      "##30": 8007,
      "bitk": 8008,
      "şarkıcı": 8009,
      "##rib": 8010,
      "ebeveyn": 8011,
      "Komisyonu": 8012,
      "sipariş": 8013,
      "kısmını": 8014,
      "set": 8015,
      "Hepimiz": 8016,
      "düzgün": 8017,
      "ihmal": 8018,
      "##ferans": 8019,
      "yılına": 8020,
      "yakış": 8021,
      "##veren": 8022,
      "##ladığını": 8023,
      "ittifak": 8024,
      "##eygamber": 8025,
      "İşlet": 8026,
      "Akşam": 8027,
      "ard": 8028,
      "dinlen": 8029,
      "##liydi": 8030,
      "başkenti": 8031,
      "batı": 8032,
      "vade": 8033,
      "sıç": 8034,
      "ihtimali": 8035,
      "verilmesi": 8036,
      "fabrik": 8037,
      "Tiyatrosu": 8038,
      "Şef": 8039,
      "işletim": 8040,
      "alanlarda": 8041,
      "tasarruf": 8042,
      "##elerek": 8043,
      "onlarla": 8044,
      "Tep": 8045,
      "güz": 8046,
      "Senden": 8047,
      "tırman": 8048,
      "havuz": 8049,
      "Cey": 8050,
      "##cük": 8051,
      "##sının": 8052,
      "duran": 8053,
      "eline": 8054,
      "##denin": 8055,
      "ücreti": 8056,
      "fer": 8057,
      "##amazsın": 8058,
      "57": 8059,
      "Şeri": 8060,
      "yolculuğ": 8061,
      "düşüyor": 8062,
      "dünyadaki": 8063,
      "vicdan": 8064,
      "##kele": 8065,
      "dosy": 8066,
      "amir": 8067,
      "söylemişti": 8068,
      "almayı": 8069,
      "##US": 8070,
      "Kayseri": 8071,
      "indirim": 8072,
      "belirlenen": 8073,
      "Dol": 8074,
      "tarafa": 8075,
      "bölün": 8076,
      "Görev": 8077,
      "##uncu": 8078,
      "bulacak": 8079,
      "çalıştım": 8080,
      "İste": 8081,
      "Enstit": 8082,
      "ikin": 8083,
      "Luc": 8084,
      "müzak": 8085,
      "çapında": 8086,
      "soruları": 8087,
      "telefonun": 8088,
      "##osunu": 8089,
      "sanıyordum": 8090,
      "Mahk": 8091,
      "Başsav": 8092,
      "sanal": 8093,
      "sunulan": 8094,
      "##ısındaki": 8095,
      "duyar": 8096,
      "ilerleyen": 8097,
      "babasının": 8098,
      "kenar": 8099,
      "berbat": 8100,
      "##larımın": 8101,
      "denize": 8102,
      "saptan": 8103,
      "danışman": 8104,
      "##uğa": 8105,
      "##melisiniz": 8106,
      "##luğunu": 8107,
      "sinyal": 8108,
      "Başbakanı": 8109,
      "##end": 8110,
      "metal": 8111,
      "merkezine": 8112,
      "neydi": 8113,
      "Çan": 8114,
      "şahit": 8115,
      "sevindim": 8116,
      "Acaba": 8117,
      "##sunda": 8118,
      "##ahh": 8119,
      "egemen": 8120,
      "val": 8121,
      "tedavisi": 8122,
      "izleyen": 8123,
      "##emaat": 8124,
      "Uzman": 8125,
      "birlikt": 8126,
      "08": 8127,
      "sof": 8128,
      "bilimsever": 8129,
      "por": 8130,
      "Ruh": 8131,
      "##esyon": 8132,
      "dilim": 8133,
      "Eki": 8134,
      "düşünmüş": 8135,
      "alınacak": 8136,
      "orij": 8137,
      "ölümü": 8138,
      "##İŞ": 8139,
      "William": 8140,
      "Pazartesi": 8141,
      "kentin": 8142,
      "##amda": 8143,
      "##mates": 8144,
      "Ermen": 8145,
      "robot": 8146,
      "olabiliyor": 8147,
      "kuvvetli": 8148,
      "istiyorsanız": 8149,
      "bisiklet": 8150,
      "Kızı": 8151,
      "Başak": 8152,
      "anında": 8153,
      "iktid": 8154,
      "İşin": 8155,
      "savaşı": 8156,
      "ihtiyacın": 8157,
      "yaşamış": 8158,
      "rezerv": 8159,
      "döner": 8160,
      "yemin": 8161,
      "geleceğini": 8162,
      "Parkı": 8163,
      "##lata": 8164,
      "hitap": 8165,
      "Ulu": 8166,
      "##idi": 8167,
      "Pet": 8168,
      "##ovid": 8169,
      "##tina": 8170,
      "genişlet": 8171,
      "yayınlandı": 8172,
      "teker": 8173,
      "işlemi": 8174,
      "Malat": 8175,
      "çığ": 8176,
      "rolü": 8177,
      "Sürekli": 8178,
      "şeref": 8179,
      "duya": 8180,
      "buradaki": 8181,
      "ların": 8182,
      "Kus": 8183,
      "maz": 8184,
      "İlet": 8185,
      "gidiyorsun": 8186,
      "##OĞ": 8187,
      "getirir": 8188,
      "##ts": 8189,
      "Öğretmen": 8190,
      "##60": 8191,
      "fotoğrafı": 8192,
      "erişim": 8193,
      "genetik": 8194,
      "yazan": 8195,
      "üretilen": 8196,
      "##vat": 8197,
      "demişti": 8198,
      "geleni": 8199,
      "fen": 8200,
      "##adı": 8201,
      "##otos": 8202,
      "tal": 8203,
      "Çavuş": 8204,
      "##raz": 8205,
      "Kaptan": 8206,
      "evden": 8207,
      "işlemci": 8208,
      "keşfed": 8209,
      "açtığı": 8210,
      "diğeri": 8211,
      "bura": 8212,
      "##çılar": 8213,
      "kullanıcıların": 8214,
      "hırsız": 8215,
      "Şer": 8216,
      "uzanan": 8217,
      "Ayşe": 8218,
      "2001": 8219,
      "##düğünde": 8220,
      "##diğimde": 8221,
      "katk": 8222,
      "Juli": 8223,
      "##yaz": 8224,
      "kaldım": 8225,
      "sektöründe": 8226,
      "bacak": 8227,
      "kullanı": 8228,
      "##tığınız": 8229,
      "##üntü": 8230,
      "Kurban": 8231,
      "bakmak": 8232,
      "estetik": 8233,
      "Tıpkı": 8234,
      "vek": 8235,
      "gazete": 8236,
      "##meyeceğim": 8237,
      "ömür": 8238,
      "tanrı": 8239,
      "tüken": 8240,
      "değişikliği": 8241,
      "etmiştir": 8242,
      "##ilmeye": 8243,
      "özgün": 8244,
      "bizler": 8245,
      "lay": 8246,
      "geliştirilen": 8247,
      "gerekse": 8248,
      "isterseniz": 8249,
      "mada": 8250,
      "Öztürk": 8251,
      "haberleri": 8252,
      "Rapor": 8253,
      "karan": 8254,
      "görevini": 8255,
      "Arda": 8256,
      "ısın": 8257,
      "yerleşim": 8258,
      "yerlere": 8259,
      "çel": 8260,
      "TRT": 8261,
      "Filmin": 8262,
      "Kem": 8263,
      "mecbur": 8264,
      "##ukur": 8265,
      "##hir": 8266,
      "kadarıyla": 8267,
      "cezaev": 8268,
      "##ake": 8269,
      "1999": 8270,
      "##ladın": 8271,
      "sürüm": 8272,
      "Nat": 8273,
      "Erzurum": 8274,
      "##umuzun": 8275,
      "##olik": 8276,
      "dönemlerde": 8277,
      "isteyenler": 8278,
      "Değer": 8279,
      "bağlamda": 8280,
      "geçecek": 8281,
      "##amuk": 8282,
      "katkıda": 8283,
      "otor": 8284,
      "riski": 8285,
      "İddi": 8286,
      "##dığının": 8287,
      "##ğin": 8288,
      "Kulübü": 8289,
      "##IŞ": 8290,
      "Konseyi": 8291,
      "İYİ": 8292,
      "Tür": 8293,
      "tutuklu": 8294,
      "##lanmaya": 8295,
      "dövüş": 8296,
      "##bilmesi": 8297,
      "op": 8298,
      "##enç": 8299,
      "##rid": 8300,
      "kavg": 8301,
      "cehenn": 8302,
      "mesajı": 8303,
      "dünyasının": 8304,
      "günümüze": 8305,
      "Mit": 8306,
      "co": 8307,
      "zorlu": 8308,
      "Intel": 8309,
      "anladım": 8310,
      "##iyetini": 8311,
      "liraya": 8312,
      "##ılırken": 8313,
      "Kadınlar": 8314,
      "prens": 8315,
      "##cinin": 8316,
      "##avallı": 8317,
      "##eğinin": 8318,
      "görünen": 8319,
      "yürür": 8320,
      "hastanede": 8321,
      "şof": 8322,
      "hikayesini": 8323,
      "İşleri": 8324,
      "bastır": 8325,
      "hükümetin": 8326,
      "Uzak": 8327,
      "belirtilen": 8328,
      "Andre": 8329,
      "##illi": 8330,
      "Doç": 8331,
      "filmleri": 8332,
      "##kurmay": 8333,
      "süreli": 8334,
      "##ikolata": 8335,
      "biriyle": 8336,
      "düşünün": 8337,
      "Değil": 8338,
      "hemş": 8339,
      "ettiğim": 8340,
      "arayış": 8341,
      "Gal": 8342,
      "Çevre": 8343,
      "##ife": 8344,
      "engelli": 8345,
      "sunduğu": 8346,
      "##ıbbi": 8347,
      "Lou": 8348,
      "depolama": 8349,
      "Göl": 8350,
      "dönüp": 8351,
      "belirtiyor": 8352,
      "##ib": 8353,
      "Yavaş": 8354,
      "zincir": 8355,
      "kitabın": 8356,
      "Evde": 8357,
      "##ive": 8358,
      "oluşturuyor": 8359,
      "denen": 8360,
      "tatmin": 8361,
      "dinamik": 8362,
      "##emezsin": 8363,
      "##melidir": 8364,
      "##eğinde": 8365,
      "Bölümü": 8366,
      "Bunlardan": 8367,
      "kararını": 8368,
      "takımın": 8369,
      "gelişen": 8370,
      "##ografik": 8371,
      "endüstr": 8372,
      "özellikler": 8373,
      "arayan": 8374,
      "59": 8375,
      "İnsanların": 8376,
      "Xia": 8377,
      "kuz": 8378,
      "##bür": 8379,
      "Hani": 8380,
      "endek": 8381,
      "gözüküyor": 8382,
      "forma": 8383,
      "58": 8384,
      "##panyol": 8385,
      "Kanada": 8386,
      "Burak": 8387,
      "trav": 8388,
      "Arabistan": 8389,
      "koydu": 8390,
      "olacaksınız": 8391,
      "alkış": 8392,
      "kurmak": 8393,
      "doğan": 8394,
      "ba": 8395,
      "nü": 8396,
      "deneyimi": 8397,
      "belirlendi": 8398,
      "##ğım": 8399,
      "Dani": 8400,
      "hazırlanıyor": 8401,
      "##uşu": 8402,
      "Güler": 8403,
      "kurduğu": 8404,
      "kül": 8405,
      "gerçekleşti": 8406,
      "##iteratür": 8407,
      "kaydı": 8408,
      "Lim": 8409,
      "somut": 8410,
      "Ces": 8411,
      "##danın": 8412,
      "öldürmek": 8413,
      "yerleri": 8414,
      "##iste": 8415,
      "##uta": 8416,
      "zeki": 8417,
      "müsa": 8418,
      "koyun": 8419,
      "görmez": 8420,
      "##culuk": 8421,
      "üncü": 8422,
      "figür": 8423,
      "güvenliği": 8424,
      "##ğrul": 8425,
      "izi": 8426,
      "Kaymak": 8427,
      "bölgesi": 8428,
      "öfk": 8429,
      "karşılığında": 8430,
      "##elikopter": 8431,
      "##abilm": 8432,
      "##üşe": 8433,
      "gelmeye": 8434,
      "verileri": 8435,
      "iyilik": 8436,
      "##türü": 8437,
      "Avustral": 8438,
      "adamlar": 8439,
      "##cia": 8440,
      "##hoş": 8441,
      "Giriş": 8442,
      "arzu": 8443,
      "tebrik": 8444,
      "dönen": 8445,
      "bilgisi": 8446,
      "##avar": 8447,
      "disiplin": 8448,
      "Aynen": 8449,
      "malzeme": 8450,
      "koz": 8451,
      "başardı": 8452,
      "kenara": 8453,
      "##IS": 8454,
      "mağaz": 8455,
      "dördüncü": 8456,
      "Modern": 8457,
      "Ermeni": 8458,
      "bünyesinde": 8459,
      "##apiksel": 8460,
      "isimleri": 8461,
      "vurgulayan": 8462,
      "Nedir": 8463,
      "Herkesin": 8464,
      "masal": 8465,
      "Yavuz": 8466,
      "bağlan": 8467,
      "alakalı": 8468,
      "Black": 8469,
      "##tığın": 8470,
      "yuvar": 8471,
      "IM": 8472,
      "##piyat": 8473,
      "##izmin": 8474,
      "geçirdi": 8475,
      "kriter": 8476,
      "Federasyonu": 8477,
      "yapıyorlar": 8478,
      "duyduğu": 8479,
      "Üyesi": 8480,
      "kazı": 8481,
      "olabileceği": 8482,
      "aklıma": 8483,
      "esnasında": 8484,
      "Meclisi": 8485,
      "horm": 8486,
      "dışındaki": 8487,
      "sanıyorsun": 8488,
      "lo": 8489,
      "ibaret": 8490,
      "hiss": 8491,
      "Du": 8492,
      "çıkmaya": 8493,
      "##zen": 8494,
      "noktasında": 8495,
      "##mo": 8496,
      "bölgenin": 8497,
      "görülmüştür": 8498,
      "##tikleri": 8499,
      "netic": 8500,
      "ayrıldı": 8501,
      "Turg": 8502,
      "bam": 8503,
      "##çuk": 8504,
      "##yr": 8505,
      "ziyade": 8506,
      "Sez": 8507,
      "endişe": 8508,
      "biliyordum": 8509,
      "##enizi": 8510,
      "oyunda": 8511,
      "etmeyin": 8512,
      "yerinden": 8513,
      "kapıyı": 8514,
      "kandır": 8515,
      "serv": 8516,
      "sensin": 8517,
      "Çay": 8518,
      "tablet": 8519,
      "şap": 8520,
      "##TC": 8521,
      "Ef": 8522,
      "bela": 8523,
      "bulunması": 8524,
      "ceph": 8525,
      "sektörü": 8526,
      "seçilen": 8527,
      "##ww": 8528,
      "şehirde": 8529,
      "çarpıcı": 8530,
      "##ileriyle": 8531,
      "Bilgi": 8532,
      "panel": 8533,
      "bilgilere": 8534,
      "karakteri": 8535,
      "##mm": 8536,
      "gelmişti": 8537,
      "Genelkurmay": 8538,
      "##LE": 8539,
      "biliniyor": 8540,
      "Valisi": 8541,
      "##ora": 8542,
      "oruç": 8543,
      "##vin": 8544,
      "pir": 8545,
      "##yeni": 8546,
      "dönük": 8547,
      "##ling": 8548,
      "##ason": 8549,
      "Rahat": 8550,
      "##oo": 8551,
      "karşılıklı": 8552,
      "Fazla": 8553,
      "denilen": 8554,
      "geçmek": 8555,
      "##ümüze": 8556,
      "##del": 8557,
      "karn": 8558,
      "detaylar": 8559,
      "Umut": 8560,
      "04": 8561,
      "düzel": 8562,
      "Kamp": 8563,
      "##ski": 8564,
      "##PU": 8565,
      "sürecek": 8566,
      "##fli": 8567,
      "Putin": 8568,
      "tipi": 8569,
      "##lır": 8570,
      "##utanı": 8571,
      "ödülü": 8572,
      "reform": 8573,
      "sevdiği": 8574,
      "Kuvvetleri": 8575,
      "Bölgesi": 8576,
      "hediy": 8577,
      "67": 8578,
      "kabil": 8579,
      "akla": 8580,
      "##melerine": 8581,
      "##nes": 8582,
      "Mike": 8583,
      "##sızın": 8584,
      "##ragon": 8585,
      "oluşturduğu": 8586,
      "medy": 8587,
      "Kilis": 8588,
      "taks": 8589,
      "işken": 8590,
      "Lisesi": 8591,
      "yüzüne": 8592,
      "öğrendim": 8593,
      "##dukça": 8594,
      "##likten": 8595,
      "##ışıklık": 8596,
      "ked": 8597,
      "##DP": 8598,
      "ettin": 8599,
      "unutma": 8600,
      "##lenerek": 8601,
      "Oğuz": 8602,
      "Kendimi": 8603,
      "##ğının": 8604,
      "##amayan": 8605,
      "konuları": 8606,
      "Çalışmanın": 8607,
      "çiğ": 8608,
      "sahnede": 8609,
      "Ortak": 8610,
      "geçmişte": 8611,
      "Resmi": 8612,
      "sanay": 8613,
      "niteliğ": 8614,
      "olmam": 8615,
      "hukuki": 8616,
      "birinc": 8617,
      "Rah": 8618,
      "SE": 8619,
      "alanına": 8620,
      "##lobal": 8621,
      "belirgin": 8622,
      "Yalçın": 8623,
      "tutuyor": 8624,
      "Altı": 8625,
      "##şen": 8626,
      "800": 8627,
      "##ümrük": 8628,
      "Sony": 8629,
      "##delen": 8630,
      "haberine": 8631,
      "kazanmak": 8632,
      "Xbox": 8633,
      "değerleri": 8634,
      "edildiğini": 8635,
      "##ld": 8636,
      "##laz": 8637,
      "şimdilik": 8638,
      "kıskan": 8639,
      "##çılık": 8640,
      "hamile": 8641,
      "##tüd": 8642,
      "işine": 8643,
      "oturan": 8644,
      "Holly": 8645,
      "##TL": 8646,
      "gelmedi": 8647,
      "zafer": 8648,
      "##odu": 8649,
      "muc": 8650,
      "yang": 8651,
      "##ure": 8652,
      "Jes": 8653,
      "çatış": 8654,
      "anlamıyla": 8655,
      "arasından": 8656,
      "fazlasıyla": 8657,
      "yoldan": 8658,
      "##YA": 8659,
      "##faiye": 8660,
      "orijinal": 8661,
      "etken": 8662,
      "oturup": 8663,
      "Danış": 8664,
      "Vur": 8665,
      "olurken": 8666,
      "kaynaklı": 8667,
      "edebilmek": 8668,
      "dediler": 8669,
      "sandaly": 8670,
      "Neredeyse": 8671,
      "arttı": 8672,
      "değişti": 8673,
      "açıklamalarda": 8674,
      "##onsor": 8675,
      "Uzay": 8676,
      "Afgan": 8677,
      "nez": 8678,
      "cevabı": 8679,
      "filmler": 8680,
      "matematik": 8681,
      "yaşamaya": 8682,
      "olduğunuz": 8683,
      "Salı": 8684,
      "##way": 8685,
      "Sakın": 8686,
      "savcı": 8687,
      "grubun": 8688,
      "nam": 8689,
      "Jandarma": 8690,
      "layık": 8691,
      "##lamalı": 8692,
      "Sınav": 8693,
      "Eskiden": 8694,
      "Şanlı": 8695,
      "koltuğ": 8696,
      "Çocuğ": 8697,
      "sözlerini": 8698,
      "Demirel": 8699,
      "dokuz": 8700,
      "çekilen": 8701,
      "www": 8702,
      "Harry": 8703,
      "Psik": 8704,
      "posta": 8705,
      "eleman": 8706,
      "hesabı": 8707,
      "konusundaki": 8708,
      "İletişim": 8709,
      "laborat": 8710,
      "Konu": 8711,
      "Vatandaş": 8712,
      "istersen": 8713,
      "##cik": 8714,
      "Kimi": 8715,
      "Kendisi": 8716,
      "içe": 8717,
      "bilme": 8718,
      "1990": 8719,
      "yüzyılda": 8720,
      "##ültü": 8721,
      "stratejik": 8722,
      "albümü": 8723,
      "##ucusu": 8724,
      "##zon": 8725,
      "gününde": 8726,
      "beraberinde": 8727,
      "Çor": 8728,
      "göstermektedir": 8729,
      "cesur": 8730,
      "sensör": 8731,
      "Ekran": 8732,
      "insanlık": 8733,
      "Com": 8734,
      "yükselen": 8735,
      "ötürü": 8736,
      "##gener": 8737,
      "##emedim": 8738,
      "tavsiy": 8739,
      "obj": 8740,
      "##üzün": 8741,
      "başladık": 8742,
      "Kış": 8743,
      "geçiren": 8744,
      "gelecekte": 8745,
      "müziği": 8746,
      "Asıl": 8747,
      "##imini": 8748,
      "insanlarla": 8749,
      "yapacağı": 8750,
      "ilçesi": 8751,
      "##lon": 8752,
      "onlarca": 8753,
      "##tiş": 8754,
      "##PG": 8755,
      "yanıl": 8756,
      "Yarış": 8757,
      "direktör": 8758,
      "verip": 8759,
      "##sunun": 8760,
      "##akal": 8761,
      "##artman": 8762,
      "yüzü": 8763,
      "Ce": 8764,
      "gittiği": 8765,
      "##ment": 8766,
      "doğu": 8767,
      "Kaynak": 8768,
      "bürokr": 8769,
      "Teknoloji": 8770,
      "Müca": 8771,
      "dedin": 8772,
      "yurtdış": 8773,
      "deme": 8774,
      "hayırlı": 8775,
      "Bölüm": 8776,
      "##ille": 8777,
      "adında": 8778,
      "72": 8779,
      "topluluk": 8780,
      "##cın": 8781,
      "çevresinde": 8782,
      "##aklı": 8783,
      "İspanyol": 8784,
      "arkadaşlar": 8785,
      "birbirlerine": 8786,
      "sistemin": 8787,
      "TH": 8788,
      "Kendine": 8789,
      "protein": 8790,
      "##duktan": 8791,
      "ceb": 8792,
      "örneğin": 8793,
      "Adım": 8794,
      "komisyon": 8795,
      "Deprem": 8796,
      "##üyorum": 8797,
      "meclis": 8798,
      "okuya": 8799,
      "gemi": 8800,
      "topla": 8801,
      "Şunu": 8802,
      "kaynakları": 8803,
      "anlıyorum": 8804,
      "bardak": 8805,
      "Hele": 8806,
      "çalışmalarına": 8807,
      "Belediy": 8808,
      "hızı": 8809,
      "Det": 8810,
      "çam": 8811,
      "yaparım": 8812,
      "fan": 8813,
      "##pınar": 8814,
      "##liğinden": 8815,
      "izleme": 8816,
      "Müş": 8817,
      "Perşembe": 8818,
      "perde": 8819,
      "kullanıcılar": 8820,
      "kültürü": 8821,
      "##iyordum": 8822,
      "asgari": 8823,
      "kullanılıyor": 8824,
      "rahmet": 8825,
      "sizinle": 8826,
      "##imizle": 8827,
      "Mağ": 8828,
      "sende": 8829,
      "Siktir": 8830,
      "##emedi": 8831,
      "##ılıyorum": 8832,
      "akım": 8833,
      "##irmi": 8834,
      "gerçekleşecek": 8835,
      "CEO": 8836,
      "köprü": 8837,
      "Ez": 8838,
      "ikil": 8839,
      "Odası": 8840,
      "City": 8841,
      "##ulacak": 8842,
      "incelemek": 8843,
      "Baykal": 8844,
      "bulunmuştur": 8845,
      "yumuşak": 8846,
      "kullanılması": 8847,
      "tüy": 8848,
      "kontrolü": 8849,
      "Alk": 8850,
      "Olur": 8851,
      "Xiaomi": 8852,
      "tarihine": 8853,
      "gerekecek": 8854,
      "yapmaz": 8855,
      "sandık": 8856,
      "otop": 8857,
      "Özdemir": 8858,
      "beklet": 8859,
      "sağladı": 8860,
      "UE": 8861,
      "ettiğimiz": 8862,
      "zemin": 8863,
      "##erler": 8864,
      "koku": 8865,
      "baraj": 8866,
      "##oda": 8867,
      "dayanıklı": 8868,
      "haliyle": 8869,
      "Olmaz": 8870,
      "uzaklaştır": 8871,
      "Oğlum": 8872,
      "Zeynep": 8873,
      "##kilat": 8874,
      "manevi": 8875,
      "bütçe": 8876,
      "Birlikte": 8877,
      "##azarı": 8878,
      "bakıldığında": 8879,
      "Temel": 8880,
      "cennet": 8881,
      "kazanç": 8882,
      "1000": 8883,
      "hatırlıyor": 8884,
      "direkt": 8885,
      "##tle": 8886,
      "sınırları": 8887,
      "Dünyada": 8888,
      "##amaş": 8889,
      "##alisyon": 8890,
      "geçirdiği": 8891,
      "##ısın": 8892,
      "##yaş": 8893,
      "##IZ": 8894,
      "sorusuna": 8895,
      "oynat": 8896,
      "fazlasını": 8897,
      "olursanız": 8898,
      "Sistemi": 8899,
      "çoğunlukla": 8900,
      "Maliye": 8901,
      "vurguladı": 8902,
      "odaklı": 8903,
      "Yaşa": 8904,
      "iftar": 8905,
      "Mavi": 8906,
      "gördüğüm": 8907,
      "bebeğim": 8908,
      "sistemini": 8909,
      "Pop": 8910,
      "yaşadı": 8911,
      "nci": 8912,
      "##ilmişti": 8913,
      "istiyorlar": 8914,
      "ediyordu": 8915,
      "eğilim": 8916,
      "aydınlat": 8917,
      "Gran": 8918,
      "Çarşamba": 8919,
      "Hoca": 8920,
      "akademik": 8921,
      "Çoğu": 8922,
      "##led": 8923,
      "Şük": 8924,
      "vermiyor": 8925,
      "gençler": 8926,
      "keyf": 8927,
      "##ilirken": 8928,
      "ülkeyi": 8929,
      "Tol": 8930,
      "görmedim": 8931,
      "Enerji": 8932,
      "değişiklikler": 8933,
      "açığa": 8934,
      "5G": 8935,
      "sözler": 8936,
      "##ekat": 8937,
      "Düzen": 8938,
      "çektiği": 8939,
      "dır": 8940,
      "oynamak": 8941,
      "Soğ": 8942,
      "##yaj": 8943,
      "Blu": 8944,
      "atış": 8945,
      "Tör": 8946,
      "Bec": 8947,
      "Lib": 8948,
      "atılan": 8949,
      "ötesinde": 8950,
      "ayrıc": 8951,
      "değilse": 8952,
      "İnşallah": 8953,
      "ocak": 8954,
      "Herhangi": 8955,
      "##ebileceği": 8956,
      "##ılmaktadır": 8957,
      "aşamasında": 8958,
      "##SY": 8959,
      "geçtiği": 8960,
      "sordu": 8961,
      "duyuyor": 8962,
      "yardımıyla": 8963,
      "gemisi": 8964,
      "ekrana": 8965,
      "Bet": 8966,
      "iOS": 8967,
      "tahliye": 8968,
      "tuta": 8969,
      "Önümüzdeki": 8970,
      "TÜRK": 8971,
      "##liyorum": 8972,
      "söyledin": 8973,
      "neyin": 8974,
      "gelerek": 8975,
      "bulunma": 8976,
      "##umda": 8977,
      "sik": 8978,
      "araştırmalar": 8979,
      "kendimizi": 8980,
      "şifr": 8981,
      "Tanı": 8982,
      "çırp": 8983,
      "##cağımı": 8984,
      "##ydın": 8985,
      "sanı": 8986,
      "81": 8987,
      "##tip": 8988,
      "uzaktan": 8989,
      "##dıköy": 8990,
      "##kent": 8991,
      "metr": 8992,
      "ihanet": 8993,
      "olduğumuzu": 8994,
      "Nitekim": 8995,
      "Martin": 8996,
      "Fiyat": 8997,
      "##irse": 8998,
      "pazarlama": 8999,
      "düşünmek": 9000,
      "belirsiz": 9001,
      "idari": 9002,
      "göreve": 9003,
      "tay": 9004,
      "çalıştığını": 9005,
      "sözlerine": 9006,
      "görevli": 9007,
      "aldat": 9008,
      "Muğla": 9009,
      "bilmem": 9010,
      "toplantısı": 9011,
      "Çiçek": 9012,
      "bizde": 9013,
      "İsa": 9014,
      "tekli": 9015,
      "Richard": 9016,
      "burn": 9017,
      "Teş": 9018,
      "ant": 9019,
      "##leki": 9020,
      "Sahn": 9021,
      "çirkin": 9022,
      "sözleşme": 9023,
      "etkisiyle": 9024,
      "##fan": 9025,
      "##aport": 9026,
      "çalışılmıştır": 9027,
      "##andum": 9028,
      "##öv": 9029,
      "##eff": 9030,
      "##acası": 9031,
      "uygulamaya": 9032,
      "donanım": 9033,
      "anlata": 9034,
      "Ora": 9035,
      "şim": 9036,
      "adil": 9037,
      "##gatif": 9038,
      "NAS": 9039,
      "##urda": 9040,
      "galibiyet": 9041,
      "htt": 9042,
      "Mahkeme": 9043,
      "patlama": 9044,
      "taciz": 9045,
      "##mayacağını": 9046,
      "bulunduğumuz": 9047,
      "yükseldi": 9048,
      "havada": 9049,
      "Sonuçta": 9050,
      "Dağı": 9051,
      "##wa": 9052,
      "##ıldım": 9053,
      "almıştır": 9054,
      "Note": 9055,
      "yönettiği": 9056,
      "diyebiliriz": 9057,
      "Yüksel": 9058,
      "ülkeleri": 9059,
      "Suriy": 9060,
      "yolları": 9061,
      "kararlar": 9062,
      "##umuş": 9063,
      "##kest": 9064,
      "kilis": 9065,
      "bayr": 9066,
      "Ley": 9067,
      "07": 9068,
      "VE": 9069,
      "Oraya": 9070,
      "aldığım": 9071,
      "##onavirüs": 9072,
      "KAR": 9073,
      "##ırt": 9074,
      "öldürdü": 9075,
      "Buradaki": 9076,
      "zorla": 9077,
      "##efendi": 9078,
      "##landırıcı": 9079,
      "idare": 9080,
      "Kadıköy": 9081,
      "sevilen": 9082,
      "##tap": 9083,
      "anlatmak": 9084,
      "##layı": 9085,
      "kızlar": 9086,
      "miktarı": 9087,
      "##ted": 9088,
      "sahada": 9089,
      "Snap": 9090,
      "##mama": 9091,
      "##ebilirim": 9092,
      "vs": 9093,
      "toh": 9094,
      "Olim": 9095,
      "Kontrol": 9096,
      "Siyah": 9097,
      "##etle": 9098,
      "romantik": 9099,
      "##bank": 9100,
      "miras": 9101,
      "##LI": 9102,
      "##ganda": 9103,
      "##iyse": 9104,
      "##önü": 9105,
      "##lendirme": 9106,
      "olursak": 9107,
      "varken": 9108,
      "hayv": 9109,
      "konuşur": 9110,
      "##tüdyo": 9111,
      "Sekret": 9112,
      "mimari": 9113,
      "uydu": 9114,
      "Akın": 9115,
      "Sinema": 9116,
      "cerrah": 9117,
      "yönlü": 9118,
      "görülmektedir": 9119,
      "eme": 9120,
      "##mene": 9121,
      "aradı": 9122,
      "Şans": 9123,
      "##lıkların": 9124,
      "##ebileceğini": 9125,
      "yıllarında": 9126,
      "çant": 9127,
      "##manıza": 9128,
      "##oli": 9129,
      "##uyan": 9130,
      "##general": 9131,
      "müzisyen": 9132,
      "nadir": 9133,
      "küf": 9134,
      "kaba": 9135,
      "kopar": 9136,
      "öğrencisi": 9137,
      "yaşar": 9138,
      "yağı": 9139,
      "kurtarmak": 9140,
      "dikkati": 9141,
      "sürecinin": 9142,
      "samimi": 9143,
      "UEFA": 9144,
      "##kon": 9145,
      "##otel": 9146,
      "Real": 9147,
      "##sis": 9148,
      "Alp": 9149,
      "##Tİ": 9150,
      "fe": 9151,
      "yaşamı": 9152,
      "çekirdek": 9153,
      "muhabir": 9154,
      "##AĞ": 9155,
      "Çab": 9156,
      "adama": 9157,
      "vefat": 9158,
      "veriliyor": 9159,
      "##ASI": 9160,
      "jür": 9161,
      "önemini": 9162,
      "istediğin": 9163,
      "literatür": 9164,
      "##ikmet": 9165,
      "##uluğ": 9166,
      "ente": 9167,
      "yaptıklarını": 9168,
      "kıyasla": 9169,
      "vadeli": 9170,
      "##unuza": 9171,
      "şov": 9172,
      "açıklamaya": 9173,
      "GT": 9174,
      "birileri": 9175,
      "ışın": 9176,
      "tesad": 9177,
      "yıldızı": 9178,
      "mevzu": 9179,
      "##BB": 9180,
      "yaptırım": 9181,
      "Obama": 9182,
      "edilerek": 9183,
      "söylediler": 9184,
      "Belli": 9185,
      "kendileri": 9186,
      "gitsin": 9187,
      "Malatya": 9188,
      "hedefi": 9189,
      "konsol": 9190,
      "Bol": 9191,
      "çür": 9192,
      "Bon": 9193,
      "##tının": 9194,
      "yapıldığını": 9195,
      "Saldır": 9196,
      "sordum": 9197,
      "Gazetesi": 9198,
      "kalitesi": 9199,
      "rahatlıkla": 9200,
      "getirildi": 9201,
      "##İYE": 9202,
      "Pe": 9203,
      "Des": 9204,
      "700": 9205,
      "göky": 9206,
      "Kanal": 9207,
      "##MA": 9208,
      "filminde": 9209,
      "heyecanlı": 9210,
      "anlayışı": 9211,
      "organize": 9212,
      "##lıklarını": 9213,
      "cuma": 9214,
      "alem": 9215,
      "olduğun": 9216,
      "Doğal": 9217,
      "varlığı": 9218,
      "göğüs": 9219,
      "Cengiz": 9220,
      "95": 9221,
      "##yaspor": 9222,
      "Sup": 9223,
      "Erdem": 9224,
      "Hayal": 9225,
      "yürütülen": 9226,
      "##inizden": 9227,
      "atmak": 9228,
      "olmakla": 9229,
      "##lanmak": 9230,
      "adımlar": 9231,
      "borc": 9232,
      "sonradan": 9233,
      "##mun": 9234,
      "yaşadık": 9235,
      "Ortadoğu": 9236,
      "şahıs": 9237,
      "Gezi": 9238,
      "Halil": 9239,
      "gerç": 9240,
      "Üret": 9241,
      "adamları": 9242,
      "yetkili": 9243,
      "parası": 9244,
      "gökyüz": 9245,
      "diliyorum": 9246,
      "##lusu": 9247,
      "kurşun": 9248,
      "Şüph": 9249,
      "Ep": 9250,
      "##iymiş": 9251,
      "Toplam": 9252,
[...]
