.
,
##ın
##in
##ı
##da
##i
ve
##de
##si
##sı
##lar
bir
##ler
##a
##n
##ma
##leri
##ları
##u
##un
##e
##lan
##dır
##dir
yıl
bu
##lı
ol
##nda
##mış
o
##dı
ile
##ki
##me
##nın
(
)
##nin
##tir
##ü
##tır
##ya
"
##miş
##ün
##an
##m
##li
##den
##dan
de
##di
da
##nde
##r
##ıl
en
sonra
ilk
ad
için
##ye
film
tarafından
##su
##du
##en
ara
et
##ne
al
##dığ
albüm
yap
##duğ
##makta
##yla
##tur
##il
##tı
##na
##cu
##ni
##ım
##muş
##nı
:
##ti
daha
tarih
çok
ye
##yle
##mak
büyük
dünya
bölge
##nden
ise
##ndan
##len
##t
##mekte
kendi
##ır
futbol
oyun
##ta
biri
##diğ
##im
##lığ
##ir
##liğ
##cı
başla
gibi
##yı
savaş
##lik
;
iki
kadar
oluş
zaman
##le
şarkı
bulun
çalış
ala
gün
bağ
aynı
##lık
##te
son
karşı
kul
baş
sezon
the
##dur
maç
devlet
##mek
orta
##tığ
önem
iyi
ödül
ülke
##nun
abd
##dür
tak
birlikte
kazan
##tan
grub
eski
ver
üniversite
##la
tür
kuzey
on
sahip
diğer
var
gel
takım
önce
ada
türk
yeni
şark
lig
ancak
veya
eyalet
avrupa
şehr
görev
sanat
doğu
##leş
amerika
##yi
kur
güney
şehir
göre
##dü
el
##ul
il
yaş
##lü
ordu
almanya
##luğ
ya
d
gerçek
grup
ikinci
başkan
##tiğ
##arak
##çı
müzik
yapı
oyna
çık
yaz
##lu
e
ayrıca
##ten
yazar
alt
##laş
her
##ken
##nu
birçok
kupa
##ci
kal
batı
kez
dil
iç
kral
üç
kişi
oy
tek
kent
ilçe
an
rol
geç
bul
yönet
nüfus
içinde
##sel
milli
konu
baba
döne
##nlar
merkezi
##yan
italya
başarı
bazı
ek
hal
##ül
ı
gir
yaşa
##müş
parça
yapılan
fark
imparator
##çi
aile
üzerine
yer
yüksek
ardından
##er
istanbul
yayın
sistem
üye
hayat
katıl
süre
küçük
of
ev
tüm
geliş
şirket
kız
##ar
gelen
isim
eğitim
kısa
geri
yakın
etki
##erek
yol
şampiyon
merkez
alman
kullan
devam
ism
##ur
ingiltere
türkiye
yönetmen
üzere
parti
haziran
ay
yan
kas
şekil
##luk
kabul
ün
liste
kuvvet
cumhuriyet
a
dönem
roma
çıkar
düzenle
insan
ağustos
gol
bura
yarış
ingiliz
eylül
öl
sırasında
genel
mayıs
##tür
mart
sıra
halk
ocak
fakat
yüzyıl
fazla
##abil
uzun
fransız
km
özellikle
##sal
dizi
temmuz
aralık
dış
doğ
söz
genç
şubat
başar
##dık
%
##ca
osmanlı
##ce
karakter
##ümüz
ama
say
##sa
neden
bölüm
at
türki
yapım
sınır
sayı
kadın
kariyer
değiş
rağmen
sadece
durum
anlam
özel
kardeş
birleşik
##ydı
anne
sinema
nisa
##yen
çocuk
final
boyunca
uluslararası
oğl
iste
göster
sonuc
ulaş
veri
giy
geçir
üzerinde
birliğ
okul
üçüncü
çeşitli
##sü
tiyatro
ele
erkek
üst
su
ispanya
yaklaşık
new
##niz
gör
yayımla
ilişki
eser
kuru
arkadaş
bilinen
resmi
sür
rom
yerine
eder
##ydi
bölü
numara
seçil
köy
diz
uygula
sahne
frans
başkent
sonunda
ayrıl
kulüb
bilgi
##z
şampiyona
rusya
bugün
amerikan
mücadele
sat
ana
in
ön
yeniden
düşün
kurul
hareket
edi
şu
gerek
hafta
nedeniyle
değil
##sız
tam
eş
milyon
yüksel
yüz
ulusal
iran
birleş
tekrar
iş
olur
##siz
tarihi
yine
açık
sovyet
form
dal
getir
anla
yıldız
bili
dön
amac
john
alan
çek
alın
ait
avustralya
##um
stüdyo
doğru
kar
familya
piyasa
afrika
dağ
beraber
##ıyor
ilgili
yön
ingilizce
basketbol
asker
zor
konuş
başka
beri
aday
hava
##dik
teknik
bağımsız
belediye
gazete
televizyon
olay
dört
genellikle
mısır
düş
git
yardımcı
toplam
paris
gelir
ölüm
program
sahib
altın
yaşam
üzer
##lüğ
temel
asıl
toprak
##ebil
forma
az
ora
rock
evlen
##duk
pek
nehr
uzak
sınıf
york
kültür
kıyı
seri
bütün
##ıcı
birinci
japon
ankara
##se
gösteri
ata
çekil
çoğu
##madan
nokta
dahil
hükümet
birlik
dergi
fransa
kitab
spor
yarı
is
sağ
bil
kara
rus
festival
transfer
komuta
profesyonel
hemen
güç
art
kale
video
kulüp
top
stadyum
geçen
kısm
kala
##ici
ne
üre
saldırı
olimpiyat
söyle
##tu
paşa
adlan
bırak
lider
hizmet
sağla
çevre
böylece
kitap
askeri
performans
altı
biçim
israil
yerleş
u
oldukça
birkaç
##düğ
yayınla
avusturya
hem
saha
dolayı
derece
temsil
yahudi
tanı
beyaz
öğrenci
san
##nil
##ür
##iyor
##acak
içer
kaybet
m
konser
sır
tur
##tık
yok
##ama
gemi
çocuğ
tarz
şekl
se
seçim
park
ö
saat
kaynak
beş
seslen
model
muharebe
içeri
açı
güzel
göl
müziğ
fizik
yetiş
işle
mö
ilan
##ış
inşa
metal
yay
##yken
çin
##ip
akademi
işgal
yara
hakkında
renk
la
##yu
hikaye
lise
yunanistan
proje
kat
portekiz
köken
itibaren
taşın
londra
gitar
krallık
turnuva
üretim
sun
and
bina
kan
gid
beledi
asya
bin
canlan
ki
uyarla
tip
##ecek
tut
ilgi
yedi
roman
arka
toplum
göz
boy
direktör
buna
üret
müze
özellik
nba
oku
irlanda
tanım
öldür
edebiyat
madalya
saray
imzala
başbakan
modern
yerel
geniş
i
değişik
senaryo
açıkla
bitir
cephe
yanında
yerleşim
felsefe
anadol
motor
yaygın
ilerle
yoğun
bilim
satış
sefer
ben
##lük
##tik
taşı
taraf
michael
ak
##ucu
fıfa
sulta
##ıp
seç
siyaset
dikkat
doğa
popüler
ifade
iddia
çağ
başrol
tamam
araştır
azerbaycan
islam
##çe
polonya
göç
meydan
silah
görüş
ali
versiyon
geliştir
siyasi
hak
karar
dayan
bas
güneydoğu
müzisyen
aç
berlin
james
topla
##tü
plan
yıllık
hazır
giriş
mezun
çap
aktör
tamamla
bitki
dönüş
dördüncü
ırak
orijinal
iz
david
idare
sürdür
}
enerji
dakika
matematik
destek
çal
kadro
anlat
artık
güçlü
yun
meclis
britanya
şey
beste
vere
pop
ses
belirle
tanrı
japonya
defa
los
gönder
arap
profesör
kanal
düzey
bit
savun
metre
sene
birim
özerk
gece
sorun
cins
ortak
er
b
isviçre
bak
yen
bilgisayar
süper
haçlı
ayr
kayıt
mühendis
uğra
bey
aslında
yar
ın
üstlen
belçika
tane
bakan
hakk
büyü
şiir
prens
anlaş
es
başta
araştırma
par
ağır
##meden
tasar
fransızca
aşk
klasik
kaç
tartış
güneş
antik
para
internet
öykü
yönetim
yani
kol
haber
kuruluş
robert
tanış
etkin
general
dans
sosyal
faaliyet
doğum
tv
kullanım
federasyon
değer
hit
banka
politika
kır
firma
ortalama
kap
eleştirmen
atıl
richard
hukuk
fakülte
kıta
mevcut
##eme
kontrol
you
seçi
geçmiş
turne
hastalık
komedi
inan
kilise
benzer
vokal
örnek
ekonomik
ayrı
doktor
hiçbir
aşağı
lee
&
kıbrıs
ressam
nazi
sonuç
##malı
koy
han
planla
amaç
sürül
c
gelenek
to
kurgu
kaydet
taş
bile
paul
sürekli
belir
sayesinde
kuzeybatı
katkı
isveç
taarruz
kudüs
hücre
yöntem
brezilya
insa
william
emir
şair
yürü
ölü
thomas
opera
moskova
kuş
koru
kanada
din
zamanla
özgün
temsilci
müslüman
herhangi
r
hollanda
kelime
itibari
grand
kötü
hanedan
george
ders
çünkü
sık
kızıl
doğal
birbiri
akdeniz
hiç
radyo
yüzünden
çizgi
ispanyol
records
eurovision
ileri
vali
öğretmen
güc
ürün
resim
peter
adet
genelde
yolcu
dur
istasyon
ticaret
uygun
hindistan
otomobil
hükümdar
karşın
dünyada
windows
papa
bizans
##nün
yabancı
kana
diye
schleswig
adına
nehir
duygu
yana
araba
duy
zengin
müsabaka
bağlantı
hayvan
kesim
çoğunluğ
kon
örneğin
mustafa
çıkış
me
normal
##iş
le
bulut
ekib
steve
s
senarist
yarat
belirt
izle
sürü
uç
asit
teknoloji
von
yalnızca
hristiyan
kasaba
uçak
klip
deniz
marti
uefa
kes
##nunla
hazırla
sev
klib
kaliforniya
düşünce
hatta
yayıl
barış
site
görün
hız
kay
hızlı
hala
ti
yakala
baraj
söyler
orman
lisans
sebep
geçer
all
ekonomi
karşılık
galatasaray
karış
özelliğ
salon
kaynağ
uçağ
köprü
devr
takip
münih
sahil
canlı
donan
meksika
şimdi
##yerek
for
işlem
siyah
charles
serbest
organ
madde
boyut
yüzölçümü
love
gitarist
belli
tamamen
yöre
un
yazılı
korku
black
çift
bakanlığ
katı
finlandiya
billboard
jean
kopya
işçi
fenerbahçe
oscar
zafer
unvan
kuşat
sing
konsey
çatış
dol
iklim
miktar
atina
ayaklan
uzay
sırala
mehmet
kahraman
city
vilayet
dr
eleştiri
henüz
çalışır
macera
hastalığ
holstein
öğren
şiddet
uzunluğ
gizli
iktidar
sergile
öte
kapasite
paylaş
n
kore
tablo
isyan
takımyıldız
kırmızı
?
adam
cumhurbaşkanı
uzan
parlamento
yarımada
havalimanı
kural
holland
sol
sert
genişle
kont
yık
komünist
elektrik
hatt
sonradan
bildir
...
saint
yüzey
puan
harekat
kimya
izmir
devrim
kesin
çiz
komutan
halen
eşit
demir
destekle
bek
kış
!
görüntü
karşılığ
koca
mark
yardım
gelişim
araç
vatandaş
kabile
tanımla
zarar
dvd
bulgaristan
sekiz
kütle
okyanus
norveç
yönelik
dram
do
tehlike
bayan
otonom
arjantin
dini
ince
gümüş
oda
soru
güneybatı
kavram
kaybed
ticari
hastane
bahçe
pazar
##acağ
şans
ukrayna
kurum
kolej
grammy
##uyor
music
sarı
polis
madrid
desteğ
öğreti
herkes
kurtar
avukat
nobel
hayran
bestele
tahta
imkan
##yarak
angeles
idari
konum
##üyor
çoğunlukla
keşfed
enstitü
kayded
yansı
başlıca
koloni
önder
yunanca
almanca
köşe
ciddi
konferans
başlangıç
##eceğ
mevki
endülüs
açıklama
mavi
değişim
ekip
ter
henry
örgüt
terk
gezegen
öne
ışık
teklif
küba
medya
macaristan
imza
hedef
tar
iskoçya
körfez
kor
kriz
sebebiyle
kuzeydoğu
kapsam
##kü
kanser
dolayısıyla
davet
düşük
danimarka
forvet
yenilgi
yak
yılla
sosyalist
gaz
pers
rekor
dek
aşık
karı
madonna
alfabe
eylem
aksine
evlilik
kişilik
balkan
voleybol
etraf
malzeme
daire
##imiz
kolay
ıv
jackson
pilot
güvenlik
dna
oran
zamanında
tepki
balık
birbir
hint
ağaç
etkile
giderek
yeşil
seviye
kilis
böl
yas
yalnız
be
tesis
hakim
meyve
ağ
görü
millet
egemen
williams
mezar
orkestra
kod
varlığ
harf
world
milletvekili
solo
plak
emr
iletişim
yazıla
güreş
farsça
saldır
söylen
diren
kürt
komşu
mimari
tour
cm
tedavi
west
civar
duyur
barın
besle
müzikal
hat
ziyaret
##uş
taraftar
katolik
heykel
sağlık
süreç
asist
tenis
fikir
maria
kapsa
seyirci
ilgilen
atom
sayım
sırbistan
van
tanınmış
kategori
kadı
fotoğraf
müdür
muhammed
my
dağıl
yorum
sanayi
telefon
teori
politik
ölçü
romanya
anadolu
sevi
mimar
idam
demokratik
dağıt
inşaat
akıl
federal
ser
v
günlük
arena
##suz
aktris
çaba
sunucu
önceden
bölgesel
club
ker
rakib
yemek
j
türkçe
komün
dair
kök
beşiktaş
latince
ayı
organizasyon
baskı
antlaşma
anlaşma
venedik
gelecek
kraliçe
sırp
öncü
sözleş
dan
hot
galibiyet
soğuk
kültürel
hızla
america
k
yük
sözcüğ
cinsel
hasta
öde
deney
bilimsel
yağ
no
kapı
çevri
çay
subay
ermeni
afganistan
star
latin
not
kanat
##yü
ünvan
teslim
vietnam
azal
washington
sürec
yerli
evli
arapça
yazı
yitir
görür
ırk
bakımından
joseph
küre
so
kütüphane
metin
tel
atletizm
kaz
sivil
koşul
komite
kurtul
varlık
ruh
eğer
rusça
buffy
bağla
kamp
mil
iken
tom
yaklaş
kongre
usta
biraz
basit
bosna
pozisyon
can
deneme
karadeniz
kura
belge
ücret
prix
kule
litvanya
halka
charlie
anlayış
aktif
yaka
endüstri
nasıl
ahmed
hollywood
mahkeme
bahş
kilometre
lima
üs
ateş
parlak
aydın
kolordu
animasyon
birden
atatürk
##dük
öner
sekreter
düşman
engel
prodüktör
##ça
hafif
demokrat
kavuş
çıkma
otur
anayasa
marka
ahmet
show
reklam
şef
güven
kim
ibrahim
antrenör
bozuk
dev
kö
lehçe
tercih
tümen
kemal
verim
avcı
kraliyet
microsoft
test
bazen
royal
sözcük
tema
enfeksiyon
don
sevgili
topluluğ
süt
mi
kişisel
operasyon
sonuçlan
tara
müttefik
taban
ayak
köle
jack
lord
set
topluluk
benze
karmaşık
ayır
bahsed
kaçır
gerilim
kısım
metro
yanlış
zirve
rast
suç
f
darbe
bur
demiryolu
suri
duvar
bbc
liga
tıp
aktar
standart
sürüm
onur
louis
döner
bünye
premier
neredeyse
sant
camii
edward
tören
macar
davranış
mitoloji
üstün
buluş
anna
havaalanı
peru
değ
göm
##ince
arazi
şili
sıradan
uc
/
uyan
lif
##yıp
yi
layık
soy
yoluyla
real
saç
yürüt
##yacak
frank
cinsi
akraba
sakat
esnasında
tony
deneyim
aracı
bask
mümkün
hakimiyet
turizm
bakü
halife
tasarım
kamu
selçuklu
kalabalık
vadi
t
görevlen
one
cezayir
uzman
türlü
kenar
mevkii
ister
öğrenim
dosya
mutlu
##k
rapçi
victoria
sergi
bayrağ
yugoslavya
kimyasal
kaza
esas
girişim
çevr
mad
gül
gal
protein
kızılderili
sina
teşkil
efsane
karanlık
reform
claudius
sokak
rüya
evre
yunus
yasa
##meli
geçiş
mensup
as
akım
hayal
national
smith
şöyle
hasa
kitle
şov
çekim
stil
kaleci
tren
sonraları
yapıt
rahat
işbirliği
sürgü
göçmen
önceleri
kimse
altyapı
sezar
beşinci
tank
fabrika
gönül
sömürge
mahalle
önle
taht
otel
man
oluşum
peş
##ysa
with
çöz
servis
karayolu
dük
ağırlık
yorumla
mesafe
yaşar
ila
ford
ed
##ydu
tepe
aş
sur
olumlu
götür
sibirya
esir
manastır
maden
bisiklet
acı
mağlup
sektör
dışarı
kayıp
semt
deri
çıkart
suriye
yazma
hüseyin
kaynaklan
kapla
havza
istila
belirli
max
beğen
yavaş
niteliğ
ermenistan
intihar
ege
boğaz
şart
bank
tasarla
benimse
tutul
erken
konuk
kartaca
sporcu
ceza
post
altıncı
del
milliyet
enzim
değerlendir
##ımız
platin
kasab
ittifak
sayılı
çağdaş
düşür
saf
formula
çerçeve
league
wilhelm
##tuğ
tan
problem
otto
vampir
suçla
marcus
euro
güçlen
ihtiyaç
hırvatistan
düze
bekle
daniel
kimi
hepsi
toplantı
katil
yeteneğ
boya
yolla
akşam
##alı
##ınız
brezilyalı
çeşit
buz
çevir
mary
değin
feth
mehmed
davul
çeviri
best
web
işletim
redded
cami
hüküm
elizabeth
ispanyolca
mtv
mektup
bundesliga
ederle
##süz
aşırı
yukarı
benzeri
brian
prusya
sabah
re
harita
yedinci
atla
platform
francisco
kira
çeki
manchester
alet
amca
indir
hersek
serie
süleyman
şeyh
kum
yeterli
punk
açıla
kafa
ima
yaklaşım
biz
gözük
friedrich
kapat
kemer
filistin
bronz
h
tahmin
karadağ
juan
alaska
kedi
boş
gövde
tavsiye
ez
napolyon
##yıcı
anthony
sar
bakış
vokalist
murat
g
dalga
by
zincir
göka
kafkas
alternatif
##yici
muhafız
trabzon
belgesel
kutla
dolu
caz
harry
savunma
başbakanlık
gaga
atlet
nesne
programla
uzaklaş
makine
boston
katedral
yılan
fırsat
alexander
kamera
romantik
zelanda
=
virüs
house
dışiş
ilişkin
lakab
sırasıyla
yararlan
çarp
kurt
icra
vefat
mila
dağıtım
st
hediye
pist
cam
patla
bayram
##cık
trabzonspor
gerekli
resmen
tatil
filo
cumhurbaşkanlığı
mantar
uçuş
kalp
kuram
muhtemelen
##ası
green
coğrafi
isveçli
emmy
ulus
keman
yasak
ışın
vücut
alfred
kanun
karl
kapalı
hop
##sin
otorite
istatistik
rakam
tapınak
harvard
florida
belirgin
nişan
nijerya
gözle
ilham
fatih
senato
aşama
sir
fa
oğul
kafkasya
derin
deva
up
sıvı
p
reng
kalıntı
işaret
gine
bakteri
marie
sinir
##üm
kaldır
pierre
zırh
elektro
grupla
şube
görüşme
geleneğ
düzenli
live
ölümüne
night
ertesi
marş
uyum
linux
chicago
türe
bulgar
mal
dijital
mahkum
hangi
çağrıl
başlangıc
çiçek
joe
ibrani
aviv
röportaj
fi
jones
kevin
yerleşke
atlas
jason
yazılım
çalgı
manga
karşıla
denizaltı
tehdit
element
light
etiket
zorla
yükle
miss
lost
uruguay
ötürü
gerekse
##yacağ
kıl
chris
öğret
albert
vazgeç
küresel
psikoloji
piyade
makedonya
dokuz
böcek
rakip
tuz
emekli
elektronik
sıcak
fil
zayıf
eleştir
kampanya
dava
yarala
umut
meslek
##yse
nükleer
kalk
koç
porto
bileşik
gürcistan
aziz
ajan
suçlu
yönel
dost
mevsim
yağmur
turist
entertainment
dede
antakya
miras
katılım
men
prenses
z
tor
osma
te
işlev
mareşal
antonio
özgü
hane
eric
filozof
##çu
gözlem
kanıtla
birey
doku
ta
dar
sponsor
deprem
istifa
meşhur
ss
makale
finansal
simon
yasal
esinle
hong
kong
gerekçe
bat
has
kompleks
dramatik
mantık
gazi
gem
uzat
##yeceğ
pembe
ekran
paralel
ryan
pakistan
milyar
çıplak
doğrultu
mesaj
format
özgür
arşiv
timur
spears
zar
ge
lübnan
suudi
augustus
hazırlık
statü
yetenek
oyla
rütbe
tanrıça
hayali
görünüm
kutup
düzen
elen
böyle
francis
tad
cüce
bob
stad
çeyrek
siyasal
terim
ibn
it
ırmağ
çök
kg
ban
burn
italyanca
amatör
yörünge
zaten
jane
hep
yaprak
reddet
bağdat
bulan
cadde
cinayet
potansiyel
sicilya
##ücü
portre
villa
defans
vücud
konstantinopolis
kader
dedektif
konya
kılıç
noel
takvim
makina
##cü
arthur
nadir
sok
jay
pasifik
peygamber
kağan
school
sıkıntı
antalya
gürcü
floransa
keşiş
alkol
##çü
seçkin
ova
kov
y
düet
boşan
sevgi
hatırla
hasar
seattle
holding
konfederasyon
şövalye
rio
belgrad
na
eleman
tüy
işletme
ton
ba
vergi
maruz
dark
çarpış
kuyruk
king
milano
coğrafya
şeker
country
inanc
tutuk
sıfat
düz
etnik
balina
teşkilat
kalite
johann
bizzat
değişken
demokrasi
bel
dua
ideal
bill
jersey
örümcek
ölçek
ofis
litt
petrol
philip
aracılığıyla
figür
sadrazam
ufak
norma
di
kurban
##ınca
keşfet
oxford
galip
stephen
vur
cevap
dükkan
walter
mars
tespit
amazon
piyano
manuel
ağabey
zemin
şehzade
##yecek
ikiz
azınlık
pink
borsa
ömer
corporation
arabistan
bütçe
öngör
haka
eşya
yakıt
akciğer
reji
kavga
kutsal
nitelik
unsur
tipik
köpek
samuel
belirsiz
yarar
ray
bozul
ortaçağ
antarktika
ortam
henri
çıkacak
kanu
çağrı
yirmi
evliliğ
açıl
hazar
koş
ağrı
türkmen
örneğ
##nü
değerli
alacak
mekanik
istek
soylu
sebeb
fox
disney
eğlence
hacm
arnavut
derneğ
kaptan
öz
viyana
amaçla
gösterge
çete
sırt
tekniğ
memeli
kromozom
çocukluk
hd
##üp
yat
tente
menajer
kapan
manyetik
baro
heyet
##tüğ
françois
talep
galya
vurul
sözleşme
united
durdur
kare
incele
bakı
dik
teşvik
sayfa
yumurta
death
temiz
trafik
dolaş
vakf
tarkan
philadelphia
california
koro
padişah
dayalı
sadık
emevi
birincil
gerçeğ
batman
jr
august
buzul
peynir
editör
sscb
kurmay
kontrat
gök
tecrübe
seferi
tabur
üvey
iskender
anı
uğraş
saltanat
sahnele
uyar
galeri
fonksiyon
denk
##up
örgütle
donanım
hoca
müşteri
kaya
öğe
ms
karşıt
kimliğ
efendi
diyabet
hill
gene
adalet
bedel
alex
memur
arttır
ilkokul
gizem
jüri
sel
toronto
ilke
vikipedi
apollo
liverpool
ot
sorumlu
dj
görece
lakers
paten
kelim
çekirdeğ
sınav
çocukluğ
tokyo
sıkış
gişe
hekim
bart
bruce
süvari
simpson
taktik
mike
soruştur
yy
zehir
puanla
kalan
ortodoks
ışığ
thompson
ıt
arnavutluk
ha
ahşap
dağlık
yatır
mimarlık
seyahat
olgun
mers
kartal
kuzen
yeryüzü
galiçya
paket
##yun
kot
bireysel
go
saniye
yeraltı
başlık
karayip
hissed
carl
dövüş
lejyon
hans
eşcinsel
bulundur
övgü
yenilik
maki
delta
ist
şe
detay
şekillen
danışman
gezi
barcelo
moğol
diyarbakır
day
tasvir
napoli
boğ
queen
çağır
liman
altay
justin
azalt
sor
normandiya
##yabil
çekici
ekle
eskişehir
mini
cenaze
personel
robin
chaplin
last
bucak
dişi
##sın
ayağ
sendrom
ilginç
dean
nitelendir
köpeğ
buhar
görünüş
kişiliğ
estonya
kristal
akl
yeğen
central
katliam
savaşçı
toplu
kop
simge
açığ
viya
koyu
des
muhafazakar
johnson
tüket
rüzgar
metropoliten
lizbon
kızkardeş
kayb
isa
uydu
iptal
tiberius
manken
fiat
fikr
muhalefet
christian
başvur
çubuk
dönme
malt
gerçekten
toprağ
ıan
hidrojen
gold
bebek
eskiden
bar
disk
artır
mükemmel
yakup
vizyon
itibarıyla
kart
şah
radikal
wan
bad
isteğ
bade
hard
püskür
network
dinle
çöl
boz
adolf
kalıc
pay
yunan
dönü
tatlı
dır
hırvat
onayla
stratejik
aksiyon
sultan
cemaat
sara
sabit
doktora
karabağ
enstrüman
high
sula
atmosfer
ikna
büro
kadir
ani
tep
algıla
komut
mağara
kadıköy
unut
sekizinci
football
kurşun
geçerli
yem
mahmud
geçim
yerinde
mai
içerik
[
space
japonca
ziyade
belde
hamile
ok
aşkın
yolun
metallica
kağıt
spike
karşılaştır
hall
em
etkileşim
si
keşif
intikam
emine
mafya
andrew
lawrence
out
carlos
gider
engelle
konservatuvar
pozitif
haps
fakir
kömür
servet
rekabet
tapınağ
ziyaretçi
sakla
uğrat
ribaund
çalma
cisim
sembol
rap
edin
diş
protestan
tayland
odakla
swift
cuma
amy
birer
propaganda
lyon
christopher
yard
anlatı
what
gabriel
nero
kısal
gordon
denet
analiz
haliç
binlerce
öneri
will
rapor
çeşid
kampüs
die
uza
bonn
ligue
ındia
kazı
sıcaklık
oğuz
cenevre
konsept
prömiyer
elçi
birmingham
masa
##nce
yıldır
recep
ağırlığ
kademe
bavyera
two
sessiz
ajans
heykeltıraş
bay
cennet
dance
güvenliğ
saye
poe
bombardıman
devre
gerilla
##nıl
vekil
$
oranla
kopar
kork
##ydü
yıldırım
##uz
bor
euroleague
selanik
cup
çanakkale
franz
tahra
komisyon
aran
xbox
games
anime
sığın
blues
kiss
+
makam
genetik
os
çaylak
dead
ameliyat
##yüş
said
kemik
ismail
çekiş
marino
apple
teorik
arkeolojik
play
off
port
satranç
harold
av
risk
tıbbi
saygı
hacı
yusuf
dayanıklı
vb
gizle
budapeşte
douglas
yalan
genişliğ
şaşır
benjamin
cihaz
now
patrick
dağla
fildişi
organik
lori
hentbol
doldur
academy
organize
otomatik
ağac
geçici
fas
cambridge
burs
anıt
uygur
more
fikri
mikhail
filistinli
otobüs
yetkili
arzu
ılıman
selim
ernst
geçid
seks
kahve
şöhret
olağanüstü
ters
logo
evrim
çelik
davis
dahi
nick
tabaka
açlık
street
harca
satı
çinli
kaplan
danny
metraj
suikast
mor
jennifer
jefferson
büyücü
hapis
jonathan
derle
genc
li
çember
tell
##ünce
open
kapağ
kayser
kolombiya
faktör
geleceğ
manevi
frekans
sam
mekan
laboratuvar
ırmak
harris
sez
heyecan
hoşlan
billy
##yınca
luis
görünür
leo
üss
golf
gündem
junior
##nca
sal
fantastik
vladimir
forum
sami
cadı
mozart
şekli
budizm
standard
töre
uyku
uyu
aralığ
town
ahlak
erişim
university
iskoç
pazarla
şeref
fare
georgia
taylor
biyolojik
fırt
marmara
vitamin
paulo
vista
les
alışveriş
şerid
senfonik
fars
yayıncılık
down
gaziantep
perde
petersburg
balığ
balıkla
vıı
##üş
dinamik
celtics
sembolik
tibet
oysa
denklem
playstation
patron
yüksekokul
gen
christina
eriş
sınırla
edip
dağılım
melbourne
prag
kanıt
kırk
bal
magic
sparta
otuz
üstüne
mağaza
album
fırla
tunus
mac
dinlen
castro
yemen
metafizik
harika
günde
ludwig
izlanda
adams
rihanna
##yiş
bükreş
claude
mekanizma
bahar
heavy
onay
wallace
dont
kiev
silva
sertifika
part
hapishane
kaybol
bafta
kosova
giysi
bağır
yayım
sentetik
senatör
büyükşehir
brown
dönen
liberal
plato
muhteşem
tbmm
rum
cezalandır
etiyopya
broadway
kalb
michel
yerleşik
tüfek
iktisat
ecevit
hayır
erkeğ
sardinya
korsan
bağımlı
rob
asistan
gag
grek
inşaa
brad
görsel
gebe
ısıt
babür
big
charlotte
disiplin
chp
hata
walt
frankfurt
cep
dilin
teleskop
imaj
uyuştur
ödüllendir
akarsu
belki
hasılat
adana
kut
galaksi
##yip
moda
melek
yarım
kruvazör
porno
merak
netice
bayrak
aylık
dene
depola
kongo
yet
reaksiyon
çıkarma
evrensel
bilge
ilaç
jerry
long
maliyet
işadamı
pahalı
helsinki
halter
boris
maddi
asla
ilet
çekirdek
lewis
bernard
çözümle
ribaunt
yelken
veda
tez
baştan
cesed
yetişkin
abc
sipariş
bacak
grafik
ritim
slogan
göttingen
zihin
iyon
britney
##miz
iskandinav
bahset
refah
jim
ısı
enlem
lisa
devir
berkeley
biyokimya
reis
soyadı
yezid
müdahale
balıkesir
otoyol
remix
yönelim
birik
slovakya
terfi
ölümcül
dostluk
ınter
akla
söylenti
işe
polisiye
yaban
tarım
gençlerbirliği
yılmaz
sağlam
stan
mvp
borç
kıyasla
korel
çatı
sancak
senfoni
hakaret
rose
boşluğ
bayezid
just
düzlem
donat
sakin
defned
akademik
geoffrey
kilo
basra
ipek
der
mürettebat
silahla
gösterim
cannes
hisset
are
olanak
lady
gang
güncelle
örtü
sean
takas
granada
sodyum
yang
solist
abdullah
uzunluk
yetki
yelpaze
soul
artistik
yu
gönderi
serüven
sasani
zeka
soprano
south
josef
mesele
cartoon
gri
santos
cd
houston
lopez
##sun
tarikat
buda
fiyat
fe
pictures
sindirim
kulak
aksu
nitekim
şato
optik
college
zeki
hücum
hamam
libya
füze
kennedy
hitap
basınç
güncel
tupac
tokat
##esi
yedek
kahverengi
mod
dav
katar
motosiklet
cilt
havuz
##mız
unesco
arts
afgan
ayırt
ho
dubai
poli
mali
malezya
am
olgu
monte
diplomatik
zira
tahmini
hayalet
koleksiyon
aralıkta
budist
inanç
channel
sürel
yurt
robbie
baz
abbasi
ucuz
organizma
google
madison
gelin
kısmen
sonuçla
arma
ağz
mesleğ
bayern
küme
roger
papaz
fernando
berber
felaket
alay
ar
damar
ayrım
nda
köln
çeker
eğil
denis
hırsız
cerrahi
kirala
connecticut
ayrıntı
um
partizan
endonezya
clark
protesto
karbon
vurgula
ab
yuvarlak
ross
etha
kemiğ
adriyatik
koltuğ
yönlen
fahri
işlemci
panzer
özgürlük
farked
vaka
jordan
bula
öncelikle
branş
biyoloji
roket
pekin
marksist
dolay
bursa
graham
pas
sonbahar
ihtiyac
hesapla
cezaevi
konuşu
ürdün
kabuk
nelson
gotik
mağlubiyet
hisse
harp
again
ortağ
sap
amsterdam
lucas
çekme
avlan
felsefi
ikincil
kondansatör
tugay
beyliğ
malikane
torun
tutku
derinlik
küm
singapur
beğeni
have
russell
montreal
erdem
hristiyanlık
borc
karışık
betimle
gez
tuhaf
rahip
stanley
massachusetts
phoenix
nirvana
üçle
alba
baby
soundtrack
universal
butler
besi
boşal
muhabir
marsilya
izlenim
siz
rayo
maliye
boeing
saddam
kazakistan
tüccar
karaciğer
nato
erdoğan
zevk
istikrar
dolgu
anderson
beden
bayıl
nil
vahşi
sıkı
benz
ıce
endişe
hariç
yumuşak
canavar
yeral
portland
cemiyet
miami
edirne
folk
way
aygıt
sidney
sünni
sus
favori
maya
arac
nathan
atlantik
kırık
geometri
bruno
kablo
ekvator
mı
edgar
çarşı
erzurum
çağla
howard
uzma
ferrari
maxwell
portekizce
taksi
öfke
emret
arslan
##yiz
happy
mira
tutuklu
tat
saklan
mari
lihtenştayn
örnekle
suret
yavuz
özgürlüğ
medrese
kuveyt
stone
gazetecilik
darwin
ekmek
vatikan
genelkurmay
lake
rna
yuva
saturn
eğilim
sürükle
joan
yapay
yapın
heart
stratej
whitney
bayağı
mutfağ
ishak
olmaz
ağa
kaçak
tekrarla
dick
moral
ayna
bomba
book
selahaddin
slovak
doğrudan
ünlen
büyüğ
sanal
bale
carter
sürücü
valencia
facebook
olumsuz
siyahi
uy
dinamo
seyred
sit
state
ölç
yatak
glee
tanık
barok
sierra
anti
slav
olası
senegal
prensib
garip
şahi
uk
dante
duma
çorba
havacılık
diplomat
this
novi
yazıt
sinagog
london
aston
gösteriş
vincent
şahıs
tüken
neva
studios
kızılay
tünel
niyet
andır
söyl
bol
julia
nazaran
kars
bell
fiziğ
yüzük
solomon
bira
manda
he
tavır
açar
ısın
korkut
cinsiyet
fon
nova
nötrino
mana
forest
uzaktan
kıtlık
amiral
clinton
denetim
zorunlu
vestfalya
turner
alp
psikolojik
times
remiks
tersine
ayrılık
oynat
kesinlikle
benzerlik
yum
master
]
antonius
levi
f1
ortaokul
yanardağ
ortadoğu
ısrar
kurtuba
cape
yeterince
antalyaspor
saksonya
şerit
lloyd
muhalif
iktisadi
göreli
bakır
guy
efes
ibaret
eklenti
jimnastik
asil
deplasman
scott
konuşlan
jacques
moore
sandalye
büyüt
alim
kaynakla
whit
çiftlik
incil
memleket
sıkça
yavru
kör
nufus
vurgu
elle
aktivist
pişir
championship
beatles
aydınlat
hemoglobin
kayd
yatağ
savo
gü
astronomi
bateri
dream
pascal
kanad
gate
renault
larry
gary
girit
triatlon
or
şansölye
che
aldat
aleyh
brandenburg
rönesans
öyle
bilimkurgu
iskenderiye
antlaş
foster
siper
gereksinim
elektromanyetik
kimlik
eskimo
komedyen
sokağ
elazığ
hedefle
blok
gambiya
pencere
monaco
jovi
akustik
başvuru
davud
marksizm
einstein
cümle
ork
county
sinyal
gregory
basamak
benzet
kelly
neşe
hudson
zeus
kastamonu
##iniz
yıldönümü
sapta
sıva
##yebil
edebi
sendika
kürk
malavi
ohio
forever
muhafaza
komplo
bataklık
iblis
jedi
himaye
sosyoloji
mezhep
seksen
clair
elbise
halep
denge
ıvan
dişli
güve
daima
kapak
oliver
ertele
noktala
volkan
hitit
burak
yor
sonlan
kaykay
penaltı
arayüz
şam
spielberg
inka
havayolu
gözlemle
mani
gökada
yönelt
erçetin
dizile
gazze
düzgün
celal
safra
tercüme
bilinç
philipp
georges
bastır
sarmal
randy
ört
kritik
sk
kalın
çar
born
depresyon
ikamet
hawaii
baskın
hermann
küçül
dublin
boys
allah
skor
austin
sütun
gecik
bobby
yenile
düğ
istihbarat
pul
warren
duyar
yatkın
sesle
attila
cengiz
edna
vı
eksik
jeff
ipuç
group
ınc
spurs
robinson
terry
studio
yangın
leipzig
matthew
juliet
mezopotamya
başlığ
cermen
pro
market
ihraç
medeniyet
elverişli
kafatası
metropol
etap
anahtar
hun
jorge
yanıt
mount
belirti
tavşan
beklenmedik
konak
mansur
ayşe
orleans
insülin
melez
perry
ronald
denver
öncelik
rektör
lira
lille
kült
get
deyim
derinliğ
kostüm
dc
iznik
bolşevik
rastla
ilkbahar
avar
bakanlık
mülteci
görkem
kaçar
idrar
şii
württemberg
harvey
ac
from
who
finans
servi
we
jamie
akademisyen
malta
dikil
karakol
sonic
rick
rocky
fair
monako
yaşantı
delik
samsunspor
skandal
turing
nefret
sentez
disket
ithaf
takımada
gökyüzü
kiril
barcelona
kurs
diploma
johnny
yatırım
ankaragücü
takıl
young
uss
mekke
fuat
dormen
gergin
varis
kere
mahall
yugoslav
od
nem
kuşku
kaide
rejim
sos
somali
kit
fiili
atp
aslan
sauron
musevi
sözlük
sophie
call
doçent
patlak
ümit
takviye
fırat
itiraf
horasan
lange
emin
ateşkes
babil
zeynep
merhamet
öp
taşla
leon
grev
geçiri
deli
verici
onuncu
sebastian
çince
mach
artvin
jüpiter
stade
power
war
molekül
ıron
temizle
düzce
teorem
azeri
mülk
zenci
##yama
protokol
mobil
macarca
çekoslovakya
todd
şeytan
yannis
kalıp
chi
mesajlaş
rıza
yurtdışı
öze
arsenal
sülale
prova
jet
değerlen
giovanni
tayin
co
edmund
gözlemevi
mayın
milis
matt
analitik
onurlan
kir
cafer
sıkıl
doğrula
juventus
büyükbaba
mahke
yetersiz
lüksemburg
collins
efsanevi
hüzün
borussia
evcil
sürer
hanım
ınteractive
uçur
kese
rezerv
ispatla
saldırgan
diktatör
{
yoksul
tekerlek
mazda
abbas
knicks
bilinc
kızgın
guetta
rodriguez
bahia
nietzsche
salvador
ashley
cant
gerile
çokluğ
aurelius
hareketlen
pedro
yabani
bacağ
fred
ikon
arkeoloji
kıdem
kill
gürcüce
diane
newcastle
rachel
allen
dallas
bülent
fayda
sally
milat
ahlaki
tecavüz
belediyespor
france
katalan
dicle
vakt
espanyol
göze
içki
yaratık
playoff
önlem
harper
humboldt
anton
trajedi
ıl
jessica
phillips
steel
boğuş
bileşen
ejderha
eliptik
tekne
ann
etek
freddie
server
##nız
koku
davran
tutsak
nesil
carlo
want
need
teşhis
ender
there
perküsyon
##yış
emma
magazin
kabar
sudan
aleksandr
müthiş
taklit
family
marx
kanto
döngü
leyla
wta
ustalığ
konstantin
centro
faşist
presto
step
sivri
finanse
böbrek
rodos
tarık
kavim
ısır
brooks
hadrian
satıcı
ömür
ltd
doz
sıfır
kenya
seyrek
airlines
içeriğ
home
yengeç
sigar
bangladeş
imalat
leeds
tarif
marty
arif
bush
how
keşf
ortaklığ
devret
farabi
musa
nikola
kenan
türbe
adi
sosyalizm
taç
tanıt
asid
türev
lu
vinc
mesela
telif
deep
baterist
julie
another
##mazlık
çiftçi
zoe
nepal
talih
##iz
pc
emel
kahramanmaraş
ihale
kıymet
ağız
eskişehirspor
rehabilitasyon
kırgızistan
sonsuz
mode
olurla
hol
brighton
aktivite
hesap
zayıfla
sound
basel
luke
esrarengiz
rize
orantı
colin
hektar
hunter
ihtiyat
öyküle
cole
ihracat
denizli
ing
başkomutan
uşak
gözlük
ronaldo
dos
sindir
kızıldeniz
sheen
kolaylıkla
lorenzo
boynuz
banliyö
bella
bağlam
çarşamba
kubbe
jimmy
hurley
şükr
rakı
maraton
slam
roosevelt
eyyubi
gelibolu
tutar
romero
nispeten
ibadet
turuncu
şikayet
özdeş
gar
destan
popülarite
sayıla
çevrele
catherine
haric
living
marvel
fener
mauri
halit
woman
aşiret
division
chelsea
fort
sony
parmak
ocean
kamyon
monica
rehber
amblem
turgut
etken
mektub
mercury
birikim
carmen
başlı
sankt
sevilla
ınternational
square
jaguar
burton
sokul
referans
road
angelesta
memluk
virginia
klavye
chan
piskopos
belgele
havalan
leto
columbia
mercan
fetih
istisna
kuşağ
zonguldak
digital
ayar
##imsi
royce
bebeğ
jan
sıradağ
dawn
late
sea
fosil
river
plastik
çevirme
bitim
iflas
meşgul
medine
aragon
sunshine
##tikçe
şerif
okur
şahit
sil
rita
formül
engin
net
hare
eri
büyükelçi
endemik
mm
sağlığ
tac
las
katalog
asi
barry
ron
rosa
iskelet
sandler
greatest
restorasyon
guns
kanye
olanağ
never
artı
uganda
trafiğ
parla
graz
minnesota
eddie
floyd
mel
eklem
kanı
tıpkı
angel
siena
great
şanlıurfa
costa
baltık
toyota
trakya
tommy
doğur
strange
kürdistan
defansif
abhazya
air
fuar
fethed
koreografi
racing
memnun
schneider
jamaika
trompet
devral
şive
manzara
marc
unutulmaz
kamuoyu
company
michigan
janet
list
hamburger
makedon
keskin
afro
meme
alış
carolin
hamur
vakıf
josh
tcg
ufo
wayne
lucius
like
wilson
kutsa
aristokrat
ethernet
project
mit
folklor
raymond
kurgula
pkk
oturum
powell
nişanla
valley
eğ
böylelikle
patinaj
halil
eşin
ard
got
stalin
kings
humeyni
teksas
olamaz
ölçüm
end
kilometrekare
toros
itiraz
homo
aslen
kuantum
radar
wright
roberto
kuma
hükumet
dilbilim
pius
rolling
kabuğ
erik
ıts
feshed
ferguson
şok
bilkent
christmas
super
virgin
dağınık
stuttgart
prestij
bağışla
teknolojik
larnaka
birçoğu
bowie
denizaşırı
anglo
bochum
incel
masal
php
eleştirel
rey
beckett
boks
eşdeğer
jeolojik
bestekar
ubisoft
gala
gauss
hits
hakem
türkmenistan
potasyum
yakından
griff
coast
dörtlü
bulvar
sand
gale
gogh
mönchengladbach
broadcasting
alçak
sız
venezuela
meslektaş
brothers
kayıtla
hacettepe
lezbiyen
banks
çatal
voldemort
öv
kukla
karargah
sunu
mevzi
viking
prototip
saman
peugeot
denizcilik
richards
mario
giyim
derbi
kebap
verecek
eston
blue
amanda
yığ
kül
itibar
şarap
mr
diken
çiftliğ
habsburg
santral
anavatan
tesir
nitele
robot
çabala
konservatuar
wesley
demirel
atlanta
nbc
türkmence
leonardo
süryani
asilzade
pornografik
serçe
çapraz
bilen
nora
herbert
page
ilköğretim
tamir
calabria
sorumluluk
havayol
moleküler
kabaca
öğle
koalisyon
soluk
sorumluluğ
hammer
tff
janeiro
rhodes
kenny
reaktif
dök
##yım
boşluk
turistik
bulantı
göğüs
british
museum
metropolitan
flash
nice
take
çavuş
evlat
doksan
troçki
ideoloji
oskar
kıyamet
kocaelispor
izmit
bildiri
semantik
pamuk
tohum
atfed
castiel
crowley
plaj
basıla
alfredo
doubt
tiflis
secret
stadium
tutun
uğur
işkence
jeffrey
michelangelo
goethe
günlüğ
eugen
miles
ballıbabagiller
cıa
know
scooby
rumen
depo
toz
geometrik
öncül
emrah
rabi
estetik
kenobi
boksör
osaka
sonuncu
korn
postmodern
pacers
aguilera
demek
pet
society
paradis
missouri
gaara
balinagiller
cumartesi
kahire
yakar
lights
marcellus
tarihle
trail
wolf
north
soykırım
holokost
hindu
bahane
zeytin
hazırlığ
vs
his
erivan
metot
membran
filip
misyon
heat
volkanik
ubuntu
irade
riyad
salyangoz
hain
kopernik
akıntı
china
porsche
das
song
christie
departman
hükmet
nuri
alüminyum
numan
dizayn
adeta
jeremy
speed
teçhizat
mir
kapitalist
söylem
werner
abone
met
thames
greenwich
kovala
haliyle
isfahan
southampton
radio
system
çukurova
hesab
us
silk
soyut
ro
vasil
hadi
kaygı
kapıl
candan
satürn
roy
taleb
mesut
tazminat
girls
italyan
moğolistan
lav
pensilvanya
ibranice
geyik
müddet
heisenberg
piramit
girl
düşünür
iğne
prof
sermaye
delil
ısland
arya
aksaray
tarsus
keith
kesik
muazzam
sınıfla
tahsil
hazine
pico
ferreira
harap
parker
sebze
konsol
olasılık
hürriyet
news
trablusgarp
tayf
romano
semptom
bulgula
hey
gay
çayır
yıllarca
laura
gerard
smart
nakarat
musul
kumanda
halid
nadiren
kayaç
helena
parodi
tutukla
perspektif
prensip
barbara
hasköy
victor
simgele
piyanist
jacob
doctor
iştirak
faraday
parfüm
asia
öt
sheldon
ebul
sporting
ted
sanchez
mercedes
flama
fatma
yanaş
ulu
mescid
yayla
fizyoloji
heinz
solucan
metod
arafat
enerjik
kuyu
yehud
dilim
integral
cad
bunalım
şaka
ugan
tayvan
tablet
rahatla
derhal
seyyid
temsili
moldova
annie
tahkim
üretken
kok
ekonomist
veritabanı
serdar
inci
belucistan
oktay
rumeli
çıkıntı
döşe
hani
oliveira
grönland
faroe
diego
anka
lacivert
yürürlüğ
harrison
otobiyografi
sutopu
feragat
mahmut
kesiş
perşembe
far
şafak
fire
bitkisel
gereğ
dağcı
cliff
warner
bros
eduardo
kanji
şizofren
crysis
fethet
kahn
leopold
bolivya
gökdelen
kamerun
horn
elit
gerçekte
tüketim
wembley
songs
sarıyer
melik
otlak
ınstitute
maske
dokuzuncu
ünite
hannibal
elisabeth
uranüs
yürürlük
botsvana
watson
hogwarts
cena
aaron
belleğ
bilet
şapka
shakespeare
kurak
sydney
major
beyzbol
band
çoban
vezir
süs
curtis
tolkien
yarbay
yeridir
dindar
tavr
first
hayati
takiben
rooney
çetin
terminal
hatun
çelişki
four
rigby
boyuna
hannover
bahçelievler
nasa
batarya
güvenilir
ütopya
binbaşı
dekor
eritre
tito
comics
ovacık
izn
sayısal
manisa
dave
thüringen
leibniz
gramer
boşnak
koch
oh
adnan
sever
duyu
cahit
üslup
alai
lamborghini
gt
seth
bölüğ
maximilian
öbür
cook
lombard
abi
kayak
phil
dokun
nakled
##tuk
erdemli
kötülük
davy
lanet
nikolay
sözcü
negatif
bern
sheffield
üzüm
katsayı
ısparta
restoran
diva
timo
disko
tüt
association
tıraş
krem
ekol
lüks
bm
enver
elektra
georg
klinik
momentum
sv
tasavvuf
taka
pi
demo
iskele
oz
wimbledon
imha
musiki
sorgula
bonservis
samsun
müsteşar
talimat
riley
lincoln
kaşgar
ömr
caligula
asl
mat
öztürk
alfa
karaca
ermenice
çizi
yüzlerce
yılbaş
seymour
tempo
takdir
acımasız
per
yorkshire
acil
nikki
guru
sohbet
mexico
##yince
baas
franklin
tümüyle
vakit
edge
balo
days
medici
karışım
gey
garde
uyarı
karşıyaka
kolluk
polimer
bird
idman
lehistan
uzantı
bolu
nijer
kütleçekim
beat
selçuk
peyzaj
kronolojik
maymun
çırak
sciences
ralph
samoa
ester
edwards
çim
ısbn
snoop
dogg
game
atölye
bryan
gencer
abhaz
kürsü
child
fince
boyn
berabere
sure
yargı
teğmen
serin
melodi
willow
metn
gırtlak
helikopter
bolton
rivayet
papua
poz
içiş
meditasyon
seven
paraşüt
business
harald
bulls
abla
mutlak
klarinet
esasen
ger
ayetullah
murad
entelektüel
ilhak
basınc
zürih
prodüksiyon
botanik
hafız
neil
friends
crazy
diamond
breda
ayakkabı
ontario
anında
mozambik
stewart
torres
adobe
musical
##çık
avantaj
gloria
doors
newton
tabir
yurd
yazım
samuray
pelikan
javier
konyaspor
detroit
huzur
francesco
deyi
müşterek
orlando
ihanet
bond
konumlan
usul
donald
vaftiz
korece
sıklet
blood
mess
bilecik
incir
çabuk
seyhan
anket
back
adres
silindir
cent
dino
rockstar
konfüçyüs
aniden
buçuk
darius
come
kai
yuko
bedeni
insani
mayalan
ayrılığ
yiyecek
yargıla
sweet
ısaac
mason
varol
başpiskopos
mara
emek
android
omuz
quentin
free
kaydol
kil
galileo
bulgu
hüsrev
sirius
yazış
giorgio
##umuz
çoğunluk
mp
kopenhag
pacific
texas
gökhan
üçgen
team
genom
nowitzki
cooper
schengen
yapraklı
isabet
mantığ
proto
zehirle
sex
edinburgh
hotel
lezzet
grekoromen
fiil
üslub
usb
geçit
file
garantile
yüzbaşı
hidroelektrik
acemi
arsenik
kibar
dönüşüm
solaris
wellington
nihai
hadis
regina
arşivle
kıyafet
akhisar
sahra
mineral
katled
believe
australia
ikmal
galat
akın
petit
kahir
razı
koşu
sıcaklığ
area
meskun
gücün
bakım
angola
madeni
carr
üste
danimarkalı
wagner
viski
humbert
bulmaca
neptün
alaka
listele
darren
hopkins
ilahi
kamboçya
kantat
gaziantepspor
nu
nöbet
merdiven
gölge
onlarca
kaçın
beta
tahsis
abel
obi
shaquille
suns
timberlake
çığlık
shot
panter
utah
thai
kırma
retina
nine
slayer
marilyn
manson
drago
aragorn
yon
romance
weekly
yakında
primat
tebriz
sezgi
##nuz
cameron
bant
yolsuz
reyting
turkey
dexter
elvis
abart
fender
levent
masters
buluntu
yatay
mehdi
vega
nihal
mukavemet
rizespor
sav
doruk
boru
vasiyet
starr
oder
madagaskar
maggie
kumsal
klan
bloom
mecnun
troy
meşrutiyet
kolesterol
süpernova
özbekistan
animatör
glenn
erdebil
kriket
koordinat
pars
online
polat
temas
özetle
blazers
place
fr
nesl
kışla
dublaj
bambaşka
promosyon
marek
casus
schalke
hatip
sekil
aksi
nihat
asturias
borneo
bram
agatha
alkali
kükürt
müdafaa
sünger
ihtiyar
torre
müfettiş
tekel
kağıd
nicolas
gele
hikmet
varşova
testi
mutlaka
kari
beach
görünüşte
gezgin
becker
nefes
azer
atıf
mobilya
sigorta
togo
karaman
içiçe
flor
varyasyon
yoksa
northrop
makedonca
bitlis
sikke
asır
evsahip
ph
israiloğul
holly
sung
sağcı
hp
youtube
bilinmeyen
mücevher
ınternet
tatar
astronom
cevher
dekorasyon
korkunç
stephanie
eğit
##muz
arabi
kansas
tamamiyle
diyafram
alvarez
tefsir
cem
deneyle
alıcı
oklahoma
tanker
ıdol
travis
jess
sürpriz
cavit
hannah
boykot
gıda
soyun
elma
geceleri
karla
matilda
yumuşa
antrenman
dürüst
angela
atlat
hazin
tanzanya
oval
##eli
pat
derrick
iade
boğaziçi
menkul
giray
hamlet
sıkışık
##dikçe
seyyah
seiko
parçala
santo
darüşşafaka
klorür
publishing
yirminci
massive
attack
bursaspor
iskan
daily
kafka
andy
hekimoğlu
yeniçeri
ocağ
dü
şelale
ardahan
aşağıla
yönerge
tüberküloz
baptist
santiago
aylarca
ayakta
kayı
defalarca
crawford
granad
gittikçe
monza
spencer
dayı
duke
woody
soygun
feminist
oregon
broken
primera
ateist
ünsal
müzikle
volt
kızak
wall
pirinç
uygarlığ
gereç
opel
alexandre
madalyon
libretto
hormon
sellers
poker
face
konağ
yanlı
sultanahmet
pyotr
ruan
ıssız
org
eğri
chihuahua
yoksun
buhran
feminizm
marge
tersane
doğaçlama
tahrik
evvel
uydurma
nükleik
hercules
fidan
kiraz
pa
lütfi
bağış
şoray
çimento
çöküş
dövme
full
emilim
aşıla
deutsche
saga
dimyat
kktc
heinrich
sadakat
uruk
melezle
ardışık
ağaçla
davenport
turn
imparatoriçe
nuggets
radyasyon
mail
fikret
fantezi
beylerbeyi
çikolata
cohen
serena
şarapova
wi
kavşak
give
cristian
ante
yarımküre
leone
dolmabahçe
emeğ
lakap
ihlal
gard
horse
olivia
trinidad
priz
veli
damla
alev
guild
yurttaş
çıldır
dominik
jump
tuvalet
bitişik
paolo
hell
mayer
yinele
flüt
guatemala
gözaltı
leicester
box
kaset
istem
infaz
gayrimenkul
tropikal
mesih
kararname
vatan
leylek
kuyruğ
karabük
picasso
jackie
russia
minaj
alpha
abdi
mam
aksoy
orhun
provence
antoine
tutsi
dianne
walking
mickey
conan
planet
spin
manic
ereğli
rubin
papağan
kusur
paskalya
yortu
actors
ateşle
roses
enigma
campbell
direkt
strateji
teşebbüs
yafa
kabare
karbondioksit
satellite
sözlü
cism
karakterize
short
marcos
cpu
##yucu
mü
fırtına
kandır
hanks
gürültü
inönü
gramsci
##msi
lonely
memphis
hile
vegas
lal
çılgın
gurub
gwen
fazıl
rahm
muğla
torino
lazer
dönük
seminer
ileti
boşnakça
sırpça
hiçbiri
doping
yenik
çerkes
mass
break
biber
three
ri
katman
ra
kova
moment
anubis
parma
pakt
vazgeçir
sturm
banker
norman
tau
pot
ziya
megadeth
ney
ekspres
gözyaş
hırs
yakışıklı
nerede
sözlüğ
buenos
aires
kemençe
blade
kısıt
human
masum
technology
diyalog
brennan
joss
kudret
saban
blake
duyarlı
##unca
iskandinavya
ihtiva
arter
eliyle
islami
kazak
şoför
kahvaltı
lokomotiv
şüphe
döv
danışmanlık
albay
operasyonel
def
görüntüle
ithafen
zincirle
shirley
make
linus
terked
afrikalı
muhtemel
franco
solunum
hamilton
tiraj
doruğ
uyarınca
şikago
teşekkür
kene
debi
mezuniyet
ıf
tonight
castle
yapılandır
kaynat
monster
ball
mizahi
kabataş
tutuş
matthias
thriller
craig
parala
portsmouth
fırça
bozgun
yüküm
kofi
gidiş
umud
sakarya
dylan
taşır
braga
erbil
eşey
alacakaranlık
pantomim
cleveland
kiel
meazza
işte
##msı
kapa
joey
yoo
ji
auckland
duman
nate
krist
sassari
ayla
chamber
koala
pes
bombala
kışın
betty
pauli
murray
bürokrasi
sincan
alacağ
güner
soğan
seal
jam
cesaret
alicia
bender
adapte
bağdaş
veteriner
atletik
england
karıncayiyen
meblağ
bach
olga
tilki
yasağ
elmas
popülasyon
kirk
düzlüğ
kek
baharat
tales
people
lirik
operet
hegel
ecza
podyum
double
eyes
daya
amin
letonya
andrea
gayret
leningrad
weimar
korunağ
point
woods
hugh
benzerliğ
good
evil
hafıza
demirspor
cruz
resimle
arın
iri
dördün
ebert
glen
abdurrahman
akşamları
noise
body
alonso
yahut
akvaryum
evolution
second
jermain
data
izole
octavia
nash
canadian
hayli
feyenoord
osmaniye
getiri
summer
haman
alışkan
kısıtla
yüzüğ
gömülü
alcatraz
movie
spd
return
tun
itaat
leonard
korun
giresun
ham
hatıra
doğumgünü
malatya
oğlan
dahl
serhat
çığlığ
ığdır
cesar
pekmez
pagan
droid
kalkan
ni
cenova
yemeğ
extreme
balad
ekvador
tnt
fıde
dokuma
kalkın
şirin
kına
guardia
hande
söylence
andorra
şaban
germain
miguel
minare
kabin
yavaşla
yel
jandarma
dane
minyatür
shawn
adım
çıkacağ
source
hülya
kıraç
norm
misilleme
nasyonal
lively
eyüp
karasu
düello
sürtün
kaçış
constantinus
tekstil
sistematik
falco
karayol
law
airways
kumandan
coşkun
akıncı
dul
under
pompey
audi
karikatür
basar
baron
eflak
selma
nü
sancağ
mancini
epik
kaba
salınım
darth
rodezya
izotop
unix
java
kasırga
ayrıcalık
films
hitchcock
doris
espn
düşkün
rica
elektron
sıçra
endonezyalı
gran
dedikodu
rasputin
yergi
adventure
sivasspor
kelt
yamaç
leh
azled
shadow
juno
camp
barbaros
kadarki
eksen
enflasyon
kapsül
haldun
rohan
celtic
desmond
empire
kalsiyum
hz
morgan
lenfoma
sarah
samar
hümanist
sığ
baker
ahali
felix
luka
abu
hatır
dale
aydınlan
hac
gram
duruşma
mississippi
saturday
truva
aynen
joshua
princeton
anya
ferrara
elena
dilbilgisi
korelasyon
ihtimali
rıhtım
nürnberg
düzlük
worlds
tu
menzil
damad
hatay
samani
klein
sivas
express
hukuki
biseksüel
sergey
etmen
fiber
modelle
köprübaşı
kilit
palmiye
namık
maximus
manu
koyar
toro
işaretle
optimus
sansür
hm
gezinti
ebeveyn
kendinden
sinop
ihsan
ağıt
money
ıglesias
otomotiv
meryem
deyiş
daum
ülkü
yellow
kredi
bellek
garanti
sport
jake
cebir
howe
sullivan
andrey
wolfgang
hodgkin
haham
kılığ
kopyala
daegu
orhangazi
doktrin
apartman
mann
kesinti
daewoo
düzelt
party
mülkiyet
sars
birliktelik
johannes
crassus
kasımpaşa
malay
siirt
armağan
atik
god
fiilen
siyonizm
talk
frang
rahib
yepyeni
burundi
kodla
riko
çakıl
birazcık
çekimle
cecil
konut
sacramento
felemenkçe
kendiliğinden
derya
rowan
limasol
kaplıca
yanıtla
güvence
evren
hikayele
üzül
afrodit
eleanor
doom
örgü
exchange
zan
riviera
çiçekle
sulu
omar
katlan
erozyon
materyal
joker
ilhan
bekçi
vale
hanover
onkoloji
potter
birara
süsle
bulaş
lazca
karakoyunlu
türkü
center
şenlik
albion
gabon
oruç
şebeke
romulus
müstehcen
duka
ural
gps
konrad
nahiye
lynn
umre
kamyonet
kabil
centre
suna
lucia
matsumoto
excel
imal
vika
pil
gürkan
nötron
çözün
zahmet
blackburn
rovers
acele
frederick
eşiğ
birleşim
çiçeğ
hawks
bohr
nitrat
karmaşa
erciyesspor
hills
confessions
bürokrat
ahit
knight
graf
fermantasyon
hari
hakikat
komünizm
atilla
yün
ceyla
toskana
tuval
anadil
harabe
alanya
sue
puro
mardi
nöron
duncan
yulaf
gaston
pietro
sentezle
dib
kumaş
somut
kolektif
sofya
teodor
çıkmaz
pisa
walker
koni
mütevazı
berberi
zimbabve
region
volker
kirpi
herkül
nam
konsül
pir
kumar
press
arar
mermer
yansıla
abdülaziz
lecter
çokça
emniyet
gündüz
kazanc
düğü
hastalan
sanrı
marshall
seramik
neill
danıştay
anonim
screen
şifa
pire
common
andromeda
ferdinand
adenauer
bez
korteks
>
rozet
atacama
grey
koşulla
sein
als
urmiye
kalkış
belgorod
peyton
hanna
antropoloji
tahrip
tacir
western
çatlak
fındık
wire
nancy
keegan
iren
falcao
joo
mavericks
kıvrım
yo
kıyasıya
serge
kus
esrar
talmud
risale
şeytani
##cik
ergenlik
youth
necip
çini
barselona
bonapart
sloven
köstebeğ
drake
care
klasman
jolie
seymen
kaçakçı
espri
karınca
çene
turk
fresno
oneal
level
pulitzer
otobiyografik
peck
atv
clare
sera
çoğal
minimalist
aminoasit
when
sırr
gültekin
adaptasyon
fena
geoff
cehennem
kürek
globe
vaad
markiz
phantom
borgia
clive
belfast
ip
fever
vaşak
ergin
eğim
dikey
damıt
otizm
himalaya
tatu
toledo
çaykur
küf
fuji
award
sale
kursk
zekeriya
referandum
kort
antoloji
sezaryen
kovboy
midnight
iv
judith
dementieva
bosnalı
kadife
ultra
hepatit
cerro
şimşek
jacksonville
başçavuş
korkak
komik
sarhoş
ör
cromwell
kedigiller
deizm
biat
tavan
sade
mihver
bradford
##mezliğ
hilary
forrest
zalgiris
brecht
saz
guitar
falkland
masaüstü
ralli
reinhardt
ortalığ
şahin
dominic
guangzhou
haley
a2
buena
psikiyatri
sarkozy
plağ
koreograf
pelin
durağ
floresan
boluspor
chevrolet
mariner
devasa
cdu
kaiser
coşku
politeknik
metafiziğ
spinoza
arnold
episode
pekiş
entegrasyon
lokavt
##yeme
arnavutça
aba
narnia
yorgun
fall
arı
zone
emet
arkeolog
süregel
göçebe
arz
altuğ
tırman
bulduk
dee
sportif
panik
tart
mcmahon
fontaine
sırf
resmet
sevil
superman
namibya
larisa
sistemik
epitel
sabbath
esenboğa
ezra
helenistik
jeoloji
atletico
biç
gladyatör
hackman
hope
knesset
basma
kardinal
concacaf
tl
vaiz
percy
hisar
nöropati
olympiakos
tess
murnau
direnc
sanki
##yın
zannet
ronson
delphi
alem
kalıt
ayrık
saruman
ısengard
tok
berners
ağın
diyabetik
kozmonot
cosmos
orhan
boat
office
brett
bergamo
istatistiki
kula
arizona
osetya
buck
björk
modifiye
teker
theatre
fanatik
gündelik
bernardo
ajda
kalıb
operatör
derbent
salt
yeşim
ziyafet
train
story
media
amir
haftalarca
cnn
burke
katır
bindir
akkoyun
safevi
firaz
velid
aritmetik
istihdam
lozan
fıba
brüksel
wallis
bergen
ideolojik
adventures
kıvam
çubuğ
mc
lando
fidel
kutman
ağla
ritmik
yıldızla
emilio
mutfak
jericho
kingston
cody
rosario
maxima
led
iletken
giuseppe
mikroorganizma
azot
antibiyotik
volkswagen
type
nothing
birleşen
kahin
yalanla
wu
cho
wittgenstein
kıskanç
groove
bostan
dundee
hugo
köşk
baha
akrobasi
tatmin
total
fahişe
cain
karakteristik
enstrümantal
zombi
maradona
athletic
bilbao
mervan
vail
dakota
rabbi
nakliye
klasiğ
averaj
athena
mannheim
akson
saadet
tabak
türkan
böceğ
meşe
cumhur
gilan
masumiyet
etienne
hornets
etnografik
katherine
moon
indirge
lehmann
dağlı
goblin
oakland
kanuni
althusser
jülyen
gregoryen
willem
bradley
abluka
hart
herodot
kızılok
başyazar
wolverine
örü
haluk
sürme
kabiliyet
davut
öteki
kuzu
rıfat
akaryakıt
bring
carey
rehin
a1
kavşağ
morris
pier
chrome
fabia
tedarik
lavta
about
bazan
transformers
kanton
soğut
ivme
nikita
ari
funk
fiberoptik
solcu
sistan
fame
çizim
foundation
june
dinyeper
enformasyon
drakula
grumman
ısrael
yatılı
rugby
anemi
kurnaz
dilenci
stage
hicri
kaplama
raki
saraybosna
aded
mezheb
nasır
huxley
yağma
services
tallinn
çare
crytek
electronic
serf
özlem
bütünüyle
hunt
dizilim
şifre
barbosa
rush
devri
other
nation
filipin
reggae
meir
toktamış
maaş
cass
elliot
şi
sad
stuart
veliaht
akut
türbin
sanatoryum
basic
creed
trip
sufi
swatch
weaver
##tıkça
şahsi
andreas
veneto
right
bmw
rolls
papağangiller
damak
malatyaspor
old
yağmala
descartes
bohemya
kafe
ayvaz
magnezyum
tb
medusa
asur
haru
okay
atasöz
kulağ
bosque
casablanca
faik
ruhani
lecce
edwin
siğil
deng
malcolm
daimi
rakım
field
yırtıcı
ca
fiziki
duff
epica
dizüstü
parmağ
avokado
grip
yanlışlıkla
akat
truman
bedava
zapata
ayni
drew
dennis
öcalan
tembel
yahoo
gandalf
zorunluluğ
ülker
beijing
srebrenica
kayıtbay
seyfeddin
mühimmat
bot
beton
caro
sophia
eksi
weir
clayton
yaratığ
feshet
celi
dion
rolf
dizel
makyaj
##üz
haberdar
erotik
erich
niyazi
taliban
same
hissi
misafir
tirol
talking
brenda
yanılgı
köpekbalığı
bodrum
tır
cevat
ararat
things
pablo
havadan
özerkliğ
nielsen
herschel
sularında
colorado
toprakla
yenişehir
alto
hobbit
pele
damga
politbüro
rona
taşıt
winx
miramax
nihayet
bahs
ünal
yücel
usd
hicaz
sürgün
sanders
lens
ipliğ
iplik
thor
gözetle
seçenek
fok
nike
sökül
erbaa
izah
nicholas
sinclair
ikra
aykırı
hyundai
seo
urduca
kakao
tekirdağ
ıata
ıcao
orgeneral
üstek
maccabi
antarktik
dolan
aptal
round
stella
belarus
resm
lambala
ardıl
history
prince
marina
alevle
terket
hesse
gam
serseri
yeti
theodosius
yetin
hamit
tatyana
vaat
levon
ekşi
lorraine
erte
inanoğlu
içecek
naked
zagreb
stalingrad
gözyaşı
sevinç
ncaa
fulle
anal
boşa
kinetik
kind
rüştü
agamemnon
kıskan
inanılmaz
sınai
myanmar
şeriat
over
lucy
iber
rokoko
beautiful
fır
vesika
vivaldi
kazvin
konvoy
muzaffer
clyde
siroz
molla
stoke
trent
fruktoz
ruth
fischer
nokia
kid
aykut
ayrıntıla
fly
eagle
rai
frame
tacikistan
yasakla
uzlaş
ladino
keys
minor
anakara
yörük
entegre
pennsylvania
salzburg
lane
süveyş
gaudi
owen
biçem
hiciv
eğlen
bugatti
alaaddin
rhein
snowboard
çiğil
iö
milo
sandal
şüphelen
düzenbaz
faydalan
lowell
cbs
hayrabolu
wes
oyn
niğde
sonat
tatbikat
lo
bang
smyrna
memorial
birahane
termal
lezyon
tabiat
leb
notla
ragıp
istihkam
ındy
guerrero
foto
odun
şıpka
suçsuz
çingene
klon
chile
izzet
east
drive
gondor
maddie
kronos
akabinde
lancaster
epir
esperanto
artemis
yusufeli
cevab
gereğince
öngörü
tabii
eddy
menisküs
lenin
orange
abartı
ferrer
arşidük
çoruh
fragman
karbonat
ıbm
lara
croft
ıvy
hoşnut
urartu
hearts
fan
anarşizm
omega
kaplumbağa
rochester
hızlan
ıoc
çözünürlük
çeçenistan
oksijen
çarmıh
ce
arabul
guerra
kaunas
erol
nagoya
works
shi
tullius
nihayetinde
blaze
ejder
tarla
deliğ
bölümle
ıntel
harici
mikroişlemci
boncuk
montana
bekir
burun
godard
sı
karabükspor
hapsed
around
norveççe
ifşa
kerbela
anomali
krater
##cığ
merkür
kulübe
sarsıl
preveze
gazne
cover
roald
tarkovski
kabus
roland
silvio
kümele
akhilleus
evrak
vittorio
çözüm
swan
titanic
klüp
budin
endüstriyel
denetle
hearst
swansea
lojistik
ahmad
sokrates
ringa
ville
hizmetkar
nar
milenyum
dog
konakla
üstelik
tescil
silin
diyar
vaaz
valdez
tracy
hürrem
qing
çekoslavakya
lolita
adli
pratiğ
series
gangster
goya
kompozisyon
sürat
patika
teorisyen
yarıçap
çekecek
alexandr
yenice
atak
beyan
nazır
matematiğ
vatansever
amasya
kabine
downing
fiji
teoloji
imtiyaz
biliş
buğday
uygurca
hadım
princess
söndür
giles
faith
danca
friz
anlık
tati
muaviye
basso
ede
göteborg
okyanusya
hapoel
thing
plazma
kanaat
mission
durgun
mazhar
fazilet
tevfik
tuş
nötr
mecbur
penn
olivier
mikrofon
breaking
mordor
color
running
dehşet
canada
direnç
trevor
mizah
cin
yayılım
levha
atlantic
mala
fresk
shop
alper
westminster
tedirgin
kobe
terhis
garfield
beauty
lazio
storm
loti
reed
rommel
kehanet
yüzgeç
merseyside
bini
üzüntü
elden
lang
bağıl
euler
penisilin
stop
ayakla
tasarı
kuğu
tuba
dari
chuck
yıllığına
eğitmen
bnei
dk
beyt
mide
agnostik
obrien
maarif
yükseköğretim
dışkı
valle
felipe
taşkent
mistik
taco
hakla
interaktif
nefi
astrofizik
oba
mu
still
benny
domenico
gage
kireç
eclipse
years
kuva
muay
yandaş
ace
istiklal
talat
şema
claudia
arapgir
hampshire
qatar
haraç
teyze
gözetim
mutasyon
pergamon
slade
dolls
grande
bismarck
graffiti
vefa
trafalgar
raf
fenomen
geçerle
çehov
güldürü
burger
kutu
başkaldırı
vasıtasıyla
mum
otçul
dinozor
hristiyanlığ
auto
generation
akor
masraf
yüzde
hermione
geçiti
kütük
kaynaş
üniforma
çekin
illinois
mussolini
stand
formalite
hektor
cristina
basket
sunset
yoldaş
demet
reynolds
ılık
kivi
jarre
xander
galli
korur
kenetle
pancu
wendy
tahliye
ferdi
montepaschi
visual
şehit
kızılordu
moritanya
tarhan
vehb
chirac
jules
yazın
travma
filarmoni
minibüs
halef
özkan
şempanze
raket
piston
hair
taki
pokemon
yanıl
tunç
clara
günahkar
fıa
esnek
peştu
devred
vancouver
hi
zerrin
katkıla
benicio
pençe
sarıgül
paz
odak
bileşim
öpüş
münazara
gazla
capitol
ericsson
og
taciz
tennessee
novara
blu
halifax
obua
bilgin
gürel
glasgow
seine
universe
emanet
bali
lindsay
lionel
stockholm
alabora
anayasal
riddle
ihtimal
üstüste
firavun
faiz
seçmen
dile
amr
hobi
ayin
baykuş
avusturalya
lp
nord
kayserispor
mayor
amadeus
agnes
zhao
menendez
sugar
zambiya
zeng
gaye
hamas
mermi
turkcell
klübü
##tük
altan
exhibition
bası
etiyopyalı
sığır
margaret
bürün
hyun
yaptırım
parşömen
comes
natalia
reality
muson
ring
arroyo
kavur
rowling
lynch
sayıca
sayac
machine
trans
bilerek
wars
birkaçı
öd
patriğ
ilaveten
pilav
turturro
ateizm
frances
laure
vanilla
kavala
tos
öge
kıkırdak
etik
becerikli
çekoslovak
puerto
silifke
m1
diyet
fırın
dominique
dsp
gökbilimci
antisemitizm
tabi
kozmik
yetkin
icat
aerodinamik
beylik
erit
guam
gana
yeter
ailton
scorsese
amon
stoper
women
cruiser
mumya
quebec
kocaeli
gölcük
menderes
roth
kalabalığ
prizren
cordelia
warriors
sloan
dekan
dokunmatik
bati
rodney
bennett
epic
lugo
hidiv
zerdüşt
karabekir
bilişsel
jong
suk
rabat
olimpos
fazlasıyla
dustin
yasemin
sevimli
theodore
forbes
nantes
sc
kidd
sahte
bilhassa
türkolog
seneca
avam
ayrış
cidde
batista
delir
seda
merhum
ramsey
chemical
kato
asal
woodstock
çamur
özen
idealist
kamil
endeks
freiburg
reichstag
çor
fish
finansbank
küçükyalı
kapadokya
mega
churchill
ısabel
puma
hood
semih
difteri
bahri
uygarlık
professor
ceyhun
hokey
çark
bayındır
mabel
land
flying
soğuğ
ultimate
fantastic
dayanış
varsayım
cola
computer
everybody
andrei
trt
şadan
geçin
bengal
zadar
barışçıl
milyoner
jpeg
hassas
klonla
yağlıboya
kimyager
piano
konevi
heidelberg
tuzağ
order
olasılığ
ballo
yalvar
half
journal
dengele
şatafat
vila
kızılhaç
teddy
suu
pizza
menü
meet
gremio
tutarak
şahsiyet
adapazarı
udi
venezia
jonas
ördek
vilnius
ramses
pistons
coppola
norwich
abe
kris
jodie
paylaşım
maksimum
kiremit
bereket
tataristan
çala
artrit
glikoz
grant
caterina
filoloji
mübarek
cerrah
mulan
thy
taktiğ
etiketle
zeytun
age
mke
bolvadin
sabri
ricky
katy
damon
turhan
verde
karolina
gates
reagan
archie
m2
meteoroloji
akira
sek
tropik
higrometre
napalm
istinaden
coming
florian
blog
yüzer
hanımefendi
nilüfer
silsile
linç
theseus
asa
arp
başak
koz
batır
stres
theodor
emanuel
guava
izci
kıs
beypazarı
nişasta
oyuncak
conde
hess
ozan
ruanda
göktürk
kerevit
porter
görünmez
buşehr
milton
özal
lets
##amadan
awards
oluk
antiller
slovenya
gözde
sembolize
adıyaman
##unuz
kısmi
salgıla
haydarpaşa
periyot
çürü
giyin
woo
core
cullen
##agel
fighter
refet
fırka
sön
abdul
nations
tobruk
ty
vogue
pentium
schiller
kolezyum
jesus
eritrosit
cruise
biner
carol
mutasarrıf
wade
ko
avrasya
dünyevi
pizarro
hibrit
çözelti
kam
bromwich
kurtalan
drama
biyografi
asimile
eczacıbaşı
kin
kuşak
lives
ındustry
emilie
valentina
diana
gırnata
şan
karma
kv
keser
samimiyet
çukur
felemenk
palm
sorum
piran
papatya
babylon
çıkı
karanfil
five
kesme
makarov
zemeckis
kalıtım
fenikeli
netscape
neft
hamburg
transfüzyon
çam
breakfast
ark
hür
tesla
miyazaki
ikileş
diplomasi
kaddafi
ölçeğ
ziraat
pipo
christ
alkolik
tahıl
saratov
ihtilal
murphy
dnipropetrovsk
şabak
rodrigo
gide
run
gilberto
çiftleş
barnes
clermont
eurobasket
hükmed
hükm
leave
mori
dayanışma
addison
böbreküstü
verem
finley
kearns
monika
ump
berlusconi
postmodernizm
nergis
katrina
ajax
abdülhamit
semender
rulet
terrence
barbera
sherwood
gray
barker
dilbilimsel
trust
beatriz
tohumla
joventut
mackay
bileş
radamel
moutinho
ricardo
carvalho
mimik
aniston
ihya
imar
münster
harlem
yankılan
formülasyon
##siniz
emsal
shaw
cezbet
katip
portman
fay
kategorize
rudy
bornova
mahfuz
manzano
hb
girinti
çekçe
urfa
marley
dns
lamar
kaş
dilbilgisel
yoz
kurbağa
ıslak
sakız
bakırköy
tomb
handel
mortimer
ceset
karagöz
düşündür
ninova
vejetaryen
sigara
seyirlik
arsa
esirge
eldridge
fazladan
yenisey
barkley
method
modülasyon
serp
seyrüsefer
special
modifikasyon
petro
della
samandağ
violetta
ışınla
victorias
kataloğ
dolphin
gallery
şendil
tendon
bileğ
sivrihisar
motown
kirlen
zalim
pierson
donovan
başyapıt
goril
çevrim
ekstrem
where
gönl
atık
rahman
vereceğ
rosemary
limburg
salk
uğr
palmer
aybastı
reşadiye
##em
dying
döşeğ
villarreal
safi
sapienza
simone
kuşkulan
name
hemoroid
objektif
şirvan
muamele
pereira
kwon
allavi
gellar
staples
yarık
levanten
hindi
kramer
glikojen
ülgen
bud
sandy
enez
hafifle
gustavo
kumul
yerin
kumlu
koldaş
harç
vaha
guguk
gereksin
fuad
emlak
svaziland
saydam
karizmatik
stein
odin
napa
wilfred
huri
daral
hazne
hampton
butto
sığınağ
rammstein
durkheim
weber
uraz
reseptör
kronoloji
geceyarısı
points
yıka
mançu
welcome
coke
karamazov
cobb
evelyn
aşığ
bildirge
buldog
uzakdoğu
bıçak
troya
kk
vazife
kapital
ivan
mcqueen
pixar
pervane
ezher
kanguru
pera
mançurya
kılınçer
ku
ellie
watanabe
kleiza
burnley
blackpool
edremit
bahreyn
ligi
squad
diyaliz
geçirgen
matej
slovakça
bela
küçüğ
esne
mitolojik
şişe
sürmeli
galloway
jasaitis
bertolt
elverişsiz
putin
bişkek
hıv
reding
yunusgiller
botafogo
gnome
yadsı
leigh
eroin
morrison
ivedik
portakal
kertenkele
filtre
gp
maçka
sunrise
dracula
lahti
jenkins
zbigniew
irfan
gümrük
fosfat
körmükçü
iltihap
original
şehiriçi
göcek
laguna
camden
renner
resital
momo
fethiyespor
külüstür
müjdele
ıllinois
karkamış
ganz
arabia
sonda
kanyon
caesar
inorganik
theo
middlesbrough
üsküp
contemporary
rise
pari
serj
sven
babaeski
şikel
taba
kilikya
nebraska
priştine
million
saygın
seyir
reserve
sazangiller
stephan
sigmund
freud
enzo
kışkırt
ferah
lotte
kadeh
fatıma
abdülmuttalib
talib
kadırga
belle
venüs
önünden
gecekondu
ezberle
atış
yuri
argo
olomouc
kontes
kooperatif
başşehir
asansör
altıok
sado
edith
dutgiller
honduras
mhp
af
tokuş
selamla
ağaoğlu
içten
rosamund
gilo
parıltı
yaprağ
lado
ıaaf
owens
ulak
johan
samir
score
tedricen
pak
guin
toptan
mossad
ınterpol
pal
upper
palermo
yates
kaçık
çaylağ
tesadüf
susanna
figaro
deh
may
seferber
mendel
bölüş
lineer
çirkin
çalkala
şölen
blucin
arıza
urba
jenson
ortaköy
cet
epson
tanıl
salın
canto
elliott
cummings
genişlik
brooklyn
kırgız
kırgızca
işyer
şuanki
taze
depeche
matbaa
seviş
mıt
buffalo
cincinnati
cabral
warhol
ısabella
necdet
entrika
european
jensen
barut
kontenjan
captain
bakire
mevzuat
yönetmelik
sister
baradey
rika
korea
summers
dikkatli
şeftali
diger
binek
arminia
daredevil
deportivo
vigo
viva
nat
third
konik
lidya
como
ıntelligence
mezzo
simons
cardiff
raleigh
beceriksiz
virgil
freeman
sundance
cristiano
yeşilçam
beyoğlu
palace
penelope
rhythm
cop
sığa
omaha
öküz
wizards
kuyrukkakan
cemile
ilyas
horasani
talip
brahma
yüzleş
richter
vw
sandwich
gölle
distrofi
dakikasında
yassı
pavlus
aladağ
libero
stark
hancock
kalay
eh
byzantion
büyüle
şifrele
sandro
rouen
menezes
alois
nisan
holmes
garcia
atılay
sofra
konsolos
herbie
kung
heterojen
mccormick
kenneth
seagal
şehvet
salgın
süfyan
nairobi
hayalperest
fanning
spesifik
pratik
wave
tuzla
kasımpaşaspor
pasin
tık
kırdar
zenginle
heard
winehouse
bilmece
##ünüz
alçı
üsküdar
demirkubuz
sütçüler
moritz
providence
demiryol
üzeyir
marangoz
kapitalizm
enternasyonal
kavun
gömleğ
alpaslan
erat
sazan
colson
carlton
adria
rami
memnuniyet
varro
always
chester
hoffenheim
malkoçoğlu
boa
günay
aida
ılgaz
hababam
##yup
hogg
tasfiye
halaskar
kıvanç
küpe
lola
abba
doğma
brittany
eyed
ıcon
genoa
balıkesirspor
kayık
xperia
nazım
radiohead
television
think
wasp
sherman
glass
soraya
soğu
lualua
ns
lucky
bozüyük
zeno
pino
reggie
eva
zahit
peripatetizm
ragbi
çeyreğ
omurgalılar
orak
paf
arpacık
posof
tosca
savcı
mikroskobik
suruç
feng
çığır
mariya
pharrell
falling
ınfinity
partikül
frer
duyuru
gülşen
austen
gurur
önyargı
aldous
portföy
sinirlen
rosalie
dune
özcan
adem
peştuca
işkembe
fedora
suse
eğik
eflani
shao
vasco
bitirim
hour
tucker
today
army
tuğrul
çelebi
burhaneddin
kille
merrill
kıvrak
nükte
sterlin
psikolog
comedy
ugly
fotoğrafla
suzan
chamberlain
zwolle
tem
garnizon
chang
ihsanoğlu
drift
poirot
doyle
gübrele
açe
dreams
uyuşturucu
hüsamettin
biff
terör
thun
circuit
granit
fight
ibare
şarbon
dudak
ceneviz
arkadi
etimoloji
wolfsburg
skywalker
reginald
verona
dewey
yuliya
metodoloji
oksit
sprey
döğ
köroğlu
ambargo
kask
marnie
tarihçe
muhasebe
numarala
paranoya
sani
seydişehir
müstahzar
nacional
hidroklorik
asimilasyon
bahçıvan
dawkins
grafiğ
küp
silindirik
köpüğ
basımevi
artist
ramazan
kerim
çolak
mırılda
elektroniğ
prodigy
kuhn
siy
global
date
nizip
tümör
puglia
bravo
toksin
##ız
yayladağ
şiraz
nguyen
hank
mesudiye
trinity
und
sedir
bölük
aroma
chase
ubeydullah
amman
kabristan
satır
kırşehir
şua
peppers
abbey
mesleki
grizzlies
liberty
angara
kufe
ashab
pogrom
laptop
auguste
glendale
usher
doc
nan
kurulum
fotosentez
cooney
vicdan
alg
literatür
kuba
eskrim
burt
chance
tramvay
şemsiye
ap
öpücük
sakal
levinson
prado
frodo
katalizör
srebrenitsa
hükmen
eşref
effect
rossi
mevlevihane
kargo
troçkist
luxemburg
kleopatra
saraçoğlu
lore
marcello
lyudmila
emo
özveri
silahşör
jelatin
zamora
malaga
yüreğir
tamil
norah
hoffmann
semiha
dayanak
jeneratör
lies
through
raina
cübbe
besin
sperm
counter
anglikan
salat
saade
brother
louie
cibuti
legend
korra
suzanne
kollektif
witch
ittihat
şehsuvar
##yim
arjun
buca
kav
superior
enemy
kaps
başl
benito
uşaklıgil
anastacia
oldenburg
ıtalya
donatı
bean
taslağ
himmler
gilani
şeria
erica
sonya
sakar
kumarhane
tapın
kamış
benzen
aromatik
bekl
tambur
rafting
merry
aurora
seyret
yumrukla
aztek
cocker
uyuş
apayrı
kirkland
victory
macellan
duty
software
activision
taşra
gli
nitelen
kolera
picture
sting
demirdelen
palio
ertuğrul
joint
zuniga
hector
schumacher
exit
dust
zanaat
esmer
çevirmen
nazif
liaoning
maui
steiner
madame
kelam
dominika
kasap
sheraton
ramada
akli
trüf
tozu
halkoylaması
yankı
grid
doug
judy
patti
müstahkem
filiz
benedikt
susa
coen
kadem
lega
prima
huzurevi
ersever
velioğlu
browning
wales
kuyruksüren
flavius
pirates
treasure
kistik
beyrut
buckley
birlikteliğ
sapla
bıçakla
şahruh
medeni
bekar
kurulu
nev
deane
suzuka
zeyd
kazablanka
vader
hezimet
mills
altıntop
camia
hoşgör
naib
skorer
sehir
buyuk
tescille
yapmacık
dwight
derby
nikolai
had
varyete
illüstrasyon
türker
direğ
vasıta
oahu
kovuk
martha
theresa
nino
banyo
yasadışı
tate
english
ıra
mağdur
afet
sr
müjde
şener
necati
bilgiç
bıçağ
sabun
after
milyonlarca
mikael
vakfet
mukaddime
terek
yale
sms
takdirde
derinden
volga
fren
yoda
baldwin
uyanık
rastlantı
kingsley
ripley
justice
laurie
diderot
plaka
kobra
frenk
yeniğ
larva
ırving
inziva
rafineri
saçı
martel
teresa
şahsen
birgün
fakih
ılım
liege
waffle
hatice
ümmü
emmanuel
reaktör
gosling
edition
neoklasik
bizon
laktoz
richardson
frieda
ıtri
store
belirtke
bucağ
urumçi
rövanş
serka
mayasıl
bray
primer
hanuka
tong
oğlak
yalın
dere
dür
parsons
nicholls
düzine
markala
erciş
kısır
cariye
miladi
year
without
gıyaseddin
keyhüsrev
kaçkar
kolomb
konçerto
sabır
kazasker
yagami
kalifiye
ritm
umman
hms
anason
anatomi
enjekte
mera
vasıf
kontrast
abigail
coventry
electro
pvc
profil
smolensk
getto
tool
haifa
luffy
topal
varış
medea
fransiz
janr
strauss
çingen
yayınevi
öbeğ
kaymakam
tatsız
mitroviça
giresunspor
vargas
reşit
saffet
metrekare
pestisit
yumurtalık
anatomik
cb
giro
josep
sofia
mutasavvıf
bab
sertel
kauçuk
meiji
bass
itü
guernica
akıbet
olsen
kappa
çiğ
bremen
kusturica
gora
temyiz
monarşi
wentworth
ferman
diallo
senegalli
rulfo
vichy
itki
piero
sky
perhiz
crown
dresden
candy
tiger
liv
yanya
pekkan
moliere
pencap
gus
stanislaw
pitt
anhalt
kelebeğ
ezoterik
mamet
rodi
tekil
manevra
palet
savur
malmö
zane
lale
darryl
viktor
stat
kuruş
saad
envanter
andre
akon
sopa
sim
sergio
daphne
üz
utrecht
harb
flavia
fuck
bandi
away
vajinismus
dışla
lupe
kaan
sabina
ivanoviç
komedya
ışıkla
baskça
hughes
biyolog
aral
almeria
chiba
palamut
loki
şovalye
nicky
dolunay
günaydın
kuyt
jörg
elli
doy
kaval
kulvar
brandt
nakamura
conkbayırı
sapiens
çırağ
sumbas
yurtiçi
logan
alıntıla
ayurveda
kolhoz
novosibirsk
sihir
partisyon
bozyazı
panther
spirit
badalona
asuri
facetime
communications
aysel
uluçay
terrace
akp
ex
stefani
avşa
je
luc
mao
alkışla
dumbledore
bumblebee
yerküre
bağışık
fışkır
rimini
pole
hierro
bolat
safha
hawking
egzersiz
asr
tarik
anaç
ilmi
most
wanted
armstrong
rampa
action
atari
ayırım
karton
mirzabeyoğlu
şiddetlen
hellboy
garros
papadopoulos
türkistan
çağatay
azad
gölet
guillaume
anafartalar
anzak
tatarca
kıç
herman
kopuk
kargı
robertson
gülistan
partner
mektep
sebil
randolph
harpers
bazaar
sn
karga
sondaj
pradeş
safer
erasmus
ağırla
parkmetre
behzat
coupe
anwar
karamsar
gsm
mg
ımagine
ilköğrenim
tucson
levy
eymen
ghost
sağl
gönen
dersu
rankin
mirage
rhoda
santimetre
raj
rhode
blythe
beko
vaziyet
truth
anakin
amidala
krema
harmanla
bilir
inek
nene
yomra
benzin
keaton
shift
kuşan
dalmaçya
muhsin
wanderers
tal
periyodik
medet
ataman
makinist
dilek
koper
scarlett
johansson
vanity
spiritüel
primo
kesişim
tree
jose
ikilem
elbe
guess
trek
bulaşıcı
sıradışı
aron
savas
ulaşım
teyit
şaşkın
haseki
ayasofya
heteroseksüel
organel
metabolizma
virjin
tetikçi
robyn
ıgnacio
nadia
dwyane
judas
priest
vardar
##ceğiz
puskas
sunum
mikroskopik
spektrum
savrul
nasr
istanbulspor
productions
defter
kurosawa
alanson
klubü
fbı
milliye
formaldehit
tudor
güzelyurt
yatış
lowe
deneuve
ihmal
hardy
telafi
purple
osiris
shikamaru
mercek
vasi
efraim
bileşiğ
made
tava
ando
pasolini
jardin
samur
tundra
mütevekkil
yakub
varoş
komplikasyon
miley
scream
fıkıh
cemal
aşçı
silver
carlisle
carrie
havai
bernoulli
odie
berna
uluslarası
nail
böcekçil
pandomim
girne
koyun
berkshire
annette
dixon
cska
emred
trablusşam
hands
haç
nas
mahir
akışkan
korfu
avlu
kemah
şebinkarahisar
şarki
kayna
basamağ
erzurumspor
myron
kişinev
jarmusch
acem
azul
bolca
feet
coleman
virtüöz
şivan
tarzan
giants
neptünyum
mcmillan
pratikte
kazazede
abdülkerim
habur
president
niçin
şıra
ruhr
tahsin
mekteb
touch
sunday
pain
metalurji
tap
jerome
düklüğ
boss
şike
hertha
tüp
başkanvekili
guano
penguen
gübre
karşıl
tenerife
shadows
aristoteles
doğaüstü
mutsuz
skorla
olympia
fritz
arzula
micro
dergile
geylani
hazret
talebe
ulupınar
berklee
inç
link
karaköy
upon
romen
symbian
antoinette
atmaca
tortul
traverten
wisconsin
lala
zaragoza
eternal
osmanlıca
hilafet
gayzer
eşkıya
vesta
mızrak
orson
ksenon
lamba
yamac
nou
soccer
kutb
nazilli
irdele
veto
daro
samsar
sanskrit
gottfried
yeşilyurt
lefkoşa
şüphesiz
isis
ortaöğrenim
midilli
yanık
hortkuluk
kolye
minas
belo
horizonte
lokanta
balya
engebe
haşim
bemol
being
abraham
akçay
liberya
baton
rouge
spider
crea
kambriyen
dönek
egzotik
fleming
okocha
kasık
elektroliz
kazanım
donny
mihail
arkaplan
efekt
erma
şişman
pilsen
ikizle
haftasonu
theft
leş
cava
varoluşçu
alışkın
sedef
geyşa
ellis
terörist
##dıkça
ispinozgiller
pakize
chesapeake
takı
valens
anayol
valjean
marius
<
varda
mabed
hira
paramount
gözet
saygon
sülfürik
beklenti
değirmen
therese
narkoz
sandıklı
ilave
demille
spartacus
tanıtım
darrell
yaşlan
bekri
tekfur
chrysler
kesit
barack
twitter
güt
gilmour
##ımsı
psikiyatrist
baykal
talent
millennium
teledünya
burdur
boşanma
bozkır
reunion
meteor
thorpe
ithal
önal
hawk
claudio
twin
fıvb
womens
cay
kılcal
ısaf
ekim
calvin
tupolev
iskit
but
visconti
ruhsat
dalgalan
bektaşi
burjuva
fünun
yandex
dixie
brandi
billie
palas
araf
todorov
gelsenkirchen
tobago
cavaliers
requiem
lgbt
ıp
takashi
chapman
unit
özet
bee
psişik
remember
gaia
günah
istismar
gartner
ınzaghi
manşet
hortumlular
nüfuz
au
payne
sahiplen
baudouin
magnus
eklembacaklı
ampirik
sargent
renkle
ilac
killing
santrafor
tarantula
hipnoz
havana
alberto
kos
dizgi
dolma
ganimet
triano
diskotek
shiro
hero
molibden
dimitri
dolaşım
üstten
katalonya
chiang
expo
midyat
benfica
ezeli
irem
beyn
peace
viggo
mortensen
terminoloji
haram
panayır
yüce
yüzgec
milletvekil
çatalca
litre
valerie
çatlağ
commonwealth
wells
seyitgazi
dayat
iltihaplan
retorik
enrique
limited
özden
memet
ner
islamiyet
ernie
taşeron
every
sin
bardak
tepecik
agnelli
renoir
batur
mysql
html
terbiye
tansiyon
katarakt
iris
sark
mitterand
turunçgil
gb
dahili
turin
tezle
kc
xavier
ash
trigonometri
zulüm
ariel
şaron
chad
siklet
delaware
aras
çabucak
acıbadem
simetrik
gone
balbay
ergenekon
kalıtsal
muhabbet
thorn
demirbaş
ground
resif
arhavi
arala
amfibi
çokuluslu
çan
canio
uzer
calais
piknik
pasadena
akded
gülşah
milyarlarca
lebron
chalmers
dmitri
ezgi
paper
mücahit
eton
simple
güd
ciro
yabancıla
bulldog
yamato
carpenter
mamut
estadio
sunar
şanzıman
fulham
gümüşhane
bari
radyum
suni
ırvin
url
patrik
toshack
hilmi
mezon
bozun
bariz
yeltsin
dortmund
samimi
vites
yayınev
guingamp
budala
tarantino
ogilvy
kensington
pornografi
gerçekle
union
buzla
earth
türkoğlu
gheorghe
diaw
randevu
lucie
morrissey
wild
sandviç
amelia
merci
strike
elazığspor
lobi
müzeyyen
michaels
magma
shaun
augustin
wolves
rivers
milner
kirec
glokom
dejenerasyon
tilly
öykün
sartre
bauer
spartaküs
çalımbay
a380
sharon
abid
deauville
mekaniğ
guard
yourself
kafes
haiti
hasad
yuvarla
kep
balalayka
marcel
satanizm
arturo
votka
rollo
mescit
reenkarnasyon
sandra
ıris
aksan
hammadde
huelva
antiseptik
uribe
cady
beethoven
salazar
yuki
gabonlu
vickie
gula
aksa
galilei
slobodan
sosyolojik
telaffuz
havva
holy
işkodra
suzuki
zen
kucakla
örtüş
pound
enda
mukoza
chicken
bülbül
luisa
milimetre
bologna
turbo
karaburun
sussex
nogayca
communication
boğazköy
pp
abaza
alevlen
yegane
çakal
groningen
atkinson
reitman
sterol
waterloo
samsung
nevada
newport
aleksey
wen
erdek
dosyala
mort
mucize
nfc
##yin
eads
askı
perkins
motif
tekme
demonoloji
ken
nea
trak
clarke
walk
eza
queensland
lucescu
niamey
teleskob
hayfa
fedai
fear
tricky
sincap
fernandez
nosyon
fizyolojik
olağan
charleroi
grafe
dell
ızgara
tayfur
register
kefir
tayyip
blanchett
close
montgomery
etiğ
baf
aks
daddy
ruhsal
toynaklılar
erden
şen
malol
tag
hayvanat
adriano
timurtaş
tir
fıtığ
tiran
fatımi
omurga
asaş
against
taşlık
bogdan
muayene
radcliffe
kazanç
vapur
supernatural
tanır
cazibe
lions
yıkı
aşın
konserve
afyonkarahisar
rembrandt
goku
duffy
dikdörtgen
sarfed
parliament
yiv
dren
astronot
fighters
kof
endişelen
oneill
faul
adanır
arnavutköy
teşekkül
elektrot
hutton
içgüdü
kastilya
woodrow
parlemento
stiglitz
nebi
kitabe
diaz
juarez
havra
taşkın
garfunkel
kaşık
alabama
building
köstebek
telles
sensei
mitterrand
scooter
sarıyahşi
lema
jupp
felç
eşek
denli
marshal
u20
pivot
şut
mamul
ıncheon
peso
rezonans
put
mans
börek
çip
lily
berbat
bordeaux
ilahiyat
tantan
mahlas
bodur
varyant
garnett
trend
manipülasyon
aa
bubba
ıtaly
kamara
minimal
lutz
delice
sihirbaz
pikap
yahya
muvaffak
ally
haiz
holdings
yelena
koordine
mucit
baroni
barrett
council
fonda
carradine
akrep
fran
hümanizm
kaşif
dubrovnik
ispat
savage
rex
moşe
rand
hut
hoparlör
tekvando
fed
sergei
aleksei
destiny
şanjman
müzikoloji
saki
özdenak
görgü
aylığ
serap
olta
odtü
gürsu
antwerp
lydia
turnike
antony
atağ
willy
menkıbe
atasözü
orduspor
hayes
bleu
haute
afak
planör
karate
mercy
parke
strasburg
çandar
sevin
goode
jazz
elvan
redd
boğdan
mutahhar
tuvalu
domain
ınsurance
fesleğen
sunak
linz
matrix
frederik
döküm
mango
autodesk
ottawa
tao
hıristiyan
mesnevi
şirazi
koordinasyon
procter
gamble
björn
faysal
tertib
sawyer
kalbi
fortis
debbie
şarj
predator
raporla
sabaha
angry
umursa
bük
peki
yamaha
sapan
giulia
papaloukas
kanarya
değersiz
surat
inkar
hattuşa
georgetown
haki
kararla
tevrat
sorumsuz
kardashian
zedele
katie
schenker
rudolf
tampon
uluğ
rasathane
bık
maraş
atfen
knights
rawls
julio
madam
limit
çanta
md
sabiha
rotem
aristo
adal
julius
could
vinnie
abbott
kırcaali
ekstra
faşizm
romatoid
seinfeld
otomasyon
timor
galib
darphane
otla
gevşe
alley
pehlevi
karın
çanak
çömlek
kaos
pınar
lockhart
lim
fiyord
adidas
bp
serik
bıyık
sneijder
erboğa
köyceğiz
driver
fatura
telecom
germa
theodoros
jennings
vazgeçilmez
cs
livorno
çerkez
kumpanya
emeklilik
helen
planck
iskambil
cesare
hunger
günle
silgi
nina
çad
makro
tebrik
vitr
dreyfus
zayed
erzincan
queens
melodik
fer
ottoman
çocuklu
revizyon
paye
keldani
schwarz
giyotin
majid
koridor
amonyak
enterprise
transistör
cedric
uçar
düğme
ardıç
rutkay
tahin
phelps
slave
baltimore
kharkiv
prodi
kip
sözsüz
trick
basık
titus
foreign
karamanoğulları
leonid
abramoviç
şöför
nashville
gonzo
wheeler
jerusalem
hasharon
nesnel
atlantis
hipokrat
mamül
kardelen
dinamiğ
clippers
ayırded
mithat
satranc
igor
yasla
oden
nuh
dinamit
dernek
bakla
johnston
nagasaki
agresif
grena
yoğurt
sd
minh
halley
extra
hap
ısobel
soir
simpsons
çalıntı
sıtkı
palacio
polinezya
hacıbey
uludağ
carolina
bataklığ
rapid
motion
cunningham
mccartney
şablon
sirke
özdemiroğlu
herzog
ghibli
noble
sports
çevrimiçi
tuck
ruby
salome
lokum
pavel
çolakoğlu
şık
lupus
çankaya
gaziosmanpaşa
şükür
bencil
viskoz
özarı
lohan
nyse
fizyolog
mecmua
paraguay
electric
khan
sızdır
maruni
onarım
ergen
gorki
komando
karakoç
hoş
yargıç
gayri
vatoz
ihtilaf
merhaba
astar
ag
vade
cartagena
araştırı
radyokarbon
sitem
spiker
gameboy
goldman
ilkel
cat
mecklenburg
şalgam
bici
yüksük
masai
işbirlikçi
çıkarım
krupp
farket
hortum
ılgın
vida
süzül
zulu
birthday
meg
beth
newman
vanderbilt
kütahya
sempati
duru
sempatik
astor
sadi
nottingham
astronomik
rölyef
outlook
nere
karahan
domingo
helyum
lorient
thornton
karahallı
hartum
brook
diet
mühür
ur
symphony
maryland
metabolik
solak
namaz
anormal
carlson
ıslahat
ferma
mercer
şevket
bellinzona
palmeiras
rağbet
hahambaşı
müdahele
livia
camilla
teknisyen
gustaf
adorno
modem
demirle
doğubayazıt
kefalet
tutum
modernist
almeida
jazeera
gogol
pritzker
elyazması
brest
blaine
finn
hilbert
dwayne
cevr
stadion
müzikalite
natürmort
edit
bayır
otis
şaman
blind
kerr
damat
narin
rakamla
doygun
terapi
playboy
janelle
müller
beckenbauer
heidi
hagi
gözüpek
hotspur
tottenham
yenikapı
akif
ersoy
miracle
göktaşı
cesur
bala
dalton
hemşire
moses
tübingen
inatçı
militan
found
asabi
leary
key
record
elton
andi
kated
silent
süpermen
wyatt
nostalji
mchale
naima
vira
dacia
val
burbank
mama
twilight
darbele
save
buchanan
cabo
buru
cell
kavuz
edouard
balon
seğmen
ky
vekalet
dabi
diab
hamo
lou
luigi
early
güçlük
kylie
mahsus
ıniesta
python
uçurt
ası
baybars
gördes
vekaleten
vicki
irtifa
ışı
ısla
şaşmaz
ekoloji
lennon
agent
aek
zeid
ısıl
tina
yürek
ımpossible
nissa
basım
pollack
zihn
tabata
malazgirt
furkan
oracle
jön
koçyiğit
tekabül
çimen
varoluş
halbuki
rüşvet
şarm
temsilen
root
alifatik
tasnif
##yor
azı
akşehir
nixon
psikoz
amniyosentez
izin
milyarder
darkness
cage
besni
nikel
zaire
hy
ravi
okan
rotterdam
koltuk
ramon
herat
susam
helva
yaver
xian
şia
levrek
control
volume
nemo
ci
jest
resmed
peoples
pepsi
sociedad
fernand
dillen
henkel
mechelen
marks
ale
köpük
karaağaç
gennady
savunu
başkaldır
beklerken
sempatizan
pogo
joy
gidişat
sivilce
tedbir
adrenalin
cebri
dorado
sachs
affair
solu
amel
fury
greg
sıkıyönetim
stefan
jin
anımsa
mar
claus
anders
gilbert
emirates
everton
eften
milletvekilliği
enişte
toto
yangı
cobra
rodolfo
shabab
teşhir
##yakal
aktinyum
tory
aynştaynyum
fermiyum
mendelevyum
hopa
pm
modernize
africa
adanaspor
gazel
tai
bkz
exxon
esna
germen
peker
hawai
boza
dolapdere
tanzimat
kırılgan
ilgile
afyon
navigator
oasis
jupiter
bieber
midi
mafia
nebati
adrienne
hukuken
keçi
tribün
zarf
ritüel
tanrıkulu
vera
kareem
exorcist
işyeri
süz
pe
tifo
domino
iberya
rakun
mandarin
denzel
özil
toksik
tıbbiye
hipotez
konyak
linda
clooney
kanatlılar
konsantre
halüsinasyon
mina
yıpran
çınar
systems
oslo
süleymani
siyonist
maksi
bourbon
petronas
paslan
herşey
palavra
cüneyt
alıntı
minneapolis
rest
şama
hera
şeren
angels
thunder
tuna
eteğ
zeit
navy
tik
antropolog
şapşal
pantolon
dirty
noter
baraka
beck
noir
proton
tev
izomeri
viola
flores
wood
milwaukee
bucks
astrahan
brooke
monsters
espace
şimdilerde
guggenheim
finalist
persie
glory
dynamo
lavender
nicole
booker
zaza
multimedya
optiğ
cüret
uzam
reiner
tofaş
nüksed
alessandra
cusack
trajik
whats
mulholland
march
dizanteri
şişli
troyes
sac
romans
naaş
asteroit
yaygı
padova
yong
simcity
milne
olimpik
bet
nakkaş
paradigma
ekg
otantik
pearson
anglia
işbank
idris
quito
tron
sonlu
varyans
incin
soldier
akçatepe
paralimpik
saab
hidrolik
nakli
erciyes
dizge
aman
hillary
etna
mack
genotip
milu
kolonya
u2
takib
jari
ustalıkla
rodeo
çavlan
weinstein
çadır
deist
çeliğ
ısuzu
betim
gill
jae
grace
kaoru
hu
kapanık
mikro
stavropol
infeksiyon
colt
vuru
lg
rotor
humbara
sıtma
aeon
huzistan
behra
matrak
yalıtkan
müsait
guyana
wigan
knidos
kubbet
lys
bosco
izbe
motel
cctv
cizvit
karadelik
karadeliğ
sindh
başvekil
arden
alone
çatışkı
beraberinde
supersonics
aydemir
napier
logaritma
pegasus
guevara
sasha
umberto
bossi
gensoru
trezeguet
bergkamp
traviata
dinl
sarris
bolşoy
yalovaspor
tuvaca
haremağası
croix
barros
müebbet
sof
rubio
diyalekt
patricia
dalglish
beatrice
durul
diksiyon
banaz
sömürgen
memnu
nicel
pentagon
utangaç
odağ
natalie
sütyen
dorsay
artda
cesena
epeyce
peri
kös
bendir
valladolid
murder
ulan
siverek
çermik
çüngüş
hacker
çatık
aronofsky
crowe
connelly
sanatsever
hours
raider
unhcr
tecrit
kayseri
crosby
elmadağ
sucre
sissy
sarpa
hacivat
avc
histolojik
çayhane
vern
birebir
karnaval
kaçkın
şenay
yüzbaşıoğlu
terliksi
terlik
çöküntü
papandreu
gwyneth
paltrow
clouseau
horton
mulligan
kapalıçarşı
pattaya
jeremiah
corriere
miyop
yuvarlağ
elzem
çamaşır
defile
vay
aşil
baldır
topuğ
genji
jewel
magnolia
beylikova
alpu
mahmudi
russ
cargill
batıl
angelina
malkovich
gorilla
children
bodo
üçkağıt
##ymiş
gabar
bertaraf
mucib
muhtariyet
melanie
schrader
arto
tunçboyacıyan
başçiftlik
niksar
mülki
simsar
odonnell
agamben
weil
kurcala
##sunuz
saigon
striptiz
striptizci
çizgin
elastik
fevri
ağsu
souza
hwa
ramat
çorap
lobo
gods
gun
sıvacıkuşu
sümer
parkinson
incirlik
tsk
şinasi
türkiyemspor
süblimleş
kom
fraktal
scotch
itimat
poppins
karakurum
uçmak
hewitt
ısfahan
wired
properties
oconnor
digest
ah
ahmar
karbüratör
benazir
jameson
erbey
cube
epidermal
vermont
seoul
ceyhanspor
onyewu
ölüdeniz
yedir
belgrat
ivaz
schell
yapıtaşı
gürle
soyutla
nal
taekwondo
kuşakla
dobby
fleur
artin
mebusan
mebus
nemanja
pedagoji
revan
henley
aşı
timbuktu
kunda
serab
germi
astsubay
santra
till
candeğer
avize
şamdan
şömine
frankie
pardus
ihtiyarla
alemdar
dikkuyruk
ördeğ
isyankar
raphael
lemkin
kazdağları
kab
pusula
düşey
sunderland
material
pullman
rennes
mateja
somerset
keremcem
madensuyu
ındependent
avellino
azınlığ
carlyle
rytas
javtokas
süpür
anse
önizle
şanghay
aıds
corelli
enternasyonalist
zihniyet
afiş
alkolizm
sele
janerio
iler
craft
mine
solgun
eta
unity
shell
jeanne
sulh
pamela
salas
holmiyum
oksid
jerzy
kurşunlu
çankırı
çoğun
jüt
karabiber
southern
guangdong
hingis
gümüşsuyu
taşkışla
silahhane
pliyosen
kasedi
canan
carla
bruni
orhon
özbakır
zeyneb
maktul
idlip
foxconn
design
dreamworks
bakkal
mösyö
sidnei
friedman
ötzi
lento
hiperbolik
sb
mother
poljak
csu
jakob
revolution
status
meymun
dönüşlü
benlik
temsiliyet
##maca
yb
season
change
fikstür
harakiri
ethel
huston
alsancak
yuşa
buddy
uzunköprü
pehlivanköy
kırklareli
hitman
enternasyonalizm
kinney
senkronize
projektör
içbükey
alena
restorant
kirov
explorer
birtakım
asetik
velazquez
çapak
tatlısu
cordero
montezemolo
yüreğ
bint
esed
punt
kahvehane
muhyiddin
müzakere
darağacı
sigma
kornea
bazal
ayıgiller
sansargiller
basil
soft
kompakt
zihni
ındependiente
yalçın
çamlıhemşin
capua
crixus
palma
rutte
fasulye
tekay
lenkeran
kendirgiller
eldar
anap
uwe
nallıhan
inegölspor
inegöl
kdv
hamağ
içir
haşhaş
kadışehri
pala
defn
bhutan
pittsburgh
gündüzleri
hipoglisemi
fergana
alti
fonem
tetra
modernizasyon
parametre
ayse
ufala
tenar
ursula
torrens
ziegler
zanzibar
stewie
quest
danilo
kadirli
bahriye
sadist
haz
ewing
polanski
kasten
techno
tmsf
skyturk
limak
koli
maciej
staj
champions
şeklen
vahidettin
selam
hiperaktivite
adelaide
steroid
sada
silahsızlan
izzeddin
zuhal
vaughan
fazlullah
tuman
buster
returns
ratner
volley
blackberry
maskot
misha
viral
evian
gaillard
mt
pr
anıms
abarth
israel
davidson
behiç
birch
creek
mirren
sunny
merkel
soğur
lizzie
animal
lizzy
koordinatör
toker
şapel
üniversal
disco
tolerans
cevdet
baklava
barones
tsubasa
cerezo
lort
yehova
ıkea
electrolux
ıngeborg
serenay
sarıkaya
azra
kerouac
sırat
poseidon
sened
tutulum
misery
taziye
bukalemun
grenouille
iyiniyet
dynamic
gelinciğ
cuba
markt
bounty
dang
humma
muzdarip
grotesk
arabesk
kuruçeşme
ferhan
şensoy
dümbüllü
celta
itham
mo
bam
başbaşa
muaf
cultural
elche
babadağ
sokulu
tears
jansen
calderon
tesettür
örtün
hallet
lambert
rasi
pazarlığ
ideolog
spekülasyon
sana
kipling
bombay
mandy
peres
fabrikasyon
cerahat
ir
leia
ferda
onar
balat
astrofiziğ
goldsmith
sığac
tuning
renee
kızakla
rengeyiği
sevkiyat
ille
ortaklık
karatavukgiller
sinekkapangiller
yenge
mürid
beka
gijon
vaki
wilder
clarkson
joanna
intikal
larsen
lokma
misis
saitama
marguerite
otello
adami
fiks
mantarla
emery
kirman
jimbo
dolph
passat
cıv
mozilla
kabr
göçer
suyol
şaşi
hunan
sichuan
algoritmik
sedefkar
kenton
bleda
trudy
patterson
tütün
reyes
diret
naz
göztepe
banderas
sinaloa
diferansiyel
akabe
feryat
göbek
çiftetelli
hicks
flamenko
bastığ
sığınmacı
lockheed
enbe
rakkas
badem
esra
bekaroğlu
mcdonald
entelijansiya
nazan
kırmız
kermes
kays
kokteyl
marple
klinker
brass
incit
narkotik
bahn
biteviye
tsvangirai
abet
akreditasyon
yür
boot
mujica
karizma
##dükçe
funda
yıkık
kıran
exclusive
cassio
melissa
görmez
ıowa
eber
karamık
flip
undp
marconi
theodora
wisla
besic
kemalettin
meta
yama
dünden
tobias
weis
animation
wenders
gülin
bener
ödem
içtihad
penis
rifat
zabit
türkel
repertuar
comte
boyer
tarcan
horizon
kozaklı
nevşehir
wonder
enough
guen
lex
barid
fildişili
didier
drogba
b12
telle
orkestrasyon
kadr
kreuzberg
yanlız
torbalı
mülkiye
renegade
mick
hacer
ayaz
haznedaroğlu
corbusier
smear
spirou
bozüyükspor
erem
aerosmith
witherspoon
cash
juilliard
drexler
çilingir
tesisat
joanne
bezmialem
divanyolu
ıreland
şeybe
muttalib
limon
car
arias
azmi
muhallebi
mumbai
muniz
olağandışı
behmenyar
alexis
haggis
yiyici
omnivor
nektar
behçet
patara
sünbül
tekin
akyurt
pof
ergun
tebeşir
eurocontrol
sofist
asılzade
ergüçlü
merhemle
düzel
jedinak
scotty
ebubekir
şavşat
ösys
multiplayer
dent
galvanometre
vakıfbank
jelinek
tin
konvansiyon
metroloji
meftun
maldini
nuevo
rico
cowboys
izak
moscow
azarenka
künye
trio
kontrbas
ınto
önsöz
bertrand
sounds
menekşe
frijit
pale
vahhabi
paranoyak
angora
byrd
olaf
ruben
babaanne
carrier
fındıklı
atreides
sensin
ödün
denizgülü
paramparça
cebeci
bahadır
akkuzu
manço
ufuk
debian
serinkanlı
eastern
kıral
sürrealist
çarpı
çarpım
gama
şabat
saksafon
jeofizik
ümid
strawberry
halkapınar
arıla
abdülmecid
neville
tetikle
menenjit
antiviral
mw
tonyukuk
rado
fields
cable
grimes
hercule
sherlock
church
sair
volta
ıntense
pulse
bacall
zile
avalon
fenari
gert
zdovc
spartak
lippi
sinek
hitachi
hasat
bulaşık
yarığ
embriyolojik
uvertür
prelüd
paintball
tale
menşevik
arıcan
dardanelspor
keller
grenoble
fallon
hrant
dink
shepherd
avla
dot
eskiçağ
yaşasın
bed
kamelya
çaygiller
zebani
saporta
ksenia
westwood
tabu
doğrul
nigar
korunak
tkbl
deloitte
welch
açma
perseus
içindekiler
kaynakça
halled
çeliş
gözübüyük
veritaban
eşrefoğlu
meral
lourdes
filipinli
bowles
liza
avangart
roche
ssk
pessoa
cave
fallen
origin
mihrab
anglosakson
halloween
karbonatla
çatallaş
clear
piercing
rumence
sentrozom
şuur
raja
carles
busquets
mürettip
mücellit
##emeden
sait
abasıyanık
demode
dias
kazara
bonus
sendai
akyürek
halim
kın
doğanyol
ruud
toma
depardieu
istinas
ortaelçi
esaret
gattuso
tırnak
eşlenik
hind
xp
gayet
akçaağaç
kandilli
maurizio
pedal
etçiller
guus
hiddink
dai
ütopik
notts
bumerang
çeşitle
evening
müren
moğolca
krasnoyarsk
msp
istavroz
beytullah
mahal
enterne
jade
somebody
monde
efron
well
ıstanbul
silivri
kuşkonmaz
puebla
zeytinyağı
ayçiçek
giraud
güvercin
boi
azab
bjk
agency
minecraft
lüzum
emperyalizm
barrymore
bardağ
çorbacıoğlu
altınoluk
milas
gaulle
atomik
dugan
keanu
reeves
antawn
cortez
jamison
triptik
legolas
römork
çarpıt
aseton
fps
girdap
torpido
aprilia
macaulay
culkin
külliye
ötanazi
ayanoğlu
mastroianni
kaotik
alden
saner
liken
elie
karanlığ
azarov
turçinov
yulya
timoşenko
chilton
tükürük
lejyoner
herek
harzem
salur
şemseddin
shankar
üstündağ
severus
hükümran
celil
matbuat
tereke
mekiğ
pozla
ıfc
bordo
sevinc
akordiyon
presley
sane
azim
outlander
alfie
samaras
gümüşi
üzeri
dayanıksız
canberra
boşaltı
hidrostatik
eşgüdüm
sutavuğu
beşamel
pu
kızar
scarlet
limassol
gourcuff
babe
revü
rüsum
vena
kompres
arch
bizimki
reçel
fail
terminatör
mika
milet
hdd
kalıpla
hemfikir
ımax
person
jelly
başkahraman
silahşor
messer
only
sonja
brigitte
schwarzenegger
mets
romantizm
alexandria
ahbar
yükseköğrenim
torna
fenol
tuva
oktar
akbulut
bayburt
aydıntepe
çat
colman
tamburi
cemil
viyolonsel
planl
geert
wilders
sling
##ümsü
sevket
keating
uçma
pens
maskara
vitrin
mikrobiyoloji
immünoloji
anabilim
matsakis
##çığ
euronews
çekimser
hizb
ghosts
ward
raven
leydi
karakutu
kimberly
berkay
yörükoğlu
güvenç
punto
kurula
review
sira
simply
tragedya
necla
mursi
başbayan
karia
tilde
gökdemir
gazipaşa
mutedil
atay
nahçıvan
rimbaud
birecik
lucio
machado
moreira
ruthless
task
suistimal
fut
mendoza
perva
ruiz
kabatepe
ralf
funky
nizami
telef
çizgile
miri
kısacası
biyoenerji
kutub
rosenberg
şahbender
rükn
krakow
turtle
lexington
ınterbank
zincirlikuyu
büyükdere
upton
priscilla
harden
hellim
plüton
assassins
masturbasyon
şurup
çorlu
ımpact
topografik
ferik
montreux
panzehir
ındex
cu
alive
bobo
persepolis
ratzinger
atığ
başıboş
şecere
barton
fink
mola
alyon
henson
müfit
hizbullah
dok
anaerobik
farm
shake
omurgasızlar
sparrow
kahpe
capote
mançuca
saarland
emerson
formasyon
butan
mücahid
lines
flight
sexy
ferit
aydar
piotr
yoket
prim
serrano
reverans
miklos
krasnodar
sırıkla
milito
semavi
baydar
harrington
blunt
çeçen
dağıstanlı
myers
dare
hoover
ajitasyon
rooneyn
doni
amper
connolly
almanağ
raikkonen
haşla
bliss
jungle
dialog
tenkit
beaumont
evans
chagall
modigliani
matisse
empresyonizm
kübizm
katet
khalifa
serezli
sersem
bomboş
sykes
hull
britain
cranberries
paula
binlik
pudra
pelicans
büyükanne
manyetizma
spice
dibace
özgener
social
uh
muhit
zack
randall
alveol
çiğne
paydaş
tamöz
karn
acık
torba
galon
yönetsel
mv
bağıntı
evet
yankees
golan
tikağacı
kereste
sacit
hasebiyle
engerek
ipucu
bozunum
derken
karala
tüpraş
kırıkkale
ağar
moreno
andreu
belladonna
flowers
ansızın
oto
davei
eminönü
hirst
pulla
sabetay
çekiliş
wozniacki
gevşek
gülsüm
cobain
miletos
bayramiç
humvee
ennio
morricone
stars
ırwin
uf
kocatepe
vakanüvis
kellogg
burjuvazi
whatsapp
messenger
ultraviyole
entomolog
revize
segment
maltoz
akseki
roulet
beyazperde
fabius
waters
imlek
kupür
turba
schubert
lied
yad
eliyahu
electra
ayyaş
zimmet
ringo
makoto
mabet
kozinoğlu
müşavir
marlborough
çelim
dana
fetiş
dash
sefarad
priya
elan
şartla
smile
ayet
mariah
kiribati
çürük
çorak
jiang
kastanyet
enstrümantasyon
aşkenazi
fast
mcdonalds
speedy
hasina
cortex
yazgı
##nul
simmons
bilay
çırp
beyazıt
alışık
dansöz
kubrick
rumi
goes
gediz
networkü
calling
keykubad
pradesh
sörf
kayağ
hamid
kel
nihavend
kemani
serkis
juniper
gırtlağ
azgelişmiş
willis
tercüman
meinhof
leibovitz
ataerkil
yuttur
minör
crescent
kargaşa
mıknatıs
itaatkar
örtük
near
manisaspor
apatit
alel
ürküt
titrek
plummer
teymur
dretnot
sosis
kakule
tarçın
yoğurd
mililitre
enjektör
kalıplaş
panjur
kepenk
trombon
knowles
tirebolu
anlaşılan
tezat
bahr
andican
prolog
stadt
nazmi
aktan
komor
antikite
forward
villareal
şenlikköy
islahiye
malik
illegal
ambulans
tuan
haberalma
jargon
demiryolcu
ten
kökten
sofu
bilgiişlem
ılımla
zührevi
pieter
mbemba
kish
vuruş
stories
köfte
oksitosin
semahat
arsel
tegv
müfredat
vazquez
amalia
angelo
nicolae
midland
mamadou
benzeş
alil
mariel
kayacan
vestel
dublörlük
ersan
ilyasova
orissa
francesca
realizm
sh
caldwell
loş
##lım
kaldırım
noriega
faubert
molly
despot
yerköy
yozgat
eksiğ
noyan
aldehit
clement
follow
unlimited
gypsy
inalcık
raheem
lawal
oyala
eyvah
mahzen
namzet
transliterasyon
soğukkanlı
insaniyet
raci
clint
eastwood
front
kalaşnikov
galleria
migrasyon
ahiret
spiritualist
ezber
gibson
terakki
grissom
bartlett
shepard
winslet
tefekkür
dumanla
ihtiras
gökçeada
göstergebilim
otistik
words
oecd
olive
safinaz
dizginle
debray
başbuğ
müşfik
kenter
kruşçev
içersi
alptekin
schwartz
amit
caydır
century
tyrone
gardner
errol
flynn
arşidüşes
efdal
zabıta
gondry
inme
bulgarca
flemenkçe
roberts
bisfenol
nasıra
kuzin
cheyenne
cabir
wing
katalitik
sop
minardi
anarşist
azm
arctic
monkeys
ıhlamur
partners
kerman
muhammad
gavras
celeste
güverte
kaynaşlı
akasya
taşaner
yenidoğan
kıvırcık
kucak
petrolspor
rockn
tesseract
dudayev
yeşilköy
meraklan
mohamed
renato
uskumru
turna
maceraperest
kaas
burns
clichy
edinim
soysert
iddaa
##yum
chat
fotoelektrik
robson
komiser
süngü
aldır
wife
jillian
toponimi
onomastik
spanair
europa
ıberia
bombe
yeşer
türdeş
cicero
sagna
astra
çiçekdağı
lilly
demirer
özge
borak
grandük
taslak
erkoç
nezih
hasbi
karpuz
kist
timsah
matsui
cürüm
dumont
devoniyen
sahan
labrador
grandüşes
mete
halhal
mena
brijeg
yabanarısı
gezin
pupa
sprinter
huggel
anais
asgar
asghar
istikamet
salamis
falanjist
http
ling
vinci
genk
sükunet
godiva
gerdanlık
facia
divriği
kangal
amik
videokonferans
sebüktekin
rufai
kuşçuoğlu
icazet
çorum
rebel
oreilly
meşale
direct
giddens
sahar
pond
rory
düşle
pendikspor
montag
burhanettin
inebahtı
roxy
mevlüt
yedisu
jiyan
pjak
ekalliyet
alessandro
bü
vat
eda
kürtaj
çuvaşça
tracey
tc
cary
bates
curt
pruva
papyon
alkış
nader
ikametgah
akordeon
albayrak
horowitz
görünürde
schnabel
brody
broekhoff
alliance
tül
meis
sabıka
kristof
yenidünya
chico
friday
lyla
latif
sevap
müsakkafat
miraz
delgado
uttar
elder
ercüment
gotham
singer
stilistik
kuran
kendrick
thule
chateau
audio
kırkayak
çıyan
kuytu
heyamola
rincon
rezil
crash
azat
arkham
mobius
eagleton
penny
widmore
bright
meds
placebo
laurent
windsor
spanoulis
larissa
amokachi
bakışım
böbreğ
bereli
nooyi
antisemitik
öç
pang
jian
tereyağı
halo
milletlerarası
hürmet
artuklu
zero
survivor
dörtlük
kayın
azerice
cebelitarık
darlık
mecidiye
dooku
rothen
pontus
çaykara
dernekpazarı
çamaş
krueger
tamar
kelepir
mahzar
betik
abs
accent
era
betonarme
barışsever
jeton
yazıcıoğlu
morley
alüvyon
tehdid
elias
çokluk
sema
pehlivan
kalfa
aytaç
macit
kayzer
osasuna
garret
ahmedinejad
sg
massa
anjiyo
anevrizma
kapitülasyon
cahil
sensör
maldiv
zlatan
hoşgel
rivera
johns
sırsıklam
sevda
melankoli
zarfında
gap
kids
nemesis
sinbad
seas
sweeney
fleet
epidemiyoloji
paso
kamufle
peydah
pedofil
ripper
retrospektif
berat
bulgur
joel
wedding
eberhard
müteakip
yarpuz
nane
anchorage
adile
naşit
hafiz
muhabere
sosyalizasyon
katniss
ındustries
vuku
terrell
ayarla
nida
paraben
'
feray
guillermo
nadal
yaramaz
demeç
tadil
aliye
aciz
kobi
ekaterina
vostok
hiroshima
atkins
harare
eralp
yarın
üfle
ferenc
yassıada
kenichi
karsinom
servikal
language
telsiz
kowalski
işveren
terzi
conor
maire
beitar
sadr
delille
ürkek
galactica
cylon
torpedo
statik
necef
irtibat
iftihar
şayan
april
pigment
sinematografi
seribaşı
günter
murmansk
müslim
seremoni
fuhuş
develi
sanayii
dehliz
baca
elektroskop
elektroskob
abidjan
jamaica
delon
haymana
evsahibi
megaton
kahrolası
gayrı
hasret
vakfed
kartografi
terra
turfanda
narenciye
havel
katalunya
sake
melike
crystal
prius
sinemasever
sarıpınar
özakman
altıner
metodist
holman
chief
arabirim
cortana
mind
küçükçekmece
kompartıman
lanse
mert
kıt
tekboynuz
nevzat
zahid
jenna
kiosk
coimbra
yk
hatoyama
soma
tebaa
buffon
kak
mustela
porsuk
auris
arte
milevskiy
miki
sürtüş
kardiyak
hipertansiyon
zatürre
grimm
dişiliğ
melis
birkan
hünal
lichtenstein
süleymanoğlu
ziyad
pavlov
quick
playbook
niro
lennox
amino
saks
genitif
liz
crick
everest
ranch
ambalaj
diskalifiye
metatez
köstebekgiller
şarlatan
vann
hüner
hail
tepele
dila
wiltshire
luck
eros
macarthur
günther
gümrü
quincy
collina
heerenveen
tehcir
telgraf
bastia
slow
bosch
pürüz
higgins
günü
ikö
ekmelettin
masume
göynük
republic
bürü
salgı
ispir
tercan
karahisar
naboo
##çik
altılı
ever
kame
elektronegatif
yükseltge
gabor
szabo
sanrıla
varsanı
georgios
philips
sismik
ekipman
scholes
zaaf
filotilla
mazgal
gerber
misket
booth
efil
perwer
parazit
yumurtla
rıfkı
teamül
fairbanks
dharma
arkadan
tork
nominal
morty
nouveau
hidrografi
köyiş
hayko
cepkin
tanman
sırdaş
foucault
eşik
katz
farid
şemsi
feyzi
mehra
cömert
sleep
keep
toy
hayek
öznel
cyber
magellan
loca
takahashi
günlerce
mürekkep
cathy
mizaç
çeçenya
kah
chao
sonuçsuz
court
stephens
nöral
makyöz
repertuvar
bozok
artik
daihatsu
orient
hendrix
parola
özbekçe
grigori
fahir
lor
hesaplaş
zeplin
çoğul
lina
mamas
commodore
sarayburnu
başmakçı
abdulkadir
korno
yekpare
içbak
akkışla
brod
kürtçe
surrey
çavdır
reid
tengri
barfiks
greko
desen
almatı
tribeca
mourinho
mustang
eriyik
jips
harward
jesse
doakes
muvaffakiyet
homoseksüel
##nsuz
meireles
fashion
naruto
mem
inzibati
kabe
zem
eyle
blair
yellowstone
rahatlıkla
bahai
dudley
misak
irna
trol
welles
huş
kemiriciler
flaş
yayan
yosemite
sünnet
nutuk
bardem
bilgilen
arterit
aort
heykeltraş
odessa
zahir
eronat
genelev
patroniçe
ziynet
fromm
psikanalist
sosyolog
ikonik
skolastik
biegler
meksiko
yediler
nedim
nasib
denizaslanı
grozni
peters
haislip
bahattin
cannon
ehud
barak
ayalon
palau
mikronezya
ekrem
esma
antidot
haricen
hamad
thani
harrods
jai
blender
dolores
ekiz
akçal
sith
müdahil
peder
look
dörd
oprah
konukla
cousin
zorl
sten
flöre
carullah
cihat
zimmer
anabolik
özümle
newyork
jude
theory
sosyo
dillon
karzai
zıpla
loris
skinner
termodinamiğ
uçandaire
notala
öklid
pomakça
lehigh
heritage
desert
tanıdık
tekelspor
sorbonne
parafin
yapışık
tolgay
görenek
altıntaş
çerçi
telkari
coulthard
bull
aliyeva
aliyev
hepçil
tomurcuk
typhoon
kasa
fehriye
erdal
osteoporoz
sumatra
edda
permanganat
ibb
bekaret
pocahontas
şımar
halsey
persia
sumo
meydanda
ateşin
siro
nedret
soğdca
ebay
böylesine
minnettar
zebra
haci
raşid
loch
gündoğumu
günbatımı
dudu
kırgın
bilbo
pardesü
ga
federe
main
şile
osullivan
yüzlük
hazarca
fanti
cosette
kaburga
shakira
braun
cenevizli
hemşin
sülfat
leblanc
concord
karamel
circle
ırina
uğrak
spyder
perakende
berrak
dalgıç
bağa
cordoba
sahabe
cavalli
istif
dodge
plymouth
jeep
ceyhan
eğriboz
gözcü
paige
shandong
levski
spazm
delev
toretto
indiana
üçer
flo
kateter
ifa
liu
qi
ızdırap
orijin
toni
metrobüs
phileas
obama
miting
orion
hayırsever
organizatör
gasper
analog
multipleks
bağl
tolunay
barınak
aşdod
brava
hamm
gent
hekimhan
ayran
lampedusa
hollis
ayios
ajlan
büyükburç
suat
hüsn
marissa
bears
sign
kb
cabrio
coach
kombi
yuval
neuer
goryeo
guan
effects
westbrook
teolog
türüt
usan
tavla
hamle
comfort
seçeneğ
lt
uyluğ
tower
kuşbakışı
hayret
küfür
keşan
tijuana
gascoigne
pub
minerva
cyrus
concert
skorsky
abdülmecit
vasf
skeeter
altüst
orchestra
leninist
karakas
kivigiller
stahl
leif
ragnar
nergisgiller
mennan
herif
söv
yobaz
hilton
anemon
selami
derd
tt
merinos
arus
ergenliğ
mukavele
önyükle
varga
chevron
yağmurcun
haider
strache
kompresör
süleymaniye
rios
telhis
şerh
gees
egale
gülriz
sururi
yeditepe
bruckheimer
barrack
newfoundland
sabahattin
eyüboğlu
dotcom
varikosel
nüks
franke
algoritma
bütünleşik
üzgün
alageyiğ
alageyik
histeri
beyond
kaufmann
bielefeld
paola
filippo
stevie
delege
dinleti
kosmos
mehmetçik
tarihöncesi
palanka
behind
carroll
tropez
cüzzam
collection
karabuğday
lugano
finansman
brito
örümceğimsiler
brawn
yüzle
dorothy
makroekonomi
macbook
soderbergh
danış
bollan
jacobson
ölmez
bayramlaş
bariyer
ıfab
kuskus
yahni
anelka
güngören
hiss
octavio
manguel
avignon
moira
jeotermal
yerkabuğu
zeytinyağ
icraat
ayca
önayak
peel
blackie
lawless
iskeçe
laz
uşağ
büyükorhan
erguvan
rogue
yakuza
teams
ati
geforce
tull
stephane
hendek
sülfür
yağla
otoriter
daldır
halat
teleferik
tatlan
sakarin
atol
feridun
emirgan
mumla
lato
ebonit
kalak
yingluck
shinawatra
kentucky
modernizm
feliciano
beagle
djibril
abou
hamed
retoriğ
toraks
biyopsi
yorgo
sabahleyin
onbaşı
sermiyan
hişam
kandil
kozmolog
talan
boca
anzhi
döl
sencer
serebral
interpol
breeze
vieira
dakar
boyd
musluk
antika
agiad
zapted
biyoçeşitlilik
kulüplerarası
nusayri
itikad
disneyland
donatım
haynes
gözbebeği
popovic
bear
orka
geçeğ
meier
gibbs
tirith
concorde
classic
raffael
sertan
gerrard
miroslav
karacaören
ahtapot
chievo
brasilia
otağ
jospin
maroon
sfenks
sibel
kekilli
ıtalia
barnabas
naomi
uygar
hidroksil
psikopat
eziyet
kontrgerilla
flaherty
ısmarla
istida
fotomontaj
kokain
gökcisim
draco
asetilkolin
alize
ıllustrated
schroeder
esin
incelik
böke
bddk
tsunade
boucher
salak
cern
merceğ
feda
otugiller
oymak
ereksiyon
twain
otonomi
##meksizin
hellenistik
eklemle
abdülhamid
lahuri
takıntı
tesadüfen
kalem
fısu
ınternationale
repliğ
rich
hicret
sabr
şatilla
kelebek
jaeger
dedektör
guardiola
kurbağalama
kaymağ
alkin
susanne
rojas
read
mcgraw
mladen
itikat
belkemiği
rolex
saçmalık
tilbe
affleck
morfoloji
kompüter
arıt
colleen
gazap
birds
ambrose
cüneyd
rs
köpekbalık
motokros
ramis
beppe
mühlet
şantaj
östrojen
prates
köse
hes
karamürsel
taksim
atac
körel
cold
şişkin
şaul
yimpaş
yozgatspor
tuzakla
tohar
karolinska
ilçebay
yetke
sağduyu
mahvet
depresif
jaffe
bakteriyel
suluova
sulakyurt
bildik
woolwich
lefebvre
elmo
almanak
rosetta
teyp
aydınspor
corp
nureddin
lavigne
piruz
tuğgeneral
ps
toygar
ortalık
agüero
forlan
bazilika
jens
arsin
araklı
yoked
menopoz
saiyan
vegeta
bran
next
buy
cıs
akredite
hadise
ferhad
bağdadi
yangon
shanghai
kaleiçi
monkey
garp
ritter
thom
vakayiname
ypg
ange
curitiba
oyuncağ
mirza
etihad
boone
bueno
suphi
karakulak
zümre
zina
teneke
books
palmas
canaria
compaq
lte
altıparmak
burroughs
avant
aşir
buji
delegasyon
seylan
claudine
vize
sarayköy
emre
hollande
erotizm
kötülüğ
cardoso
gür
saldıray
homofobik
cezai
odysseus
sürün
çapulcu
anil
hidayet
multi
vecd
nigel
mingus
vaio
koller
menez
çemberlitaş
nuruosmaniye
ayrton
senna
süratle
markus
izometrik
prototiple
tmmob
süpürge
çekiç
c4
randers
naim
dilmener
karikatürist
sedye
bölme
titreşim
asvan
lamas
davies
aldatmaca
makü
citizen
odintsovo
inebolu
wilbur
whale
hoff
hook
samara
winkler
biniş
başakşehir
airbus
hertürlü
netanyahu
absürt
oriental
sharp
enjoy
bello
cr
amber
nature
derelioğlu
fadıl
akgündüz
maneviyat
foya
redman
öfkelen
demografi
korsika
sardunya
text
görücü
hsbc
suşi
kase
garnitür
saklı
iğ
materyalizm
rocco
domates
uçaksavar
elvira
pişman
konglomera
advertising
vakfiye
zaviye
vcd
roux
ıki
çizge
arabaş
lağım
sang
lung
dublör
pansuman
serum
köpür
anamur
aydıncık
gülnar
mut
kalori
josiah
asıf
mangal
lpg
marlo
brando
kohl
musavi
limoges
vanessa
yardımsever
eruh
viktoria
krom
şaheser
kumla
ml
dunne
gökcismi
nur
meb
chandra
burkina
faso
jankovic
reva
haket
başat
buzuki
campo
rollins
gena
billups
ıverson
sinod
işgüc
prizma
alicante
palmira
alegori
hidrodinamik
vikont
carolyn
eretna
beyd
ghetto
clapton
scofield
fırınla
şiş
çir
semerkant
buhara
museveni
wawrinka
dumlupınar
felemenkli
etiyolojik
nekroz
günyol
bakoğlu
kano
abuja
lahor
beer
tanılır
ernesto
joao
albright
village
badana
şaşaa
hadji
dimitar
mordoğan
obüs
korhan
bengt
bucaspor
halihazırda
yamyam
razak
namağlup
heybeliada
dişilik
erkeklik
bamberg
libre
andersson
palais
keseliler
karaçay
abazi
colour
osborne
tamer
aydoğdu
despotizm
güruh
episkopos
takdis
karekin
sendikalist
fletcher
garaudy
buscemi
vesaire
atakan
reading
pasaj
future
copper
galaxy
nexus
disc
mbps
hemofili
karlovy
vary
zwickau
angarya
coral
browne
şenol
çelikel
rıdvan
ilboğa
eşzamanlı
sözgelimi
herakles
acur
vive
battle
peas
boom
journey
presle
melun
eren
agop
hagop
asala
gıyasettin
menşur
safdışı
kilogram
cortes
piyale
yaya
kick
yumruk
eklektik
lanetle
ribas
manet
ernest
mezalim
lamel
tso
konfor
destekl
revaç
cinping
hablemitoğlu
hyung
rosenborg
bruges
mandal
banya
hollow
fes
marakeş
cheney
adonis
dusty
dekker
ense
tivibu
feyyaz
ciara
promise
swann
burbon
guys
işçiliğ
simurg
alvin
jeanette
giresse
tigana
turşu
besleme
fotomodel
patolojik
alelade
charlton
peteğ
çerkezce
mercier
palme
tas
kebab
kuvve
sentaks
lir
mutezile
tigin
engizisyon
sırtlan
yıkıntı
çinko
hur
federalist
martinez
kolleksiyon
dipçik
içsavaş
levant
chucky
banu
ergür
gata
akkor
oksitle
nitrik
gevişgetirenler
nörolojik
mn
sanjay
gandhi
sürüngen
yener
temizel
barışık
kötürüm
yılmaztürk
kahramanmaraşspor
melo
tavuk
kuyruklular
duyarga
leslie
aberdeen
hamsi
vahşet
katalogla
mono
joni
kristina
şafii
elmalı
biya
oftaş
ölün
bacı
tgrt
dual
tevdi
diaries
gaius
observer
gebre
ene
alaba
hidrosefal
mekanize
sükut
fresh
asime
ayazma
tahir
yurdal
beykoz
boyunduruğ
serpico
ang
vargı
amen
muller
denny
greys
anatomy
winchester
quartet
uppsala
hermafrodit
orwell
agrega
jovanovic
koma
engels
ilinti
bundesrat
octave
üstad
hazm
kozluk
romain
guinevere
aimee
efor
zenga
tereddüt
gauguin
please
muş
karaim
rossellini
nüve
evvelden
krista
tango
rainier
events
türbülans
sword
diaby
altıntepe
iha
naklet
bancroft
whos
elver
trablus
wushu
özgüven
tazele
bani
süheyla
gyo
kron
elitizm
şeffaf
artığ
kasım
elveda
skeç
pretoria
romney
silahtarağa
avea
prague
sut
kurukafa
bukowski
elips
knut
tires
ayman
cantor
fund
maket
tall
akı
paranoid
wear
boots
hand
fethiye
ınstagram
törpüle
burç
abidal
sent
ismailiye
chambers
shining
pis
cc
kaporta
yahşi
lannoy
gücen
number
tüzünataç
ödünç
heynckes
oaxaca
bitkibilim
kermen
imtihan
samandıra
midas
jak
villeneuve
çarkıfelekgiller
çarkıfelek
biglia
u21
akal
büyükbaş
puck
ulsan
volvo
penta
monterrey
apodaca
faust
shire
drum
ahmak
swayze
patlıcan
kızart
musakka
lahmacun
mantı
dakikalarca
gösterimle
hakas
nabız
yokla
lovers
kerte
dina
meşruti
fyodor
pisliğ
muhammet
aybek
delhi
zapt
griffith
çarpık
dayanık
çamurcun
tomislav
daz
görele
perugia
empoli
cloud
mevduat
libor
sesli
ücretle
çalışkan
seyfullah
gaiman
taksimat
fevzi
clovis
mertebe
darya
sri
lanka
şereflikoçhisar
nikolas
fkö
paleografi
uz
akromegali
stanislav
yekaterina
markov
pearl
harbor
corn
beto
tüzel
chiefs
gentile
nascimento
habermas
polemiğ
polemik
sigortacı
ayaş
katiyetle
aleyhtar
otomat
devrek
wish
symbol
selef
nazik
talepkar
lamb
bestel
çiftle
reebok
bolt
tyson
asaf
campanella
maker
kıstır
cingöz
split
neretva
anahtarla
ınternacional
pavarotti
alvaro
ness
yerdeş
brutus
echo
cedi
portrait
katl
mesnet
piyer
curie
cibulkova
prokofiev
##yınız
simülatör
doreen
tevazu
capri
ödeneğ
sürt
özyiğit
argali
lviv
heysel
holigan
mikrop
osvaldo
barzani
talabani
yurtsever
hume
hayrola
limonata
kmerler
tanksavar
derinlemesine
ettore
mulhouse
vujcic
asvel
pazaryeri
ferro
paradoks
xxx
bullock
yannick
stanislas
kamanan
johnsons
machiavelli
price
hıçkırık
muhterem
ansel
canyon
reuben
digiturk
likopen
mevla
dedeağaç
idmanocağı
öğütle
ildiz
siyanür
garland
balkon
troia
moonlight
maitland
cordon
esprit
piyes
palmitik
pamuğ
bourges
tosya
devrekani
boyabat
hanönü
sınırdaş
sorgu
host
honey
norfolk
alçal
katod
papo
registry
filibe
altınordu
hallol
çalar
falay
kalecik
muhtıra
ravza
code
suicide
nedense
serasker
kazdağı
madra
ansiklopedi
chai
meriva
rove
htc
sak
çanakçı
pasternak
earl
genevieve
tyrell
heather
zelaya
bunca
titanyum
ces
motorola
xoom
trader
çit
mansiyon
döviz
asidik
thales
aıpac
newtown
dawson
magneto
alttakım
güzergah
okyay
bölgele
fauna
ikonografi
çakı
sör
vezin
brindisi
virginie
gillet
emboli
milisaniye
muayenehane
dışavurumcu
elektrogitar
kurşunla
borg
sekseninci
flame
ole
gunnar
afacan
haylaz
taylan
thko
tasma
batağ
giuseppina
pasqualino
marineo
pippa
bacca
amanos
bambu
muppet
saka
macdonald
yalıyar
tenzin
ting
süslü
wook
michaela
maltepe
höyük
tümülüs
kalyon
esp
ıbanez
arifiye
sapanca
akpınar
gündoğan
hançer
smash
pulat
yardımlaş
zeitgeist
ıslık
tertip
sinarit
dalaş
dulles
slalom
borat
natalya
bilo
benetton
treviso
çivi
ritchie
giorgi
beyazla
nostradamus
astrolog
seedorf
badi
conrad
dawes
teçhiz
balistik
scorpions
klaus
omz
hüveyda
betiml
karina
ithalat
akad
titiz
müsamaha
heaven
musk
kadim
tılsım
aktürk
mill
neon
santa
eurasia
rating
ihlas
hamann
ironik
pops
andrzej
wajda
vfb
cumberland
azl
reçber
lover
yont
misvak
mizrahi
koguryo
samanyolu
dikiş
piaf
wonderful
ottmar
dietmar
topolojik
teizm
zorro
armand
paco
askeriye
prentice
economics
shabani
foreman
keitel
vic
yalıt
bose
anıtmezar
ajur
üstinsan
route
aspir
lube
cev
ladin
feel
dişbudak
zeytingiller
dolgun
sappho
şairane
kuzguncuk
yaldız
körükle
donnie
rahmet
vesile
donna
insiyatif
bettina
kahkaha
titanium
laktik
travesti
sanz
düzeyli
ayberk
kolo
duble
hardal
galapagos
fırkateyn
yuna
proses
vedat
paramiliter
convention
velvet
underground
cale
galactic
branson
mihenk
kuyruksallayangiller
sedatif
cedar
iskete
heads
etüt
hamza
##uver
ampul
klavsen
milka
anagram
çelikkol
huy
cadillac
şangay
birsel
umutlan
tankut
öktem
library
elyaf
cüz
degaje
özleş
teftiş
peralta
public
pergel
sıhhiye
oray
tasvip
yalıtım
azarla
küs
kanlan
kangren
gebze
düzyazı
worm
liyakat
clarissa
kaye
bozar
sima
şevk
ersu
yanal
keçiborlu
potemkin
poster
concordia
cephane
erzak
lauper
yazır
peçenek
karkın
baht
louvre
charisteas
güiza
dolce
gabbana
gucci
versace
edison
lenny
kerpiç
gustav
birdal
çaycuma
carmine
hassa
kaside
deste
ecnebi
prandelli
zdf
mendil
animals
amud
ayçiçeğ
merapi
bazalt
burning
shark
havale
patent
kant
ıchigo
jenny
curran
rukia
anestezik
supper
arab
cure
jel
birikinti
çaykovski
ustura
gillard
dayanılmaz
sustur
kazova
danişment
parmakla
ecowas
amasra
eşraf
dm
peşin
leonidas
müptela
hippi
gültiken
mavimtırak
yapraklan
şist
cirit
ıveco
yugo
pioneer
palyaço
cambaz
giulietta
berliner
ensemble
adilcevaz
ceviz
azak
monoksit
bernhard
kılıf
kalnietis
boko
kızılcahamam
atiba
hutchinson
osmani
güneşle
kırklarelispor
eke
balığıgiller
search
egoyan
silo
gohan
broş
mystery
jets
webb
seher
çimlen
soyad
##egel
baklagil
çayırla
natural
delfino
elif
ceyda
düven
twelve
popstar
heybet
orhaneli
düklük
milla
takın
hidalgo
metalist
rijeka
hacib
kutadgu
bilig
abdülgafur
vian
civilization
demirköprü
reşatbey
sinanpaşa
misk
karbeyaz
turkish
ramp
ordonat
phillip
aklan
tümleşik
card
muharrem
mohawk
albany
pirate
crichton
taşköprü
mahalli
kamar
yonca
tonoz
dostluğ
sen
##inle
pankart
utanc
zamani
paratoner
courtois
plata
selinti
heikki
kovalainen
ehliyet
tours
koçarlı
gina
rod
steffi
deyr
fabl
ekser
ikaz
havya
nvidia
mondo
cane
française
kandi
bauhaus
baxter
galaktik
sığınak
yanıbaşı
dışar
oleg
refiğ
avşar
tanju
uyak
aliterasyon
anababa
insancıl
bkm
parlamenter
pervin
yekta
düğün
amado
ismet
hayri
seniha
okatan
olsson
piyon
perth
erhan
koza
lahana
smaçör
elements
elysium
sporlan
antraks
bangalore
çöven
çöğ
karanfilgiller
selby
zum
bundestag
iyimser
sinizm
girgin
çiriş
fonte
polo
cavalier
tivoli
saura
bilinemez
utaka
halkbank
teşbih
maveraünnehir
abdülmelik
etüd
khalil
vardak
harput
e5
batistuta
greco
navigasyon
rastgele
butch
killian
honor
randle
seyf
lilian
cavani
dirk
rampling
kuyrukluyıldız
lawn
freedom
düşkü
salaş
sefalet
opsiyon
vitesle
suv
yabanmersini
kondom
komplike
kıskaç
caen
marko
telesiyej
start
dsi
dönence
rogge
kaiserslautern
hele
çilek
peşmerge
borçlan
lisansla
winner
defiance
aişe
havle
katana
matthews
şahid
vanuatu
değerle
akü
hackney
fosfor
veronika
omonia
honolulu
aloha
flori
tunes
mental
tümle
iyot
morfin
metil
iyodür
xavi
aşırt
acet
fergie
külliyat
çenek
goldie
maggio
yattara
barbie
mattel
armen
simao
daisy
simgesel
lut
janning
ınternazionale
lido
viraj
apex
report
bigudi
borders
opak
poşetle
bryce
ütü
kırışık
kain
senyör
cap
manş
dover
dani
ob
doha
gönülçelen
müzikolog
işlek
kelsey
bone
tahincioğlu
yarma
kampala
myra
likya
tartus
bremer
glasnost
tenzil
millenium
porsuğ
kunduz
castor
capital
şota
lightning
streptokok
farenjit
kırınım
thomson
koçan
sinematek
ilbilge
farmakolog
kıvrımlan
değme
dokunum
başkalaşım
putperest
dynamics
automatic
chaka
bodyguard
tokay
ayvalık
elvir
mp3
benzemez
mütereddit
subway
eşsesli
sesteş
dadı
europe
digitürk
yetimhane
targaryen
baku
interferometre
erkan
wake
hirfanlı
snow
cake
rickman
veba
thatcher
çilimli
uygan
sezai
cansever
biyograf
hanke
benliğ
augsburg
shearer
feodal
vazo
lahit
elbette
gökdeniz
longa
aero
kozağaç
torch
ekenoğlu
cerrahpaşa
hrıstiyan
sans
itfaiye
tech
ihtisas
satriani
bende
riordan
pegmatit
konvertör
zuckerberg
saver
fıprescı
ihbar
faktoring
balboa
santander
albacete
burgess
melodram
winamp
beats
doğumgün
bakir
lullaby
keratin
filament
dangerous
zirkonyum
elde
etçil
sacchi
takış
dilemma
yudum
britt
memuriyet
öğretim
novak
yerbilim
solla
jonny
sheridan
garrett
hanek
karşıdevrim
rockefeller
om
biyofizik
atardamar
flood
ket
sarıcakaya
sarac
corey
içeceğ
gırgır
rezervuar
notre
dame
ekvatoral
kabak
karakuş
mahlut
belize
zülf
livaneli
laf
tahammül
militarist
eyüpspor
müneccim
secde
beytüllahim
şekerleme
yabanıl
seddülbahir
swing
rule
britannia
slash
arık
amitabh
tekinalp
bikarbonat
somaliland
vita
elwood
yadırga
aristokratik
islamcı
deborah
viki
armoni
katharina
gözalıcı
lauderdale
mamak
iskenderun
ikişer
kolonizasyon
ayhan
inal
hispanik
lida
elio
muallim
idareten
cv
samson
titre
pacino
farrell
bridget
donaldson
uleb
eurocup
nikolaus
tcdd
çoluk
focus
basamakla
çıkıla
tasarruf
couto
hulusi
başsavcı
must
branko
bazuka
dumas
lena
meyer
gökbilim
marcelo
ökçe
teflon
sıçanotu
metaloid
aikido
intizar
kathleen
aranjman
katyon
travmatik
bildt
saber
rider
mühr
kumarbaz
chocolate
ültimatom
lahey
viyola
gyllenhaal
safari
browser
yakut
karbonik
tröst
gong
sheng
xiao
ao
tian
burrell
kızılyıldız
plame
tarja
abdera
ayn
kamaş
manfred
shaq
bedreddin
serez
hattab
faruk
konsantrasyon
karajan
becer
ilkin
mübadil
jehan
niels
yeğ
pattinson
adedi
grave
ullrich
turla
düşes
pilar
zeynelabidin
snyder
hallie
azlolun
piriştina
jared
keton
asidoz
experimental
ofansif
mamografi
sakura
linklater
haydi
külhanbeyi
ilker
charming
smiths
behramşah
tımar
sipahi
verdasco
andras
shapiro
taxi
venter
deutschland
jale
artest
ollie
briggs
millie
cabaret
jurnalle
hafiye
meyhane
vana
valero
arami
tükel
leke
yöneylem
gülmece
nüsha
ütüle
kompozit
reel
skye
madness
aguilar
dize
edep
theater
shut
gotiğ
sumner
içim
marea
simeon
coyle
tus
terakkiperver
kırkı
durak
haykır
hatırat
personal
andropoz
revolver
salıver
sosyokültürel
argüman
ölçüt
kanalizasyon
shyamalan
bilimadamı
paleontoloji
middle
homeros
kaktüs
kaynanadili
centilmen
oğuzeli
puşkin
ortaç
porte
yokuş
hamdi
tanpınar
kerkük
samet
verna
yetim
hyatt
totalitarizm
gare
taberi
bedrettin
uzuv
gymnasium
norris
weston
alpak
öso
teneffüs
milhouse
tahkimat
vonnegut
vittoria
bridge
fruit
redding
homer
ıntercontinental
oksana
kesir
tie
vision
havali
lağved
grosso
bağnaz
burnett
eindhoven
hustle
hayley
cuomo
bild
gerd
dow
götz
kingdom
arıburnu
adamson
dodo
ortabatı
danişmend
suibriğigiller
pedagojik
antep
feke
huawei
katipoğlu
bakıcı
tuttle
pitbull
schweinsteiger
trigonometrik
radyan
alucra
yiğit
karabaş
kesi
balgam
sök
brave
deluxe
cool
martina
yavrula
kılkuyruk
mallory
carole
zorba
feza
neuchatel
xamax
geneva
bayt
şalter
sadak
azize
varsay
ogg
tokgözoğlu
hizip
digor
baştabip
ebe
ayniyat
dogs
henderson
cüppe
hipotansiyon
sarılık
libido
döküntü
vertigo
xi
jenerik
ayer
springfield
bernie
nebula
janis
joplin
nesim
dido
lezgi
marceau
brosnan
renard
myo
vitra
gayrimüslim
tanığ
harrelson
shue
anl
bane
angelica
akyüz
erinç
sunay
vero
via
blanco
glaber
kemirgen
ataköy
yeşilırmak
kitabevi
landis
lombardo
reeve
tori
yetmiş
budun
martı
montpellier
cevaben
rebap
pıtırcık
pikrik
baltacı
carlinhos
ortalamasına
lamont
bolivyalı
taşikardi
adele
kilmer
leisure
millar
alerji
stepan
eustace
silecek
script
trisha
malfoy
affed
avad
idea
mah
tami
düzmece
alonzo
gannuşi
bayii
hiristiyan
fecaat
özbek
cüzi
yeis
arşimet
saba
habeş
splinter
clancy
sorguç
şahan
gökbakar
pest
lazım
zaid
homojen
zeytinburnu
fiorino
italik
konsensus
kobayashi
vasiyetname
moloz
ebat
cila
mora
beşparmak
kasparov
avuc
songül
dikme
heights
aytek
minimum
tavuğ
sudur
tenor
karides
kleve
carta
göğs
kıraat
ilim
zeheb
davacı
thrones
nafi
roketle
timberwolves
savaştepe
mes
amansız
maddy
çulha
gurbet
coulson
eskil
şefik
bolluk
refahiye
karakteristiğ
nacho
acar
banvit
ıvica
akronim
factor
sipahioğlu
faye
bonnie
ayazağa
kübist
dogmatik
fiore
kısakürek
halis
burhan
direktif
schultz
bunny
livingston
uhrevi
salinas
romeo
tomarza
beacon
vizontele
tuuba
aqua
micheal
aldi
perl
wow
misyoner
zulmet
immünolojik
antinükleer
üroloji
soda
evliya
ram
veritas
golding
hayreddin
zevahir
çıra
çavuşesku
fonla
mikrodalga
salmonella
vicente
soto
çekince
tahribat
karbonhidrat
şinzo
yoko
olagel
baski
robbins
foot
complete
grove
sıç
mta
user
jöntürk
lamartine
sacco
frenle
panathinaikos
başkurtça
atambayev
sirte
yastıkla
erzin
fert
gözenek
gafil
ibret
mukherjee
andersen
hidroksit
turnusol
pinto
sousa
snake
vallejo
nanoteknoloji
lahm
tort
akçakale
attar
kartalkaya
roddy
peggy
akropolis
tını
simya
teb
derviş
ağda
aldemir
massimo
moratti
gasperini
eril
pasifist
pediatrik
tusaş
piece
kehribar
palazzo
türkcan
vibratör
erojen
federatif
parmaklık
kucağ
akyaka
dalaman
yumakla
müfreze
crime
gökçe
götürü
rhodolfo
jorginho
morello
terapist
reçete
antidepresan
bollywood
lock
yıprat
xinjiang
concepcion
nogay
kuopio
jöle
kozmetik
sancı
mecburen
jaziri
cng
famous
aval
adımla
rowland
hidro
karbonla
bartu
sarp
helga
domuz
ıslah
yüzbinlerce
karabiga
biga
bitişken
eurostar
seyehat
tattoo
zırhla
tolstoy
yanılsama
sikorsky
sınırdışı
saro
muhtelif
tegra
mutual
bukle
copeland
rhino
asteğmen
willie
takdirname
parabol
##sene
çiftçioğlu
suud
lefke
yaradılış
incirliova
armud
trace
nichols
beasley
rangers
app
higgs
jeter
grib
burcu
yanağ
heroes
kumukça
bristol
şovmen
duri
moria
lassie
kane
xabi
basın
cicinho
ortaklaşa
daye
sekoya
hızır
demirci
alania
değişmez
dicaprio
pasiyans
fal
b2
çipura
barbun
lagos
kefal
kalamar
berke
zincidi
gastroenteroloji
paulista
kazık
imla
blank
blow
psikanalitik
sözkonusu
mothers
milk
uptown
adak
worth
cizre
silahlan
reşid
carly
yvonne
georgi
seksüel
sadizm
güdül
premio
portugal
estoril
ridley
protocol
hemcins
track
adıvar
nikah
kıy
derlem
plaket
armutlu
gemlik
maureen
minnie
yanak
janko
berkant
göktan
reporter
bowden
mere
oswald
ençok
biyomedikal
mahfel
intertoto
elektroşok
twizy
midye
yumuşakça
organization
xing
sözed
yolspor
muğlaspor
karamanlı
ahmer
tab
singh
gurme
harbour
taverna
rover
amok
dominant
soledad
sbf
soysal
moro
broşür
neşret
yapıştırıcı
mays
göktaş
palo
mahvol
palto
akkuş
salah
dalgın
mağusa
ergazi
arpa
rourke
orkid
meyil
sarar
beceri
mcbride
raund
buzluğ
riera
ortega
pocket
periferi
carrington
astana
cosby
fukuoka
aspen
mastar
letterman
stalinist
tiananmen
cedid
granma
boylam
telenor
yevgeni
anatoly
nils
toivonen
sayer
mucid
ayrıkvadi
elrond
soldado
versailles
gravür
mumyala
hammett
|
taviz
köktendinci
abdülrahman
fetva
interbank
ahly
havaliman
ırma
keyfi
haşere
kaçınılmaz
müziksever
şehrazat
nurgül
yeşilçay
kayahan
yağmurdereli
menzir
anhui
hebei
jiangsu
intranet
firewall
karayılan
belkıs
berri
merv
pabuç
masaj
ekin
memlük
akka
ying
twins
brand
eduard
dargeçit
tepebaşı
stalker
playback
feyzioğlu
karataş
ımage
aristokrasi
geiger
sayaç
beşer
aydilge
fuzuli
redif
alıngan
atipik
pace
application
mccain
zubi
öldüresiye
bdt
siobhan
kerkenez
örüntü
byron
bureau
affairs
burgan
gulf
mall
sabahları
sis
keyf
fetişizm
nadi
geçersiz
melina
çöker
kwang
ısırığ
xx
aksak
bocala
week
eyre
kuhistan
karatepe
bono
mullen
monografi
true
buzz
beren
constant
carvajal
settar
tanrıöğen
paulus
mekong
hüsran
ballack
dinçer
motors
##ciğ
konfigürasyon
asimov
ohm
geraldine
conway
hawke
hintçe
oftalmolog
göynücek
gözetmen
aşure
##umsu
bonaparte
arife
mindanao
bundy
baki
biruni
kutbeddin
katib
nöroşirürji
christoph
waltz
kuduz
anadolujet
emirdağ
muhtar
sp
count
anfield
güveç
pastırma
jobs
gömü
motive
dona
dobruca
kıpçak
türkçesi
letter
tr
aliağa
sıkıcı
amway
ürk
karacaoğlan
hicvet
veteran
hernan
garza
şahs
paratüberküloz
defnet
yut
giscard
barkod
mohsen
makhmalbaf
lukaku
vujacic
karting
romanesk
merlin
pleistosen
holosen
aksakal
genova
camgöz
voyvoda
sforza
nbg
lapon
laponca
ridge
sereno
vojvodina
aşkabat
protaktinyum
uranyum
plutonyum
amerikyum
küriyum
berkelyum
kaliforniyum
nobelyum
lavrensiyum
ziyaretgah
şehriye
spagetti
kirpigiller
gabby
cargo
opsiyonel
nişangah
seki
bertone
benedictus
ashby
işadam
uydur
ultrason
kani
kahya
mostar
havla
camille
arduvaz
pisagor
seong
soo
tapir
zeynel
davudi
rfıd
selena
kubilay
gençlikspor
galata
ruhban
çatalhöyük
uyurgezer
##yüp
neruda
fettah
klarnet
poll
production
wizard
kordon
makat
toplardamar
quintana
mukaddes
chevalier
monsieur
m4
filozofik
##nla
avis
gaultier
gözdağı
kavlak
sicil
özhan
canaydın
ming
hegemonya
dp
panteizm
rebekah
doğrama
yök
oumar
crush
hilebaz
arketip
pınarbaşı
azdavay
şenpazar
daday
gerçeküstü
yakındoğu
iştar
istinye
atalet
darbed
mangır
kumtaşı
yapış
local
eyüb
ıdare
liva
munich
reasürans
moshe
kalça
şostakoviç
satirik
cı
atakule
proletarya
sömürü
bağırsağ
regis
liam
gallagher
lynx
july
anatoli
karpov
homurtu
mizansen
alien
stator
dalak
muhatap
mis
glinka
kosinüs
mesire
hayvani
topkapı
reali
kalburüstü
zola
woodward
tuşla
dorset
mahfil
dyp
dtp
rilke
akça
batak
alas
lorik
cana
kuman
bate
borisov
chedjou
buzkıran
mehr
dibo
ladies
luce
batıkent
mainz
sömür
conner
discovery
geographic
eurosport
kama
pozantı
sabrina
vakum
gölköy
shield
kızamık
kızamığ
preachers
kurultay
zarfla
belirteç
canova
avatar
sebat
japan
abdülgaffar
jabbar
wilt
regan
pasteur
shih
genetiğ
hansjörg
çebi
teselli
tartakla
birdenbire
konur
amboli
done
chivu
tahminen
samba
shay
shae
akbaba
yırtıcılar
rent
annabel
lagün
nema
grenada
operation
renkkörlüğü
rota
rehine
yelten
tuncer
termometre
ricci
prosedür
sanığ
stajyer
arkitera
estetiğ
carmichael
hinduizm
günışığı
hai
conficker
yamamoto
walton
yakınlarda
neue
alina
debrecen
ecdad
takdim
costello
travolta
unıfıl
aleksandır
yeknesak
bağdaşık
horoz
alanis
morissette
tatlıses
ido
baydır
alfonso
biyodizel
karaciç
kesel
mahmuz
cartier
bresson
magnum
photo
atm
doria
kamran
foça
panionios
watch
cisr
mustafapaşa
kapıkule
meriç
hierapolis
pamukkale
knox
saeed
güçlüğ
hergele
seul
aldo
pininfarina
ervin
mozaik
gayda
artam
rift
chauncey
mighty
estate
hacc
norbert
cenk
tekelioğlu
husus
liberalizm
pb
ergit
sato
eaton
dekatlon
haydarabad
shp
anita
colton
langırt
chinese
democracy
gump
dora
primakov
metamfetamin
sarfet
lucifer
arnhem
im
benna
ukic
teolojik
hammad
yavuzeli
oidipus
mrquez
oedipus
kemir
yokol
iletim
karo
jung
ordinaryüs
romani
alyuvar
evlad
salim
gasp
luzhniki
guiness
sırtla
ilam
joachim
löw
manhattan
amar
riba
crespo
plate
streep
redford
po
modena
swedish
gazino
tonaj
ledger
commander
chow
monk
alevi
şeki
pretty
ella
misal
heiko
tuncel
kurtiz
mahsun
türel
yasuo
cha
rahatsızlan
sivrisinek
kanka
bele
gaspar
bilic
fernandes
oğuzhan
cities
menşe
epsilon
acaba
kundakla
garson
ataizi
kırşan
atacan
topaloğlu
çetinkaya
ydp
karamanlis
monterey
arttırım
agit
minsk
nolte
iyonik
cao
margarita
watt
kaspar
sofuoğlu
ımogen
kafatas
mihrişah
melinda
iltica
menemen
mano
korutürk
fotokopi
alaşım
bütüncül
cosmo
güngör
başkanvekil
ıggy
pirus
zisis
havuç
lescott
kasnakla
fıçı
jüpon
biçimli
helfgott
cyril
telepati
psikiyatr
salla
hizmetçi
kisve
winfried
father
tea
jeolog
mead
peek
ezberden
keyif
variety
söyleşi
çel
ferzan
özpetek
mayınla
nk
tutkun
stig
farkındalığ
arvid
realist
trençkot
fötr
bilek
paça
külçe
dutch
panteon
şti
syracuse
water
fahrenheit
enes
kireçtaşı
madeira
embriyo
chani
beauvoir
orgazm
pratt
metruk
mubarek
stones
shimizu
bones
lance
sweets
canalioğlu
atıksu
eğirdir
marmaris
çeşme
enka
hf
klarinetçi
degeneres
push
karp
antisemit
puri
testere
hassasiyet
kool
höl
small
sarf
pocius
vassili
hora
direction
mathias
sanık
ushan
çakır
asaroğlu
azmet
beraat
azor
sao
zer
abdül
rezzak
edmonds
mask
somun
case
keops
tamamıyla
zeyna
crew
orbit
yüzüncü
teslimiyet
ballet
melvin
senozoik
vektör
orda
toka
temür
habibullah
tacik
altşube
olumsal
seci
ıslan
elegeçir
haydut
zhang
walsh
americas
riayet
hilal
şimşeğ
marke
kılavuz
iberia
basketball
boulogne
sparks
hendry
pike
nusaybin
kervan
öksüz
tarh
keynes
takva
burma
disleksi
loud
benekle
ortanca
simonyi
çepni
sonia
carousel
peçe
doll
ımdb
community
winger
kayığ
açacak
çardak
manavgat
körebe
versay
vecih
hürkuş
valentin
kodçöz
cox
mısra
fisher
stevens
chaos
illa
tecil
monroe
dersane
misa
musabeyli
drayton
leko
ekber
mondros
mütareke
angelika
endoskopik
hiza
athos
tabanca
imge
erenköy
amilaz
ercan
nanjing
gilles
kalvenci
ravenna
getafe
başlıbaşına
tekke
tarife
cevizi
patates
isle
kartezyen
töz
özniteliğ
evora
umbrella
prison
vineyard
corinthians
banknot
veznedar
petr
fit
november
müzmin
sebebiyet
galyum
nitrit
nenad
peptik
ülser
sammer
karel
berger
table
yükseklisans
giancarlo
elektrolit
katot
memu
belagat
fıkra
yerçekimi
kaygu
spektroskopi
clifford
gani
tv8
ötv
düzağaç
akarçay
jambon
avery
hershel
maho
zorunluluk
biçimle
sarkık
vikings
süpermarket
very
large
güvenoyu
zade
bulanık
cazip
carson
fahreddin
türkkan
salinger
seniye
sadaret
ıng
mintz
androjen
sütlü
beriberi
db
arcadia
kafkasyalı
mahsur
henrique
tülin
ebru
tabya
pangaltı
papirüs
avtovaz
dindir
bedevi
aber
mont
komet
elephant
yenbu
petrokimya
refika
tetkik
meyl
biatlon
hold
damien
sistema
nah
sualtı
mcfly
güleryüz
topshop
butik
tezgahtar
rainer
dizzy
raoul
dubois
carmelo
ecole
akort
necmettin
erbakan
herta
tazmanya
rostov
navarro
regal
brick
##ymış
dörtyol
piramid
olympiacos
quinn
cl
kokpit
doğrusu
boratav
kobay
muir
çapulla
gitgide
alison
shane
myndos
ael
denizana
tomurcuklan
sasuke
kakashi
flickr
icad
luther
ayıpla
mitchell
thaddeus
corner
beyanname
calder
u17
u19
çapkın
feriha
hazal
dart
pus
modüler
eşmerkezli
kablola
dibaba
addis
ababa
kıvılcım
before
self
grünberg
kyle
hümayun
abad
razi
habertürk
dinç
edmond
uyruk
kasıt
municipal
kargagiller
tayga
alakarga
tuyuğ
rubai
püskül
endeavour
sach
esther
schiff
obur
sisters
education
lisansüstü
faisal
hussein
romatizmal
erwin
talim
martius
anbar
ıkinci
ıbrahim
kolombo
bolivar
gayle
elektrokardiyogram
yazlık
valon
imam
fıkh
lion
zeppelin
tülomsaş
burhaniye
nezaret
restore
southgate
whitfield
vaktiyle
siegfried
memnuniyetle
ceo
mevlevi
hwang
gracie
levazım
converse
ceket
tişört
v8
kgb
giulio
meşru
nordik
pasaport
toparla
kaygılan
justinianus
giz
konsültasyon
felicity
nakşibendi
saygıdeğer
kolcu
nemrut
güroymak
tatvan
harley
goss
moments
arrakis
küfred
tengiz
tib
mesa
steam
baja
hastings
sıyrıl
köstence
türkoloji
sayid
tefeci
hobbes
dildar
dickinson
ilm
bankamatik
montaj
boyana
jocelyn
batım
şafağ
romy
göknar
şanver
göy
alagöz
kartopu
etekle
topuk
kravat
dürbün
bloch
kutupla
ferd
honaz
goodbye
eosen
stabilize
fora
ezel
leal
ciudad
mooreu
ereğ
sın
active
teras
enyeama
yossi
çamgiller
baronet
entegral
yakınsa
cris
sü
nasrani
katarina
akgün
ıgor
caillou
har
falcone
binali
sigourney
stanford
şaibe
icab
hidrometre
ölçekle
deb
rüzgarla
legacy
gosso
kadeş
münir
özkul
karındaş
devekuşu
enis
fosforoğlu
pota
şase
orjinali
benyamin
ning
fransisco
ıstranca
mahya
uzağ
kıvr
trade
dome
energy
praetor
şahinbey
şehitkamil
umay
gökkuşağı
korunum
dieter
armonika
rasul
belçim
allie
haze
sakso
paparazzi
değille
portable
vangelis
hatib
ethem
şahane
mutassım
random
access
memories
diario
heidegger
tarhun
bağdaşmaz
lilya
harman
ludmila
beşeri
çifte
anlatım
violet
mader
silence
mer
nahiv
emzir
mosley
engineering
erkenden
nakavt
hadrianus
afer
whitaker
bence
rahşan
seksi
jacobi
soyguncu
tommiks
mitchel
fenike
satrap
buyruğ
dostoyevski
verizon
hipodrom
şamanizm
şamanist
exeter
domenech
güz
bilinçlen
graafschap
beverly
whitman
financial
stock
babek
hurrem
samarra
mutasım
gürgan
penso
alkan
homolog
müşahade
dejenere
sarajevo
slavia
gülhane
kromatografi
kösedağ
wal
zeev
ayrımla
girenle
roadster
çalı
karaböcek
özgüç
veraset
emperyalist
baines
liriğ
sardes
kinect
yıldıray
brenner
freddy
uluborlu
refakat
karabudak
volfram
bisküvi
kurabiye
galeta
moss
kurtadam
barnaby
rupert
everett
whittaker
fani
ego
dupont
silüet
seconds
yunnan
taner
beate
hereford
zimbabwe
gonzalez
gant
akova
jeans
döşemelik
dokumahane
sdp
bükey
optimizasyon
düğüm
yalova
humphrey
nevrotik
ceren
bozoğlu
şahab
nankör
figüratif
veciz
apocalypse
kik
zikred
batu
acaristan
gudrun
fraksiyon
remus
kırığ
angelopoulos
koll
titan
rockets
hadron
rothschild
cihad
lucrezia
ensest
aleksander
dantel
nebze
yarımşar
fıstık
miramar
ralston
match
safkan
brandy
bryant
riga
sevkıyat
poliüretan
nuremberg
dalida
şentürk
seçki
doğalgaz
simetri
reşat
cisco
pryce
matti
latvala
rally
kılıc
führer
wii
refik
elinor
sela
pinter
tonga
ninja
stamford
raffles
civa
philedelphia
çürüksu
polar
psikopatik
küratör
hayy
yakzan
defoe
karay
ivinti
kamçatka
bering
krep
centauri
jill
beşikdüz
colo
stent
anaokulu
kağıthane
panama
çakış
vaduz
ulucami
hatuniye
muslera
mandıra
sprint
buldozer
güzin
huntelaar
ışıl
kasapoğlu
bilginer
derisidikenliler
kordalılar
ektoderm
endoderm
mezoderm
bere
mccall
matiz
heves
alaimisema
fawkes
baltala
tasarımla
kafile
asir
hidrokarbon
villepin
boxer
dondurma
meridyen
northwestern
ski
aretha
calloway
hooker
dökme
demiri
block
arlene
posta
alarm
bahamalar
altınyayla
eames
carioca
guarani
saip
altman
player
fortune
shuttle
crack
krzysztof
cornelia
servant
adıge
nesturi
zanned
mevzilen
örs
cunta
mahkumiyet
lazarus
bknz
handan
nashi
ik
cankurtaran
çivril
maestro
miyagi
conti
yeon
gustave
polk
navas
öğüt
kalas
molina
muğlak
okla
oryantal
ıngolstadt
austria
wien
kıvrık
ıeee
florence
energie
cottbus
alişan
ytp
sayın
alparslan
ıptv
aves
vala
williamson
shang
piro
anons
hate
yağmurla
zaho
kolonyal
rashid
mualla
destroyer
yavi
mate
camla
maglev
boğazla
nota
bai
gillette
binghamton
minik
restaurant
allison
redaktör
nemalan
belgü
fiorentina
greenpeace
nest
lovato
aterom
franciscus
telegraph
pfeiffer
yakınsak
helal
hara
aksat
mümin
chomsky
fatsa
sonics
plantasyon
quant
eyer
regional
daniels
athens
sarıoğlu
bezelye
aquino
fonseca
marisa
ponpon
pazartesi
ntv
ancona
vasat
strabon
tiksinti
baldız
bertha
nevra
müsellim
garibaldi
fransiyum
ekli
lisan
tweety
meleğ
sylvester
solna
adil
şort
pamplona
isveççe
uv
epistemolojik
ılan
longoria
afişle
kötüle
autobot
decepticon
kronik
küçükle
burgaz
hakurk
hodgson
targa
fantazi
zara
hale
neves
hum
bachchan
menuhin
çile
nejat
ayten
manila
huber
nikotin
aang
bilal
aleni
bihter
behlül
nihale
tuğba
ekşimsi
ferment
ts
lietuvos
parite
dinar
avro
isevi
habitat
neşat
battlefield
metalik
frigya
tripoli
yenicekent
granville
bıçkı
idil
köpekle
değdir
istisnai
kornet
zeta
böcekçiller
okaliptüs
memati
diop
butterfly
parka
inisiyatif
sulak
aparat
rejisör
arboretum
mcenroe
butterfield
saunders
bois
£
kavra
senkron
sargı
çobanla
teriyer
emisyon
düzle
kasnak
henrietta
purdue
barbados
kayınbirader
tabut
lupo
louisiana
balıkçıl
balıkçılgiller
göktuna
##mazlığ
flex
bening
krefeld
head
kuyumcu
rodop
pinochet
lityum
hidroksid
blizzard
ahır
thelma
blanc
muntazam
civil
anıttepe
ru
pluto
kolçak
tire
sylvia
tiryaki
dışbükey
stefano
mei
sembolist
cornelius
marco
kondüktör
vagon
gümüşhacıköy
süregid
galler
düdük
ardınca
liechtenstein
ganj
eriğ
hokkaido
watkins
denizlispor
tutu
polietilen
glikol
nets
tabakla
beyazid
anastasia
myskina
petrov
seat
automobile
işgören
bedia
muvahhit
springer
nitrojen
yuan
başıbozuk
stoch
gerçi
bitişiğ
aleksandar
hurt
dokunaklı
connery
battal
tekindor
vakkas
kreş
eriha
goauld
eldiven
lng
ihtişam
transilvanya
quantico
satanist
pandemik
agni
sander
akşit
perez
dörtgen
islav
carew
pansiyon
stronsiyum
intifa
stern
folikül
^
\
çıtır
siklon
taşlıca
fado
zemheri
gastro
savoy
çölaşan
madeline
limuzin
marv
laboratuar
algan
güvencele
jutsu
çakra
süsengiller
çiğde
singin
gonzlez
başyayla
salihli
capone
arktik
tiroit
kıkırdağ
eisenhower
macmillan
memorandum
siya
çamurla
büst
tıpatıp
havataş
havaş
mehter
faks
hajduk
serimle
derecele
deccal
nihilistik
jabba
konstantinos
eleni
işbirlik
hüseyni
tokmak
committee
hindoloji
teatro
alla
scala
mirka
vasconcelos
deco
antibiyotiğ
sıhhat
kinski
osnabrück
lop
faces
rüstem
teoman
ginseng
menejer
medikal
miliband
dhabi
iğdiş
jena
müshil
saud
evita
tomar
wolverhampton
emily
newsweek
kroll
çokeşli
kilid
lokal
anson
resorts
zürich
holiday
surinam
lester
balfour
laçın
hidroliz
şayet
karagözoğlu
barlow
everything
ulubatlı
ulubat
karacabey
polyester
gliserin
##mezlik
amigo
nihali
remote
şamil
doküman
steno
şehriyar
weather
sikkele
florür
gökgürültüsü
keme
okuyan
emı
ponce
montevideo
şımarık
kapris
datça
kriter
ıd
müeyyide
gould
fibroz
koyağ
imgele
beynelmilel
fellini
abdurrahim
zapsu
kibutz
denizkızı
heath
marriott
flamengo
coritiba
rostock
albrecht
padang
deklare
condoleezza
oviedo
kinşasa
komi
veracruz
diebler
tatbik
spiderman
aeroflot
gözkapak
başparmağ
tarak
kireçle
ürat
becca
moody
sakaryaspor
işit
üngör
virtüoz
endokrin
farmakoloji
dassault
kierkegaard
moreu
dalia
fide
ekstre
nintendo
çeyiz
kilitle
muhacir
elektriğ
jeroen
grafiker
şerbetçiotu
castilla
manifatura
