[PAD]
[UNK]
[CLS]
[SEP]
[MASK]
!
"
#
$
%
&
'
(
)
*
+
,
-
.
/
0
1
2
3
4
5
6
7
8
9
:
;
<
=
>
?
@
A
B
C
D
E
F
G
H
I
J
K
L
M
N
O
P
Q
R
S
T
U
V
W
X
Y
Z
[
\
]
^
_
`
a
b
c
d
e
f
g
h
i
j
k
l
m
n
o
p
q
r
s
t
u
v
w
x
y
z
{
|
}
~
¡
¢
£
¤
¥
¦
¨
°
±
²
³
µ
¶
·
¸
¹
»
¼
½
¾
¿
À
Á
Â
Ã
Å
Æ
Ç
È
É
Ê
Ë
Ì
Í
Î
Ï
Ð
Ñ
Ò
Ó
Ô
Õ
Ö
Ø
Ù
Ú
Ü
Ý
Þ
ß
à
á
â
ã
ä
å
æ
ç
è
é
ê
ë
ì
í
î
ð
ñ
ò
ó
ô
õ
ö
÷
ø
ù
ú
û
ü
ý
ÿ
Ā
ā
Ă
ă
Ą
ą
Ć
ć
Ĉ
ĉ
Ċ
ċ
Č
č
Ď
ď
Đ
đ
Ē
ē
Ĕ
ĕ
Ė
ė
Ę
ę
Ě
ě
Ĝ
ĝ
Ğ
ğ
ģ
Ĥ
ĥ
Ħ
ħ
Ĩ
ĩ
Ī
ī
Ĭ
ĭ
Į
į
İ
ı
Ĳ
ĳ
Ĵ
ĵ
Ķ
ķ
ĸ
Ĺ
ĺ
Ļ
ļ
Ľ
ľ
Ŀ
ŀ
Ł
Ń
ń
Ņ
ņ
Ň
ň
ŉ
Ŋ
ŋ
Ō
ō
Ŏ
ŏ
Ő
ő
Œ
Ŕ
ŕ
Ŗ
ŗ
Ř
ř
Ś
ś
Ŝ
ŝ
Ş
ş
Ţ
ţ
Ť
ť
Ŧ
ŧ
Ũ
ũ
Ū
ū
Ŭ
ŭ
Ů
ů
Ű
ű
Ų
ų
Ŵ
ŵ
Ŷ
ŷ
Ÿ
Ź
ź
Ż
ż
Ž
ž
ſ
ƀ
Ɓ
Ƃ
ƃ
Ƅ
ƅ
Ɔ
Ƈ
ƈ
Ɖ
Ɗ
Ƌ
ƌ
ƍ
Ǝ
Ɛ
Ƒ
ƒ
Ɠ
Ɣ
ƕ
Ɩ
Ɨ
Ƙ
ƙ
ƚ
ƛ
Ɯ
Ɲ
ƞ
Ɵ
Ơ
ơ
Ƣ
ƣ
Ƥ
ƥ
Ʀ
Ƨ
ƨ
Ʃ
ƪ
ƫ
Ƭ
ƭ
Ʈ
Ư
ư
Ʊ
Ʋ
Ƴ
ƴ
Ƶ
ƶ
Ʒ
Ƹ
ƹ
ƺ
ƻ
Ƽ
ƽ
ƾ
ƿ
ǀ
ǁ
ǂ
ǃ
Ǆ
ǅ
ǆ
Ǉ
ǈ
ǉ
Ǌ
ǋ
ǌ
Ǎ
ǎ
Ǐ
ǐ
Ǒ
ǒ
Ǔ
ǔ
Ǖ
ǖ
Ǘ
ǘ
Ǚ
ǚ
Ǜ
ǜ
ǝ
Ǟ
ǟ
Ǡ
ǡ
Ǣ
ǣ
Ǥ
ǥ
Ǧ
ǧ
Ǩ
ǩ
Ǫ
ǫ
Ǭ
ǭ
Ǯ
ǯ
ǰ
Ǳ
ǲ
ǳ
Ǵ
ǵ
Ƕ
Ƿ
Ǹ
ǹ
Ǻ
ǻ
Ǽ
ǽ
Ǿ
ǿ
Ȁ
ȁ
Ȃ
ȃ
Ȅ
ȅ
Ȇ
ȇ
Ȉ
ȉ
Ȋ
ȋ
Ȍ
ȍ
Ȏ
ȏ
Ȑ
ȑ
Ȓ
ȓ
Ȕ
ȕ
Ȗ
ȗ
Ș
ș
Ț
ț
Ȝ
ȝ
Ȟ
ȟ
Ƞ
ȡ
Ȣ
ȣ
Ȥ
ȥ
Ȧ
ȧ
Ȩ
ȩ
Ȫ
ȫ
Ȭ
ȭ
Ȯ
ȯ
Ȱ
ȱ
Ȳ
ȳ
ȴ
ȵ
ȶ
ȷ
ȸ
ȹ
Ⱥ
Ȼ
ȼ
Ƚ
Ⱦ
ȿ
ɀ
Ɂ
ɂ
Ƀ
Ʉ
Ʌ
Ɇ
ɇ
Ɉ
ɉ
Ɋ
ɋ
Ɍ
ɍ
Ɏ
ɏ
ɐ
ɑ
ɒ
ɓ
ɔ
ɕ
ɖ
ɗ
ɘ
ə
ɚ
ɛ
ɜ
ɝ
ɞ
ɟ
ɠ
ɡ
ɢ
ɣ
ɤ
ɥ
ɦ
ɧ
ɨ
ɩ
ɪ
ɫ
ɬ
ɭ
ɮ
ɯ
ɰ
ɱ
ɲ
ɳ
ɴ
ɵ
ɶ
ɷ
ɸ
ɹ
ɺ
ɻ
ɼ
ɽ
ɾ
ɿ
ʀ
ʁ
ʂ
ʃ
ʄ
ʅ
ʆ
ʇ
ʈ
ʉ
ʊ
ʋ
ʌ
ʍ
ʎ
ʏ
ʐ
ʑ
ʒ
ʓ
ʔ
ʕ
ʖ
ʗ
ʘ
ʙ
ʚ
ʛ
ʜ
ʝ
ʞ
ʟ
ʠ
ʡ
ʢ
ʣ
ʤ
ʥ
ʦ
ʧ
ʨ
ʩ
ʪ
ʫ
ʬ
ʭ
ʮ
ʯ
ʰ
ʱ
ʲ
ʳ
ʴ
ʵ
ʶ
ʷ
ʸ
ʹ
ʺ
ʼ
ʽ
ʾ
ʿ
ˀ
ˁ
˂
˃
˄
˅
ˆ
ˈ
ˉ
ˊ
ˋ
ˌ
ˍ
ˎ
ˏ
ː
ˑ
˒
˓
˔
˕
˗
˙
˚
˛
˜
˝
˞
˟
ˠ
ˡ
ˢ
ˣ
ˤ
˥
˦
˧
˨
˩
˪
˫
ˬ
˭
ˮ
˯
˰
˱
˲
˳
˴
˵
˷
˸
˹
˺
˻
˼
˽
˾
˿
̀
́
̂
̃
̄
̅
̇
̈
̉
̊
̋
̍
̎
̏
̐
̑
̒
̓
̔
̕
̖
̗
̘
̙
̚
̛
̜
̝
̞
̟
̠
̡
̢
̣
̤
̥
̦
̧
̨
̩
̪
̬
̭
̯
̰
̱
̲
̳
̴
̵
̶
̷
̸
̹
̺
̻
̼
̽
̾
̿
̀
́
͂
̓
̈́
ͅ
͆
͇
͉
͊
͋
͌
͍
͎
͏
͐
͑
͒
͓
͔
͕
͖
͗
͘
͙
͚
͛
͜
͝
͞
͟
͠
͢
ͣ
ͤ
ͥ
ͦ
ͧ
ͨ
ͩ
ͪ
ͫ
ͬ
ͭ
ͮ
ͯ
Ͱ
ͱ
Ͳ
ͳ
ʹ
͵
Ͷ
ͷ
͸
͹
ͺ
ͻ
ͼ
ͽ
;
Ϳ
΀
΁
΂
΃
΄
΅
Ά
·
Έ
Ή
Ί
΋
Ό
΍
Ύ
Ώ
ΐ
Α
Β
Γ
Δ
Ε
Ζ
Η
Θ
Ι
Κ
Λ
Μ
Ν
Ξ
Ο
Π
Ρ
΢
Σ
Τ
Υ
Φ
Χ
Ψ
Ω
Ϊ
Ϋ
ά
έ
ή
ί
ΰ
α
β
γ
δ
ε
ζ
η
θ
ι
κ
λ
μ
ν
ξ
ο
π
ρ
ς
σ
τ
υ
φ
χ
ψ
ω
ϊ
ϋ
ό
ύ
ώ
Ϗ
ϐ
ϑ
ϒ
ϓ
ϔ
ϕ
ϖ
ϗ
Ϙ
ϙ
Ϛ
ϛ
Ϝ
ϝ
Ϟ
ϟ
Ϡ
ϡ
Ϣ
ϣ
Ϥ
ϥ
Ϧ
ϧ
Ϩ
ϩ
Ϫ
ϫ
Ϭ
ϭ
Ϯ
ϯ
ϰ
ϱ
ϲ
ϳ
ϴ
ϵ
϶
Ϸ
ϸ
Ϲ
Ϻ
ϻ
ϼ
Ͻ
Ͼ
Ͽ
Ѐ
Ё
Ђ
Ѓ
Є
Ѕ
І
Ї
Ј
Љ
Њ
Ћ
Ќ
Ѝ
Ў
Џ
Ж
Й
Ф
Ц
Ч
Ш
Щ
Ъ
Ы
Ь
Э
Ю
ъ
ѐ
ђ
ѓ
є
ѕ
ї
ј
љ
њ
ћ
ќ
ѝ
џ
Ѡ
ѡ
Ѣ
ѣ
Ѥ
ѥ
Ѧ
ѧ
Ѩ
ѩ
Ѫ
ѫ
Ѭ
ѭ
Ѯ
ѯ
Ѱ
ѱ
Ѳ
Ѵ
ѵ
Ѷ
ѷ
Ѹ
ѹ
Ѻ
ѻ
Ѽ
ѽ
Ѿ
ѿ
Ҁ
ҁ
҂
҃
҄
҅
҆
҇
҈
҉
Ҋ
ҋ
Ҍ
ҍ
Ҏ
ҏ
Ґ
ґ
Ғ
Ҕ
ҕ
Җ
җ
Ҙ
ҙ
Қ
Ҝ
ҝ
Ҟ
ҟ
Ҡ
ҡ
Ң
ң
Ҥ
ҥ
Ҧ
ҧ
Ҩ
ҩ
Ҫ
ҫ
Ҭ
ҭ
Ү
Ұ
ұ
Ҳ
Ҵ
ҵ
Ҷ
ҷ
Ҹ
ҹ
Һ
һ
Ҽ
ҽ
Ҿ
ҿ
Ӏ
Ӂ
ӂ
Ӄ
ӄ
Ӆ
ӆ
Ӈ
ӈ
Ӊ
ӊ
Ӌ
ӌ
Ӎ
ӎ
ӏ
Ӑ
ӑ
Ӓ
ӓ
Ӕ
ӕ
Ӗ
ӗ
Ә
Ӛ
ӛ
Ӝ
ӝ
Ӟ
ӟ
Ӡ
ӡ
Ӣ
ӣ
Ӥ
ӥ
Ӧ
ӧ
Ө
Ӫ
ӫ
Ӭ
ӭ
Ӯ
ӯ
Ӱ
ӱ
Ӳ
ӳ
Ӵ
ӵ
Ӷ
ӷ
Ӹ
ӹ
Ӻ
ӻ
Ӽ
ӽ
Ӿ
ӿ
Ԁ
ԁ
Ԃ
ԃ
Ԅ
ԅ
Ԇ
ԇ
Ԉ
ԉ
Ԋ
ԋ
Ԍ
ԍ
Ԏ
ԏ
Ԑ
ԑ
Ԓ
ԓ
Ԕ
ԕ
Ԗ
ԗ
Ԙ
ԙ
Ԛ
ԛ
Ԝ
ԝ
Ԟ
ԟ
Ԡ
ԡ
Ԣ
ԣ
Ԥ
ԥ
Ԧ
ԧ
Ԩ
ԩ
Ԫ
Ԭ
ԭ
Ԯ
ԯ
԰
Ա
Բ
Գ
Դ
Ե
Զ
Է
Ը
Թ
Ժ
Ի
Լ
Խ
Ծ
Կ
Հ
Ձ
Ղ
Ճ
Մ
Յ
Ն
Շ
Ո
Չ
Պ
Ջ
Ռ
Ս
Վ
Տ
Ր
Ց
Ւ
Փ
Ք
Օ
Ֆ
՗
՘
ՙ
՚
՛
՜
՝
՞
՟
ՠ
ա
բ
գ
դ
ե
զ
է
ը
թ
ի
լ
խ
ծ
կ
հ
ձ
ղ
ճ
մ
յ
ն
շ
ո
չ
պ
ջ
ռ
ս
վ
տ
ր
ց
ւ
փ
ք
օ
ֆ
և
ֈ
։
֊
֋
֌
֍
֎
֏
֐
֑
֒
֓
֔
֕
֖
֗
֘
֙
֚
֛
֜
֝
֞
֟
֠
֡
֢
֣
֤
֥
֦
֧
֨
֩
֪
֫
֬
֭
֮
֯
ְ
ֱ
ֲ
ֳ
ִ
ֵ
ֶ
ַ
ָ
ֹ
ֺ
ֻ
ּ
ֽ
־
ֿ
׀
ׁ
ׂ
׃
ׄ
ׅ
׆
ׇ
׈
׉
׊
׋
׌
׍
׎
׏
א
ב
ג
ד
ה
ו
ז
ח
ט
י
ך
כ
ל
ם
מ
ן
נ
ס
ע
ף
פ
ץ
צ
ק
ר
ש
ת
׫
׬
׭
׮
ׯ
װ
ױ
ײ
׳
״
׵
׶
׷
׸
׹
׺
׻
׼
׽
׾
׿
؆
؇
؈
؉
؊
؋
؍
؎
؏
ؐ
ؑ
ؒ
ؓ
ؔ
ؕ
ؖ
ؗ
ؘ
ؙ
ؚ
؛
؝
؞
ؠ
ء
آ
أ
إ
ا
ب
ة
ت
ث
ج
ح
خ
د
ذ
ر
ز
س
ش
ص
ض
ط
ظ
ع
غ
ف
ق
ك
ل
م
ن
ه
و
ى
ي
ٌ
ٍ
َ
ُ
ِ
ْ
ٓ
ٔ
ٕ
ٖ
ٗ
٘
ٙ
ٚ
ٛ
ٜ
ٝ
ٞ
ٟ
١
٢
٤
٥
٦
٧
٨
٩
٪
٫
٬
٭
ٮ
ٯ
ٰ
ٱ
ٲ
ٳ
ٴ
ٵ
ٶ
ٷ
ٸ
ٹ
ٺ
ٻ
ټ
ٽ
پ
ٿ
ڀ
ځ
ڂ
ڃ
ڄ
څ
چ
ڇ
ڈ
ډ
ڊ
ڋ
ڌ
ڍ
ڎ
ڏ
ڐ
ڑ
ڒ
ړ
ڔ
ڕ
ږ
ڗ
ژ
ڙ
ښ
ڛ
ڜ
ڝ
ڞ
ڟ
ڠ
ڡ
ڢ
ڣ
ڤ
ڥ
ڦ
ڧ
ڨ
ک
ڪ
ګ
ڬ
ڭ
ڮ
گ
ڰ
ڱ
ڲ
ڳ
ڴ
ڵ
ڶ
ڷ
ڸ
ڹ
ں
ڻ
ڼ
ڽ
ھ
ڿ
ۀ
ہ
ۂ
ۃ
ۄ
ۅ
ۆ
ۇ
ۈ
ۉ
ۊ
ۋ
ی
ۍ
ێ
ۏ
ې
ۑ
ے
ۓ
۔
ە
ۖ
ۗ
ۘ
ۙ
ۚ
ۛ
ۜ
۞
۟
۠
ۡ
ۢ
ۣ
ۥ
ۦ
ۧ
ۨ
۩
۪
۫
۬
ۭ
ۮ
ۯ
۱
۲
۳
۴
۵
۶
۷
۸
۹
ۺ
ۻ
ۼ
۽
۾
ۿ
܀
܁
܂
܃
܄
܆
܇
܈
܉
܊
܋
܌
܍
܎
ܐ
ܑ
ܒ
ܓ
ܔ
ܕ
ܖ
ܗ
ܘ
ܙ
ܚ
ܛ
ܜ
ܝ
ܞ
ܟ
ܠ
ܡ
ܢ
ܣ
ܤ
ܥ
ܦ
ܧ
ܨ
ܩ
ܪ
ܫ
ܬ
ܭ
ܮ
ܯ
ܰ
ܱ
ܲ
ܳ
ܴ
ܵ
ܶ
ܷ
ܸ
ܹ
ܺ
ܻ
ܼ
ܽ
ܾ
ܿ
݀
݁
݂
݃
݄
݅
݆
݇
݈
݉
݋
݌
ݍ
ݎ
ݏ
ݐ
ݑ
ݒ
ݓ
ݔ
ݕ
ݖ
ݗ
ݘ
ݚ
ݛ
ݜ
ݝ
ݞ
ݟ
ݠ
ݡ
ݢ
ݣ
ݤ
ݥ
ݦ
ݧ
ݨ
ݩ
ݪ
ݫ
ݬ
ݭ
ݮ
ݯ
ݰ
ݱ
ݲ
ݳ
ݴ
ݵ
ݶ
ݷ
ݸ
ݹ
ݺ
ݻ
ݼ
ݽ
ݾ
ݿ
ހ
ށ
ނ
ރ
ބ
ޅ
ކ
އ
ވ
މ
ފ
ދ
ތ
ލ
ގ
ޏ
ސ
ޑ
ޒ
ޓ
ޔ
ޕ
ޖ
ޗ
ޘ
ޙ
ޚ
ޛ
ޜ
ޝ
ޞ
ޟ
ޠ
ޡ
ޢ
ޣ
ާ
ި
ީ
ު
ޫ
ެ
ޭ
ޮ
ޯ
ް
ޱ
޳
޴
޵
޶
޷
޸
޹
޺
޻
޼
޽
޾
޿
߁
߂
߃
߄
߅
߈
߉
ߊ
ߋ
ߍ
ߎ
ߏ
ߐ
ߑ
ߒ
ߓ
ߔ
ߕ
ߖ
ߗ
ߘ
ߙ
ߚ
ߛ
ߜ
ߝ
ߞ
ߟ
ߠ
ߡ
ߢ
ߣ
ߤ
ߥ
ߦ
ߧ
ߨ
ߩ
ߪ
߫
߬
߭
߮
߯
߰
߱
߲
߳
ߴ
ߵ
߶
߷
߸
߹
ߺ
߻
߼
߽
߾
߿
ࠀ
ࠁ
ࠂ
ࠃ
ࠄ
ࠅ
ࠈ
ࠊ
ࠋ
ࠌ
ࠍ
ࠎ
ࠏ
ࠐ
ࠑ
ࠒ
ࠓ
ࠔ
ࠕ
ࠖ
ࠗ
࠘
࠙
ࠚ
ࠛ
ࠜ
ࠝ
ࠞ
ࠟ
ࠠ
ࠡ
ࠢ
ࠣ
ࠤ
ࠥ
ࠦ
ࠧ
ࠨ
ࠩ
ࠪ
ࠫ
ࠬ
࠭
࠮
࠯
࠰
࠱
࠲
࠳
࠴
࠵
࠶
࠷
࠸
࠹
࠺
࠼
࠽
࠾
࠿
ࡀ
ࡁ
ࡂ
ࡃ
ࡄ
ࡅ
ࡆ
ࡇ
ࡈ
ࡉ
ࡊ
ࡋ
ࡌ
ࡍ
ࡎ
ࡏ
ࡐ
ࡑ
ࡒ
ࡓ
ࡔ
ࡕ
ࡖ
ࡗ
ࡘ
࡙
࡚
࡛
࡜
࡝
࡞
࡟
ࡠ
ࡡ
ࡢ
ࡣ
ࡤ
ࡥ
ࡦ
ࡧ
ࡨ
ࡩ
ࡪ
࡬
࡭
࡮
࡯
ࡰ
ࡱ
ࡲ
ࡳ
ࡴ
ࡵ
ࡶ
ࡷ
ࡸ
ࡹ
ࡺ
ࡻ
ࡼ
ࡽ
ࡾ
ࡿ
ࢀ
ࢁ
ࢃ
ࢄ
ࢅ
ࢆ
ࢇ
࢈
ࢉ
ࢊ
ࢋ
ࢌ
ࢍ
ࢎ
࢏
࢐
࢑
࢒
࢓
࢔
࢕
࢖
ࢗ
࢘
࢙
࢚
࢛
࢜
࢝
࢞
࢟
ࢠ
ࢡ
ࢢ
ࢣ
ࢤ
ࢦ
ࢧ
ࢨ
ࢩ
ࢪ
ࢫ
ࢬ
ࢭ
ࢮ
ࢯ
ࢵ
ࢷ
ࢸ
ࢹ
ࢻ
ࢼ
ࢽ
ࢾ
ࢿ
ࣀ
ࣁ
ࣂ
ࣃ
ࣄ
ࣅ
ࣆ
ࣇ
ࣈ
ࣉ
࣋
࣌
࣍
࣎
࣏
࣐
࣒
࣓
ࣔ
ࣕ
ࣖ
ࣗ
ࣘ
ࣙ
ࣚ
ࣛ
ࣜ
ࣝ
ࣞ
ࣟ
࣠
࣡
࣢
ࣣ
ࣤ
ࣥ
ࣦ
ࣧ
ࣩ
࣪
࣫
࣬
࣭
࣮
࣯
ࣰ
ࣱ
ࣳ
ࣴ
ࣵ
ࣶ
ࣷ
ࣸ
ࣹ
ࣺ
ࣻ
ࣼ
ࣽ
ࣾ
ࣿ
ऀ
ँ
ं
ः
ऄ
अ
आ
इ
ई
उ
ऊ
ऋ
ऌ
ऍ
ऎ
ए
ऐ
ऑ
ऒ
ओ
औ
क
ख
ग
घ
ङ
च
छ
ज
झ
ञ
ट
ठ
ड
ढ
ण
त
थ
द
ध
न
ऩ
प
फ
ब
भ
म
य
र
ऱ
ल
ळ
ऴ
व
श
ष
स
ह
ऺ
ऻ
़
ऽ
ा
ि
ी
ु
ृ
ॄ
ॅ
ॆ
े
ै
ॉ
ॊ
ो
ौ
्
ॎ
ॏ
ॐ
॑
॒
॓
॔
ॕ
ॖ
ॗ
क़
ख़
ग़
ज़
ड़
ढ़
फ़
य़
ॠ
ॡ
ॢ
ॣ
।
॥
०
१
२
३
४
५
६
७
८
९
॰
ॱ
ॲ
ॳ
ॵ
ॶ
ॷ
ॸ
ॹ
ॺ
ॻ
ॼ
ॽ
ॾ
ॿ
ঀ
ঁ
ং
ঃ
঄
অ
আ
ই
ঈ
উ
ঊ
ঋ
ঌ
঍
঎
এ
ঐ
঑
঒
ও
ঔ
ক
খ
গ
ঘ
ঙ
চ
ছ
জ
ঝ
ঞ
ট
ঠ
ড
ঢ
ণ
ত
থ
দ
ধ
ন
঩
প
ফ
ব
ভ
ম
য
র
঱
ল
঳
঴
শ
ষ
স
হ
঻
়
ঽ
া
ি
ী
ু
ূ
ৃ
ে
ৈ
ো
ৌ
্
৏
৑
৒
৓
৔
৕
৖
ৗ
৘
৙
৚
৛
ড়
৞
য়
ৠ
ৢ
ৣ
৤
৥
০
১
২
৩
৪
৫
৬
৭
৮
৯
ৰ
ৱ
৲
৳
৴
৵
৶
৷
৸
৹
৺
৻
ৼ
৽
৾
৿
਀
ਁ
ਂ
਄
ਅ
ਆ
ਇ
ਈ
ਊ
਌
਑
਒
ਕ
ਖ
ਗ
ਘ
ਙ
ਜ
ਝ
ਟ
ਠ
ਡ
ਣ
ਤ
ਥ
ਦ
ਧ
ਨ
਩
ਪ
ਫ
ਬ
ਭ
ਮ
ਯ
ਰ
ਲ
ਸ਼
ਸ
ਹ
਻
਼
ਾ
ਿ
ੀ
ੁ
ੂ
੃
੄
੅
੆
ੇ
ੈ
੉
੊
ੌ
੍
੎
੏
੐
੒
੓
੔
੕
੖
੗
੘
ਖ਼
ਗ਼
ਜ਼
ੜ
ਫ਼
੟
੠
੡
੢
੣
੤
੥
੧
੨
੩
੪
੫
੬
੭
੮
੯
ੰ
ੱ
ੲ
ੳ
ੴ
ੵ
੶
੷
੸
੹
੺
੻
੼
੽
੾
੿
઀
ઁ
ં
ઃ
઄
આ
ઇ
ઈ
ઉ
ઊ
ઋ
ઌ
ઍ
એ
ઑ
ઔ
ક
ખ
ગ
ઘ
ઙ
ચ
જ
ઞ
ટ
ડ
ઢ
ણ
ત
થ
દ
ધ
ન
પ
બ
ભ
મ
ર
઱
ળ
વ
શ
સ
હ
઺
ઽ
ા
ી
ુ
ૃ
ૄ
ૅ
૆
ે
૊
ો
ૌ
્
૏
ૐ
૑
૒
૓
૔
૕
૖
૗
૘
૙
૚
૛
૜
૝
૞
૟
ૠ
ૡ
ૢ
ૣ
૤
૥
૧
૩
૪
૫
૬
૯
૰
૱
૲
૳
૴
૵
૶
૷
૸
ૹ
ૺ
ૻ
ૼ
૽
૾
૿
଀
ଁ
ଂ
ଃ
଄
ଅ
ଆ
ଇ
ଈ
ଊ
ଋ
ଌ
଍
଎
଑
଒
ଔ
କ
ଖ
ଗ
ଜ
ଞ
ଠ
ଡ
ଣ
ଥ
ଦ
ଧ
ନ
ପ
ଫ
ର
଱
ଵ
ଶ
ହ
ା
ି
ୂ
୆
େ
ୈ
୉
୊
ୋ
ୌ
୍
୎
୏
୑
ୗ
୘
ୠ
୤
୥
୬
୭
୮
ୱ
୳
୷
୸
୹
୺
୻
୼
୽
୾
୿
஀
஁
ஂ
ஃ
஄
அ
ஆ
இ
ஈ
உ
ஊ
஋
஌
஍
எ
ஏ
஑
ஒ
ஓ
ஔ
க
஖
஘
ங
ச
஛
ஜ
஝
ஞ
ட
஠
஡
஢
ண
த
஥
஦
஧
ந
ன
ப
஫
஬
஭
ம
ய
ர
ற
ல
ள
ழ
வ
ஶ
ஷ
ஸ
ஹ
஺
஻
஼
஽
ா
ி
ீ
ு
ூ
௃
௄
௅
ெ
ே
ை
௉
ொ
ோ
்
௎
௏
ௐ
௒
௓
௕
௖
௝
௞
௟
௡
௢
௣
௤
௥
௦
௧
௨
௩
௪
௫
௭
௮
௯
௰
௱
௵
௶
௷
௸
௹
௺
௻
௼
௽
௾
௿
ఀ
ఁ
ం
ః
ఄ
అ
ఆ
ఇ
ఈ
ఉ
ఊ
ఋ
ఌ
఍
ఎ
ఏ
ఐ
఑
ఒ
ఓ
ఔ
క
ఖ
గ
ఘ
ఙ
చ
ఛ
జ
ఝ
ఞ
ట
ఠ
డ
ఢ
ణ
త
థ
ద
ధ
న
఩
ప
ఫ
బ
భ
మ
య
ర
ఱ
ల
ళ
ఴ
వ
శ
ష
స
హ
఺
఻
఼
ఽ
ా
ి
ీ
ు
ూ
ృ
ౄ
౅
ె
ే
ై
౉
ొ
ో
ౌ
్
౎
౏
౐
౑
౒
౓
౔
ౕ
ౘ
ౙ
ౚ
౛
౜
ౝ
౞
ౠ
ౡ
ౢ
ౣ
౤
౥
౧
౨
౩
౪
౫
౬
౭
౮
౯
౰
౲
౳
౴
౵
౶
౸
౹
౺
౻
౼
౽
౾
౿
ಀ
ಁ
ಂ
ಃ
಄
ಅ
ಆ
ಇ
ಈ
ಉ
ಋ
ಌ
಍
ಎ
ಐ
಑
ಒ
ಓ
ಔ
ಕ
ಖ
ಗ
ಘ
ಙ
ಚ
ಛ
ಜ
ಝ
ಞ
ಟ
ಡ
ಢ
ಣ
ದ
ಧ
ನ
ಪ
ಫ
ಬ
ಮ
ಯ
ರ
ಱ
ಲ
ಳ
಴
ವ
ಶ
ಸ
ಹ
಺
಻
ಾ
ೀ
ು
ೂ
ೃ
ೄ
೅
ೆ
ೇ
ೈ
ೊ
ೋ
್
೎
೏
೑
೒
೓
ೕ
ೖ
೗
೘
೜
ೝ
೟
ೠ
ೡ
ೢ
೦
೧
೨
೩
೪
೫
೬
೭
೮
೯
೰
ೱ
ೲ
೴
೵
೶
೷
೸
೹
೺
೻
೼
೽
೾
೿
ഀ
ഁ
ം
ഃ
ഄ
അ
ആ
ഇ
ഈ
ഉ
ഊ
ഋ
ഌ
഍
എ
ഏ
ഐ
഑
ഒ
ഓ
ഔ
ക
ഖ
ഗ
ഘ
ങ
ച
ജ
ഝ
ഞ
ട
ഡ
ഢ
ണ
ത
ധ
ന
പ
ബ
ഭ
മ
യ
ര
റ
ല
ള
ഴ
വ
ശ
ഷ
സ
ഹ
ഺ
഻
഼
ഽ
ാ
ി
ീ
ു
ൂ
ൃ
ൄ
െ
േ
ൈ
ൊ
ോ
ൌ
്
ൎ
൏
൐
൑
൒
൓
ൔ
ൖ
ൗ
൚
൛
൜
൝
ൢ
ൣ
൤
൥
൦
൧
൨
൩
൫
൬
൱
൴
൵
൷
൸
൹
ൻ
ർ
ൽ
ൾ
ൿ
ං
අ
ආ
ඈ
ඉ
ඊ
ඌ
එ
ඒ
ඔ
඗
඘
඙
ක
ග
ඝ
ඟ
ච
ඡ
ජ
ඣ
ඥ
ඦ
ට
ඨ
ඩ
ඪ
ණ
ඬ
ත
ථ
ද
ධ
න
඲
ඳ
ප
ඵ
බ
භ
ම
ඹ
ය
ර
ල
඿
ව
ශ
ෂ
ස
හ
ළ
෉
්
෌
෍
ා
ැ
ෑ
ි
ී
ු
෕
ූ
ෙ
ේ
ෛ
ො
ෝ
ෞ
ෟ
෠
෥
෦
෨
෩
෪
෫
෬
෭
෮
෯
෰
෱
ෲ
ෳ
෴
෵
෶
෷
෸
෹
෼
෽
෾
෿
฀
ก
ข
ฃ
ค
ฆ
ง
จ
ฉ
ช
ซ
ฌ
ญ
ฎ
ฏ
ฑ
ณ
ด
ต
ถ
ท
ธ
น
บ
ป
ผ
ฝ
พ
ฟ
ภ
ม
ย
ฤ
ล
ฦ
ว
ศ
ษ
ส
ห
ฬ
อ
ฮ
ฯ
ะ
ั
า
ำ
ิ
ี
ึ
ื
ุ
ู
฻
฾
฿
เ
แ
โ
ใ
ไ
ๆ
็
่
้
๊
์
ํ
๎
๏
๐
๒
๓
๔
๕
๖
๗
๘
๙
๚
๛
๜
๝
๠
๢
๣
๤
๥
๦
๧
๨
๩
๪
๫
๬
๭
๯
๰
๱
๲
๳
๶
๷
๸
๹
๺
๻
๼
๽
๾
๿
຀
ກ
ຂ
຃
ຄ
຅
ຆ
ງ
ຈ
ຊ
຋
ຌ
ຍ
ຏ
ຐ
ຑ
ຒ
ຓ
ດ
ຕ
ຖ
ທ
ຘ
ນ
ບ
ປ
ຜ
ຝ
ພ
ຟ
ຠ
ມ
ຢ
຤
ລ
຦
ວ
ຨ
ຩ
ສ
ຫ
ຬ
ອ
ະ
ັ
າ
ີ
ື
ຸ
ູ
຺
ົ
ຼ
ຽ
຾
ເ
ແ
ໂ
ໃ
ໄ
໅
່
້
໊
໋
໌
໎
໒
໖
໗
໙
໚
ໝ
ໞ
ໟ
໠
໡
໢
໣
໤
໨
໩
໭
໮
໰
໱
໲
໳
໴
໶
໷
໹
໺
໼
༁
༂
༄
༅
༇
༈
༉
་
།
༏
༒
༕
༖
༗
༘
༙
༛
༜
༞
༟
༠
༡
༢
༣
༤
༥
༦
༧
༬
༭
༮
༯
༰
༱
༲
༳
༴
༵
༶
༷
༸
༺
༻
༼
༽
༾
༿
ཀ
ཁ
ག
ང
ཆ
ཇ
ཉ
ཊ
ཋ
ཌ
ཎ
ཏ
ད
ན
པ
ཕ
བ
མ
ཙ
ཚ
ཛ
ཞ
ཟ
འ
ཡ
ར
ལ
ས
ཨ
ཪ
ཬ
཭
཮
཯
ཱ
ི
ུ
ྲྀ
ཷ
ཹ
ེ
ོ
ཽ
ཾ
ྀ
ཱྀ
ྂ
ྃ
྄
྆
྇
ྈ
ྋ
ྌ
ྍ
ྎ
ྐ
ྑ
ྒ
ྔ
ྕ
ྖ
ྗ
྘
ྙ
ྚ
ྛ
ྜྷ
ྞ
ྟ
ྠ
ྡ
ྡྷ
ྣ
ྤ
ྥ
ྦ
ྨ
ྩ
ྪ
ྫ
ྫྷ
ྭ
ྮ
ྯ
ྱ
ྲ
ླ
ྴ
ྵ
ྶ
ྷ
ྸ
ྐྵ
ྺ
ྻ
྽
྿
࿁
࿂
࿃
࿄
࿅
࿇
࿈
࿋
࿍
࿎
࿏
࿐
࿑
࿔
࿖
࿗
࿙
࿚
࿛
࿝
࿞
࿟
࿠
࿡
࿢
࿣
࿤
࿦
࿨
࿩
࿪
࿫
࿬
࿭
࿮
࿯
࿰
࿱
࿲
࿳
࿴
࿵
࿸
࿹
࿺
࿻
࿼
࿽
࿾
࿿
က
ခ
ဂ
ဃ
င
စ
ဆ
ဇ
ဈ
ည
ဋ
ဌ
ဍ
ဎ
ဏ
တ
ထ
ဒ
ဓ
န
ပ
ဖ
ဗ
ဘ
မ
ယ
ရ
လ
ဝ
သ
ဟ
ဠ
အ
ဢ
ဣ
ဤ
ဥ
ဦ
ဧ
ဨ
ဩ
ဪ
ါ
ာ
ိ
ီ
ု
ူ
ေ
ဲ
ဳ
ဴ
ဵ
ံ
့
း
္
်
ျ
ြ
ွ
ှ
ဿ
၀
၁
၂
၃
၄
၅
၆
၇
၈
၉
၊
။
၌
၍
၎
၏
ၐ
ၑ
ၒ
ၓ
ၔ
ၕ
ၖ
ၗ
ၙ
ၛ
ၜ
ၝ
ၞ
ၟ
ၠ
ၡ
ၢ
ၣ
ၤ
ၥ
ၦ
ၨ
ၩ
ၪ
ၫ
ၬ
ၮ
ၯ
ၰ
ၱ
ၲ
ၳ
ၴ
ၵ
ၶ
ၷ
ၸ
ၹ
ၻ
ၼ
ၽ
ၾ
ၿ
ႀ
ႁ
ႂ
ႃ
ႄ
ႅ
ႆ
ႈ
ႉ
ႊ
ႋ
ႎ
႑
႒
႓
႕
႖
႗
႙
ႚ
ႛ
ႜ
႞
Ⴀ
Ⴂ
Ⴃ
Ⴄ
Ⴇ
Ⴈ
Ⴊ
Ⴋ
Ⴍ
Ⴐ
Ⴑ
Ⴒ
Ⴓ
Ⴔ
Ⴕ
Ⴗ
Ⴘ
Ⴙ
Ⴚ
Ⴛ
Ⴜ
Ⴝ
Ⴞ
Ⴟ
Ⴠ
Ⴡ
Ⴢ
Ⴣ
Ⴤ
Ⴥ
჆
Ⴧ
჈
჊
჋
჌
჏
ჰ
ჱ
ჲ
ჳ
ჶ
ჷ
ჸ
჻
ჼ
ᅠ
ᅳ
ሀ
ሁ
ሂ
ሃ
ሄ
ህ
ለ
ሊ
ላ
ሌ
ል
ሎ
ሐ
ሑ
ሔ
ሕ
ሖ
ሗ
መ
ማ
ሜ
ም
ሠ
ሡ
ሥ
ረ
ሪ
ራ
ሬ
ር
ሮ
ሯ
ሰ
ሱ
ሲ
ሳ
ሴ
ስ
ሶ
ሷ
ሸ
ሹ
ሺ
ሻ
ሼ
ሽ
ቀ
ቁ
ቂ
ቃ
ቄ
ቅ
ቆ
ቈ
቉
ቊ
ቋ
ቌ
ቍ
቎
቏
ቐ
ቒ
ቓ
ቔ
ቕ
ቖ
ቘ
቙
ቚ
ቜ
቟
በ
ቡ
ቢ
ባ
ቤ
ብ
ቦ
ቧ
ቨ
ቩ
ቪ
ቫ
ቭ
ቮ
ቯ
ተ
ቱ
ቲ
ታ
ቴ
ት
ቶ
ቷ
ቸ
ቹ
ቺ
ቻ
ቼ
ች
ቾ
ቿ
ኀ
ኁ
ኂ
ኃ
ኄ
ኅ
ኇ
ኈ
኉
ኊ
ኋ
ኌ
ኍ
኎
኏
ነ
ኑ
ኒ
ና
ኔ
ን
ኗ
ኘ
ኙ
ኚ
ኛ
ኜ
ኞ
ኟ
አ
ኡ
ኢ
ኣ
ኤ
እ
ኦ
ኧ
ከ
ኩ
ካ
ኬ
ክ
ኮ
ኯ
ኰ
኱
ኳ
ኴ
ኵ
኶
኷
ኺ
ኻ
ኼ
ኽ
ኾ
኿
ዀ
ዄ
዆
ወ
ዊ
ዋ
ዌ
ዐ
዗
ዘ
ዙ
ዚ
ዝ
ዠ
ዩ
ዪ
ያ
ዬ
ይ
ዮ
ዯ
ደ
ዱ
ዲ
ዳ
ዴ
ድ
ዷ
ዸ
ዺ
ዻ
ዼ
ዾ
ዿ
ጀ
ጁ
ጂ
ጃ
ጄ
ጅ
ጆ
ገ
ጉ
ጊ
ጋ
ጌ
ግ
ጏ
ጕ
጖
጗
ጘ
ጙ
ጚ
ጛ
ጜ
ጝ
ጞ
ጟ
ጠ
ጢ
ጤ
ጥ
ጦ
ጧ
ጩ
ጪ
ጬ
ጭ
ጮ
ጯ
ጰ
ጱ
ጳ
ጴ
ጶ
ጷ
ጸ
ጹ
ጻ
ጼ
ጽ
ጾ
ጿ
ፀ
ፁ
ፂ
ፃ
ፄ
ፈ
ፉ
ፊ
ፍ
ፔ
ፘ
ፙ
፥
፨
፩
፫
፬
፭
፮
፰
፴
፵
፹
፺
፼
፽
፾
፿
ᎂ
ᎃ
ᎄ
ᎆ
ᎈ
᎑
᎓
᎕
᎖
᎗
᎙
᎛
᎜
᎝
᎞
᎟
Ꭰ
Ꭱ
Ꭲ
Ꭳ
Ꭴ
Ꭵ
Ꭶ
Ꭸ
Ꭹ
Ꭺ
Ꭻ
Ꭼ
Ꭽ
Ꭾ
Ꭿ
Ꮀ
Ꮁ
Ꮂ
Ꮃ
Ꮄ
Ꮆ
Ꮇ
Ꮈ
Ꮉ
Ꮊ
Ꮋ
Ꮌ
Ꮍ
Ꮎ
Ꮏ
Ꮐ
Ꮒ
Ꮓ
Ꮔ
Ꮕ
Ꮖ
Ꮗ
Ꮘ
Ꮚ
Ꮛ
Ꮜ
Ꮝ
Ꮞ
Ꮟ
Ꮠ
Ꮡ
Ꮤ
Ꮥ
Ꮩ
Ꮪ
Ꮫ
Ꮬ
Ꮮ
Ꮰ
Ꮲ
Ꮳ
Ꮴ
Ꮵ
Ꮶ
Ꮷ
Ꮺ
Ꮽ
Ꮿ
Ᏹ
Ᏻ
Ᏼ
Ᏽ
᏷
ᏻ
ᏼ
᏿
ᐂ
ᐃ
ᐅ
ᐈ
ᐉ
ᐊ
ᐋ
ᐍ
ᐏ
ᐐ
ᐑ
ᐒ
ᐕ
ᐖ
ᐘ
ᐙ
ᐚ
ᐛ
ᐜ
ᐠ
ᐣ
ᐤ
ᐥ
ᐦ
ᐧ
ᐪ
ᐭ
ᐮ
ᐰ
ᐱ
ᐳ
ᐴ
ᐵ
ᐶ
ᐷ
ᐹ
ᐻ
ᐽ
ᐾ
ᐿ
ᑀ
ᑄ
ᑈ
ᑊ
ᑋ
ᑌ
ᑎ
ᑐ
ᑑ
ᑔ
ᑕ
ᑖ
ᑗ
ᑘ
ᑙ
ᑚ
ᑛ
ᑝ
ᑟ
ᑠ
ᑢ
ᑣ
ᑥ
ᑦ
ᑧ
ᑨ
ᑩ
ᑫ
ᑭ
ᑯ
ᑱ
ᑲ
ᑺ
ᑼ
ᑿ
ᒃ
ᒆ
ᒌ
ᒍ
ᒎ
ᒏ
ᒐ
ᒑ
ᒒ
ᒗ
ᒛ
ᒟ
ᒡ
ᒥ
ᒧ
ᒨ
ᒩ
ᒪ
ᒮ
ᒯ
ᒰ
ᒱ
ᒳ
ᒴ
ᒶ
ᒷ
ᒸ
ᒹ
ᒻ
ᒼ
ᒽ
ᒾ
ᓀ
ᓁ
ᓂ
ᓃ
ᓄ
ᓅ
ᓆ
ᓇ
ᓈ
ᓉ
ᓊ
ᓎ
ᓏ
ᓐ
ᓒ
ᓓ
ᓔ
ᓕ
ᓗ
ᓘ
ᓙ
ᓛ
ᓜ
ᓝ
ᓡ
ᓢ
ᓣ
ᓤ
ᓦ
ᓪ
ᓭ
ᓮ
ᓯ
ᓰ
ᓱ
ᓲ
ᓳ
ᓴ
ᓵ
ᓶ
ᓸ
ᓹ
ᓺ
ᓼ
ᓿ
ᔀ
ᔁ
ᔂ
ᔃ
ᔄ
ᔅ
ᔆ
ᔉ
ᔊ
ᔋ
ᔌ
ᔎ
ᔐ
ᔑ
ᔔ
ᔕ
ᔖ
ᔗ
ᔚ
ᔟ
ᔠ
ᔣ
ᔤ
ᔥ
ᔦ
ᔧ
ᔨ
ᔪ
ᔫ
ᔬ
ᔭ
ᔮ
ᔯ
ᔰ
ᔱ
ᔳ
ᔴ
ᔵ
ᔶ
ᔷ
ᔸ
ᔺ
ᔻ
ᔽ
ᔾ
ᕀ
ᕁ
ᕃ
ᕅ
ᕆ
ᕈ
ᕉ
ᕊ
ᕋ
ᕍ
ᕎ
ᕐ
ᕓ
ᕔ
ᕕ
ᕖ
ᕘ
ᕞ
ᕟ
ᕠ
ᕡ
ᕢ
ᕤ
ᕥ
ᕦ
ᕧ
ᕨ
ᕪ
ᕫ
ᕬ
ᕮ
ᕯ
ᕰ
ᕱ
ᕲ
ᕷ
ᕸ
ᕻ
ᕼ
ᕽ
ᕿ
ᖁ
ᖂ
ᖃ
ᖅ
ᖆ
ᖇ
ᖈ
ᖊ
ᖌ
ᖍ
ᖎ
ᖏ
ᖒ
ᖓ
ᖔ
ᖗ
ᖘ
ᖚ
ᖠ
ᖡ
ᖦ
ᖧ
ᖨ
ᖩ
ᖪ
ᖫ
ᖬ
ᖮ
ᖱ
ᖴ
ᖵ
ᖺ
ᖽ
ᖿ
ᗀ
ᗁ
ᗂ
ᗅ
ᗌ
ᗍ
ᗎ
ᗏ
ᗐ
ᗒ
ᗓ
ᗕ
ᗖ
ᗗ
ᗙ
ᗚ
ᗝ
ᗞ
ᗠ
ᗡ
ᗢ
ᗣ
ᗩ
ᗪ
ᗮ
ᗯ
ᗰ
ᗱ
ᗲ
ᗴ
ᗵ
ᗷ
ᗸ
ᗹ
ᗺ
ᗼ
ᗾ
ᗿ
ᘀ
ᘁ
ᘃ
ᘄ
ᘇ
ᘈ
ᘉ
ᘊ
ᘌ
ᘍ
ᘎ
ᘑ
ᘒ
ᘓ
ᘚ
ᘜ
ᘝ
ᘟ
ᘥ
ᘦ
ᘧ
ᘪ
ᘫ
ᘬ
ᘭ
ᘮ
ᘱ
ᘴ
ᘵ
ᘶ
ᘻ
ᘼ
ᘽ
ᘾ
ᘿ
ᙀ
ᙁ
ᙄ
ᙆ
ᙇ
ᙈ
ᙌ
ᙎ
ᙐ
ᙓ
ᙔ
ᙕ
ᙖ
ᙗ
ᙜ
ᙢ
ᙧ
ᙨ
ᙩ
᙭
ᙰ
ᙱ
ᙲ
ᙳ
ᙵ
ᙷ
ᙹ
ᙺ
ᙻ
ᙼ
ᙾ
ᚃ
ᚄ
ᚉ
ᚋ
ᚌ
ᚏ
ᚐ
ᚑ
ᚒ
ᚓ
ᚔ
ᚕ
ᚖ
ᚗ
ᚙ
᚛
᚜
᚞
᚟
ᚡ
ᚢ
ᚣ
ᚧ
ᚨ
ᚩ
ᚫ
ᚭ
ᚮ
ᚰ
ᚱ
ᚲ
ᚳ
ᚴ
ᚶ
ᚷ
ᚸ
ᚹ
ᚻ
ᚼ
ᚽ
ᚾ
ᚿ
ᛀ
ᛁ
ᛃ
ᛄ
ᛅ
ᛆ
ᛇ
ᛈ
ᛉ
ᛊ
ᛋ
ᛌ
ᛎ
ᛏ
ᛐ
ᛑ
ᛒ
ᛓ
ᛔ
ᛕ
ᛖ
ᛗ
ᛘ
ᛙ
ᛚ
ᛝ
ᛞ
ᛠ
ᛣ
ᛤ
ᛥ
ᛦ
ᛨ
ᛩ
᛫
᛬
᛭
ᛮ
ᛯ
ᛲ
ᛳ
ᛴ
ᛵ
ᛶ
ᛷ
ᛸ
᛺
᛾
᛿
ᜀ
ᜂ
ᜃ
ᜄ
ᜅ
ᜇ
ᜉ
ᜋ
ᜌ
ᜎ
ᜐ
ᜑ
ᜒ
ᜓ
᜔
᜕
᜖
᜗
᜙
᜝
᜞
ᜡ
ᜣ
ᜪ
ᜬ
ᜲ
᜸
᜹
᜻
᜿
ᝀ
ᝂ
ᝅ
ᝆ
ᝇ
ᝉ
ᝊ
ᝍ
ᝏ
ᝑ
ᝒ
ᝓ
᝔
᝕
᝗
᝘
᝚
ᝤ
ᝥ
ᝦ
ᝩ
ᝮ
᝼
᝽
᝾
᝿
ក
ខ
គ
ឃ
ង
ច
ឆ
ជ
ញ
ដ
ឋ
ណ
ត
ថ
ទ
ធ
ន
ប
ផ
ព
ភ
ម
យ
រ
ល
វ
ឝ
ឞ
ស
ហ
ឮ
ឯ
ឲ
ឳ
឴
ា
ិ
ី
ឹ
ឺ
ុ
ូ
ើ
ៀ
េ
ែ
ៃ
ោ
ៅ
ំ
ះ
ៈ
៉
៊
់
៌
៍
៏
័
៑
្
។
៕
៖
ៗ
៘
៚
ៜ
៞
៟
០
១
៣
៥
៦
៧
៩
៪
៫
៭
៰
៹
៺
᠀
᠁
᠂
᠃
᠄
᠅
᠇
᠈
᠉
᠊
᠋
᠌
᠍
᠒
᠓
᠖
᠗
᠘
᠚
᠛
᠜
᠝
᠞
᠟
ᠠ
ᠡ
ᠢ
ᠣ
ᠤ
ᠥ
ᠦ
ᠨ
ᠩ
ᠪ
ᠫ
ᠬ
ᠭ
ᠮ
ᠯ
ᠰ
ᠱ
ᠲ
ᠳ
ᠴ
ᡀ
ᡁ
ᡂ
ᡃ
ᡄ
ᡅ
ᡆ
ᡉ
ᡋ
ᡌ
ᡍ
ᡎ
ᡏ
ᡐ
ᡒ
ᡓ
ᡔ
ᡛ
ᡝ
ᡞ
ᡟ
ᡠ
ᡢ
ᡤ
ᡥ
ᡩ
ᡫ
ᡭ
ᡱ
ᡳ
ᡴ
ᢂ
ᢃ
ᢄ
ᢅ
ᢉ
ᢔ
ᢖ
ᢘ
ᢙ
ᢠ
ᢡ
ᢢ
ᢣ
ᢤ
ᢥ
ᢦ
ᢧ
ᢨ
᢫
᢬
᢭
᢯
ᢰ
ᢲ
ᢳ
ᢵ
ᢶ
ᢺ
ᢻ
ᢼ
ᢾ
ᣀ
ᣁ
ᣃ
ᣅ
ᣆ
ᣉ
ᣊ
ᣎ
ᣐ
ᣓ
ᣔ
ᣕ
ᣖ
ᣗ
ᣙ
ᣚ
ᣜ
ᣝ
ᣞ
ᣟ
ᣡ
ᣢ
ᣦ
ᣧ
ᣳ
᣽
ᤁ
ᤃ
ᤆ
ᤓ
ᤖ
ᤗ
ᤜ
ᤝ
ᤞ
ᤦ
ᤧ
ᤪ
ᤳ
᥀
᥁
ᥓ
ᥙ
ᥛ
ᥨ
ᥩ
ᥭ
᥵
ᦃ
ᦄ
ᦋ
ᦍ
ᦎ
ᦐ
ᦒ
ᦴ
ᦵ
᧐
᧑
᧔
᧕
᧖
᧘
᧙
᧚
᧛
᧜
᧞
᧟
᧥
᧩
᧪
᧫
᧬
᧭
᧮
᧯
᧰
᧲
᧳
᧶
᧷
᧸
᧹
᧺
᧻
ᨋ
ᨠ
ᨡ
ᨼ
᪖
᪗
᪘
᪙
᪞
᪟
᪠
᪡
᪦
᪨
᪮
᪻
᪽
ᪿ
᫂
᫃
ᫍ
᫏
᫐
᫑
᫓
᫖
᫘
᫙
ᬀ
ᬄ
ᬇ
ᭇ
ᭈ
ᭉ
ᭊ
ᭌ
᭍
᭎
᭏
᭐
᭑
᭒
᭕
᭘
᭚
᭝
᭞
᭠
᭣
᭤
᭥
᭦
᭧
᭨
᭩
᭪
᭫
᭬
᭭
᭮
᭯
᭰
᭱
᭲
᭳
᭴
᭵
᭶
᭷
᭸
᭺
ᮣ
ᮭ
ᮮ
ᮯ
᮲
᮳
᮴
᮵
᮶
᮷
᮹
ᮺ
ᮻ
ᮼ
ᮽ
ᮾ
ᮿ
ᯆ
ᯇ
ᯉ
ᯍ
ᯒ
ᯓ
ᯔ
ᯕ
ᯖ
ᯗ
ᯘ
ᯙ
ᯚ
ᯛ
ᯞ
ᯟ
ᯠ
ᯥ
ᯧ
ᯨ
ᯩ
ᯪ
ᯫ
ᯬ
ᯭ
ᯮ
ᯯ
ᯰ
ᯱ
᯲
᯳
᯴
᯵
᯶
᯷
᯸
᯹
᯺
᯽
᯾
᯿
ᰀ
ᰁ
ᰂ
ᰃ
ᰅ
ᰇ
ᰈ
ᰉ
ᰊ
ᰋ
ᰌ
ᰍ
ᰎ
ᰏ
ᰐ
ᰑ
ᰒ
ᰓ
ᰕ
ᰖ
ᰘ
ᰙ
ᰚ
ᰟ
ᰡ
ᰢ
ᰣ
ᰤ
ᰥ
ᰦ
ᰧ
ᰨ
ᰩ
ᰪ
ᰶ
᰸
᱅
᱈
᱉
᱑
᱗
ᱛ
ᱢ
ᱨ
ᱩ
ᱪ
ᱰ
ᱹ
ᱻ
᱿
ᲄ
ᲈ
᲋
Გ
Რ
Ტ
Ც
Ჭ
Ხ
Ჷ
Ჹ
Ჿ
᳀
᳁
᳃
᳆
᳇
᳈
᳉
᳊
᳋
᳏
᳑
᳒
᳓
᳔
᳖
᳘
᳙
᳚
᳛
᳠
ᳪ
ᳫ
ᳲ
ᳳ
᳴
᳸
᳹
᳻
᳼
᳽
᳾
ᴂ
ᴈ
ᴉ
ᴌ
ᴎ
ᴓ
ᴔ
ᴖ
ᴘ
ᴚ
ᴡ
ᴨ
ᴪ
ᴮ
ᴶ
ᴻ
ᵅ
ᵋ
ᵎ
ᵏ
ᵗ
ᵛ
ᵝ
ᵡ
ᵣ
ᵨ
ᵩ
ᵬ
ᵳ
ᵵ
ᵹ
ᵻ
ᵼ
ᵽ
ᵾ
ᵿ
ᶀ
ᶂ
ᶃ
ᶄ
ᶅ
ᶆ
ᶇ
ᶈ
ᶉ
ᶊ
ᶋ
ᶌ
ᶍ
ᶎ
ᶏ
ᶐ
ᶒ
ᶔ
ᶕ
ᶖ
ᶗ
ᶘ
ᶙ
ᶚ
ᶛ
ᶜ
ᶞ
ᶟ
ᶠ
ᶣ
ᶭ
ᶮ
ᶯ
ᶳ
ᶵ
ᶷ
ᶺ
ᶻ
ᶼ
ᶾ
᷀
᷁
᷂
᷃
᷄
᷅
᷉
᷋
᷍
ᷗ
ᷚ
ᷜ
ᷧ
ᷩ
ᷫ
ᷬ
ᷯ
ᷰ
᷷
᷸
᷺
᷻
᷾
Ḁ
Ḃ
ḃ
Ḅ
ḅ
ḇ
Ḉ
ḉ
ḋ
Ḍ
ḍ
Ḏ
ḏ
Ḑ
ḑ
ḓ
Ḕ
ḕ
Ḗ
ḗ
ḙ
Ḛ
ḛ
ḝ
Ḡ
ḡ
Ḣ
Ḥ
ḥ
Ḧ
ḧ
Ḩ
ḩ
Ḫ
ḫ
Ḭ
ḭ
Ḯ
ḯ
Ḱ
ḱ
Ḳ
ḳ
Ḵ
ḵ
Ḷ
ḷ
Ḹ
ḹ
Ḻ
ḻ
Ḽ
ḽ
Ḿ
ḿ
Ṁ
ṁ
Ṃ
ṃ
Ṅ
ṅ
Ṇ
ṇ
ṉ
ṋ
ṍ
Ṏ
ṏ
Ṑ
ṑ
Ṓ
ṓ
Ṕ
ṕ
Ṗ
ṗ
Ṙ
ṙ
Ṛ
ṛ
Ṝ
Ṟ
ṟ
Ṡ
ṡ
ṣ
Ṥ
ṥ
Ṧ
ṩ
Ṫ
ṫ
Ṭ
ṭ
ṯ
Ṱ
ṱ
ṳ
Ṵ
ṵ
Ṷ
ṷ
Ṹ
ṹ
ṿ
Ẁ
ẁ
Ẃ
ẃ
Ẅ
ẅ
Ẇ
ẉ
Ẋ
ẋ
ẍ
ẏ
Ẑ
Ẓ
ẓ
Ẕ
ẕ
ẖ
ẗ
ẘ
ẚ
ẛ
ẝ
ẞ
ẟ
Ạ
ạ
Ả
ả
Ấ
ấ
Ầ
ầ
Ẩ
ẩ
Ẫ
ẫ
Ậ
ậ
Ắ
ắ
Ằ
ằ
Ẳ
ẳ
ẵ
Ặ
ặ
Ẹ
ẹ
ẻ
Ẽ
ẽ
Ế
ế
Ề
ề
Ể
ể
Ễ
ễ
Ệ
ệ
Ỉ
ỉ
Ị
Ọ
ọ
ỏ
Ố
ố
Ồ
ồ
Ổ
ổ
ỗ
Ộ
ộ
Ớ
ớ
Ờ
ờ
ở
ỡ
Ợ
ợ
Ụ
ụ
Ủ
ủ
Ứ
ứ
ừ
ử
Ữ
ữ
Ự
ự
ỳ
Ỵ
ỵ
Ỷ
ỷ
Ỹ
ỹ
Ỻ
ỻ
ỽ
ἀ
ἁ
ἂ
ἃ
ἄ
ἅ
ἆ
Ἀ
Ἁ
Ἄ
Ἅ
Ἆ
ἐ
ἑ
ἒ
ἓ
ἔ
ἕ
἗
Ἐ
Ἑ
Ἒ
Ἔ
Ἕ
἟
ἠ
ἡ
ἢ
ἣ
ἤ
ἥ
ἦ
ἧ
Ἠ
Ἡ
Ἢ
Ἤ
Ἥ
Ἦ
Ἧ
ἰ
ἱ
ἲ
ἳ
ἴ
ἵ
ἶ
ἷ
Ἰ
Ἱ
Ἳ
Ἴ
Ἶ
Ἷ
ὀ
ὁ
ὂ
ὃ
ὄ
ὅ
Ὀ
Ὁ
Ὂ
Ὄ
Ὅ
ὐ
ὑ
ὔ
ὕ
ὖ
ὗ
Ὑ
὚
Ὓ
Ὕ
Ὗ
ὠ
ὡ
ὢ
Ὠ
Ὡ
Ὣ
Ὤ
Ὧ
ὰ
ὲ
έ
ὴ
ὶ
ί
ὸ
ό
ὺ
ύ
ὼ
὾
὿
ᾀ
ᾁ
ᾂ
ᾃ
ᾅ
ᾆ
ᾇ
ᾊ
ᾋ
ᾌ
ᾍ
ᾎ
ᾏ
ᾐ
ᾑ
ᾒ
ᾓ
ᾔ
ᾕ
ᾖ
ᾗ
ᾙ
ᾚ
ᾛ
ᾝ
ᾟ
ᾠ
ᾢ
ᾣ
ᾥ
ᾧ
ᾩ
ᾪ
ᾬ
ᾭ
ᾯ
ᾰ
ᾱ
ᾳ
ᾴ
᾵
ᾶ
ᾷ
Ᾰ
Ᾱ
Ά
᾽
᾿
῀
ῃ
ῄ
ῆ
ῇ
Ὲ
ῌ
῎
῏
ῐ
ῑ
ΐ
῔
ῖ
Ῐ
Ῑ
Ὶ
Ί
῜
῝
῞
ῠ
ῡ
ῢ
ΰ
ῤ
ῥ
ῦ
ῧ
Ῠ
Ῡ
Ύ
Ῥ
῭
΅
ῲ
ῳ
ῴ
῵
ῶ
ῷ
Ὸ
Ό
Ὼ
Ώ
ῼ
´
῿
‒
—
―
‖
‗
‛
‟
‡
‣
․
‥
‧
‱
′
″
‴
‵
‹
›
※
‽
⁀
⁁
⁂
⁃
⁄
⁅
⁆
⁇
⁈
⁊
⁋
⁌
⁎
⁏
⁒
⁓
⁕
⁚
⁛
⁜
⁝
⁞
⁼
⁾
₃
₆
₈
₉
₍
₎
ₑ
ₒ
ₓ
ₔ
ₚ
ₛ
ₜ
₝
₟
₠
₡
₢
₣
₤
₥
₦
₧
₩
₪
₫
₭
₮
₯
₰
₱
₲
₳
₴
₶
₷
₸
₹
₻
₽
₾
₿
⃀
⃁
⃄
⃆
⃒
⃕
⃖
⃗
⃘
⃙
⃚
⃛
⃜
⃝
⃠
⃡
⃢
⃥
⃦
⃧
⃨
⃩
⃪
⃫
⃭
⃮
⃰
⃳
⃴
⃷
⃹
⃺
⃼
⃽
⃾
℀
℁
℃
℄
ℇ
℈
℉
ℋ
ℌ
ℍ
ℐ
℔
ℕ
№
℗
℘
ℙ
ℚ
ℛ
℞
℟
ℤ
℥
℧
ℨ
℩
K
Å
ℬ
ℭ
℮
ℰ
ℱ
Ⅎ
ℳ
ℶ
ℸ
ℹ
℺
ℼ
ℽ
⅄
ⅅ
⅖
⅗
⅟
Ⅸ
Ⅿ
ⅲ
ⅳ
ⅷ
ↄ
ↇ
↊
↋
↍
↎
←
↑
↓
↔
↕
↖
↗
↘
↛
↜
↝
↞
↟
↠
↢
↤
↥
↦
↧
↨
↪
↫
↬
↭
↯
↰
↱
↲
↳
↴
↵
↶
↷
↸
↹
↺
↽
⇄
⇅
⇉
⇊
⇋
⇌
⇏
⇐
⇑
⇒
⇓
⇔
⇕
⇖
⇗
⇘
⇙
⇛
⇜
⇝
⇢
⇣
⇥
⇦
⇧
⇨
⇩
⇪
⇫
⇬
⇰
⇲
⇵
⇶
⇻
⇼
⇽
⇾
∀
∁
∂
∃
∄
∅
∇
∈
∉
∊
∋
∎
∏
∑
−
∓
∔
∕
∖
∗
∘
∙
∛
∝
∟
∠
∡
∣
∤
∥
∨
∩
∪
∫
∭
∮
∲
∳
∴
∵
∶
∷
∸
∺
∼
∽
∿
≂
≃
≅
≆
≈
≊
≋
≌
≍
≏
≒
≓
≔
≖
≘
≙
≚
≛
≜
≝
≞
≠
≡
≢
≤
≥
≨
≩
≪
≫
≬
≮
≰
≱
≲
≳
≴
≵
≶
≸
≹
≺
≻
≽
≾
≿
⊃
⊄
⊅
⊆
⊇
⊈
⊉
⊊
⊋
⊍
⊎
⊐
⊑
⊒
⊓
⊔
⊕
⊖
⊗
⊘
⊙
⊚
⊛
⊝
⊞
⊟
⊢
⊣
⊤
⊥
⊦
⊧
⊨
⊩
⊪
⊬
⊭
⊮
⊯
⊰
⊱
⊲
⊳
⊴
⊵
⊷
⊸
⊹
⊺
⊻
⊼
⊽
⊿
⋁
⋂
⋃
⋄
⋅
⋆
⋇
⋈
⋊
⋋
⋌
⋍
⋎
⋏
⋐
⋖
⋗
⋘
⋙
⋚
⋛
⋜
⋝
⋞
⋟
⋢
⋤
⋦
⋧
⋩
⋫
⋬
⋭
⋮
⋯
⋰
⋳
⋵
⋸
⋺
⋿
⌀
⌂
⌃
⌄
⌇
⌈
⌉
⌊
⌋
⌏
⌐
⌒
⌔
⌕
⌖
⌗
⌘
⌙
⌚
⌛
⌜
⌝
⌡
⌢
⌥
⌦
⌨
〈
〉
⌫
⌬
⌭
⌮
⌱
⌲
⌳
⌴
⌵
⌷
⌸
⌹
⌻
⌽
⌾
⍂
⍇
⍈
⍋
⍌
⍍
⍐
⍒
⍓
⍙
⍚
⍜
⍞
⍟
⍡
⍢
⍣
⍧
⍫
⍬
⍲
⍵
⍸
⍹
⍺
⍼
⍾
⍿
⎀
⎃
⎄
⎇
⎈
⎋
⎌
⎐
⎑
⎒
⎓
⎘
⎙
⎚
⎛
⎜
⎝
⎞
⎟
⎠
⎡
⎢
⎣
⎤
⎥
⎦
⎧
⎪
⎫
⎬
⎮
⎯
⎰
⎱
⎲
⎴
⎷
⎼
⎽
⎾
⏃
⏆
⏇
⏉
⏌
⏎
⏏
⏑
⏔
⏜
⏝
⏟
⏤
⏩
⏪
⏬
⏭
⏯
⏰
⏱
⏲
⏳
⏴
⏵
⏸
⏹
⏺
␈
␒
␓
␔
␖
␙
␠
␡
␢
␥
␦
␨
␩
␪
␫
␬
␵
␶
␷
␾
␿
⑃
⑇
⑈
⑌
⑍
⑎
⑐
⑑
⑖
⑛
⑜
⑝
②
⑥
⑫
⑬
⑯
⑰
⑱
⑳
⑶
⑿
⒀
⒔
⒕
⒨
⒱
Ⓑ
Ⓔ
Ⓕ
Ⓖ
Ⓗ
Ⓘ
Ⓙ
Ⓚ
Ⓝ
Ⓞ
Ⓢ
Ⓣ
Ⓤ
Ⓧ
Ⓩ
ⓑ
ⓓ
ⓔ
ⓕ
ⓖ
ⓗ
ⓘ
ⓙ
ⓚ
ⓛ
ⓝ
ⓞ
ⓡ
ⓢ
ⓩ
⓪
⓳
⓵
⓷
⓸
⓽
│
┅
┆
┉
┊
┋
┌
┎
┐
┑
└
┘
┚
├
┝
┞
┟
┠
┤
┦
┨
┪
┬
┮
┰
┴
┷
┸
┹
┼
╁
╂
╄
╈
═
╡
╢
╤
╨
╪
╫
╬
▀
▂
▃
▄
▅
▆
▇
█
▌
▐
░
▒
▓
■
□
▢
▣
▤
▥
▦
▧
▨
▩
▪
▫
▬
▭
▲
△
▴
▵
▶
▸
▹
►
▻
▼
▾
◀
◄
◅
◆
◈
◊
○
◌
◎
◐
◑
◔
◕
◗
◘
◙
◞
◟
◣
◤
◥
◦
◯
◼
◽
◾
☀
☁
☂
★
☆
☊
☋
☍
☎
☏
☐
☑
☔
☕
☖
☘
☚
☛
☜
☝
☟
☠
☡
☢
☣
☤
☥
☦
☩
☪
☬
☭
☮
☯
☰
☷
☸
☹
☺
☻
☼
☾
☿
♀
♁
♂
♃
♄
♅
♆
♈
♉
♊
♋
♌
♍
♎
♏
♐
♑
♒
♓
♔
♕
♖
♗
♘
♙
♚
♛
♜
♝
♞
♟
♠
♡
♢
♣
♤
♥
♦
♧
♨
♩
♪
♫
♬
♭
♮
♯
♰
♻
♾
♿
⚈
⚊
⚋
⚐
⚑
⚒
⚓
⚔
⚕
⚖
⚗
⚘
⚙
⚚
⚛
⚜
⚝
⚠
⚡
⚣
⚤
⚧
⚪
⚫
⚬
⚰
⚵
⚶
⚷
⚽
⚾
⛄
⛅
⛇
⛈
⛏
⛑
⛓
⛔
⛝
⛟
⛩
⛪
⛰
⛱
⛲
⛳
⛴
⛵
⛷
⛸
⛹
⛺
⛽
✂
✄
✅
✆
✈
✉
✊
✋
✌
✍
✎
✏
✐
✑
✒
✓
✔
✕
✖
✗
✘
✚
✛
✜
✝
✞
✠
✡
✣
✤
✥
✦
✧
✨
✩
✪
✫
✬
✭
✮
✯
✰
✱
✳
✴
✵
✶
✷
✸
✹
✺
✻
✽
✾
✿
❀
❁
❂
❃
❄
❅
❆
❇
❈
❉
❊
❋
❌
❍
❎
❏
❑
❒
❓
❔
❕
❖
❗
❚
❛
❜
❝
❞
❣
❤
❥
❦
❧
❬
❮
❯
❰
❱
❴
❵
❶
❷
❸
❹
❺
❻
❼
❾
➀
➁
➂
➃
➄
➅
➆
➇
➈
➉
➊
➋
➌
➍
➎
➏
➐
➑
➔
➕
➖
➗
➘
➙
➚
➛
➜
➝
➞
➟
➠
➡
➢
➣
➤
➥
➦
➧
➨
➩
➪
➫
➭
➮
➯
➰
➱
➲
➳
➵
➶
➷
➸
➹
➺
➻
➼
➽
➾
➿
⟐
⟓
⟟
⟠
⟨
⟩
⟳
⟴
⟵
⟶
⟹
⠀
⠇
⠥
⠻
⣭
⣽
⤀
⤁
⤄
⤉
⤓
⤔
⤕
⤛
⤠
⤤
⤥
⤦
⤲
⤴
⤵
⤷
⤹
⥄
⥅
⥈
⥚
⥟
⥤
⥿
⦁
⦅
⦋
⦌
⦕
⦖
⦸
⦽
⦿
⧊
⧋
⧌
⧍
⧐
⧫
⧬
⧭
⧼
⧽
⨀
⨠
⨯
⩏
⩙
⩚
⩡
⩨
⩯
⩽
⩾
⪂
⪅
⪋
⪍
⪎
⪏
⪒
⪛
⪦
⪭
⪰
⪱
⪸
⪹
⫈
⫉
⫔
⫷
⫸
⬅
⬆
⬇
⬌
⬛
⬜
⬤
⬥
⬩
⬪
⭄
⭐
⭑
⭕
⮐
⮚
⮟
⮫
⮶
⯁
⯄
⯅
⯐
⯓
⯙
⯡
⯭
Ⰼ
Ⱅ
Ⱗ
Ɫ
Ɽ
Ⱪ
ⱪ
Ⱬ
Ɐ
ⱷ
ⲁ
Ⲉ
ⲉ
Ⲏ
Ⲕ
ⲙ
Ⲛ
Ⲟ
ⲟ
Ⲥ
ⲥ
Ⲩ
ⳉ
Ⳍ
ⳏ
Ⳑ
ⳑ
Ⳓ
ⳓ
Ⳕ
ⳗ
Ⳙ
ⳙ
Ⳛ
ⳛ
Ⳝ
ⳝ
ⳟ
Ⳡ
ⳡ
Ⳣ
ⳤ
⳥
⳨
⳩
⳪
Ⳬ
ⳬ
Ⳮ
ⳮ
⳯
⳱
Ⳳ
ⳳ
ⴀ
ⴗ
ⴰ
ⴳ
ⴷ
ⵉ
ⵏ
ⵔ
ⵖ
ⵜ
ⵡ
ⷌ
⸀
⸄
⸅
⸜
⸝
⸬
⸭
⸮
ⸯ
⸰
⸸
⸺
⸾
⸿
⹏
⹑
⹕
⹡
⹥
⹩
⹶
⹺
⹼
⺇
⺎
⺑
⺒
⺓
⺘
⺙
⺛
⺡
⺶
⺷
⻢
⾗
⾠
⾤
⾲
⿇
⿞
⿥
⿲
⿿
、
。
〃
〄
々
〆
〇
〈
〉
《
》
「
」
『
』
【
】
〒
〓
〔
〕
〖
〗
〘
〚
〜
〝
〞
〫
〲
〴
〷
あ
ぃ
い
ぅ
う
え
お
か
が
き
ぎ
く
け
げ
こ
ご
さ
ざ
し
じ
す
ず
せ
ぜ
そ
ぞ
た
だ
ち
ぢ
っ
つ
づ
て
で
と
ど
な
に
ぬ
ね
の
は
ば
ぱ
ひ
び
ぴ
ふ
ぶ
ぷ
へ
べ
ぺ
ほ
ぼ
ぽ
ま
み
む
め
も
ゃ
や
ゅ
ゆ
ょ
よ
ら
り
る
れ
ろ
わ
を
ん
゙
ァ
ア
ィ
イ
ゥ
ウ
エ
ォ
オ
カ
ガ
キ
ギ
ク
グ
ケ
ゲ
コ
ゴ
サ
ザ
シ
ジ
ス
ズ
セ
ゼ
ソ
ゾ
タ
ダ
チ
ヂ
ッ
ツ
ヅ
テ
デ
ト
ド
ナ
ニ
ヌ
ネ
ノ
ハ
バ
パ
ヒ
ビ
ピ
フ
ブ
プ
ヘ
ベ
ペ
ホ
ボ
ポ
マ
ミ
ム
メ
モ
ャ
ヤ
ュ
ユ
ョ
ヨ
ラ
リ
ル
レ
ロ
ワ
ヲ
ン
ヴ
ヶ
ヹ
ー
ヽ
ヾ
㄀
ㄅ
ㄊ
ㄎ
ㄏ
ㄒ
ㄖ
ㄘ
ㄙ
ㄟ
ㄨ
ㄩ
㉠
㉢
㉤
㉧
㉨
㉪
㉭
㉱
㉵
㉶
㉷
㉺
㉻
㉼
㉿
㊀
㊅
㊔
㊕
㊖
㊜
㊠
㊣
㊤
㊦
㊧
㊨
㊩
㊪
㊬
㊭
㊱
㋂
㋇
㋉
㋊
㋐
㋑
㋒
㋓
㋔
㋕
㋗
㋘
㋙
㋛
㋩
㋪
㋮
㋳
㋶
㋷
㋾
㋿
㌄
㌆
㌋
㌍
㌓
㌔
㌟
㌡
㌢
㌧
㌭
㌰
㌱
㌸
㌽
㍇
㓇
㓌
㓍
㓢
㓣
㓤
㓧
㓫
㓬
㓮
㓲
㓷
㓸
㓹
㓺
㓻
㔉
㔖
㔗
㔢
㔤
㔯
㔻
㕂
㕃
㕍
㕎
㕐
㕑
㕒
㕓
㕔
㕕
㕖
㕘
㕛
㕝
㕞
㕟
㕢
㕥
㕧
㕨
㕩
㕪
㕫
㕭
㕮
㕰
㕱
㕴
㕵
㕷
㕼
㕿
㖀
㖂
㖇
㖉
㖏
㖓
㖟
㖤
㖥
㖦
㖨
㖩
㖪
㖬
㖮
㖰
㖱
㖳
㖷
㖸
㗇
㗈
㗉
㗊
㗋
㗍
㗎
㗕
㟶
㟻
㟽
㟾
㟿
㠄
㠈
㠊
㠍
㠎
㠐
㠔
㠕
㠘
㠚
㠛
㠪
㠭
㠯
㠳
㠴
㡂
㡅
㡆
㡏
㡘
㡛
㡞
㡭
㡯
㡰
㡶
㢍
㢓
㢗
㢘
㢜
㢟
㢠
㢡
㢣
㢵
㢸
㢹
㣅
㣋
㣌
㣎
㣓
㣜
㣞
㣟
㣢
㣣
㣮
㣰
㣵
㣶
㣷
㣾
㤂
㤇
㤉
㤓
㤡
㤥
㤧
㤮
㥈
㥗
㥜
㥞
㥡
㥧
㥲
㥿
㦅
㦆
㦈
㦉
㦏
㦑
㦗
㦚
㦜
㦝
㦟
㦤
㦨
㦫
㦬
㦯
㦲
㦳
㦵
㧐
㧚
㧥
㱮
㴤
㵄
㵅
㵆
㵇
㵉
㵊
㵋
㵍
㵏
㵔
㵕
㵖
㵘
㵙
㵛
㵞
㵟
㵠
㵢
㵣
㵦
㵨
㵩
㵪
㵫
㵬
㵭
㵮
㵱
㵴
㵻
㵽
㵾
㶁
㶇
㶏
㶕
㶙
㶡
㶢
㶣
㶮
㶯
㶱
㶳
㶴
㶵
㶶
㶻
㶾
㶿
㷀
㷁
㷂
㷅
㷇
㷈
㷉
㷋
㷎
㷏
㷐
㷕
㷚
㷞
㷟
㷬
㷮
㷱
㷹
㷺
㷽
㷾
㷿
㸀
㸅
㸆
㸇
㸉
㸊
㸋
㸌
㸍
㸑
㸓
㸔
㸞
㸡
㸣
㸦
㸧
㸪
㸬
㸯
㸱
㸲
㸳
㸸
㸹
㸻
㸽
㹁
㹂
㹅
㹆
㹇
㹉
㹊
㹋
㹏
㹐
㹑
㹒
㹖
㹟
㹡
㹢
㹤
㹥
㹦
㹧
㹨
㹫
㹬
㹭
㹱
㹶
䃿
䄏
䄩
䄪
䄫
䄭
䄱
䄻
䄽
䅅
䅠
䈀
䒣
䕀
䛥
䛧
䛩
䛬
䛭
䛱
䛲
䛳
䛸
䛿
䜉
䜊
䜋
䜐
䜓
䜕
䜧
䜨
䜰
䜳
䜸
䝁
䝂
䝅
䝌
䝍
䝎
䝐
䝒
䝘
䝧
䝩
䝭
䝿
䞂
䞊
䞓
䞔
䞖
䞚
䞝
䞞
䞟
䞠
䞢
䞣
䞯
䞳
䞶
䞷
䞺
䞻
䟂
䟄
䟅
䟈
䟉
䟗
䥢
䦾
䧆
䧑
䧓
䧕
䧝
䧠
䧪
䧳
䧻
䧼
䨅
䨗
䨪
䨲
䩀
䩂
䩇
䩍
䭯
䷺
一
丁
丂
七
丅
万
丈
三
上
下
丌
不
与
丑
丒
专
且
世
丘
丙
业
东
丝
両
丢
两
严
並
丨
个
中
丰
串
临
丶
丸
丹
为
主
丽
举
丿
乁
乂
乃
久
乇
么
义
之
乌
乍
乎
乏
乐
乒
乓
乗
乘
乙
九
乞
也
习
乡
书
买
乱
乳
乾
亀
亂
了
予
争
事
二
于
亏
云
互
亓
五
井
亚
些
亜
亞
亡
亢
交
亥
亦
产
亨
享
京
亭
亮
亰
亲
亳
人
亻
亿
什
仁
仅
仇
今
介
从
仏
仑
仔
仕
他
付
仙
代
令
以
仪
们
仮
仰
仲
件
价
任
份
企
伊
伍
伎
伏
休
众
优
会
伝
伟
传
伦
伪
伯
似
伽
但
位
低
住
佐
佑
体
何
余
佛
作
你
佣
佳
使
侃
來
例
侍
侘
供
依
侠
価
侧
侨
侯
侵
便
係
促
俄
俊
俑
俗
保
俟
信
俣
俥
俩
俭
修
俳
俺
倉
個
倍
們
倒
候
倚
借
倠
値
倫
倭
倶
债
值
倾
偆
假
偉
偏
偕
偙
做
停
偣
健
偰
側
偵
偷
偽
傅
傌
備
储
催
傲
傳
傷
傾
働
像
僕
僚
價
儀
億
儒
優
儿
元
兄
充
兇
先
光
克
免
児
兑
兒
兔
党
兜
入
內
全
兩
八
公
六
兰
共
关
兴
兵
其
具
典
兹
养
兼
兽
冀
内
円
冉
冊
册
再
冒
写
军
农
冠
冢
冥
冬
冯
冰
冲
决
况
冷
冼
净
准
减
凝
几
凡
凤
処
凪
凯
凰
凱
凶
凹
出
击
函
刀
刃
分
切
刊
划
列
刘
则
刚
创
初
删
判
別
利
别
到
制
刷
券
刹
刺
刻
剂
則
前
剑
剖
剛
剣
剤
剥
剧
剪
副
割
創
剿
劃
劇
劉
劍
力
办
功
加
务
动
助
努
劫
劳
労
势
勃
勅
勇
勉
勋
勒
動
勖
勘
務
勝
勢
勤
勲
勳
勾
勿
匀
匁
包
匈
匕
化
北
匝
匠
匡
匪
匮
匯
匹
区
医
區
十
千
升
午
半
卋
卍
华
协
卐
卑
卒
卓
協
单
卖
南
単
博
卜
占
卡
卢
卦
卫
卯
印
危
即
卵
卷
卸
卻
卿
厂
厄
厅
历
厉
压
厘
厚
原
厥
厦
厨
厲
厳
厶
去
县
参
參
叉
及
友
双
反
发
叔
取
受
变
叡
叢
口
古
句
另
只
叫
召
可
台
史
右
叶
号
司
吃
各
合
吉
吋
同
名
后
向
吒
吓
吗
君
吟
否
吧
含
听
启
吳
吴
吸
吹
吾
呂
呈
呉
告
员
呟
周
呪
味
呵
呼
命
咄
和
咕
咖
咣
咥
咨
咩
咬
咭
咯
咱
咲
咴
咵
咶
咸
咹
咺
咼
咾
咿
哀
品
哂
哄
哅
哆
哈
哉
哊
哋
响
哐
哓
哙
哜
哟
員
哥
哦
哩
哪
哫
哯
哲
哵
哹
哺
哼
哾
哿
唀
唁
唇
唐
唒
唓
唘
唙
唚
唞
唢
唣
唥
唭
售
唯
唰
唱
唴
唵
唼
唽
啀
啁
啂
啃
商
啊
啋
啍
問
啓
啛
啜
啝
啞
啟
啡
啢
啦
啯
啸
喀
喂
喃
善
喅
喇
喉
喋
喒
喓
喔
喙
喚
喜
喝
喪
喫
單
喰
喱
営
喷
喻
嗇
嗎
嗏
嗑
嗕
嗖
嗗
嗛
嗜
嗡
嗣
嗤
嗧
嗨
嗩
嗭
嗯
嗳
嘀
嘉
嘑
嘛
嘴
嘿
噂
噌
噠
器
噴
噶
嚳
嚴
四
回
因
团
団
囧
园
困
囲
図
围
固
国
图
圆
圈
國
圍
圏
園
圓
圖
團
土
圣
圧
在
圭
地
圳
场
址
坂
均
坊
坏
坐
坑
块
坛
坠
坡
坤
坦
坪
坯
垂
型
垒
埃
埋
城
埔
域
埠
執
培
基
埼
堂
堅
堡
堪
堯
堰
報
場
塑
塔
塗
塚
塞
塩
填
塾
境
墊
墓
増
增
墟
墨
壁
壇
壊
壢
士
壬
壮
壯
声
壱
売
壳
壽
处
备
変
复
夏
夕
外
多
夜
够
夢
大
天
太
夫
央
失
头
夷
夺
奇
奈
奉
奎
契
奕
奖
套
奘
奥
奨
奪
奮
女
奴
奶
奸
她
好
如
妃
妇
妈
妊
妓
妖
妘
妙
妝
妥
妩
妮
妳
妹
妻
姁
姆
姉
姊
始
姑
姒
姓
委
姚
姜
姞
姫
姬
姿
威
娃
娇
娘
娛
娜
娠
娥
娱
婆
婚
婦
婷
婿
媙
媚
媛
媧
媯
媽
嫁
嫌
嫦
嫩
嬉
嬰
嬴
孁
子
孔
字
存
孙
孚
孝
孟
季
孤
学
孩
孫
學
宀
宁
它
宅
宇
守
安
宋
完
宏
宗
官
宙
定
宛
宜
宝
实
実
客
宣
室
宪
宫
宮
宰
害
宴
宵
家
容
宽
宾
宿
寂
寄
寅
密
寇
富
寒
寝
察
寡
實
寧
寫
寰
寶
寸
对
寺
导
対
寿
封
専
射
将
將
專
尊
尋
對
導
小
少
尔
尖
尚
尤
尧
就
尸
尺
尼
尽
尾
局
层
居
屈
届
屋
屍
屏
展
属
屠
層
履
屬
山
岁
岐
岛
岡
岩
岭
岱
岳
岷
岸
峡
峰
島
峽
崇
崎
崔
崖
崙
崛
崩
嵐
嵩
嶋
嶺
嶼
嶽
巅
川
州
巡
巢
工
左
巧
巨
巫
差
己
已
巳
巴
巻
巽
币
市
布
帆
师
希
帖
帝
帥
带
師
席
帮
帯
帰
帳
帶
常
帽
幅
幌
幕
幡
幣
干
平
年
并
幸
幹
幻
幼
幽
幾
广
庁
広
庄
庆
床
序
库
应
底
庖
店
庙
庚
府
庞
度
座
庫
庭
庵
庶
康
庸
廈
廉
廊
廓
廖
廚
廟
廢
廣
廳
延
建
廻
廿
开
弁
异
弄
弉
式
弓
弔
引
弗
弘
弟
张
弥
弧
弩
弱
張
強
弹
强
弼
弾
彌
归
当
录
彡
形
彦
彩
彪
彫
彬
彭
彰
影
役
彼
往
征
径
待
很
律
後
徐
徑
徒
得
從
御
復
微
徳
徵
德
徹
徽
心
必
忆
忌
忍
忒
志
忘
忙
応
忠
快
念
怀
态
怎
怒
怕
怖
怛
思
怡
急
性
怨
怪
总
恆
恋
恐
恒
恨
恩
息
恵
恶
恼
悄
悉
悟
悠
患
悦
您
悩
悪
情
惊
惑
惠
惡
惯
想
愍
意
愛
感
愿
慈
態
慎
慕
慘
慢
慧
慮
慰
慶
慷
憂
憩
憲
懂
應
懐
懧
懨
懩
懪
懫
懬
懭
懱
懲
懳
懴
懵
懶
懷
懸
懼
懾
懿
戀
戁
戂
戃
戇
戈
戊
戌
戎
戏
成
我
戒
或
战
戛
戟
戠
戦
戩
戯
戰
戱
戲
戳
戴
戶
户
戸
戹
戺
戻
戾
房
所
扁
扈
扉
扊
手
才
扎
打
払
托
扜
扝
扞
扡
扢
扣
扪
扫
扭
扮
扯
扰
扱
扵
扶
扷
扸
批
扽
找
承
技
抁
抄
抈
把
抋
抌
抓
投
抖
抗
折
抛
抜
択
抠
抡
抢
护
报
抧
抨
披
抬
抭
抯
抱
抵
抷
抸
抹
抺
押
抽
拀
担
拈
拉
拊
拋
拍
拏
拐
拒
拓
拔
拕
拖
拗
拘
招
拜
拟
拠
拡
择
括
拭
拱
拳
拴
拶
拷
拸
拻
拼
拾
拿
持
挂
挃
挅
指
按
挊
挋
挑
挒
挖
挙
挚
挡
挥
挨
挬
振
捁
捋
捎
捕
捗
捝
捞
损
捠
换
捣
捧
捨
据
捳
捷
捹
捺
掀
掃
掄
掅
掆
掇
掌
掎
掏
掐
排
掖
掛
採
探
接
控
推
掩
掬
掭
掮
掱
掲
描
提
插
揚
換
握
揭
援
揺
搀
搏
搜
搞
搭
搶
携
摂
摄
摘
摩
摸
撃
撒
撥
撩
播
撮
撲
撼
擇
擊
操
擬
支
收
改
攻
放
政
故
效
敌
敏
救
敖
敗
教
敢
散
敦
敬
数
整
敵
敷
數
文
斉
斌
斎
斐
斗
料
斛
斜
斡
斤
斬
断
斯
新
方
於
施
旅
旋
族
旗
无
日
旦
旧
旨
早
旭
时
昂
昆
昇
昊
昌
明
昏
易
昔
星
映
春
昧
昨
昫
昭
是
显
時
晃
晉
晋
晏
晒
晓
晖
晚
晦
晨
普
景
晴
晶
智
暁
暂
暈
暑
暖
暗
暠
暢
暨
暮
暴
暾
曆
曌
曙
曜
曝
曲
更
書
曹
曼
曽
曾
替
最
會
月
有
朋
服
朗
望
朝
期
朧
木
未
末
本
札
术
朱
机
朽
杀
权
杆
杉
李
杏
材
村
杖
杜
束
条
来
杨
杪
杭
杯
杰
東
杳
杵
松
板
极
构
枉
析
枕
林
枚
果
枝
枢
枪
枯
架
柄
柏
某
柑
染
柔
查
柱
柳
柴
査
栀
栃
栄
栅
标
栏
树
栖
栗
校
株
样
核
根
格
栽
桁
桂
桃
框
案
桑
桓
桜
档
桥
梁
梅
梆
條
梦
梨
梭
梯
械
梱
梵
检
棉
棋
棍
棒
棘
棚
棠
棣
森
棲
棵
椅
植
椒
検
椿
楊
楚
楢
業
極
楷
楸
楼
楽
概
榄
榕
榜
榮
榴
構
槍
槐
様
樂
樊
樓
標
樞
樟
模
樣
権
横
樸
樹
樺
橋
橘
機
橡
橫
檀
檚
檜
櫃
櫻
欄
權
欠
次
欢
欣
欧
欲
款
歇
歌
歐
歛
歡
止
正
此
步
武
歧
歩
歯
歲
歳
歴
歷
歸
死
歼
殃
殆
殊
残
殕
殞
殡
殲
殳
段
殷
殺
殻
殿
毅
母
毎
每
毒
比
毗
毘
毛
毫
毯
毽
氏
氐
民
气
氕
気
氛
氣
氧
水
氷
永
氹
氾
汁
求
汇
汉
汕
汗
江
池
汤
汪
決
汽
沁
沃
沈
沒
沖
沙
沛
沟
没
沢
沧
沪
沫
沮
河
沸
油
治
沼
沿
況
泄
泉
泊
法
泛
泠
泡
波
泥
注
泫
泰
泳
泵
泻
泽
洁
洋
洗
洙
洛
洞
津
洪
洱
洲
活
派
流
浄
浅
测
济
浏
浓
浙
浜
浣
浦
浩
浪
浮
浲
浴
海
浸
涂
消
涉
涖
涛
润
涨
涩
液
涵
涼
淀
淔
淘
淙
淚
淜
淝
淠
淡
淢
淤
淨
淫
淬
淮
深
淳
淴
淵
混
淸
淺
添
淽
淾
淿
清
済
渉
渊
渋
渏
渓
渕
渗
渘
渚
減
渜
渝
渠
渡
渤
渥
渧
温
渪
渫
測
渭
渮
港
渴
渵
渶
游
渾
湀
湁
湅
湈
湉
湋
湍
湎
湑
湒
湔
湖
湘
湙
湛
湜
湞
湠
湢
湣
湥
湪
湫
湮
湯
湰
湴
湸
湹
湻
湼
湽
湾
湿
満
溈
溉
源
溑
溔
準
溙
溜
溝
溠
溡
溢
溥
溦
溩
溪
溫
溯
溰
溹
溽
溿
滃
滄
滅
滉
滍
滎
滑
滗
滙
滚
滝
滠
满
滣
滤
滦
滨
滪
滫
滮
滳
滴
滵
滷
滸
滻
滼
滽
滿
漀
漁
漂
漃
漄
漈
漍
漎
漏
漑
漓
演
漕
漘
漞
漟
漠
漡
漢
漣
漦
漧
漨
漩
漪
漫
漬
漮
漰
漱
漲
漷
漽
漾
漿
潄
潅
潇
潈
潊
潌
潎
潔
潙
潜
潟
潠
潤
潪
潭
潮
潲
潶
潹
潽
澁
澃
澈
澎
澐
澓
澟
澡
澢
澣
澤
澳
激
濛
濟
濠
濤
濱
瀋
瀑
瀛
瀬
灣
火
灭
灯
灵
灸
災
灾
灿
炅
炉
炊
炎
炒
炫
炬
炭
炮
点
為
烂
烈
烊
烏
烙
烟
烤
烦
烧
热
烽
焉
焕
焚
無
焦
然
焼
煉
煌
煎
煒
煕
煞
煤
煥
煦
照
煮
煲
熈
熊
熟
熱
熹
燈
燉
燒
燕
燭
燵
爀
爆
爐
爪
爭
爰
爱
爲
爵
父
爸
爻
爾
牆
片
版
牌
牒
牙
牛
牟
牡
牢
牧
物
牲
特
牺
犁
犠
犬
犯
状
犹
狀
狂
狄
狐
狗
狙
狩
独
狱
狸
狼
猎
猗
猛
猪
猫
猴
猿
獄
獅
獒
獣
獨
獵
獺
獻
玄
率
玉
王
玛
玠
玩
玮
环
现
玲
玺
玻
珍
珞
珠
珩
珪
班
現
球
琅
理
琉
琏
琪
琮
琳
琴
琵
琶
琼
瑄
瑛
瑜
瑞
瑟
瑠
瑤
瑩
瑪
瑭
瑶
璃
環
璽
瓊
瓚
瓜
瓣
瓶
瓷
甘
生
產
産
用
甩
甫
田
由
甲
申
电
男
甸
町
画
畅
界
畏
畑
留
畜
略
番
異
畳
當
畿
疆
疎
疏
疑
疗
疫
疯
疲
疾
病
症
痕
痴
瘕
療
癟
癡
癢
癸
発
登
發
白
百
的
皆
皇
皐
皓
皝
皮
盆
益
监
盖
盗
盘
盛
盟
盡
監
盤
盧
目
直
相
盾
省
眉
看
県
眞
真
眠
眩
眼
着
睈
睉
睌
睍
睖
睛
睡
督
睦
睫
瞇
瞬
瞳
矇
矛
矢
知
矫
短
石
矿
码
砂
研
砖
砲
破
硅
硕
硝
硫
硬
确
碁
碉
碎
碑
碕
碗
碩
碱
碳
確
碼
磊
磐
磚
磯
礦
礪
示
礻
礼
社
祁
祇
祈
祐
祓
祖
祛
祝
神
祠
祥
票
祭
祿
禁
禄
禅
禎
福
禥
禧
禪
禮
禹
禺
离
禽
禿
秀
私
秋
种
科
秒
秘
租
秦
积
称
移
程
稍
税
稔
稚
種
稱
稲
稽
稿
穂
穆
穌
積
穢
究
穹
空
穿
突
窈
窓
窕
窗
窟
窦
窮
立
站
竜
竟
章
童
端
競
竹
竺
笃
笑
笔
笛
笠
符
第
笺
筆
等
筋
筑
筒
答
策
筷
签
简
箏
箕
算
管
箭
箱
箸
節
範
篆
篇
築
篠
篤
篭
篮
簡
簧
簪
簽
簾
籀
籃
籍
籠
米
类
粉
粋
粒
粗
粘
粛
粟
粤
粥
粵
粽
精
糊
糖
糨
糸
系
紀
約
紅
紋
納
紐
純
紙
級
素
索
紧
紫
細
紳
紹
終
組
経
結
絡
給
統
絲
絳
絵
絶
經
継
続
綠
綢
維
綱
網
綴
綷
綸
綹
綺
綻
綼
綽
綾
綿
緀
緂
緃
緅
緆
緇
緈
緊
緋
緌
総
緑
緒
緓
緔
緖
緗
緘
線
緜
緡
緢
緣
緥
緦
編
緪
緯
緲
緳
練
緶
緹
緿
縁
縂
縃
縄
縉
縒
縓
縛
縣
縨
縬
縭
縯
縳
縶
縷
縺
縻
總
績
繀
繁
繌
繍
繎
繐
織
繕
繚
繝
繞
繟
繡
繪
繫
繰
繶
繸
繹
繼
纇
纈
纋
續
纍
纎
纐
纑
纒
纗
纜
纟
纠
红
纤
纥
约
级
纪
纬
纭
纯
纲
纵
纶
纷
纸
纺
纻
纽
线
绁
练
组
细
织
终
绉
绋
绍
经
绑
绒
结
绔
绘
给
络
绞
统
绠
绦
绩
绫
续
绮
绯
绲
绳
维
绶
绸
综
绿
缀
缁
缃
缄
缅
缆
缇
缋
缌
缐
缔
编
缗
缘
缝
缢
缣
缤
缥
缦
缩
缪
缬
缮
缸
缺
缻
缼
缽
罐
网
罓
罔
罕
罗
罝
罞
罡
罥
罩
罪
罫
罭
置
署
罶
罽
羅
羈
羊
羌
美
羓
羙
羚
羛
羜
群
羥
羧
義
羪
羫
羬
羮
羯
羰
羲
羴
羶
羷
羹
羽
羾
羿
翁
翅
翆
翉
習
翔
翟
翠
翡
翰
翻
翼
耀
老
考
者
耆
而
耐
耕
耳
耶
耻
聆
聊
职
联
聖
聚
聞
聡
聯
聴
職
聽
肃
肄
肅
肇
肉
肌
肑
肕
肖
肘
肙
肜
肠
股
肢
肥
肦
肩
肬
肱
育
肵
肺
肻
胀
胃
背
胎
胖
胜
胞
胡
胤
胴
胶
胸
能
脂
脅
脇
脈
脑
脚
脳
脸
脹
腐
腕
腰
腹
腾
腿
膚
膝
膺
臀
臉
臣
臧
臨
自
臭
至
致
臺
臼
舆
與
興
舉
舊
舌
舒
舜
舞
舟
航
般
舱
船
艇
艦
良
色
艳
艺
节
芒
芝
芦
芬
芮
芯
花
芳
芸
芹
苍
苏
苑
苔
苗
苟
若
苦
英
苹
苻
苾
茂
范
茜
茨
茶
茸
茹
荆
草
荊
荐
荒
荔
荣
药
荳
荷
莉
莊
莎
莫
莲
获
菅
菇
菊
菓
菜
菩
華
菱
菲
萊
萌
萝
营
萧
萨
萩
萬
落
葉
著
葛
葡
董
葫
葬
葵
蒂
蒋
蒔
蒙
蒲
蒸
蓄
蓉
蓝
蓮
蓼
蔘
蔚
蔡
蔣
蔵
蕃
蕨
蕪
蕭
薄
薌
薛
薩
薬
藍
藏
藝
藤
藥
藻
蘆
蘇
蘑
蘭
蘿
虍
虎
虐
虜
號
虫
虹
虽
蚊
蛇
蛋
蛍
蛎
蛟
蛤
蛭
蛮
蛰
蛳
蜀
蜜
蜡
蝚
蝦
蝶
融
螢
螺
蟠
蟬
蟲
蟽
蟾
蟿
蠁
蠕
蠻
血
衅
行
衒
術
街
衛
衝
衡
衢
衣
补
表
衰
衷
袁
袅
袋
袖
袜
被
袴
裁
裂
装
裏
裔
裕
補
裝
裡
裸
製
褂
褌
褒
褘
襄
襖
襤
襪
襲
西
要
覆
覇
見
規
視
覚
覧
親
観
覺
觀
见
观
规
视
览
觉
角
解
言
訂
計
訊
討
訓
託
記
訪
設
許
訳
訶
註
証
詐
評
詞
詠
詢
試
詩
詰
話
詳
誅
誉
誌
認
誓
誕
語
誠
說
説
読
誰
課
誼
調
諄
談
請
論
諦
諫
諭
諱
諸
諺
諾
謀
謎
謙
講
謝
謟
謳
證
識
譙
譜
警
譯
議
譲
護
讀
變
讐
讗
讚
讝
计
认
让
训
议
讯
记
讲
许
论
讻
设
访
诀
证
评
识
诉
诌
词
译
试
诗
诚
话
诞
诡
询
该
详
诪
语
误
诱
说
请
诸
诺
读
调
谈
谊
谋
谎
谐
谢
谭
谱
谷
豆
豊
豐
豚
象
豢
豪
豫
豬
貂
貓
貝
貞
負
財
貢
貧
貨
販
貫
責
貴
買
貸
費
貿
賀
賃
資
賈
賊
賞
賢
賣
賤
質
賭
購
賽
贏
贝
负
贡
财
责
贤
败
账
货
质
购
贯
贴
贸
费
贺
赁
资
赏
赖
赚
赛
赞
赢
赣
赤
赫
走
赵
起
超
越
趙
趣
趨
足
跃
跋
跌
跑
距
跟
跡
跨
跪
路
跳
践
跻
踊
踏
踣
踩
踪
蹦
躍
身
躲
車
軍
軟
転
軸
軻
軽
較
載
輔
輘
輝
輟
輦
輩
輪
輯
輸
轄
轉
车
轨
轩
转
轮
软
轻
载
较
辆
辑
输
辖
辙
辛
辜
辝
辞
辣
辨
辭
辰
農
边
辺
込
辽
达
迁
迄
迅
过
迎
运
近
返
还
这
进
远
连
迦
迪
述
迷
追
退
送
适
逅
逆
选
逊
逍
透
逐
递
這
通
速
造
逢
連
週
進
逸
逻
遁
遂
遅
遇
遊
運
遍
過
道
達
遗
遜
遠
遥
適
遮
遷
選
遺
遼
避
邀
邂
還
邇
邏
邓
邕
邝
那
邦
邪
邬
邮
邵
邸
邽
邿
郁
郅
郊
郎
郑
郕
郡
郦
部
郬
郭
郱
郷
都
鄂
鄉
鄒
鄧
鄭
鄰
鄺
酈
酉
配
酒
酔
酢
酥
酬
酱
酷
酸
醉
醍
醐
醜
醢
醤
醫
醸
采
释
釋
里
重
野
量
金
針
釣
釧
釵
鈥
鈴
鉄
鉛
鉢
鉱
鉴
鉾
銀
銃
銅
銆
銈
銉
銘
銭
鋤
鋼
錄
錕
錢
錦
錫
錬
録
錾
鍋
鍔
鍛
鎌
鎖
鎗
鎮
鏡
鏴
鏸
鏻
鐘
鐵
鑄
鑊
鑑
鑫
针
钗
钟
钢
钦
钮
钱
铁
铅
铝
银
铺
链
销
锁
锅
锋
错
锟
锡
锤
锦
键
镇
镑
镜
長
长
門
閃
開
間
関
閣
閩
閭
閲
闇
闔
闕
闖
闘
關
门
闭
问
闲
间
闻
闽
阁
阅
阉
阔
阖
阙
阜
队
阪
阮
防
阳
阴
阻
阿
陀
附
际
陆
陈
陋
陌
降
限
陕
陛
院
除
陥
险
陪
陰
陳
陵
陶
陷
陸
険
陽
隆
隊
隋
階
随
隔
際
障
隞
隠
隨
隱
隴
隶
隸
难
雀
雁
雄
雅
集
雇
雑
雛
雜
雞
離
難
雨
雪
雲
雳
零
雷
電
需
震
霊
霍
霏
霑
霖
霜
霧
露
霸
霹
靈
青
靓
靖
静
靜
非
靠
面
革
靴
鞋
鞍
鞘
鞭
鞮
韓
韜
韦
韩
韬
韭
音
韶
響
頁
頂
頃
項
順
須
頊
頑
頓
領
頡
頤
頫
頭
頼
題
額
顏
顒
顓
願
類
页
顶
项
顺
顿
预
领
颉
频
颖
题
颜
额
風
飄
风
飛
飞
食
飢
飯
飲
飽
飾
餅
養
餐
餓
餘
館
餴
餷
饀
饅
饑
饢
饥
饨
饭
饮
饰
饼
馄
馆
馕
首
香
馨
馬
馳
駄
駅
駆
駒
駕
騎
騒
験
騙
騨
騰
騷
马
驰
驶
驻
驾
驿
验
骨
骸
體
高
髙
髪
髮
鬚
鬱
鬼
魂
魄
魏
魔
魚
魨
魯
鮎
鮑
鮨
鮮
鯉
鯤
鯰
鰉
鰊
鰎
鰏
鰒
鰕
鰖
鱀
鱉
鱼
鲁
鳄
鳜
鳥
鳩
鳳
鳴
鴉
鴎
鴨
鴻
鵬
鶴
鶻
鷄
鷹
鸟
鸡
鸯
鸳
鸽
鸿
鹅
鹏
鹤
鹿
麋
麒
麓
麗
麟
麦
麵
麺
麻
麼
麿
黃
黄
黎
黑
黒
默
黙
點
黠
黡
黨
黭
黮
黰
黱
黵
黶
鼀
鼁
鼎
鼓
鼠
鼻
齊
齋
齐
齝
齡
齢
齥
齦
齧
齨
齬
齳
齴
龍
龐
龙
龜
ꀀ
ꀠ
꓊
ꓕ
ꓹ
Ꙇ
Ꙩ
ꙮ
꙰
꙳
ꚙ
ꜣ
ꜥ
ꜰ
ꜱ
ꜿ
ꝏ
Ꝡ
ꝱ
꞊
ꞌ
ꞏ
ꞑ
ꟷ
꧁
꧂
ꪜ
ﬀ
ﬁ
ﬂ
ﬞ
ﱠ
ﲔ
ﳜ
﴾
﴿
﷽
﷿
︎
️
︠
︡
︣
﹅
ﺎ
ﺐ
ﺑ
ﺒ
ﺔ
ﺜ
ﺠ
ﺮ
ﺴ
ﺸ
ﻋ
ﻐ
ﻓ
ﻔ
ﻘ
ﻛ
ﻞ
ﻟ
ﻠ
ﻣ
ﻧ
ﻨ
ﻪ
ﻬ
ﻮ
ﻳ
ﻴ
￧
￰
𐊀
𐊁
𐊂
𐊆
𐊍
𐊎
𐊐
𐊓
𐊕
𐊖
𐊗
𐊛
𐎀
𐎗
𐎘
𐎚
𐎧
𐎭
𐎱
𐎼
𐎿
𐏁
𐏂
𐤁
𐤃
𐤅
𐤇
𐤉
𐤋
𐤍
𐤏
𐤒
𐤓
𐤕
𐤟
𐦣
𐦥
𐦯
𐭥
𐭧
𐭩
𐭬
𐭯
𐭱
𐭲
𐰀
𐰃
𐰅
𐰆
𐰇
𐰉
𐰋
𐰍
𐰏
𐰑
𐰓
𐰔
𐰖
𐰘
𐰚
𐰜
𐰞
𐰠
𐰡
𐰢
𐰣
𐰤
𐰦
𐰧
𐰪
𐰭
𐰯
𐰰
𐰲
𐰴
𐰸
𐰺
𐰼
𐰽
𐰾
𐱁
𐱃
𐱄
𐱅
𑁍
𑁦
𒀀
𒀉
𒀜
𒀫
𒀭
𒀸
𒁀
𒁉
𒁕
𒁶
𒁹
𒁺
𒁾
𒂍
𒂗
𒂵
𒃲
𒃾
𒄀
𒄈
𒄑
𒄠
𒄩
𒄬
𒄿
𒅀
𒅁
𒅆
𒅍
𒅎
𒅗
𒆠
𒆪
𒆳
𒆷
𒇉
𒇷
𒇻
𒈗
𒈛
𒈠
𒈥
𒈨
𒈩
𒈪
𒈬
𒈹
𒉆
𒉈
𒉋
𒉌
𒉏
𒉺
𒉿
𒊏
𒊑
𒊒
𒊩
𒊭
𒋢
𒋫
𒋻
𒋼
𒋾
𒌅
𒌆
𒌋
𒌑
𒌓
𒌣
𒌨
𒌷
𒍪
𓁭
𓂀
𓃠
𓃵
𔄁
𔄙
𔄛
𔄝
𝅘
𝅥
𝅮
🀄
🂡
🂢
🂣
🂤
🂥
🂦
🂧
🂨
🂪
🃏
🅐
🅔
🅕
🅘
🅚
🅛
🅜
🅞
🅡
🅢
🅣
🅤
🅧
🅨
🅰
🅱
🅲
🅴
🅷
🅸
🅻
🅼
🅾
🅿
🆁
🆃
🆈
🆎
🆑
🆒
🆓
🆔
🆕
🆖
🆗
🆘
🆙
🆚
🇦
🇧
🇨
🇩
🇪
🇫
🇬
🇭
🇮
🇯
🇰
🇱
🇲
🇳
🇴
🇵
🇶
🇷
🇸
🇹
🇺
🇻
🇼
🇽
🇾
🇿
🌀
🌁
🌂
🌃
🌄
🌅
🌆
🌇
🌈
🌉
🌊
🌋
🌌
🌍
🌎
🌏
🌐
🌑
🌒
🌓
🌔
🌕
🌖
🌗
🌘
🌙
🌚
🌛
🌜
🌝
🌞
🌟
🌠
🌡
🌤
🌥
🌦
🌧
🌨
🌩
🌪
🌫
🌬
🌭
🌮
🌯
🌰
🌱
🌲
🌳
🌴
🌵
🌶
🌷
🌸
🌹
🌺
🌻
🌼
🌽
🌾
🌿
🍀
🍁
🍂
🍃
🍄
🍅
🍆
🍇
🍈
🍉
🍊
🍋
🍌
🍍
🍎
🍏
🍐
🍑
🍒
🍓
🍔
🍕
🍖
🍗
🍘
🍙
🍚
🍛
🍜
🍝
🍞
🍟
🍠
🍡
🍢
🍣
🍤
🍥
🍦
🍧
🍨
🍩
🍪
🍫
🍬
🍭
🍮
🍯
🍰
🍱
🍲
🍳
🍴
🍵
🍶
🍷
🍸
🍹
🍺
🍻
🍼
🍽
🍾
🍿
🎀
🎁
🎂
🎃
🎄
🎅
🎆
🎇
🎈
🎉
🎊
🎋
🎌
🎍
🎎
🎏
🎐
🎑
🎒
🎓
🎖
🎗
🎙
🎚
🎛
🎞
🎟
🎠
🎡
🎢
🎣
🎤
🎥
🎦
🎧
🎨
🎩
🎪
🎫
🎬
🎭
🎮
🎯
🎰
🎱
🎲
🎳
🎴
🎵
🎶
🎷
🎸
🎹
🎺
🎻
🎼
🎽
🎾
🎿
🏀
🏁
🏂
🏃
🏄
🏅
🏆
🏇
🏈
🏉
🏊
🏋
🏌
🏍
🏎
🏐
🏒
🏓
🏔
🏕
🏖
🏗
🏘
🏚
🏛
🏜
🏝
🏞
🏟
🏠
🏡
🏢
🏣
🏤
🏥
🏦
🏧
🏨
🏩
🏪
🏫
🏬
🏭
🏮
🏯
🏰
🏳
🏴
🏵
🏷
🏸
🏹
🏺
🏻
🏼
🏽
🏾
🏿
🐀
🐁
🐂
🐄
🐅
🐆
🐇
🐈
🐉
🐊
🐋
🐌
🐍
🐎
🐏
🐐
🐑
🐒
🐓
🐔
🐕
🐖
🐗
🐘
🐙
🐚
🐛
🐜
🐝
🐞
🐟
🐠
🐡
🐢
🐣
🐤
🐥
🐦
🐧
🐨
🐩
🐪
🐫
🐬
🐭
🐮
🐯
🐰
🐱
🐲
🐳
🐴
🐵
🐶
🐷
🐸
🐹
🐺
🐻
🐼
🐽
🐾
🐿
👀
👁
👂
👃
👄
👅
👆
👇
👈
👉
👊
👋
👌
👍
👎
👏
👐
👑
👒
👓
👔
👕
👖
👗
👘
👙
👚
👛
👜
👝
👞
👟
👠
👡
👢
👣
👤
👥
👦
👧
👨
👩
👪
👫
👬
👭
👮
👯
👰
👱
👲
👳
👴
👵
👶
👷
👸
👹
👺
👻
👼
👽
👾
👿
💀
💁
💂
💃
💄
💅
💆
💇
💈
💉
💊
💋
💌
💍
💎
💏
💐
💑
💒
💓
💔
💕
💖
💗
💘
💙
💚
💛
💜
💝
💞
💟
💠
💡
💢
💣
💤
💥
💦
💧
💨
💩
💪
💫
💬
💭
💮
💯
💰
💱
💲
💳
💴
💵
💶
💷
💸
💹
💺
💻
💼
💽
💾
💿
📀
📁
📂
📃
📄
📅
📆
📇
📈
📉
📊
📋
📌
📍
📎
📏
📐
📑
📒
📓
📔
📕
📖
📗
📘
📙
📚
📛
📜
📝
📞
📟
📠
📡
📢
📣
📤
📥
📦
📧
📨
📩
📬
📭
📮
📯
📰
📱
📲
📳
📴
📵
📶
📷
📸
📹
📺
📻
📼
📽
📿
🔀
🔁
🔂
🔃
🔄
🔅
🔆
🔇
🔈
🔉
🔊
🔋
🔌
🔍
🔎
🔏
🔐
🔑
🔒
🔓
🔔
🔕
🔖
🔗
🔘
🔙
🔚
🔛
🔜
🔝
🔞
🔟
🔠
🔡
🔢
🔣
🔤
🔥
🔦
🔧
🔨
🔩
🔪
🔫
🔬
🔭
🔮
🔯
🔰
🔱
🔲
🔳
🔴
🔵
🔶
🔷
🔸
🔹
🔺
🔻
🔼
🔽
🕉
🕊
🕌
🕎
🕐
🕑
🕒
🕓
🕔
🕕
🕖
🕗
🕘
🕙
🕚
🕛
🕞
🕤
🕯
🕳
🕴
🕵
🕷
🕸
🕺
🖋
🖍
🖐
🖕
🖖
🖤
🖥
🖲
🖼
🗑
🗒
🗓
🗝
🗣
🗨
🗪
🗮
🗯
🗳
🗺
🗻
🗼
🗽
🗾
🗿
😀
😁
😂
😃
😄
😅
😆
😇
😈
😉
😊
😋
😌
😍
😎
😏
😐
😑
😒
😓
😔
😕
😖
😗
😘
😙
😚
😛
😜
😝
😞
😟
😠
😡
😢
😣
😤
😥
😦
😧
😨
😩
😪
😫
😬
😭
😮
😯
😰
😱
😲
😳
😴
😵
😶
😷
😸
😹
😺
😻
😼
😽
😾
😿
🙀
🙁
🙂
🙃
🙄
🙅
🙆
🙇
🙈
🙉
🙊
🙋
🙌
🙍
🙎
🙏
🚀
🚁
🚂
🚃
🚄
🚅
🚆
🚇
🚈
🚉
🚋
🚌
🚍
🚎
🚏
🚐
🚑
🚒
🚓
🚔
🚕
🚖
🚗
🚘
🚙
🚚
🚛
🚜
🚝
🚠
🚡
🚢
🚣
🚤
🚥
🚦
🚧
🚨
🚩
🚪
🚫
🚬
🚭
🚮
🚯
🚰
🚱
🚲
🚳
🚴
🚵
🚶
🚷
🚸
🚹
🚺
🚻
🚼
🚽
🚾
🚿
🛀
🛁
🛂
🛃
🛄
🛅
🛌
🛍
🛏
🛐
🛑
🛒
🛕
🛠
🛤
🛰
🛳
🛴
🛵
🛸
🛺
🝓
🟠
🟡
🟢
🟦
🟨
🤌
🤍
🤎
🤏
🤐
🤑
🤒
🤓
🤔
🤕
🤖
🤗
🤘
🤙
🤚
🤛
🤜
🤝
🤞
🤟
🤠
🤡
🤢
🤣
🤤
🤥
🤦
🤧
🤨
🤩
🤪
🤫
🤬
🤭
🤮
🤯
🤰
🤱
🤲
🤳
🤴
🤵
🤶
🤷
🤸
🤹
🤺
🤼
🤽
🤾
🤿
🥀
🥁
🥂
🥇
🥈
🥉
🥊
🥐
🥑
🥒
🥓
🥔
🥕
🥖
🥗
🥘
🥚
🥛
🥜
🥞
🥟
🥤
🥥
🥦
🥧
🥨
🥩
🥪
🥬
🥭
🥰
🥱
🥲
🥳
🥴
🥵
🥶
🥸
🥹
🥺
🥾
🦁
🦄
🦅
🦆
🦈
🦋
🦎
🦔
🦕
🦚
🦠
🦢
🦥
🦦
🦧
🦩
🦯
🦰
🦱
🦲
🦳
🦴
🦵
🦶
🦷
🦸
🦹
🦺
🦻
🦼
🦽
🦾
🦿
🧀
🧁
🧂
🧅
🧇
🧍
🧎
🧏
🧐
🧑
🧒
🧓
🧔
🧕
🧖
🧗
🧘
🧙
🧚
🧛
🧜
🧝
🧞
🧟
🧠
🧡
🧢
🧣
🧤
🧥
🧦
🧭
🧯
🧳
🧵
🧸
🧺
🧻
🧾
🧿
🩵
🩷
🩸
🩹
🩺
🪁
🪂
🪄
🪐
🪙
🪜
🪦
🪨
🪬
🪱
🪴
🪼
🫀
🫐
##u
##k
##o
##s
##a
##l
##h
##p
##m
##ş
##5
##A
##z
##g
##7
##H
##q
##2
##9
##Q
##i
##y
##r
##e
##t
##n
##d
##ğ
##ı
##N
##T
##v
##b
##c
##j
##0
##1
##4
##3
##ö
##x
##ü
##6
##W
##F
##D
##Y
##R
##S
##L
##P
##Ü
##K
##X
##I
##E
##8
##Ş
##Ğ
##M
##❤
##✘
##ç
##G
##Ö
##f
##±
##÷
##B
##İ
##J
##ș
##w
##ý
##Ç
##Ŝ
##Z
##O
##C
##V
##¦
##ǵ
##ύ
##í
##U
##ι
##Ã
##⁄
##Æ
##Ũ
##ѕ
##ר
##ב
##ע
##α
##Ø
##💗
##é
##👎
##Ⱦ
##ə
##η
##ɾ
##έ
##λ
##ο
##ς
##ñ
##Å
##Ÿ
##Ȓ
##ó
##γ
##á
##🇹
##μ
##ĭ
##č
##Ɂ
##ɑ
##Ł
##ɪ
##Ì
##Ƙ
##ʹ
##̯
##ē
##ū
##σ
##ϛ
##Ƭ
##ʼ
##ạ
##ú
##ð
##Ę
##è
##Ě
##ˌ
##Ó
##⇐
##ֲ
##ש
##ֵ
##ׁ
##ָ
##ה
##δ
##ϋ
##ë
##ø
##ˮ
##ŋ
##Ý
##Õ
##ď
##ō
##ä
##Ǩ
##れ
##え
##Ś
##ā
##ʿ
##ī
##õ
##Ȉ
##ʈ
##Ţ
##ḥ
##β
##Ϙ
##Ƣ
##į
##️
##💛
##̥
##ͅ
##˱
##Ħ
##ì
##̿
##ņ
##ț
##Ȍ
##ĸ
##ž
##ự
##Ŕ
##ư
##Ǵ
##Ļ
##ȸ
##ʗ
##😊
##ɖ
##ρ
##τ
##ν
##ή
##ϊ
##Ͼ
##ʁ
##æ
##ا
##ر
##و
##ي
##م
##ق
##ǃ
##ɠ
##Ʃ
##̐
##Ɵ
##ű
##ů
##ԁ
##Ǔ
##à
##ˑ
##ȫ
##̻
##ώ
##🎈
##ƥ
##Ʀ
##ţ
##́
##ę
##ɼ
##Ʉ
##ḳ
##ի
##լ
##կ
##ո
##յ
##Ǐ
##ƽ
##ÿ
##Å
##ɣ
##Ǜ
##ǚ
##͘
##ƍ
##ơ
##ʭ
##Ð
##ȡ
##Α
##Ν
##Κ
##Ο
##Υ
##Β
##Ε
##Ρ
##ε
##ί
##Ľ
##Ň
##ň
##Ʋ
##ĥ
##ȉ
##🏻
##🙌
##Ⱥ
##᠌
##Ŋ
##̢
##😄
##Ű
##͵
##ͪ
##৕
##ƴ
##Ɓ
##Œ
##Ƃ
##ć
##ṯ
##ϫ
##ǔ
##ą
##お
##そ
##で
##ũ
##˵
##Í
##ǧ
##ǹ
##ų
##✔
##😳
##¥
##ȳ
##Á
##È
##ļ
##ã
##Ʊ
##Ǎ
##͐
##ĕ
##ʒ
##ǘ
##😂
##🇼
##ײ
##ࡔ
##∂
##ƈ
##ľ
##Ȗ
##Ǒ
##ʪ
##Þ
##ͬ
##Ȟ
##ܪ
##ܘ
##ܢ
##ܝ
##ܬ
##ܐ
##ː
##ਊ
##ě
##Ŷ
##͛
##ʲ
##Ĝ
##À
##Ȥ
##ɩ
##ķ
##ɓ
##Ą
##ห
##้
##ễ
##ɬ
##ǐ
##ِ
##👈
##Ť
##🔺
##Μ
##Ι
##π
##̘
##ƒ
##Đ
##ŷ
##ˁ
##Ǥ
##Ă
##Ǿ
##ß
##ŭ
##ù
##Ƨ
##Ǚ
##ȯ
##ò
##⃕
##ĵ
##ƪ
##˔
##ွ
##Ŧ
##ʖ
##ḡ
##△
##▲
##Ǟ
##🙈
##Ǝ
##מ
##ן
##Ķ
##ʃ
##ܫ
##ܠ
##ܡ
##ܳ
##ʫ
##Օ
##Լ
##Ի
##Ս
##Ž
##Ò
##ĺ
##ʧ
##˕
##ă
##♦
##ፍ
##ላ
##ት
##Ș
##ƹ
##Η
##ˆ
##ˈ
##ȿ
##ʎ
##ậ
##Ū
##🌈
##Γ
##Ǣ
##Ņ
##؇
##˟
##ʍ
##😉
##😀
##😃
##😁
##😅
##å
##̞
##Ǖ
##Ĭ
##ǿ
##೫
##Π
##ၰ
##Ĺ
##−
##ż
##Ĉ
##ﬂ
##👍
##▒
##̦
##Ĕ
##̜
##υ
##ᡩ
##ᠠ
##Ų
##ʨ
##ǣ
##͙
##ǭ
##Ɏ
##ˊ
##😡
##😠
##Ț
##χ
##ј
##Ʈ
##̍
##̷
##♥
##Ń
##Ʌ
##ř
##😌
##א
##ו
##פ
##Ř
##ȭ
##µ
##Ǹ
##Ú
##ᡛ
##ͭ
##ᅳ
##Ց
##κ
##Č
##Ñ
##ǁ
##ʾ
##ӷ
##ӣ
##Ů
##ḫ
##Ō
##ת
##ͤ
##ƀ
##̵
##ɭ
##ƺ
##🙏
##ɔ
##ɒ
##Ŭ
##ξ
##͓
##😍
##😜
##👏
##🎉
##🎊
##👆
##ǽ
##ȇ
##ʝ
##Ϋ
##Θ
##î
##🅰
##ń
##̓
##ŗ
##כ
##Ċ
##͢
##˲
##Ǧ
##ϓ
##Ĩ
##ˢ
##҆
##🏽
##͠
##ᖨ
##ˍ
##ͣ
##℮
##Ɣ
##け
##ば
##な
##Ϩ
##Ϛ
##ŉ
##ȕ
##Ā
##ֽ
##Ź
##ő
##¢
##Ԩ
##≥
##⊃
##ɝ
##ȷ
##Σ
##Ĵ
##ʋ
##ŕ
##נ
##י
##ם
##ė
##̅
##Į
##ʟ
##ŏ
##Ȣ
##ȣ
##ʜ
##Ë
##ͦ
##Ŵ
##ɻ
##Ͽ
##ɳ
##Ɗ
##ƚ
##Ȅ
##ʡ
##ャ
##ッ
##シ
##ン
##グ
##を
##Ƞ
##ƌ
##Ƕ
##ϸ
##Ή
##ƣ
##ɽ
##â
##Ő
##Ǫ
##͏
##│
##Δ
##Ȳ
##🙂
##Ζ
##ﬁ
##ΐ
##ģ
##ʚ
##🍐
##צ
##ƭ
##ĉ
##ͮ
##ϻ
##ʌ
##😕
##🔗
##͎
##ɚ
##ś
##ɏ
##ǂ
##ĩ
##ʣ
##Ϫ
##Ϊ
##♂
##♀
##ा
##उ
##न
##ल
##ो
##ड
##ʘ
##Ɇ
##Ż
##ȁ
##ߥ
##ɋ
##˪
##ƫ
##ɜ
##ʠ
##̈
##☺
##ͽ
##ɕ
##Ƽ
##ͯ
##Ȋ
##ȅ
##ɨ
##˯
##ඈ
##ȃ
##Ȃ
##Ǯ
##Ǻ
##Ƹ
##ǎ
##👉
##ῦ
##Ȼ
##💖
##💐
##บ
##ท
##พ
##ˬ
##ל
##Ȑ
##˗
##ά
##ȗ
##❗
##ק
##ד
##˧
##θ
##क
##ी
##°
##ǖ
##ǝ
##ҍ
##Ҏ
##Ɔ
##ɛ
##̑
##⚡
##Ǘ
##ố
##ͻ
##˷
##£
##ȍ
##∣
##≤
##Ï
##͂
##🏼
##ƕ
##ʙ
##ǟ
##ǜ
##Ƌ
##ȝ
##ờ
##🚫
##❌
##ȩ
##ʓ
##🇷
##᾽
##ź
##ֹ
##ό
##ϩ
##ĝ
##ƛ
##Ɯ
##Ɲ
##ƞ
##ɸ
##ַ
##ּ
##Ɨ
##Ɠ
##ס
##Ɋ
##ȧ
##Ȏ
##Ƅ
##˸
##͌
##΀
##ɲ
##ȟ
##Ȕ
##˿
##ɷ
##├
##ʊ
##ң
##̖
##˓
##ȴ
##͒
##ɂ
##ʺ
##Λ
##Ď
##ˎ
##φ
##Ͷ
##Ǡ
##ג
##⯙
##ᶍ
##٦
##ʩ
##̔
##ŵ
##▶
##ɗ
##͕
##Τ
##ϧ
##⋅
##̽
##ɿ
##Ϭ
##ƨ
##ʇ
##Ƀ
##ɰ
##ﱠ
##ﻨ
##ُ
##ﻛ
##👌
##ɐ
##̊
##ϯ
##ɥ
##ʽ
##Ī
##Ē
##Ω
##˨
##Ŏ
##Ό
##ɡ
##˾
##ŝ
##っ
##さ
##ん
##ƅ
##🕊
##℧
##ూ
##ర
##్
##త
##ి
##ʀ
##る
##▪
##ɇ
##ṟ
##˹
##˺
##ͧ
##؝
##˽
##ǈ
##Ȩ
##ₜ
##Ȁ
##ʤ
##🍛
##🍟
##🍑
##ɧ
##ȋ
##ʆ
##đ
##ం
##ట
##ే
##̰
##↵
##֏
##̤
##ա
##ն
##դ
##ւ
##խ
##տ
##⚜
##Ɖ
##ƶ
##Ӗ
##̟
##஽
##ɢ
##Ɛ
##Ć
##Ĥ
##ɯ
##ɍ
##ƿ
##ͱ
##˃
##ӧ
##Ͻ
##Ί
##Φ
##ở
##ϡ
##ǫ
##ז
##ݶ
##😶
##Ŗ
##Ԕ
##😚
##😗
##Ƴ
##ਤ
##΂
##ἱ
##ὸ
##Ё
##ể
##ǻ
##͟
##ȶ
##Ù
##ϳ
##া
##ক
##̝
##⇒
##ϣ
##Ƒ
##˅
##΢
##Ῐ
##̛
##ʉ
##̾
##Ȝ
##˰
##ɫ
##Ƈ
##̶
##ƾ
##Ɩ
##̓
##ች
##⇗
##̬
##ၡ
##ȵ
##ʯ
##͇
##Ȭ
##ȱ
##ɦ
##̒
##͆
##џ
##̭
##ٹ
##̙
##ɘ
##∅
##ƙ
##ċ
##Й
##➳
##ቂ
##ớ
##ɞ
##ζ
##⎪
##ȥ
##ڲ
##ր
##գ
##ե
##💞
##ʞ
##ɤ
##̱
##͍
##᥀
##ƃ
##😋
##̡
##˦
##͞
##ả
##ʔ
##ථ
##ᵻ
##˒
##ア
##ǡ
##Ͱ
##ǥ
##Ч
##Ȯ
##🥺
##🤍
##௺
##ʄ
##ỉ
##☀
##ǒ
##˂
##ɟ
##ť
##☕
##˥
##ग
##े
##ム
##Ɍ
##ȏ
##₣
##ۀ
##Ϣ
##ǩ
##̏
##ừ
##≈
##ẓ
##स
##˞
##🥰
##ʬ
##̃
##Ȧ
##ʅ
##ח
##̸
##ǯ
##ϥ
##˼
##ҫ
##ɮ
##ΰ
##Χ
##ͩ
##ా
##న
##Ė
##Ƥ
##⯄
##Ѯ
##↓
##👤
##⃷
##঎
##ử
##ṭ
##ằ
##ݺ
##♠
##Ϟ
##ˉ
##ӱ
##🙅
##☹
##ȹ
##̠
##ݘ
##Ϧ
##Ǭ
##Ά
##Ɉ
##̼
##ŧ
##ʛ
##ȓ
##ɉ
##͑
##Ȇ
##ˏ
##Ƶ
##΋
##˻
##Ʒ
##Ᏼ
##★
##ቊ
##ܻ
##ῆ
##ƻ
##͸
##̲
##ṅ
##̚
##ˀ
##˫
##ϼ
##ħ
##௣
##ି
##ଵ
##🅾
##🅻
##🆈
##⋆
##๺
##ﬀ
##̀
##Ύ
##╢
##ⓑ
##ࡽ
##ȼ
##ղ
##ք
##ը
##ʮ
##Ơ
##ഄ
##ர
##்
##ଫ
##̩
##፼
##ౝ
##̉
##ս
##ϙ
##˭
##🐾
##◅
##Ϡ
##ݝ
##ὐ
##΁
##߿
##ʑ
##💴
##̂
##👇
##Ϻ
##ベ
##ツ
##է
##ࡖ
##ɹ
##🌤
##៌
##ケ
##೭
##🍲
##🌹
##🌷
##ế
##Ψ
##⭐
##ಚ
##↊
##ね
##い
##ܲ
##ླ
##ི
##ང
##Ƿ
##🐛
##や
##し
##🌟
##ಋ
##ܰ
##ܕ
##΃
##⃗
##∥
##۹
##۸
##ᓎ
##Ϯ
##ֳ
##ӓ
##😎
##≱
##Ь
##˴
##フ
##ィ
##ス
##ӽ
##ル
##ト
##ォ
##バ
##ウ
##Ƚ
##➤
##ɴ
##˳
##ǀ
##🐞
##🍀
##🍁
##🍂
##🍃
##🎶
##᮹
##ʕ
##վ
##Є
##ぱ
##น
##ม
##ต
##า
##ล
##ḍ
##̕
##ї
##ͨ
##͔
##ɀ
##Ϝ
##͗
##շ
##🏆
##Ư
##᾿
##❇
##ֶ
##̹
##👋
##ǋ
##⬇
##Ӽ
##َ
##ੁ
##ਝ
##👵
##ʥ
##🔥
##ҥ
##∈
##͉
##ṡ
##😤
##ಱ
##Ξ
##▬
##Ǽ
##Ⳡ
##₿
##̗
##📌
##ẕ
##ज
##🌲
##タ
##Ӈ
##ͥ
##ψ
##Љ
##੶
##ϟ
##޽
##մ
##Ȫ
##ݕ
##█
##▓
##░
##༰
##ि
##व
##⌇
##➭
##㌄
##ῠ
##ܶ
##ط
##ى
##🤩
##ি
##য
##়
##র
##💜
##ῖ
##ဎ
##̳
##ĳ
##Ҵ
##ъ
##ี
##แ
##ฟ
##อ
##์
##≠
##ͼ
##ద
##ؔ
##प
##ͳ
##ड़
##̴
##͜
##♪
##♫
##♩
##←
##ై
##˄
##њ
##ቡ
##ጊ
##ዳ
##ኊ
##͖
##϶
##݁
##Ї
##ề
##じ
##め
##ま
##て
##┼
##⍞
##🍹
##イ
##ヴ
##ド
##プ
##ロ
##ダ
##ク
##ョ
##់
##た
##¼
##✅
##🔝
##😝
##🐟
##🐬
##🐳
##🐋
##🐡
##💕
##ܼ
##ܚ
##ʏ
##ῶ
##Ѐ
##🙄
##😔
##ุ
##ค
##ְ
##ִ
##ز
##گ
##ه
##💙
##🌸
##✯
##🍸
##ט
##ͷ
##🎂
##ᢻ
##̎
##ଃ
##ݵ
##ྠ
##̄
##Ϳ
##👀
##ナ
##リ
##テ
##ȑ
##٤
##١
##٢
##ं
##ट
##र
##ϭ
##ل
##͊
##ڜ
##ڥ
##Ы
##ܙ
##Ͳ
##ቈ
##ั
##ส
##่
##ు
##ૣ
##˩
##ɺ
##͋
##௩
##ѝ
##🙋
##く
##ḗ
##ଡ
##ြ
##န
##်
##မ
##ာ
##ဘ
##သ
##ệ
##ʢ
##ڰ
##ۣ
##ざ
##ͫ
##ᾶ
##ʐ
##😞
##Տ
##Έ
##Ա
##Պ
##Կ
##ڳ
##û
##ߣ
##ǰ
##͚
##ծ
##ſ
##ࣉ
##թ
##͝
##ӌ
##レ
##ย
##ํ
##ะ
##เ
##ധ
##ᔅ
##ᑲ
##ᐱ
##🌝
##Щ
##ˋ
##💫
##🆖
##̋
##ठ
##ৗ
##㉠
##̺
##֦
##ἰ
##ษ
##ฎ
##ธ
##ṣ
##প
##ু
##︎
##ܒ
##ْ
##ت
##ܟ
##ु
##ನ
##ವ
##ῤ
##Ѝ
##य
##ह
##ै
##²
##ʂ
##፺
##፩
##৿
##ワ
##ᚄ
##ؚ
##💚
##🌼
##्
##म
##ϗ
##🇩
##🇪
##ቆ
##✹
##ࠔ
##ޡ
##ऋ
##इ
##➖
##ಾ
##೯
##ಟ
##ಕ
##ӻ
##ネ
##ブ
##ラ
##〄
##֡
##⌮
##س
##௟
##ᯪ
##ۺ
##Ђ
##Ф
##🏿
##キ
##パ
##チ
##ู
##׏
##◆
##ဧ
##ว
##็
##ไ
##ซ
##ด
##ก
##ข
##ง
##◊
##⋖
##😏
##😆
##ך
##ᮿ
##Ӷ
##ၥ
##΍
##ण
##त
##ẫ
##ܾ
##႒
##⓸
##Ϸ
##🎪
##🎭
##ô
##ầ
##զ
##պ
##ྷ
##り
##ޖ
##🔎
##୽
##Ж
##ら
##բ
##ᒡ
##ᓗ
##࢙
##💋
##👨
##̪
##😇
##ࢷ
##ʦ
##҉
##্
##߲
##ڤ
##🍳
##👩
##ݻ
##ɱ
##ṃ
##ቜ
##ා
##ම
##ය
##්
##Մ
##᜕
##Ԫ
##🏍
##½
##ب
##ة
##ิ
##🔴
##द
##Ⴔ
##✽
##¸
##📥
##➰
##ব
##ሔ
##֌
##ϝ
##࣠
##ᾳ
##🪁
##Ώ
##ọ
##ࠣ
##ᓇ
##ᑦ
##═
##へ
##よ
##う
##こ
##׍
##◦
##ఴ
##😒
##͹
##♿
##⊹
##Ϗ
##👹
##↑
##֔
##Ế
##❣
##࠘
##➡
##Ϥ
##💪
##๹
##ෛ
##み
##✌
##ܥ
##₽
##ϰ
##Ҫ
##👑
##ෝ
##ࡷ
##ۅ
##⺷
##ଧ
##ࡦ
##Ὂ
##ா
##🍇
##ジ
##の
##ɶ
##ノ
##ゼ
##ズ
##ѵ
##ぴ
##は
##Ǌ
##ಳ
##⚵
##⊑
##😱
##⌘
##ど
##ष
##౥
##ᮺ
##᧹
##エ
##と
##ऀ
##ൔ
##᳙
##ュ
##ァ
##マ
##も
##Һ
##ӡ
##⠀
##⇜
##ࢍ
##⚠
##🌞
##デ
##♣
##Ҳ
##ក
##រ
##ា
##ጳ
##ẻ
##🇬
##̣
##🍫
##ђ
##ۜ
##😘
##ܛ
##޼
##☑
##҄
##ध
##▌
##ᣀ
##ڒ
##خ
##ص
##Ꮊ
##ᾪ
##ܦ
##ܺ
##❓
##ࢵ
##ὲ
##Ш
##࠮
##ὖ
##ף
##つ
##だ
##げ
##ڃ
##¾
##ょ
##び
##ち
##⏆
##ใ
##📍
##◄
##ῳ
##ു
##✿
##ɵ
##ே
##ட
##ி
##ய
##ோ
##வ
##ல
##ܓ
##😈
##ǌ
##ࣕ
##؋
##Ȱ
##າ
##ວ
##ໂ
##ຫ
##ຼ
##ດ
##ໄ
##້
##ອ
##່
##ນ
##ບ
##ລ
##ຍ
##ゲ
##オ
##ᾱ
##ᒰ
##Ј
##ᰅ
##ճ
##հ
##₱
##ࠎ
##🎮
##∫
##Ố
##🎓
##ﻧ
##ﻮ
##ﻘ
##ﺒ
##ﺴ
##ﻳ
##💃
##😢
##⏳
##≡
##ح
##ռ
##ʸ
##΅
##☻
##🧿
##😨
##ผ
##ሶ
##ḵ
##ջ
##ݠ
##🐦
##ٱ
##🏹
##Ө
##Ⓑ
##փ
##ဤ
##Ѡ
##ن
##ብ
##ረ
##Ӻ
##࿗
##⏪
##🎖
##🚀
##٧
##✨
##ம
##💧
##🌌
##І
##൤
##਄
##♡
##ࡅ
##ザ
##ṛ
##ྵ
##ẟ
##∼
##ಝ
##Ά
##⏰
##✓
##😪
##³
##⚘
##👧
##😦
##ံ
##⊕
##ܗ
##ゅ
##್
##ರ
##ಮ
##∕
##Ѫ
##Ὧ
##ᔕ
##ം
##ബ
##ാ
##ി
##ക
##ট
##ো
##ೋ
##≫
##⒔
##ཟ
##😲
##👚
##👕
##ʳ
##📲
##ҭ
##Ԏ
##బ
##∗
##Ԉ
##あ
##֐
##₫
##😛
##ޔ
##ピ
##є
##ќ
##ဏ
##😓
##¤
##↗
##च
##ћ
##ࡧ
##һ
##ተ
##ẩ
##ὼ
##ᘈ
##ܿ
##Ք
##🥲
##∉
##ك
##҈
##ê
##ࡕ
##ׂ
##ổ
##☘
##ۆ
##Ṏ
##⇑
##⊓
##গ
##ত
##ল
##₮
##ස
##ඩ
##න
##ክ
##ؠ
##○
##ץ
##٩
##ゴ
##ボ
##Ŀ
##📷
##ᱩ
##ల
##ื
##ో
##ӳ
##ŀ
##ủ
##ప
##ỷ
##∙
##Վ
##ࠐ
##ऱ
##Ր
##ḕ
##ụ
##മ
##്
##പ
##ഴ
##ങ
##コ
##ミ
##থ
##۴
##ጰ
##🎥
##✦
##ৼ
##□
##☛
##ᒸ
##🌿
##🍚
##🍬
##ᔾ
##👊
##׿
##ኄ
##😷
##😻
##̈́
##💓
##ồ
##ǳ
##↶
##ڣ
##љ
##🌾
##օ
##✈
##ृ
##۩
##ۇ
##ळ
##💉
##ݓ
##Ҙ
##𒊩
##𒌆
##𒆠
##𒃲
##గ
##ை
##த
##ு
##க
##💎
##🙃
##¹
##🍞
##❕
##😥
##🚗
##🌴
##ṇ
##Ӏ
##ୌ
##ੲ
##ϱ
##🍄
##🔔
##🍪
##📚
##🎞
##ẖ
##ኺ
##ခ
##ٔ
##👴
##📱
##ࣤ
##ٰ
##ᦋ
##🌶
##ὂ
##ܮ
##▼
##ྐྵ
##💥
##Ә
##ձ
##ش
##ٓ
##ء
##⃩
##ݒ
##ḱ
##ṓ
##ে
##ঘ
##ন
##ᗼ
##⚽
##す
##が
##ṋ
##☁
##̨
##ᢘ
##☝
##ấ
##ニ
##メ
##ॉ
##Ӫ
##দ
##শ
##अ
##≅
##🌰
##ރ
##⃫
##޺
##ब
##အ
##ꞑ
##஘
##🐆
##💼
##ช
##߱
##⛰
##ῃ
##ᓺ
##ࡸ
##ặ
##☆
##🍢
##ܸ
##ܵ
##˚
##૤
##💯
##స
##ঢ
##ӎ
##👻
##ᷜ
##Փ
##ࣀ
##వ
##ణ
##🍘
##ὑ
##ᰋ
##़
##ߐ
##👽
##😬
##Ц
##ቔ
##🎄
##۫
##⺶
##🇰
##ऒ
##ٻ
##ߎ
##ୋ
##ց
##ứ
##➚
##✋
##😹
##ࣷ
##Ỹ
##ື
##ぺ
##ි
##ර
##Ԥ
##🇦
##׺
##💸
##ေ
##င
##ဆ
##း
##စ
##ု
##က
##ည
##🙇
##㋇
##ၾ
##ࣔ
##Ⳙ
##ϴ
##ဥ
##≺
##ޗ
##🎬
##৲
##๬
##ܜ
##ӆ
##🐄
##🌱
##ᴘ
##ԧ
##࿿
##ݜ
##Ԝ
##🙁
##💟
##👦
##߮
##き
##६
##९
##📖
##۱
##♤
##Թ
##😑
##⮶
##🍆
##👂
##ợ
##ꜱ
##᳑
##Э
##◥
##࡜
##ἶ
##┤
##၄
##ጆ
##ٙ
##🤣
##ຏ
##≽
##↔
##♢
##ὶ
##ᐕ
##ハ
##ർ
##セ
##҅
##ග
##ැ
##ත
##ಪ
##ು
##ഝ
##ộ
##Ⴙ
##💻
##ῑ
##ၵ
##ᠥ
##ᠯ
##ᠦ
##ᠢ
##ѭ
##ቶ
##֗
##ắ
##ஈ
##⇵
##Զ
##෾
##Ւ
##Ԇ
##ታ
##ܣ
##ᠨ
##ᷧ
##᾵
##⭕
##಑
##᭰
##ಡ
##⎲
##ற
##ҋ
##ھ
##ڿ
##֜
##د
##ѐ
##⎛
##ԑ
##に
##Ҋ
##👼
##🧀
##Ӌ
##ろ
##ධ
##ප
##ු
##ὰ
##ᠣ
##ۍ
##᱑
##೵
##ಗ
##⥈
##カ
##↕
##❞
##🎫
##ކ
##🏃
##᎞
##Ԧ
##🍋
##サ
##ৃ
##ѿ
##थ
##か
##ᾟ
##৾
##😐
##࣢
##♬
##ጢ
##ூ
##˝
##ḿ
##❄
##߽
##ۻ
##📞
##โ
##จ
##🙊
##㋉
##๫
##ӿ
##ॄ
##▻
##ご
##ˤ
##ゾ
##ˡ
##ࡶ
##௶
##ᥙ
##ಂ
##ḏ
##わ
##ப
##ٶ
##ԃ
##΄
##🍊
##⋬
##չ
##♭
##✊
##ၜ
##ࡼ
##ᣃ
##ѹ
##ὴ
##ᾍ
##⎼
##ῐ
##⑶
##৴
##இ
##ੳ
##ほ
##ビ
##🎙
##Ѱ
##⌢
##Ǉ
##ࡆ
##ᚒ
##ᚐ
##ᚔ
##ᚏ
##ᚋ
##ݎ
##ࡵ
##ࡂ
##ࡃ
##ኮ
##ን
##😭
##😩
##Գ
##ᯠ
##भ
##ᾀ
##ҏ
##Ҁ
##᯲
##🌺
##⍟
##⳪
##ᕊ
##◕
##ৱ
##Î
##Â
##ഃ
##ض
##🍒
##🍌
##࢏
##📢
##ʰ
##ป
##ߩ
##ன
##🤪
##ᮻ
##ӏ
##౞
##᠘
##🏄
##᭦
##አ
##֯
##℄
##୭
##ژ
##ள
##֕
##ޞ
##ొ
##⟶
##💅
##ޅ
##ె
##మ
##ॻ
##ֱ
##■
##ቮ
##ー
##😧
##څ
##🔷
##┝
##ࡠ
##൓
##স
##ῡ
##ဒ
##⊆
##ဝ
##𒈛
##𒄩
##ڦ
##ᾊ
##🌻
##ᰥ
##ﻬ
##ﻓ
##⚕
##ҹ
##ވ
##῞
##Ե
##Դ
##Յ
##Ո
##🎨
##ও
##׶
##ڇ
##ؑ
##ḉ
##ပ
##४
##ῄ
##♏
##😵
##ኵ
##ጦ
##০
##Ғ
##ල
##ᘇ
##🎁
##🔽
##ኣ
##💨
##💣
##🎲
##ฝ
##𐰠
##𐰢
##𐰚
##𐰀
##ᰀ
##঄
##🇧
##👸
##ف
##ఐ
##❔
##☢
##☂
##✎
##▀
##😙
##ᶙ
##ጙ
##ೲ
##ः
##🎒
##ẹ
##၉
##ᝀ
##ぎ
##⏱
##💲
##ࢧ
##ヒ
##ফ
##Ԯ
##Ꭸ
##🤐
##Ұ
##ฉ
##๊
##ञ
##♾
##૶
##␙
##✰
##Ⓘ
##ོ
##ག
##డ
##క
##📊
##య
##ᱨ
##۽
##㉢
##🤗
##⌙
##👱
##🌎
##🌏
##ਕ
##ਦ
##ਾ
##¨
##ᵨ
##׉
##ϑ
##ὺ
##ۈ
##೗
##ᚧ
##🍴
##Ⴜ
##ॡ
##🌳
##🌊
##💦
##՘
##✍
##Ό
##ぜ
##🌯
##ৈ
##ѣ
##🐙
##⋙
##💭
##஻
##ള
##ۿ
##ݲ
##🇸
##♛
##௷
##ዺ
##👫
##🍖
##ෙ
##߰
##᪽
##ိ
##ီ
##ᰘ
##🎤
##🎧
##🎼
##🎷
##🎻
##Ꭶ
##Ᏹ
##३
##७
##モ
##🍷
##ృ
##ష
##ᯛ
##ႀ
##ണ
##ട
##࿾
##㊨
##ࡘ
##ࡱ
##🥳
##ߗ
##ӊ
##⚖
##🏠
##⊼
##භ
##🤙
##∑
##┷
##Ѳ
##ᯚ
##࿝
##🐓
##≞
##૟
##෹
##せ
##჆
##္
##ယ
##ရ
##ါ
##လ
##ဲ
##Ӹ
##և
##🔫
##ԡ
##०
##๒
##ҧ
##ތ
##༭
##ম
##ᰡ
##K
##ڠ
##ẽ
##🇺
##Ⲉ
##🅴
##⊒
##ங
##∳
##ொ
##ண
##ጿ
##ׅ
##৘
##ԕ
##ڸ
##ゃ
##ガ
##ට
##ෑ
##ヤ
##✏
##ߔ
##ہ
##⑬
##൒
##֩
##֪
##඙
##ࡲ
##Ⓗ
##ၕ
##ച
##җ
##ἴ
##🇮
##ீ
##छ
##🤲
##ࡗ
##ጝ
##ỗ
##⎠
##⎟
##ՠ
##ゆ
##ූ
##ሌ
##ජ
##ԅ
##֎
##࢐
##ಅ
##ٮ
##ذ
##😣
##߯
##হ
##ؐ
##ቴ
##ྔ
##ན
##😯
##😮
##∏
##ং
##ᔋ
##⓪
##ѽ
##஦
##Ю
##↠
##😰
##⃧
##∩
##ญ
##🔰
##আ
##֥
##౜
##ᓀ
##ᖚ
##💰
##ߡ
##ヾ
##▥
##▦
##▧
##▨
##▩
##🤔
##🪂
##🛸
##🌜
##🌔
##🌕
##👣
##ښ
##᧙
##ঠ
##⏩
##㋾
##ヌ
##ӥ
##པ
##ڀ
##㋊
##🍼
##૾
##Ӓ
##߳
##ͺ
##🔊
##১
##৪
##ῴ
##ᾰ
##Ḥ
##ච
##🐶
##ന
##🌧
##♊
##ӗ
##श
##ই
##ʹ
##੎
##ソ
##₟
##Հ
##🐣
##👁
##ὔ
##ǆ
##ひ
##ẃ
##౾
##ঃ
##ᚙ
##Ⓚ
##ᔪ
##޶
##💶
##⤉
##៑
##📆
##ᢠ
##෪
##∨
##🤭
##ݖ
##ภ
##ศ
##ৠ
##🍓
##🐈
##🐕
##🚶
##࢈
##ঙ
##ࡩ
##Ⴘ
##ポ
##ࠥ
##੢
##ᘼ
##Ҷ
##ဇ
##⨯
##ᒽ
##🚨
##ѓ
##ᜋ
##ौ
##Җ
##Ղ
##֍
##Ջ
##ޢ
##૞
##ૐ
##׼
##Ѕ
##ᮼ
##঑
##☔
##ڭ
##෼
##ಹ
##ࢽ
##ӈ
##ဓ
##ࠤ
##⛔
##Ң
##🏾
##ϵ
##ẗ
##🍰
##✶
##༞
##🍦
##♯
##ᢲ
##ᐘ
##ᔮ
##ᐣ
##ٷ
##◾
##ʷ
##🖤
##↎
##↍
##ڢ
##ڔ
##࿰
##🍗
##౼
##ቯ
##ḷ
##ྡ
##ถ
##஖
##🤘
##ۥ
##ٴ
##♕
##😖
##ҙ
##ࡰ
##ஜ
##⃰
##ՙ
##ѥ
##🌗
##🌘
##🌑
##ଠ
##្
##ង
##ៃ
##ម
##ុ
##ន
##ҩ
##Ն
##ಯ
##ॽ
##ࠖ
##ಐ
##👰
##ณ
##🎡
##❊
##ළ
##∠
##׾
##🍕
##🇴
##ޠ
##⃦
##➠
##ڍ
##✱
##౫
##ۯ
##Ꮁ
##؈
##𐰔
##𐱃
##𐰞
##𐰺
##𐰃
##ူ
##ျ
##ࣩ
##ゥ
##ヘ
##ホ
##ቋ
##㉷
##🍔
##㌆
##ᯭ
##֮
##҃
##ཙ
##ུ
##ལ
##ᙎ
##💝
##ፘ
##Ꮝ
##ॲ
##Ṧ
##ଞ
##Ӎ
##ں
##ᜡ
##ᛅ
##ᚾ
##ᛘ
##ᚢ
##ᚱ
##ᚴ
##Ԃ
##ᕻ
##ݏ
##ቅ
##᠖
##💤
##ኒ
##ख
##೿
##ی
##ߨ
##ࣞ
##ۭ
##🔃
##➽
##𐊕
##𐊐
##𐊎
##𐊆
##𐊖
##೘
##੬
##🐘
##ⵉ
##ⵖ
##ӫ
##🙆
##ᾣ
##ᘑ
##Ѵ
##െ
##ᓄ
##ᒃ
##ᑎ
##ᑐ
##ἷ
##ല
##യ
##🏐
##🎾
##🏎
##㋗
##🏳
##១
##˜
##ॢ
##ᖦ
##ᑙ
##ᘵ
##ఙ
##፽
##Ꮓ
##📣
##ࣱ
##ী
##👖
##ٵ
##৸
##ܽ
##ܱ
##ҁ
##េ
##ខ
##វ
##ល
##យ
##ጉ
##Ԑ
##झ
##Ԡ
##ῷ
##Ҭ
##᧔
##࡙
##🎀
##ߏ
##֤
##ױ
##🥂
##🤞
##📺
##ࣜ
##ਁ
##ℰ
##᭫
##ࢊ
##ধ
##ೂ
##🚌
##ݛ
##ⓞ
##ၢ
##💡
##🤹
##🌙
##Ѓ
##ࡳ
##೧
##኏
##ج
##❎
##ҟ
##❛
##ኾ
##⫷
##🐺
##⋩
##⛺
##₤
##ԇ
##ॺ
##𒉿
##𒆷
##𒉺
##𒀸
##𒊭
##ঞ
##ٸ
##ᔴ
##ݷ
##ᕐ
##έ
##ᾠ
##ঽ
##ળ
##🎦
##Ҟ
##৩
##ਧ
##ਿ
##ਆ
##ਣ
##ଈ
##ᚡ
##ԍ
##Ӆ
##Ὣ
##Ռ
##ᜇ
##᜔
##ᜌ
##੡
##ᛖ
##⚔
##આ
##ᗲ
##ྙ
##೺
##ު
##ފ
##ި
##ާ
##ᖱ
##ജ
##۪
##ґ
##🅔
##🅧
##🅣
##🇨
##🇱
##ܯ
##ܩ
##ඟ
##ܤ
##🆗
##ᯆ
##਼
##₪
##⃾
##🍉
##᎝
##జ
##ず
##ṹ
##௓
##֫
##ỳ
##📸
##🌀
##۵
##Ӭ
##௫
##Ծ
##✄
##௥
##ঌ
##੤
##🍎
##Ӥ
##߻
##⍺
##ҿ
##৯
##ᔶ
##۳
##ࢿ
##ۂ
##݋
##୬
##৶
##చ
##Ҥ
##ሴ
##ᔆ
##Ԗ
##🔬
##Ԙ
##❖
##ಧ
##ና
##ѧ
##ெ
##ར
##ဂ
##ఀ
##ڌ
##ಣ
##ಬ
##ೆ
##ೊ
##኿
##🐑
##᧶
##ᘄ
##ࣻ
##ந
##ࡏ
##ࢮ
##🕺
##ᕕ
##ᓕ
##ᐊ
##ᖅ
##𐤍
##𐤁
##𐤏
##𐤋
##🌍
##ữ
##ႅ
##অ
##ࣿ
##۲
##ଦ
##ᯬ
##৓
##ᑱ
##ኅ
##ऴ
##৚
##Ḳ
##🚴
##ई
##ଔ
##🏇
##ℬ
##ꓹ
##଎
##Ꮃ
##Ꮀ
##Ꮉ
##ӑ
##∪
##ٲ
##〓
##ᔯ
##֨
##𐰲
##ލ
##≰
##💆
##💱
##🇫
##ழ
##ށ
##ࢠ
##👐
##ࠍ
##۷
##ฮ
##ጼ
##⍾
##ࢭ
##Ԟ
##ԟ
##࣋
##⊍
##ࡴ
##ᗚ
##ஏ
##Ѣ
##ؗ
##🔚
##ཚ
##౬
##࠯
##✧
##ݫ
##Ў
##෭
##ஞ
##☡
##👶
##Ώ
##Ǳ
##߃
##⊽
##׬
##Ъ
##ᘎ
##ౙ
##฿
##ኴ
##٥
##⬅
##😫
##𒀜
##𒌅
##ీ
##ᕼ
##ѩ
##℗
##Ꭰ
##Ꮍ
##ỏ
##݂
##ව
##🥀
##ࣣ
##ធ
##ណ
##ដ
##ឋ
##ប
##ជ
##ិ
##ត
##ព
##኎
##׸
##⤴
##ԓ
##੽
##🌐
##💔
##📠
##𒉆
##𒋻
##𒊏
##٨
##🏀
##Ӯ
##ޕ
##ΐ
##૘
##ઋ
##ҝ
##ῇ
##⹼
##ࠀ
##🤷
##ኘ
##💵
##ፀ
##࣫
##ڧ
##ࣅ
##ቹ
##೾
##བ
##ྱ
##ਹ
##ਬ
##↷
##🇲
##🎗
##Ⓕ
##Ꮆ
##ঐ
##ஔ
##ペ
##᳔
##ฯ
##ᚖ
##᠛
##ྲ
##ད
##Ԓ
##☪
##📿
##ع
##৔
##ል
##ደ
##ẞ
##ⳑ
##∋
##ᴉ
##ꜿ
##ಙ
##ԭ
##ꪜ
##☯
##ࡊ
##ە
##တ
##✞
##ʴ
##ࡎ
##ڟ
##ၑ
##🥶
##ᮮ
##ึ
##ḛ
##ພ
##𐎘
##𐎗
##𐎚
##ޭ
##ऊ
##Բ
##ড
##ূ
##ഹ
##ছ
##ࢋ
##຋
##≙
##ᰑ
##ದ
##ಲ
##᭩
##ԣ
##🔸
##🏫
##ݱ
##Ճ
##📉
##᪻
##ˠ
##🍜
##🍙
##ࣚ
##๩
##႕
##ຟ
##Ԅ
##Ⳝ
##Ϲ
##🎯
##࣭
##🏖
##Ԋ
##ᡉ
##🐢
##ࡡ
##ጤ
##Ἁ
##ᭊ
##௅
##ϒ
##ԝ
##൱
##ث
##ᔵ
##ከ
##அ
##റ
##ǲ
##ࢻ
##ᔗ
##🛴
##ࡍ
##💌
##ग़
##ጁ
##ㄙ
##ࠗ
##⪅
##ӹ
##ℚ
##ỡ
##💊
##آ
##ဖ
##⛓
##ஂ
##ࢫ
##㄀
##⤀
##♑
##🏋
##উ
##⎇
##🤦
##Ꝡ
##ḃ
##👜
##ਰ
##ਮ
##ੰ
##Ḗ
##ቍ
##೟
##₹
##᧟
##ݴ
##Ⴝ
##֢
##ᘊ
##👠
##💍
##👗
##😟
##ᖫ
##𐰇
##𐰤
##📹
##🐱
##൹
##⍍
##Њ
##ச
##🔭
##ڶ
##𒊑
##𒅀
##ᕘ
##ઁ
##߅
##Ê
##႖
##൴
##🐐
##ֆ
##৙
##🧚
##ڂ
##๖
##ҵ
##݀
##⚷
##ٍ
##ḻ
##ऐ
##ᡳ
##ᠰ
##ᡠ
##⚓
##୾
##൐
##᪙
##ḇ
##ぃ
##ⲥ
##ⲉ
##㋷
##୼
##⤁
##⹏
##ຽ
##ງ
##ຈ
##ັ
##ޟ
##Ṙ
##ቒ
##װ
##ទ
##គ
##ݗ
##ֺ
##ֻ
##Ҿ
##🏓
##🎸
##࢚
##ṁ
##⊛
##🔖
##♨
##ො
##఺
##🇿
##ړ
##੮
##૯
##ᚹ
##ᶈ
##ڨ
##⎤
##⎥
##ᓵ
##𐰼
##𐰜
##ೱ
##૲
##௨
##♙
##🌅
##ఎ
##Ӛ
##ए
##ᗯ
##ᗺ
##ᗷ
##ᗅ
##ᵋ
##ဌ
##ۗ
##๔
##𐰾
##ᛄ
##ૌ
##᎗
##ඌ
##∇
##𒅆
##𒇷
##Ꮖ
##ຠ
##ϲ
##ૺ
##ণ
##᯶
##૧
##𐰣
##ஆ
##ڄ
##ࢉ
##޵
##๓
##ኜ
##ሲ
##ᒏ
##⊋
##֓
##ѡ
##ݸ
##ḩ
##Ⴟ
##ਖ਼
##👃
##🏂
##🇯
##🇵
##ࢌ
##ញ
##≲
##໅
##ូ
##ဟ
##´
##೼
##๼
##غ
##֘
##ᒍ
##ྒ
##🏞
##҂
##Ꮡ
##ҽ
##˛
##Ⱗ
##ݮ
##৏
##ᶆ
##✂
##Է
##ﻴ
##ﻐ
##ﻟ
##ﺎ
##ﺑ
##ޫ
##☎
##ኰ
##🔧
##਀
##ૹ
##ࡌ
##ℸ
##ᓿ
##ኃ
##↜
##ް
##ڈ
##ም
##በ
##̀
##ᒐ
##㌡
##⊥
##☼
##ओ
##🍽
##ሽ
##ዀ
##⪸
##ᶗ
##ঁ
##♐
##׻
##ڙ
##〇
##␩
##ᖺ
##Ԭ
##ၸ
##Қ
##ʵ
##૔
##🌬
##ਗ਼
##ࢪ
##ӕ
##ቷ
##𐰴
##∶
##ܖ
##ຸ
##ກ
##ມ
##৤
##ԩ
##ඡ
##ډ
##ྦ
##᯷
##ጚ
##ϐ
##സ
##ٺ
##জ
##ユ
##ᐅ
##ᔭ
##ٌ
##🌮
##➜
##ೈ
##Ѿ
##ࢀ
##🔻
##ख़
##ಆ
##֑
##ࣗ
##ࢣ
##🏅
##ൂ
##വ
##ത
##➧
##◟
##२
##१
##ᰢ
##↛
##ቄ
##Ẕ
##ॣ
##᪘
##◯
##ఒ
##🤧
##೪
##𐰰
##📝
##᷀
##᷁
##⚈
##ၟ
##Ớ
##ڴ
##ҡ
##∘
##Ί
##ၖ
##๠
##👳
##᝔
##މ
##⊊
##ᔥ
##ៅ
##ស
##ጛ
##ࢎ
##𐱁
##𐰑
##ᖈ
##ᣝ
##೅
##🔞
##ද
##ࡈ
##ἆ
##᷄
##ᐚ
##ᐤ
##Ҽ
##⤵
##௄
##ੜ
##഻
##ۮ
##ॶ
##Ṁ
##୘
##௯
##💁
##Ἀ
##⯁
##✗
##ૢ
##౐
##𐰋
##ᘮ
##ኛ
##ֈ
##٘
##࡬
##ࡑ
##׽
##⓽
##🇳
##߈
##⊯
##👒
##֛
##ᶔ
##೬
##ʶ
##⍫
##㊣
##ϕ
##࿯
##஍
##ⱪ
##৑
##ᯘ
##ᣔ
##҇
##၂
##၀
##၁
##ኁ
##᮳
##Ֆ
##চ
##Ѻ
##౰
##Ⓝ
##घ
##📰
##🐿
##╨
##👟
##ٟ
##🆚
##🍍
##🥭
##🥑
##∵
##ຑ
##ࢼ
##⇌
##࣪
##ǉ
##ݚ
##׹
##ߦ
##ᵏ
##৻
##ұ
##🏰
##ࠝ
##😿
##ຄ
##∴
##֣
##ᯫ
##᪟
##Ἒ
##Ժ
##ޓ
##₷
##Ꭾ
##໰
##ࡄ
##ެ
##ހ
##ᛀ
##۞
##ࣟ
##ߕ
##🚬
##௽
##៊
##Ԁ
##࢟
##֚
##Ꮞ
##ਅ
##ⳉ
##֧
##ኧ
##࡟
##🌵
##Ҹ
##ḑ
##ੵ
##ὕ
##Ҕ
##⪎
##ີ
##ၨ
##ࠦ
##ݾ
##⊎
##ᾧ
##⩚
##ڝ
##ϔ
##୥
##Ĳ
##🅱
##঒
##ޏ
##᫑
##ᵎ
##ᾏ
##২
##🔍
##🔪
##⚪
##೓
##ී
##𐰆
##𐰭
##ࠈ
##🐠
##∭
##኶
##ࡹ
##ङ
##৖
##🤓
##೏
##🤮
##᷅
##෶
##ਸ
##ٳ
##੻
##☰
##ߖ
##ᐿ
##🎃
##ګ
##ڬ
##౛
##˙
##᭒
##🍅
##࣏
##⦁
##ഋ
##🙍
##ᢤ
##೽
##჋
##🚚
##߾
##ࡪ
##⊱
##Ӳ
##🚕
##ઑ
##⍂
##ๆ
##ᑣ
##́
##🧺
##ၳ
##஭
##૫
##ꜣ
##ᐦ
##ᐃ
##ᐍ
##ᐏ
##ގ
##⎒
##ࡺ
##శ
##㋳
##🇾
##඲
##᧥
##Ờ
##Ể
##ᤓ
##ᣡ
##ܷ
##⛄
##⬆
##ⓩ
##𒌑
##ᝥ
##ҕ
##ॗ
##⪏
##੼
##♍
##ఞ
##ᾷ
##ഭ
##ဠ
##🔜
##Ǆ
##ആ
##ࣛ
##௾
##ચ
##ේ
##૽
##ⓙ
##੧
##጗
##ණ
##Ѽ
##📈
##↦
##Ⳳ
##ᔬ
##῏
##ቕ
##߫
##એ
##▵
##👓
##ྃ
##⌖
##ޘ
##ῼ
##ॊ
##ヨ
##ڱ
##ዋ
##べ
##৫
##⺑
##🛍
##ۄ
##ഷ
##׭
##🏢
##೹
##ۙ
##ݽ
##೨
##ᶜ
##֙
##֝
##㊱
##✚
##⛵
##⍿
##ᕱ
##ੱ
##ਥ
##ੇ
##ຢ
##ၐ
##׊
##៟
##ᢶ
##ྜྷ
##ሐ
##ޝ
##🤯
##🌚
##ⴰ
##ⴳ
##ⵔ
##ⵡ
##ⵜ
##׈
##ྭ
##🎵
##੄
##≨
##ڛ
##㉻
##🖼
##ఉ
##᭑
##ࡓ
##ے
##ኽ
##ଁ
##↞
##➶
##Ṭ
##ቲ
##۾
##ۘ
##ᖩ
##☟
##ඦ
##ህ
##መ
##ድ
##ᓣ
##൧
##ݭ
##ԥ
##ǅ
##❜
##📛
##Ӟ
##फ
##ᐥ
##ቪ
##⋯
##Ҝ
##ಃ
##׮
##ᡄ
##ཾ
##ౘ
##᭕
##Ⓢ
##🔒
##🔑
##Ӄ
##ਇ
##ᚃ
##ૠ
##ߘ
##ඪ
##ℍ
##ڑ
##⺘
##𐱅
##߄
##📐
##📒
##㊅
##ぼ
##ḋ
##ࣼ
##𒇉
##𔄁
##ਡ
##ߜ
##┴
##Ⴛ
##Չ
##ߟ
##✳
##🖥
##ځ
##₡
##𐭧
##𐭯
##𐭥
##𐭩
##ׄ
##ំ
##័
##ើ
##਩
##Ꭼ
##Ύ
##ݑ
##ۏ
##ဈ
##❑
##🍡
##🍻
##🐊
##ፃ
##ગ
##ቧ
##Ⴠ
##௰
##৷
##஫
##ጷ
##ጸ
##ྡྷ
##ይ
##ᖬ
##ႋ
##ࡀ
##⊸
##ઃ
##ᯨ
##Ӂ
##ಸ
##ۼ
##޷
##᧻
##ဨ
##ሪ
##ݨ
##ࡻ
##ᶇ
##೷
##੷
##ࠒ
##🍧
##ষ
##💀
##ስ
##🐎
##᳋
##ߚ
##ߙ
##ᒯ
##ᛷ
##ఏ
##ᘌ
##ᒻ
##🧡
##ﻣ
##⌹
##ྸ
##👥
##🌪
##🎅
##📽
##௉
##֖
##ݿ
##ᓢ
##Ḡ
##▃
##▅
##▆
##▇
##🙉
##🐗
##🐔
##🐫
##💘
##💏
##🐒
##⌗
##ྺ
##⃛
##╪
##ጠ
##🐴
##🤫
##👔
##💄
##ࢬ
##๘
##◌
##👄
##ヅ
##৞
##ጕ
##଱
##≓
##ऄ
##ܧ
##▫
##≔
##ৣ
##ԉ
##ٝ
##₴
##֋
##Ӕ
##Ị
##Ҡ
##ભ
##ߍ
##🍺
##׋
##⃴
##ᢾ
##ॼ
##࿫
##૳
##౎
##✒
##ࣴ
##ઔ
##Ѩ
##ሼ
##ࡥ
##फ़
##ὅ
##ᙲ
##ಀ
##➔
##࣌
##৒
##৳
##৭
##ṍ
##݅
##⋢
##ߛ
##཯
##Ꮈ
##ߢ
##৬
##۶
##ࠛ
##🅷
##🆁
##🅸
##🆃
##ѫ
##ޒ
##ޑ
##ⳟ
##ߴ
##ギ
##ৰ
##ᛳ
##Ῑ
##Џ
##࠭
##⌬
##🥹
##ၱ
##ೇ
##ߠ
##🐧
##℞
##ࠧ
##🏊
##ᚲ
##ૡ
##᧭
##ߤ
##🐹
##🚘
##෽
##ⓝ
##࿈
##૩
##ԗ
##Ễ
##🍝
##🐍
##౔
##ᓦ
##ఈ
##㉿
##ނ
##ಇ
##Ӧ
##🏡
##ၔ
##💑
##❥
##ظ
##ᮭ
##஄
##ߧ
##📀
##💿
##ྥ
##໙
##ఽ
##🕯
##׵
##ᎈ
##ᕦ
##㋩
##ㄖ
##ᕷ
##஑
##Ⴊ
##ࠬ
##ڷ
##޴
##ထ
##ৌ
##✪
##☜
##♞
##૚
##᭭
##࡭
##ऎ
##ἀ
##ᭌ
##Ỷ
##੿
##଒
##ᔚ
##┬
##቉
##ක
##ෂ
##᭥
##↨
##ጂ
##Ꮗ
##🎩
##ᰶ
##☭
##ᚕ
##ٞ
##ཊ
##ઇ
##ẳ
##⎮
##ᓡ
##ᒨ
##₲
##ᨠ
##׎
##🌁
##᭯
##㉱
##Ḫ
##𒌣
##𒀀
##💩
##ಞ
##ਟ
##ਗ
##➢
##↢
##👿
##ⱷ
##৮
##ᗙ
##ࠜ
##⊢
##၆
##ޣ
##঍
##ࢢ
##🏦
##≶
##♒
##ḭ
##ᰧ
##࡮
##ં
##ඥ
##ၙ
##🐻
##ᖓ
##ᾃ
##ێ
##🗿
##૥
##⋮
##ⳗ
##ဪ
##༟
##᛺
##𐰯
##⪭
##ݥ
##౑
##ႃ
##☠
##ຐ
##ࣥ
##🛐
##Շ
##≿
##ᕋ
##ᕰ
##ԋ
##∀
##ᨋ
##ၗ
##ऺ
##🚜
##⧫
##֞
##ऍ
##👅
##㉵
##԰
##᭷
##ࠠ
##ಉ
##⇓
##💷
##≩
##஀
##ভ
##౵
##ٕ
##፵
##ⳝ
##ᖆ
##༱
##◀
##݄
##ἣ
##🐂
##ׇ
##⋋
##৹
##ଶ
##ࡨ
##ﻔ
##ﻠ
##ﳜ
##⊙
##௡
##૬
##༙
##ڵ
##⛈
##ڹ
##ᒒ
##ᣁ
##ᘶ
##ᐮ
##௵
##ᡴ
##ᡥ
##ᡟ
##⋵
##᭎
##🏺
##🪬
##ᘀ
##ᢦ
##ᚉ
##♖
##♘
##♗
##♔
##ᡍ
##౧
##ጌ
##ኢ
##஺
##๢
##ര
##ڞ
##௎
##ฑ
##ྫ
##ᒹ
##⍋
##ਨ
##ੂ
##🍤
##🍮
##ݹ
##🏷
##ᾇ
##ᘟ
##᧰
##ۑ
##ᢵ
##᭴
##ࠟ
##ޛ
##ᡓ
##ᡔ
##ᓆ
##ቘ
##෩
##Ὸ
##ൢ
##ൣ
##໢
##௞
##⺓
##❈
##ീ
##ጻ
##ݦ
##🍩
##🍭
##ѱ
##㉺
##⌔
##⌕
##ፉ
##ӛ
##ဵ
##ᚼ
##߭
##🥜
##ߺ
##୷
##࣍
##ᶐ
##؆
##ڗ
##🍱
##࿅
##൵
##⇔
##ᔤ
##ࠞ
##ቐ
##♟
##ڽ
##ጜ
##ࠂ
##ڋ
##๕
##🌽
##੯
##ဋ
##◔
##౓
##݆
##ٗ
##ṉ
##🚲
##஁
##✴
##Ⴡ
##⪰
##≆
##ۊ
##ಖ
##ા
##ધ
##ી
##ન
##ર
##┪
##቟
##ഊ
##໺
##৺
##ྋ
##஥
##▄
##ጥ
##௢
##๦
##ؙ
##༸
##📩
##౻
##ḹ
##✤
##጖
##ቀ
##ለ
##ڡ
##൥
##ᠬ
##֟
##౳
##݌
##੣
##ټ
##ৢ
##ݰ
##ᑋ
##ᑯ
##ᑊ
##🍵
##భ
##𒄬
##𒁶
##𒋾
##༴
##🪴
##⃚
##࡯
##😴
##ౣ
##῝
##᭶
##Ꭱ
##ࣵ
##ٿ
##ሱ
##ऑ
##Ҩ
##⏬
##ʱ
##ૼ
##჏
##ᝒ
##ܨ
##👮
##💂
##👷
##🏭
##🚒
##Ґ
##ႉ
##ડ
##ྕ
##🔳
##ۓ
##⳱
##ぬ
##⎱
##Ձ
##ଆ
##ᶒ
##⑛
##Ⴋ
##໹
##⪒
##ቖ
##む
##ῌ
##ک
##௖
##㋒
##෉
##Ⓖ
##ዩ
##🚩
##ᰇ
##ధ
##ఫ
##ళ
##ↄ
##ڊ
##᷻
##ᱢ
##ږ
##ႜ
##ٯ
##ᰙ
##౿
##੩
##Ề
##𓃵
##ጀ
##዗
##Ӝ
##૿
##🫀
##ຘ
##🙀
##ᖔ
##ᔌ
##ત
##ር
##ካ
##⛸
##▴
##🅢
##🅘
##🅛
##🅚
##🅐
##🅡
##ֿ
##⤄
##ᕽ
##🎆
##ᣎ
##౹
##𒅁
##᯵
##૖
##દ
##ߒ
##⩨
##Ἑ
##ᤗ
##ԏ
##Ԛ
##ೠ
##≖
##ڕ
##౨
##Ꭵ
##᳚
##🔹
##ማ
##࿺
##Ћ
##ஃ
##ഡ
##ႁ
##ӭ
##⌨
##𐭲
##ಘ
##ࠚ
##𐰽
##🤝
##෍
##🎇
##৛
##Ḩ
##ጯ
##੥
##౏
##ዾ
##☊
##ઈ
##⯭
##࡚
##𐎱
##𐎼
##𐎭
##◎
##ࠋ
##େ
##🔵
##᭳
##㊜
##Ḛ
##𐰡
##ܴ
##ነ
##ሳ
##᭧
##ጭ
##๥
##ӄ
##⌡
##ཁ
##Ү
##቙
##🐷
##କ
##؏
##੘
##إ
##ڮ
##🧐
##᯴
##ఠ
##≪
##Ⴑ
##᳹
##ោ
##ਂ
##ࡉ
##ᒧ
##෨
##᳴
##㌸
##😺
##ᵗ
##⪍
##ಌ
##⋸
##ߊ
##⹕
##ࠌ
##💬
##ѯ
##ᚫ
##ູ
##⊭
##Ệ
##ટ
##ഢ
##଀
##ऻ
##𓂀
##੉
##⋿
##Ⳮ
##ኟ
##஢
##ߋ
##↴
##ྣ
##༜
##෥
##ဗ
##ࢩ
##ᰁ
##޻
##༖
##〲
##ྤ
##ఁ
##🍨
##ί
##ᵼ
##᪞
##ऩ
##ἵ
##ॐ
##ᦵ
##ݐ
##᧖
##ጅ
##🚁
##⪋
##🅞
##🅤
##🅜
##᫃
##ߓ
##఩
##ᖍ
##ऌ
##Ը
##⛇
##޸
##ඳ
##ጹ
##Ⴗ
##੹
##၅
##ⸯ
##೑
##⍬
##ඬ
##૆
##ℤ
##ᦴ
##ᯟ
##ۧ
##Ⲥ
##🦄
##ۃ
##ṏ
##ஸ
##௕
##⚫
##ᗵ
##🚣
##೜
##Ⴀ
##☬
##๤
##⍓
##Ჿ
##㉶
##ዄ
##𒀭
##⛱
##⑝
##⫉
##ౚ
##ࠃ
##ႄ
##ϖ
##ఢ
##⊦
##ఌ
##಴
##⋞
##޹
##◽
##ᒾ
##ୂ
##🇭
##߬
##ݡ
##ᏼ
##ဿ
##ࣹ
##㋘
##Ӿ
##೻
##∲
##ဦ
##ᢰ
##✺
##┉
##ᰉ
##๙
##ᗎ
##࢝
##ℋ
##హ
##಍
##ޜ
##᭏
##ુ
##સ
##્
##ે
##વ
##જ
##ڼ
##஬
##☮
##Ⴃ
##ᓳ
##ᶄ
##Ҧ
##⎯
##ቤ
##ㄊ
##ᦃ
##ો
##݃
##㊬
##ꞌ
##Ⴣ
##🍯
##⃭
##ⅷ
##㌢
##ݬ
##ᠮ
##ዸ
##ᗁ
##ᣗ
##Ủ
##ᠩ
##ഁ
##ཞ
##➷
##⿇
##🦋
##🔱
##߼
##ፄ
##ড়
##༗
##׷
##ݼ
##ቼ
##𒀫
##𒌓
##ᑫ
##ࣁ
##ഽ
##ኈ
##့
##ࢄ
##❚
##└
##┘
##Ⱅ
##ဃ
##౺
##✵
##჈
##ᘝ
##⛹
##ᣕ
##⍣
##⍵
##ࡇ
##➨
##હ
##⚚
##ഀ
##㋙
##ഌ
##Ὠ
##ᗞ
##🔀
##ఆ
##ࢅ
##ᯕ
##ⳛ
##බ
##஝
##઀
##࣓
##᧞
##௼
##຾
##௏
##ଊ
##ᣞ
##🏔
##Ќ
##︣
##㌰
##៏
##࿼
##⚛
##ᝇ
##ᾴ
##ᾢ
##Ặ
##Ẹ
##࠿
##ᰏ
##ᘿ
##ᕀ
##〴
##ግ
##ᐛ
##ᛨ
##🍾
##੫
##ኬ
##᧳
##஋
##⩾
##ᗩ
##⺒
##හ
##ߑ
##ᚨ
##ៜ
##ᛔ
##ॎ
##ଜ
##🏘
##⎀
##༿
##ጟ
##㊦
##༤
##Ꮳ
##ᔦ
##ྖ
##ఇ
##ೝ
##ẅ
##ၞ
##ၤ
##ۛ
##✭
##Ꮽ
##੔
##ؖ
##ᣅ
##ᯥ
##ଅ
##᮶
##ॆ
##ᒗ
##ਫ
##🚧
##᠋
##ᠭ
##ᠤ
##உ
##Ḏ
##∸
##౭
##ᙈ
##आ
##᮴
##୻
##ㄒ
##Ѭ
##୸
##🥚
##🍏
##୿
##ᔀ
##ܭ
##ṵ
##໨
##➪
##ઽ
##ൻ
##ॅ
##᜖
##ۋ
##ྞ
##௤
##ᐾ
##🐭
##ᓸ
##ޙ
##ឮ
##ઊ
##ٛ
##ዯ
##𒁺
##⊴
##᭮
##၃
##ኔ
##ᜃ
##💢
##ݧ
##᛿
##ဍ
##ዮ
##ᘥ
##஠
##ఝ
##Ḣ
##Ⓙ
##঻
##๗
##ෳ
##਻
##⟓
##ᷗ
##𐰓
##቏
##Ꭺ
##Ꮪ
##Ꮜ
##Ⓧ
##ᒩ
##🧜
##≳
##֠
##ࠁ
##🩵
##ဢ
##౅
##🐽
##ぷ
##🐇
##௻
##ᔨ
##ᓐ
##࢘
##📋
##ބ
##ࣈ
##ᔱ
##ᛚ
##Ꭹ
##ോ
##🗽
##🗼
##🎠
##🗻
##🌄
##ὄ
##ਪ
##🏈
##᯺
##Ѧ
##ᛋ
##⌷
##Ⴐ
##Ⴈ
##┌
##ⳤ
##ἧ
##ԯ
##Ꮫ
##᎑
##ᡭ
##ₓ
##ऽ
##ฃ
##ᓁ
##୍
##Ꮰ
##⑫
##໮
##᥁
##ૅ
##✷
##◼
##ؒ
##ℌ
##߁
##௦
##ሻ
##྘
##𒁀
##ᔺ
##ᕖ
##ܹ
##খ
##ᒪ
##ᓂ
##எ
##ḓ
##⤦
##ᯒ
##▭
##Ӑ
##ⲟ
##ӂ
##ྚ
##ヂ
##ࠄ
##ዝ
##ᚻ
##ॷ
##ឹ
##ᚣ
##ᱹ
##ׯ
##ሰ
##ባ
##ቚ
##ݯ
##ೀ
##ॕ
##ኋ
##🚙
##🏕
##ౄ
##𐰏
##♮
##ฬ
##੓
##ྫྷ
##⥿
##ዌ
##𒋢
##╄
##Ⓞ
##ﺐ
##ﻋ
##ᘚ
##ᮯ
##ਸ਼
##ᝊ
##ሁ
##ᴮ
##≬
##ᶞ
##ࡣ
##ỹ
##ᚽ
##ᛊ
##ẵ
##🐥
##ݍ
##૙
##Խ
##⤲
##۟
##໚
##ኳ
##ወ
##໭
##Ꮵ
##௹
##๐
##औ
##ٽ
##ሊ
##Ꮴ
##ԙ
##൩
##ၫ
##⎃
##݇
##ࠕ
##㋕
##᧩
##᧪
##ៗ
##ጘ
##ᵵ
##ۖ
##Ტ
##🔌
##≵
##㉼
##➵
##ݢ
##ݣ
##࡝
##๧
##Ӣ
##੒
##෯
##ࡒ
##ᶠ
##ቱ
##ॱ
##ࡋ
##🔁
##ඒ
##⪹
##ᕁ
##ࠊ
##🏌
##ၓ
##␦
##⋰
##ᐶ
##🦱
##👭
##⎓
##㌟
##݉
##ᶟ
##𐏁
##𐏂
##⍙
##ᯉ
##ᚌ
##🧠
##ࢇ
##஌
##Ὼ
##৽
##ఓ
##࿲
##ቌ
##Ὅ
##ﬞ
##ⳬ
##📎
##ປ
##ທ
##￧
##࿸
##ཨ
##𐱄
##𐰍
##Ꮒ
##ൽ
##ڻ
##๪
##᧷
##㋂
##┹
##┑
##ဩ
##ࠩ
##ヲ
##ぶ
##ӯ
##ࠪ
##ᔂ
##౴
##✩
##ഘ
##ᕉ
##⫸
##ࣺ
##ಶ
##ἳ
##ର
##Ẁ
##ᣟ
##ເ
##ꟷ
##Ҍ
##ၷ
##ᛓ
##ᔧ
##ᾩ
##ଌ
##ݳ
##ῲ
##Ⴒ
##ᜐ
##ᯇ
##ᕞ
##ቃ
##۬
##🤠
##ഐ
##🏛
##ᓝ
##ୈ
##╈
##࣎
##🤿
##῔
##ቭ
##ࣽ
##ᛴ
##ᰍ
##ᛣ
##⿿
##᭨
##֬
##ᗍ
##๾
##⌛
##ᴡ
##ಈ
##᧛
##🏁
##𒄠
##𒈬
##𒁉
##᫘
##๷
##ຜ
##ṿ
##ᴎ
##ᬇ
##ⓗ
##ᙇ
##ᰌ
##࣯
##Ḧ
##እ
##᭲
##ᶅ
##ఱ
##ᒶ
##👯
##Ợ
##ؘ
##ᾆ
##ؕ
##ପ
##ڪ
##ᕲ
##ᖌ
##ᐠ
##፹
##፬
##፭
##𒊒
##𒄿
##ᢨ
##┨
##ḅ
##⊅
##༯
##⊻
##ኙ
##ṙ
##኉
##ᕟ
##ᔉ
##዆
##ቫ
##ኤ
##🇶
##ޯ
##ᗣ
##ঈ
##💇
##ᓅ
##࿣
##Ⳍ
##ⳡ
##⇨
##⏎
##ঔ
##䷺
##ၣ
##⇧
##ௐ
##އ
##௮
##Რ
##⬛
##য়
##🩸
##ぽ
##ঀ
##֒
##৵
##⎜
##ふ
##॒
##ঋ
##ࢾ
##ᦍ
##☐
##⃮
##᢯
##᫖
##⅄
##ࢹ
##଑
##࣡
##ँ
##ἒ
##ᛯ
##ṥ
##ၹ
##ߵ
##ᰦ
##኷
##🔆
##❀
##૒
##ଥ
##≍
##Ꮄ
##ེ
##ᘁ
##஼
##᠟
##཮
##຅
##ᯰ
##ၪ
##๰
##🌋
##၈
##෬
##ᰤ
##థ
##፫
##ᑀ
##🎺
##֭
##ࠓ
##㋪
##ٖ
##⋁
##થ
##࠙
##🌃
##ᯖ
##០
##ៀ
##🍿
##੕
##🌠
##܎
##ᡏ
##ਲ
##㉪
##🐤
##Ὤ
##Ꮿ
##ౌ
##ආ
##ⲙ
##ⲁ
##๸
##ۉ
##📑
##໼
##౸
##౉
##∽
##🏤
##🏯
##⳩
##ጾ
##ࢯ
##ᢺ
##ⳓ
##ຊ
##ὃ
##ൖ
##Ἅ
##ጮ
##📮
##૸
##ᛩ
##ᗴ
##ẏ
##🇻
##㋮
##⎦
##⎧
##ڎ
##𒁕
##ፈ
##♉
##🌒
##ᔑ
##Ꮐ
##🔮
##௧
##↧
##མ
##᏿
##ཽ
##⌚
##ᑺ
##ᖧ
##⎌
##੪
##ഺ
##᪖
##ᔊ
##ሕ
##ⓡ
##൬
##઄
##ⳏ
##૷
##⍌
##ఘ
##∝
##Ⳬ
##य़
##ޚ
##᧜
##ⓕ
##ࣄ
##≌
##ା
##ᒱ
##ጴ
##౯
##༵
##ᯯ
##߉
##🦔
##༠
##ԛ
##Ꮶ
##૪
##ᒷ
##੟
##ᪿ
##ఊ
##🗮
##ਙ
##∷
##㊩
##ⓛ
##ᨼ
##♝
##౒
##៍
##᫐
##ሹ
##ᬀ
##ᖇ
##┟
##⋗
##ං
##ढ
##ಜ
##໋
##Ⴂ
##🗨
##ܑ
##⫔
##ਘ
##Ᏻ
##ᦐ
##ѻ
##🐼
##ٜ
##ೖ
##ಓ
##⓷
##ᚳ
##ၒ
##┐
##✫
##೦
##ฏ
##ᾋ
##Ⴤ
##ః
##൫
##ၛ
##ୠ
##ݔ
##Ӊ
##࿭
##🔲
##ݟ
##ଣ
##ṳ
##೮
##ଇ
##ᰖ
##ቾ
##⑥
##✡
##ᛐ
##᷺
##ౢ
##ॸ
##௪
##⛅
##ܞ
##ᠲ
##ਭ
##ᐒ
##ࣙ
##ౠ
##ྈ
##≚
##🌭
##㊔
##㉭
##᳊
##ஶ
##🌖
##🌓
##≋
##⇘
##Ộ
##ᡁ
##ᶖ
##ᚩ
##ဴ
##⃺
##ಒ
##༧
##ࣆ
##⍹
##ႂ
##ౡ
##Ꮔ
##📙
##📅
##ⳮ
##👬
##ྴ
##㋔
##ᡎ
##੾
##➋
##࢞
##🇽
##ῧ
##॑
##⎚
##ᤞ
##ᎆ
##ᓙ
##꙰
##𐤉
##𐤕
##𐤃
##𐤅
##Ꭿ
##ᝅ
##ᕥ
##៣
##ᚸ
##ᒼ
##⊧
##਒
##ྂ
##Ⴕ
##⋦
##㊀
##ዱ
##⋍
##ߝ
##൨
##پ
##᯹
##🤚
##Ạ
##ࢦ
##ਯ
##ᝑ
##🪐
##ࠅ
##ﺠ
##ᨡ
##🏮
##ੈ
##ᖃ
##ᑑ
##ˣ
##ﺜ
##໷
##ݩ
##ຝ
##♎
##࣒
##ᾛ
##Ӵ
##ᔰ
##⤛
##ٚ
##ᔐ
##♌
##᧺
##ᮽ
##ຂ
##Ꮂ
##ᶀ
##Ἧ
##🎹
##㋓
##ἐ
##♧
##అ
##႓
##ᘱ
##ፁ
##ᶉ
##Ⓩ
##♈
##꓊
##ᦒ
##໎
##⌱
##⑍
##⑎
##ṩ
##ᕡ
##क़
##؎
##ᘫ
##᎖
##ࠡ
##ࣰ
##Ṹ
##ᠪ
##ᠴ
##ᾓ
##ྩ
##ᯔ
##ṷ
##ᱛ
##෱
##ᣙ
##🧢
##᱅
##ᗏ
##᧘
##ࢡ
##᭵
##ኚ
##ೕ
##࿽
##ᝮ
##ጧ
##ቸ
##ᔽ
##ᕎ
##ࡿ
##അ
##↲
##ᛝ
##ᯱ
##🍶
##ࢤ
##Ἱ
##⃙
##┦
##ᣆ
##ᔖ
##᭘
##ㄘ
##⑳
##ਈ
##𒆳
##ᘜ
##ᶊ
##ॠ
##ᘾ
##┅
##ᛒ
##ᘻ
##ީ
##ዊ
##ᶷ
##⃪
##ᥛ
##ज़
##ې
##⌜
##഼
##🔶
##💾
##๭
##៩
##╬
##ᛗ
##╂
##ẛ
##ះ
##ី
##ថ
##Ả
##Ằ
##ភ
##ៈ
##⃢
##᫏
##੠
##૛
##↝
##⊄
##💳
##🏧
##⏲
##🚎
##🚖
##🚋
##🚃
##🚆
##🚉
##🚇
##🚡
##🚠
##⛴
##ᓤ
##☾
##ᒳ
##ঊ
##ᵛ
##ས
##ྟ
##ᣦ
##᧯
##ၯ
##🦳
##📯
##ᣖ
##ࣾ
##✝
##഑
##ᖽ
##ᐧ
##ᖿ
##≾
##࢔
##ࠨ
##⋎
##࢒
##≏
##ᑿ
##Ꮠ
##਌
##⭑
##ࣂ
##ൊ
##૵
##႑
##࣬
##🐮
##ૻ
##Ḁ
##Ṡ
##ᡐ
##🤡
##ઙ
##࿠
##ᚓ
##Ꭻ
##⫈
##ꓕ
##ސ
##༘
##⇛
##༬
##℈
##℉
##ﲔ
##ﺮ
##ﺸ
##≒
##ൗ
##ὗ
##ᔻ
##㊤
##␵
##ࣦ
##ࡢ
##ኑ
##ҷ
##↸
##ἠ
##ࠫ
##ᑭ
##ᑖ
##ℳ
##🏝
##㉨
##🚢
##ཛ
##੸
##┰
##ှ
##ፊ
##୮
##♻
##ശ
##஛
##⧌
##ぅ
##෕
##🩷
##Ⴄ
##Ⴇ
##Ⓣ
##Ꮋ
##⎴
##㊭
##ሷ
##ᛮ
##ᙵ
##Ṟ
##ᾭ
##Ꮘ
##ⓓ
##Ꮮ
##ᣢ
##𐊗
##𐊀
##Ɫ
##ᛲ
##׌
##࢑
##🟡
##𐊁
##𐊍
##𐊂
##𐊛
##ṱ
##ዘ
##࿢
##ᐐ
##ᣐ
##௃
##ᾑ
##ၠ
##ᢡ
##ቦ
##𒂗
##𒍪
##൷
##൸
##ᵬ
##ፙ
##🦁
##῵
##Ꮺ
##ᖠ
##ᢢ
##ᱪ
##𐤓
##𐤒
##ᳫ
##෮
##ᮾ
##ᭉ
##ᔔ
##Ɽ
##₭
##Ⱬ
##ᕅ
##ఄ
##೩
##ྐ
##ΰ
##ஊ
##🐝
##៉
##🚿
##પ
##🎟
##଍
##ⓖ
##🤛
##઺
##ḯ
##⊗
##ᕤ
##ۦ
##ᔄ
##ೡ
##ࣳ
##ⴷ
##෰
##ੴ
##๳
##Ⴚ
##ᖂ
##Ⲛ
##࣐
##ᠳ
##ᠡ
##࢓
##ᐖ
##🔅
##ཎ
##׫
##ṫ
##⧬
##ൃ
##᳏
##๜
##ᶃ
##౶
##𐰖
##ࣶ
##៥
##ޮ
##ᦄ
##॔
##∓
##៦
##ᶚ
##ᔁ
##⇦
##ែ
##⃄
##😸
##ݤ
##⏸
##ᠫ
##મ
##ኗ
##㌽
##ᯗ
##ᚷ
##ൾ
##૑
##⳨
##🥇
##ၮ
##޾
##୏
##Ⳕ
##ቺ
##᎛
##࿁
##෿
##૜
##ᘉ
##𒃾
##𒇻
##🅼
##ᓹ
##ఋ
##⩙
##😼
##ᰨ
##ߪ
##ᓲ
##ढ़
##૴
##ቢ
##Ṅ
##ࠢ
##⩏
##ᡞ
##ᡝ
##ᜣ
##𒄈
##ᷬ
##Ụ
##ℐ
##ᛞ
##📻
##ಛ
##ᰒ
##ᔠ
##ꜥ
##ቓ
##ঝ
##🚛
##ⅅ
##ሗ
##ࡤ
##ॏ
##ᢧ
##᧲
##Ⳣ
##᛾
##ᕆ
##ᰊ
##ᔸ
##ᷫ
##ᕍ
##ႈ
##🌛
##ଂ
##఼
##⎡
##⎢
##ஷ
##㊕
##ሯ
##࿱
##ኻ
##ኞ
##᷾
##൏
##╁
##📬
##඘
##🎰
##ᕨ
##੖
##ਠ
##♓
##ၿ
##ઉ
##ஓ
##㌱
##Ꮛ
##⿥
##՗
##🌇
##ᛤ
##଄
##঴
##ฆ
##⩡
##㋶
##᭬
##➼
##߶
##ᐳ
##𐦣
##𐦯
##🐰
##ၲ
##ଖ
##୆
##८
##ഇ
##಄
##ݪ
##ᯮ
##⏌
##Ậ
##▾
##ࢃ
##ॾ
##ਫ਼
##੍
##Ᾱ
##ஒ
##ྗ
##ਜ਼
##🌫
##᮵
##ࠏ
##🔇
##🔈
##🔉
##ኯ
##᭤
##᭸
##🐜
##📁
##ቻ
##஧
##᧬
##਑
##Ᾰ
##༥
##🛵
##∔
##ཌ
##ஹ
##➟
##ދ
##Ḿ
##⊨
##ᰟ
##௒
##೰
##ኌ
##⎄
##ᛙ
##ࣃ
##॓
##۠
##𒋼
##𒅎
##𒅍
##ໞ
##ᕃ
##ޱ
##Ѷ
##௭
##⌥
##ᛁ
##ᗢ
##ᛎ
##Ӱ
##ὀ
##ዠ
##঱
##΅
##᎟
##ॳ
##🧸
##ᐹ
##ᖏ
##ᒥ
##߂
##⃳
##੺
##౪
##ᰃ
##ࡐ
##∃
##ᶌ
##ㄅ
##⍒
##Ⳑ
##ᛃ
##᧮
##ၻ
##ࢆ
##᮷
##ૃ
##〷
##𒉋
##𒂵
##𒈩
##࿇
##𒈠
##ᙰ
##શ
##ꚙ
##Ấ
##𒌷
##𒈪
##𒋫
##𒉌
##𒀉
##ಎ
##≝
##᮲
##㌋
##੭
##ࣝ
##࿮
##ߞ
##ᓯ
##ᓃ
##ᑕ
##࢛
##ᡃ
##ᡅ
##ᚑ
##ฤ
##ਖ
##ੀ
##⠥
##㌧
##⎙
##ඨ
##ፂ
##ዻ
##ࣖ
##┞
##ᰕ
##෫
##⩯
##ဳ
##᠞
##ᎂ
##Ⴧ
##ຌ
##💮
##∄
##എ
##🏩
##🏨
##𒄑
##𒈨
##𒌋
##🎋
##ൈ
##ᰈ
##ଋ
##Ẳ
##Ꮕ
##Ꮟ
##⋺
##ᕢ
##ඣ
##ၝ
##໌
##ᚰ
##঩
##േ
##ᕓ
##⚾
##ℶ
##Ѥ
##฀
##এ
##੨
##૏
##𝅥
##𝅮
##Ḕ
##ḙ
##ቨ
##ॿ
##ྌ
##੗
##ຆ
##ᡀ
##ᰐ
##຦
##🎱
##ራ
##🥤
##ඵ
##௱
##ࢸ
##ᡤ
##ୱ
##ᾥ
##⊟
##၇
##℺
##ℹ
##⒀
##ṑ
##Ⴢ
##༣
##੊
##᜞
##︠
##︡
##຃
##޳
##ဣ
##ጽ
##ઘ
##▂
##ົ
##ໃ
##ະ
##◗
##࿛
##㌭
##ઌ
##఻
##಺
##ᢣ
##la
##er
##in
##an
##ın
##ir
##en
##ar
##il
##lar
##ma
##ek
##el
##ak
##le
##da
##de
##un
##ler
##lı
ve
##or
##iz
bir
##iy
##et
##es
##ik
##ır
##at
##on
##lan
##im
##ur
##ay
##as
##ün
##al
##em
ya
##is
ol
##ul
de
##iş
##ür
##am
##ız
##ların
##di
##ey
##dı
##it
da
##den
##aş
##dan
iç
##ya
##li
##ları
ka
##um
gö
##ıl
##bil
##ım
##st
##ini
##ık
##ağ
##ış
##ok
##inde
##ında
##ine
##du
ar
##ta
yap
bu
##az
##ol
##ec
##mak
##dir
##ah
için
##ük
##mas
##yor
##dır
##iler
##ti
##te
##üm
##eler
##leri
##üz
ile
##esi
##inin
##tı
##iyor
##ev
##ını
##mek
gör
##ab
##lık
##me
baş
##cak
et
##iniz
al
##şt
an
##af
##uz
ger
##ği
kar
##larak
##lik
##ına
##oğ
##eç
##bilir
ön
##ğı
gel
son
ver
in
##cı
##ut
##ön
bil
olarak
##len
##ce
##uk
iş
oldu
ed
en
##alı
il
Bu
##us
##ib
##ip
##ması
kon
##iye
değ
##ıs
##ha
##ra
ay
tar
##man
##ından
##se
##unu
##üş
olan
##ro
##lay
##tır
##mış
yer
##ca
##tir
##ullan
##ez
çok
##uş
kullan
ne
##lama
##ül
##laş
##ibi
daha
##tan
##anı
##ap
bul
##miş
sür
##ed
##ının
##av
or
##op
kad
aç
##imiz
olduğ
##zer
gün
her
##ası
uy
##ark
##üy
ist
kur
##inden
##lem
gibi
##lu
##ılı
##yon
##aki
##eki
##öy
##eni
##ih
##ecek
##om
##ki
ken
çık
##eş
var
bel
##ör
##aman
##ili
çalı
##ka
geç
yıl
##ürk
##san
gerek
##yla
yaş
##eğ
sağ
##ret
##eye
20
##isi
çalış
yar
##ic
öz
##aya
üzer
on
##ad
##ınız
kal
ek
##sa
##unda
##ken
##ilen
Türk
##eli
##ist
zaman
##lara
##lerin
##ru
##larını
##ıyor
##ama
dur
##iyle
ola
##os
kadar
yön
ko
##şı
##lü
##ilm
bulun
##daki
##eb
##met
olma
##öz
##üt
düş
##diğ
tek
doğ
sor
##asında
An
sah
##let
##unun
##gi
yan
##men
par
say
##id
##dığ
şek
kay
##siniz
##makta
##gu
gü
##ede
##iyet
büy
##aç
taraf
##uy
##eh
##çek
##larda
##ılan
##eri
##ade
##arak
pro
dev
yaz
ak
dön
kap
top
##dığı
##mekte
alan
veya
##ley
el
##ac
##uşt
##öl
sonra
ise
##ren
##ep
##if
##cu
##arı
##ot
##iç
belir
kat
##maya
##erek
##ers
##deki
##lerini
##bilirsiniz
uz
özel
Bir
kiş
oy
##sel
##ğer
##dım
hay
den
##maktadır
##ans
yeni
hak
yüz
ama
##anın
##lam
##diği
##tr
karşı
mü
yak
##iyat
##imi
iy
ev
##ten
gen
gerçek
##esinde
bo
##ada
##mektedir
kend
büyük
önem
##una
şekil
##ımız
öğ
hal
##elik
##ster
##larının
##rün
değil
yük
##öyle
##izmet
siz
##lat
insan
Baş
##ci
bak
durum
##ter
fark
göre
yol
tak
##ştir
bağ
hem
##kin
##mız
düz
##lere
##enin
neden
##lk
##est
edil
##mesi
##eleri
##larına
tarafından
do
şey
##dür
şekilde
açık
göster
##sı
hizmet
ilg
ort
##ağı
ilk
##lığı
##ef
##rı
olduğu
ben
##may
böl
sev
tüm
##lığ
ürün
##emiz
har
iyi
##leştir
##00
##art
##leş
gir
sahip
alı
##uştur
seç
##re
##üs
##eceğ
değiş
##larında
##aret
##ğu
##od
alt
biz
##kan
ser
##oc
##ram
##ven
##bul
##uyor
##ça
##ıla
##bir
sat
di
kaz
has
##ıcı
uygu
der
göz
yet
##ara
Ay
es
düşün
##siz
##etir
sır
##nı
bilg
##iv
##ran
##dü
##dur
##eyi
##atır
ih
geliş
##ileri
içer
getir
##ısı
19
##dık
önemli
Türkiye
ad
dün
ok
çek
##azla
##ıp
##aat
iz
eğ
ter
##dik
san
ki
Al
##ece
aş
##tık
##olo
##istem
##tik
##si
##ale
##liğ
tarih
##lardan
az
fazla
yok
kor
işlem
as
##liği
değer
##unuz
ot
##lerde
söz
olduğunu
ede
tut
duy
##esine
##ile
##acak
su
yay
##lerinin
##erk
kıs
##asyon
taş
##likle
er
ağ
201
İn
etk
öğren
önce
##tiğ
devam
##up
##tar
mil
arasında
##raf
##esini
ilgili
içinde
birlik
##usu
##uh
zor
üret
başla
##sek
##oloj
farklı
Ar
##gun
##sız
##han
##lerine
hayat
iki
sistem
hiç
##lendir
diğer
çalışma
dış
sonu
##ocuk
ülk
##iyas
##ındaki
tes
##aber
##ayı
öl
haz
doğru
##asıl
kazan
bin
düzen
##üyor
##azı
##itim
##ket
##larla
##ünde
tem
##meye
aynı
##ekt
fiyat
##ımı
alın
##kanı
##ilik
##der
hakk
birlikte
##abil
olur
at
##esin
Er
konu
güven
bek
te
##erkez
##maz
##cel
##daş
##tığı
dik
##siy
sit
##emek
görün
kö
##yan
##ika
tür
##eyen
dönem
##larımız
##ilerin
bas
yapıl
gelen
##ulu
##adece
hazır
olmak
##yal
ulaş
İst
eş
Bel
diye
sun
##çe
##üne
##cağ
olacak
tan
##oz
is
##kü
kendi
ada
##ayan
oyun
##ünü
üst
tekn
yönet
##ala
##mıştır
im
boy
##eniz
##ide
saat
##ig
Öz
##lerinde
##eket
bur
##lanan
İş
##asar
ediyor
##tür
##üzel
##por
iliş
##masını
En
tama
mod
##tığ
##eme
yüksek
ör
kan
##kat
##layan
##masına
Kur
##ütün
##tü
çıkar
##ebilir
sık
##uv
un
yapılan
##isinde
##ehir
uygun
nasıl
ara
mes
##dığını
##larından
çocuk
belirt
##laya
bölg
##leme
10
oluştur
##luk
##ebil
##rup
eden
haf
hız
##tiy
if
##malı
mal
yatır
Gen
##inizi
fir
olması
##estek
kim
##üp
##irket
etti
sadece
##ılır
güç
##esinin
##gram
yardım
olduk
##miştir
##gün
ik
##dem
genel
söy
ban
çev
##işim
##muş
Bak
Ak
##lerden
##sal
##ub
##lak
tab
##sun
##usunda
##rıca
Kar
başka
##ahat
sen
##for
##ilmesi
karar
biri
tel
dikkat
hav
kit
destek
sal
nin
para
güzel
##üç
##ici
mak
##lük
art
hareket
kolay
##ştır
sav
Mü
##anbul
kam
##van
bulunan
##dar
##mez
##manın
ihtiy
hasta
önc
eder
görev
dav
##bet
##lerle
uzun
gön
bun
dedi
oluş
sı
bile
mut
eğitim
##ne
##çok
kr
##üc
Son
##abilir
kayn
gerçekleştir
##kı
##mayı
##osyal
İstanbul
##ektör
Her
##lah
##ırak
Av
ortaya
anlam
sorun
##lerinden
##tern
##uma
##siyon
##min
##eden
üzerinde
##det
çöz
tam
##og
##mal
üzere
tasar
##ilir
##manız
##elerin
##larınız
pay
hes
hat
bit
##oy
##aba
söyle
##olu
##ing
202
yatırım
##duğu
gid
bazı
ala
##lum
kurul
##ümüz
##ğü
##cret
yür
bırak
##ov
nok
çeş
##sam
Ancak
Or
git
##yı
Pro
kaç
hakkında
##ildi
##rak
şirket
##lerimiz
##enk
üzerine
seb
##diğini
##ıt
fa
##ünkü
İs
proj
film
##gel
bütün
On
geçir
##lus
##atı
##aştır
##onom
ın
kadın
##lamak
orta
##gan
##iyoruz
##hur
konuş
arka
terc
met
##sik
Gün
Kon
##umuz
Ben
kabul
birçok
##bar
##niv
düny
##lıyor
##tem
##nivers
mev
##landır
##iyorum
etmek
Başkanı
##üçük
merkez
##indeki
##niversit
##ılması
sonr
Bur
##rar
##akat
yılında
##ob
##çi
ancak
üç
çeşit
his
##mı
bilin
taşı
##lantı
##dim
##abilirsiniz
##ri
Beled
##mi
##orum
##lenen
##suz
ücret
##efon
mad
bilgi
##sanız
plan
##isini
##atan
##ver
##gil
##kün
dil
Bil
karş
##vur
mi
tercih
15
##laştır
##gı
müşt
kes
##dından
uygulama
başar
firma
böyle
##eceği
##fa
içerisinde
##umhur
olabilir
yaklaş
gönder
yayın
Ama
##ore
yas
dünya
kalit
araç
yüzde
program
kom
bah
can
##ge
##meler
##tif
bölüm
tah
yanı
haber
süre
oyn
##acağ
##duğ
dok
İl
kır
üy
rahat
##asına
Ev
##madan
ifade
konusunda
din
iste
##trol
sağlık
sıra
##elim
##tal
AB
edilen
yaşam
man
yakın
pol
paylaş
##ıda
##azar
geliştir
##diğiniz
yerine
piyas
kişi
Genel
##ira
##edef
dah
kurum
kı
##isine
etm
zamanda
##ıldı
Ek
##undan
tamam
dem
vardır
##ize
telefon
kısa
##cek
##sin
ayr
##ladı
kız
sosyal
koy
Ne
##dav
muh
kapsam
##ınır
##gin
hiçbir
##üşt
##del
sonuç
toplum
bey
Dün
han
müm
kav
##ültür
gelir
nın
res
Cumhur
görüş
##ternet
12
##hangi
##unca
ses
As
bağlı
##mer
model
hep
##urt
San
200
üzerinden
##ılmış
oldukça
##çı
diz
Ayrıca
mümkün
##uluk
##he
##res
##oğun
Tek
##uştu
##ilere
##ılacak
pek
milyon
Bunun
##icaret
tale
##tu
##leyen
##oğu
kontrol
araştır
küçük
ardından
zar
El
##eg
mı
ziy
olay
yarat
tanı
dolay
##ünün
kaynak
##eti
Biz
##cü
sektör
hedef
teş
##sınız
##las
mas
##aha
##larıyla
ekonom
mu
başvur
##enek
incel
##ıntı
##oğraf
değerlendir
mey
##baş
##gın
##erli
fır
Mil
mark
geri
##tur
mah
iti
##meden
##imdi
##end
##istan
artık
##nek
altında
hafta
gereken
yapan
Büy
temel
hemen
ilet
##iyordu
Ara
elde
##isinin
Kan
mer
öğrenc
herhangi
teknoloj
##ilmiş
##oğlu
yöntem
##bol
kez
yaşan
size
Özel
per
##ost
satış
oran
Avrup
##obil
##oş
yen
##ök
dan
onun
##arası
çalışan
##mel
##ektr
##per
özellik
kol
tav
##lim
##tiği
sınır
yağ
yapmak
##aj
##uyu
##ecektir
em
##ban
TL
##unuyor
##mıştı
Dev
##asını
tük
ilişk
şu
##iyi
##cadel
##tım
gerekir
##rim
koş
açıklama
temiz
tedav
hızlı
takip
30
deney
##taj
##alan
##eğin
##kinci
dir
olup
biç
##umlu
vur
##tin
##ayda
bor
Büyük
##dum
Yap
##ikay
yüksel
anlaş
uç
ait
##sunuz
ber
##aln
##asının
arkadaş
uzak
Bakan
##dak
geniş
##imde
##masının
Başkan
##ate
for
çözüm
öğret
18
Par
bar
##erj
mik
değildir
geçen
##aliyet
##alnız
yaptığı
renk
##fes
öde
yine
ziyaret
##tiğini
kaldır
sanat
genç
nedeniyle
ABD
dak
Ser
##mem
hük
devlet
bunu
##isyon
yaşa
isim
##meniz
tur
birbir
##orex
##etim
ihtiyaç
yardımcı
yorum
yeniden
konusu
hesap
tat
##lo
kullanıcı
özellikle
##ari
maç
Es
kil
indir
anla
##ba
serv
sak
Ön
onu
günü
##eceğini
Müdür
##ılım
##lemek
##ekli
eski
ila
görül
##rat
##ebilirsiniz
ma
değiştir
benim
savaş
diy
##cağı
sürec
değişik
id
mem
Yeni
Daha
ağır
##ye
sayesinde
etkin
herk
yapı
com
soru
Yıl
##tiv
##ilerini
itibar
siyas
##ışma
alış
mücadel
kesin
##inize
tekrar
Tar
##ince
##sil
##abı
Üniversit
##isk
##leriyle
vatan
##diğimiz
##ime
dep
11
olmayan
##cut
sab
ye
müz
bunun
gaz
100
uğ
nokta
engel
##elerini
biraz
##kın
ün
ölç
veren
##kek
##ola
fayda
##AR
##otoğraf
##ali
Yar
faaliyet
##elere
##ent
kitap
##ihaz
##yle
##üb
sey
##alt
almak
##esinden
##asındaki
gerekli
Eğer
yönelik
##lardır
##lanır
inan
cev
ner
internet
##dın
##meyi
##elen
çağ
##pan
çiz
uzman
##duk
olabil
müşter
Yan
ortam
bugün
oluyor
##ınıf
##AN
##alar
boyunca
##ch
kültür
##aliz
ekip
##isel
İz
Has
dayan
çeşitli
##düğ
bakım
başladı
##elerde
oda
##ust
Yön
çıkan
##ER
##ünden
amaç
adım
Çünkü
At
Merkez
nedenle
##landı
bildir
ticaret
dahil
##ant
boz
##dığınız
Top
Mah
zarar
amacı
dair
sürdür
durumda
##tor
yat
##lında
İngil
med
##ve
rek
##ısından
hale
hava
##ulan
##imizin
benzer
Eğ
##lanması
##bi
olsa
##to
##kaç
geldi
Hal
##laması
##lüğ
sar
##mir
yani
İç
ele
otur
beraber
##maları
gerçekleş
yalnız
kullanıl
Ban
##umu
mevcut
seviy
Ank
##iğ
takım
kut
rağ
öner
##arken
yarar
Ve
##ilerine
boş
##mişti
şekl
Avrupa
det
aracı
##üsü
Hay
mek
dol
talep
anlat
aşağı
ulus
##menin
##dana
##imize
des
##ukuk
dışında
olsun
ortak
teknik
ilç
dönüş
##imizi
##rans
##iliğ
##ğa
kah
##of
hüküm
ilişkin
elektr
##ülen
cez
kas
vak
Rus
##mesini
bizim
##muştur
##ku
##ıyoruz
seçim
14
adam
sok
##ısında
Der
##ift
Dr
Uz
rağmen
olacaktır
çevr
karış
üretim
fotoğraf
halinde
##yacak
25
malz
##na
##lıkla
##fer
##lanmış
İlk
Doğ
Bey
##ılıyor
##ayın
bilim
doğal
yoğun
Dünya
str
sebep
satın
##sın
##matik
Ko
##set
##esiyle
##ber
gez
şehir
##ort
burada
##lararası
sınıf
Türkiy
süreç
teh
enerj
saç
okul
24
##nin
##dığımız
dolayı
fik
##eceğiniz
##mey
edin
ayak
suç
adı
özg
Mar
ta
isteyen
ikinci
kullanım
##fet
##luluk
tık
##ışı
##masında
yolu
spor
vatandaş
##din
söyledi
Belediy
##ört
##ula
##latfor
cihaz
##go
pazar
beklen
Amer
parça
##mesine
anda
tasarım
ask
##oh
iletişim
ail
Sağ
yemek
kapsamında
ayrı
##teş
##mat
Do
çar
türlü
##tim
web
##cağını
veril
işlet
##malıdır
16
##üf
dakika
şart
Gaz
##doğ
##üler
nit
sizin
grup
ister
##iştir
##inc
##eği
Gel
##pit
##dül
organ
##latform
tüket
##ela
cin
Ör
##mayan
##amaz
madde
##ırı
##şık
Os
Böyle
Bun
##uvar
Di
##üğ
##lek
bize
##ere
iddi
birkaç
Oy
##emin
##ocu
polit
artır
sahibi
yaklaşık
##redi
##sat
13
hangi
##edi
##br
Alman
Böl
##üme
şeh
ders
erkek
Tüm
##lış
açısından
##üle
##iyeti
gider
detay
istem
##esel
of
kullanılan
araştırma
##lığın
##dıkları
##tör
sin
saldır
av
##acı
##isay
##bilecek
Kom
##ekk
davran
##ilerinin
##layarak
yönetim
sıcak
tep
##ınızı
imz
Siz
ona
yık
bana
##meyen
sürekli
Tur
##atif
##ital
alıyor
##aten
##lüğü
yanında
Hak
kab
Ter
##dığında
##apor
inş
karşılaş
yazı
ana
İnsan
örg
kuruluş
##co
kişinin
Kay
##elidir
sağlaya
Forex
aldı
ederek
##ipar
ip
risk
halk
kayıt
Fakat
##lilik
tamamen
##elerinin
vardı
güçlü
gelecek
çünkü
##ısıyla
etkil
mekan
##aları
Eğitim
ettiği
istiyor
##uan
unut
seçenek
##deş
##lül
17
sırasında
mağ
##ınıza
edecek
arasındaki
##ern
##sak
##ılabilir
tespit
Belediye
##izm
Tem
kalan
kötü
##yar
cid
Kas
zorunda
##efer
##ipariş
Kal
50
net
alır
birey
hey
koşul
##lardı
rak
hizmeti
num
##amız
doğr
işaret
hatır
##lıdır
##ukarı
##tiğimiz
Kad
yetk
belli
adet
##yanın
##yada
##inizin
servis
verilen
nak
lis
##lanma
##ite
##meleri
giy
kalı
güncel
tart
##lığını
teslim
köy
Dem
kayb
oku
baz
bilgiler
deneyim
örnek
düşük
tanım
oyuncu
kendini
belg
##isayar
haline
ayrıca
##luğ
Ankara
kişiler
tarihi
vide
yürüt
##inci
yüzden
dolar
temsil
Kor
Bay
izin
toplam
edilir
başarılı
Çok
nokt
Osman
##olojik
##ydı
sözleş
sistemi
yapılacak
derece
##amp
##müş
##vet
platform
sez
st
dö
hisse
ekonomik
pat
##iden
dal
Haz
##neğin
##ılma
##lamaya
##yo
edilm
Uy
fin
##şehir
sağlar
##şam
pan
görüntü
hukuk
##rub
Öğ
##otor
bes
Ah
##hale
adına
yaban
##ormal
akıl
canlı
don
başarı
hastalık
##liğini
kaybet
şeklinde
Hav
##osu
ruh
##atej
beb
##ınav
##iliği
##veriş
##onu
##sta
gerekiyor
Su
Ma
##rem
yav
AK
In
##ceğ
aktar
##ow
##iri
##tay
##ga
Devlet
giriş
geçmiş
toplantı
şimdi
günlük
Har
gar
##elikle
##nun
konuda
Erdoğ
itibaren
Gör
##muz
00
##üst
geliyor
Ey
##lin
Ada
yaptı
Özellikle
##elerine
##emizde
##ıyla
oluşan
yurt
si
tip
##lıklı
##ast
##lerce
banka
iler
ah
Söz
Üniversitesi
yum
Tekn
vermek
ey
##erson
sayf
##yum
öyle
list
demek
##etik
##düğü
##ayet
dile
##yonel
dar
##fen
men
##larınızı
verdi
mez
meydana
##ıyorum
herkes
##ınca
sebeb
##luğu
ölüm
##iydi
Ok
edi
##ilerek
Geç
yaptığ
çift
insanlar
##rafik
##lif
##üştür
çocu
bulunmaktadır
gazet
ac
##alle
##asından
karak
miktar
##fesyonel
##yi
Em
çıktı
##ucu
##engin
bula
##forman
Kap
##ii
bay
Aynı
cevap
kala
alma
##elerinde
##diğinde
kuş
sonunda
##blem
cam
ku
##su
##üncü
Sav
op
##oloji
##ünüz
dünyanın
araya
bağlantı
Hat
hayvan
hatta
##emez
##anlı
kaliteli
##onun
##laka
##HP
##diler
ekran
içeri
Cumhurbaş
amacıyla
##liyor
eser
##bak
Han
belirlen
katkı
ilan
sorum
giz
2020
##sine
kork
##onik
##lulu
sunu
sonucu
##line
İzmir
##dıktan
ciddi
##diğim
aday
##lamaz
dos
##caktır
ann
yerde
##cılık
gec
##rik
##gar
yaptır
##be
it
içerik
poz
##eliğ
hikay
##alık
##dek
düşünc
malzem
insanların
##dız
sağla
##izyon
konuştu
##yas
aslında
ücretsiz
test
bab
um
Sen
dört
##edik
Türkiyenin
##ekkür
düzey
ham
##adan
##etin
Bit
soğ
beni
nes
Meh
makin
##dikleri
eksik
deniz
kamu
am
sol
##imleri
sig
köp
verir
başvuru
etkili
yabancı
yapma
güvenlik
merak
problem
kart
isten
199
performan
etme
Yani
aldığı
Mer
kelim
sipariş
tarz
rapor
kişisel
##ıma
##utbol
nerede
Ger
hastan
yana
açı
dağı
diş
##lerdir
durumu
##can
##lığa
##larca
kapat
key
stratej
Ali
durumunda
Hem
analiz
2021
Tab
altına
stan
boyut
yeterli
varsa
tec
yazar
düşünüyor
bulunuyor
Alt
##mızı
yanlış
Çocuk
hala
bağım
##tep
dönemde
##lis
deste
yıllık
##ele
##imin
##ıza
Yaş
##ıldığı
##cılar
Ulus
##dük
##eksiyon
yandan
sonrası
##ıyordu
yere
##anıyor
##imli
Yük
başına
##izik
kir
İngiliz
bulunduğu
##sef
##lasyon
tarihinde
koru
yalnızca
##ni
000
rol
##lev
Aç
ilaç
derin
Ro
sahiptir
##AT
##asyonu
yansı
##ült
fakat
değişiklik
##miyor
##ümü
##ider
Türkiyede
video
##teki
##ısını
##ilendir
##ımıza
Ap
mesaj
yoktur
cil
bilgisayar
eşya
##masından
parç
zengin
verdiği
milyar
Ab
##irüs
mis
##tıyor
savun
çer
pak
edilmesi
ro
millet
gerekmektedir
kapı
##ET
Man
ora
Belediyesi
üniversit
##taş
örgüt
kural
##çev
##afa
##ser
##yıl
##uç
Ver
##fak
##eşil
emek
Yaz
##lım
kent
##iyon
olmaz
##one
##üven
beş
Bar
##üman
Mes
genellikle
##layın
form
gece
özgür
Tan
başlayan
uygulan
artış
ülke
##EN
beyaz
teşekkür
Tr
kredi
yapabil
21
##ke
Erdoğan
alışveriş
ödeme
##imler
ileri
Anad
Şub
##enüz
##dığım
##gen
Kr
##lenme
buna
tedavi
##lığına
##evi
gerçekten
sayıda
Sur
vaz
içine
alanında
sizi
ayır
yaşayan
arama
memnun
yapılır
sağlıklı
adres
profesyonel
##inç
##jital
kardeş
part
sayısı
olun
iade
puan
onay
motor
Ch
doktor
##ratik
Bugün
Deniz
fikir
Kullan
##ati
##seniz
sonuc
kısm
##arlar
person
mo
##kem
yaptık
oper
uğr
edildi
Kür
sizlere
alınan
Mehmet
sağlamak
sonrasında
40
hoş
##inizde
acı
Şimdi
ürünler
şid
Muh
##ediye
re
##üyle
yavaş
##ısına
##str
keş
çerçev
sağlayan
toprak
İşte
Ol
Af
Tak
şah
Orta
##ümüzde
##eder
hayal
marka
sınav
dost
ıs
##tey
fırsat
ted
##ind
Allah
duyur
beri
götür
normal
karakter
ürünleri
kurt
##vantaj
medya
Ad
##enc
kaf
şeyi
Milli
anlay
##ırken
##eyin
halde
kavram
dek
mutlaka
yukarı
##ılabil
Ürün
olmadığını
başında
##yen
başlan
olmaya
önünde
tesis
uyar
du
##ğın
taşıma
odak
##ag
istediğiniz
düzenlen
söyley
önceki
Burada
mobil
##lıklar
kür
öldür
silah
elektrik
alanda
esn
mücadele
müşteri
çat
uluslararası
başkan
min
resmi
derec
vurgu
oto
22
##lıkları
olmadığı
belki
imkan
ceza
Cumhuriyet
##alım
##manı
##ıştır
##yse
##adaki
Kır
##dart
nun
fak
yılı
zaten
##elerden
##yız
Kurulu
enerji
##ücu
Go
bulundu
biçimde
##ınızda
avantaj
arz
alım
duygu
diyor
##air
şeyler
##umsuz
basit
kullanarak
müzik
ödül
##AL
çevir
öğretmen
mutlu
yapıyor
güc
Amerik
şark
tehlik
Anadolu
hisset
görmek
##bah
Aş
##altı
çoğu
Kend
po
Kadın
pop
bizi
reklam
Değ
etkinlik
Ot
##uvvet
##rek
düzenlenen
##ilebilir
piyasa
##lerinizi
günde
değerli
##rüb
adlı
kok
yapılması
Spor
basın
Kasım
ayında
ab
##ücü
gerektiğini
##ener
Sam
##alış
na
çarp
polis
grub
Sit
##vek
eylem
konum
Örneğin
Mart
##ete
##50
##tığını
sunuyor
##hal
doldur
arada
Must
##edeki
##ij
izley
nde
aray
kalk
eg
##ayi
hafif
kendisine
##taki
ark
sıkıntı
sp
##ons
Yak
##ladığı
teklif
siyasi
##egor
girişim
akşam
Bor
belirli
Fran
Sağlık
Parti
##malar
gül
Et
##ılmaz
Bazı
Sosyal
##ud
ettik
##emi
yaparak
henüz
Büyükşehir
##anız
##ağa
##uar
##rac
Fir
Diğer
##ton
mar
onları
##istik
Yun
##geç
kanal
##aşı
ihtiyac
##lanıyor
müda
önemlidir
2018
##ES
Sev
##iir
##sen
post
yaşanan
sunul
##mayın
##mıyor
Genç
sezon
##üştü
kira
neler
##ult
İslam
##AD
Kı
##siye
23
ateş
##gör
kop
Kat
##etr
##larımızın
dam
altın
##ilecek
eğlen
##ana
oğ
Ağ
terör
##panya
bl
edebil
Ülk
##uzey
eleştir
içi
eğer
ölçü
dolu
##dikten
psik
##eci
Mustafa
##par
##IN
kendine
işç
şar
kul
##acağı
##emal
Kara
##abet
uc
##eyle
##bo
Millet
Ken
tecrüb
##ımızda
devr
Bakanlığı
Çin
öne
eğit
Böylece
##cısı
ayar
##lenmesi
azal
fon
kuru
asker
merkezi
İk
##imizde
Güven
etmiş
olumsuz
##ımda
##coin
ide
hüc
hesab
sem
ilgi
görüyor
ifad
katılım
##lığıyla
arttır
Bah
Pol
işlemi
2019
yapar
##gesi
ünlü
aile
yaygın
edebilirsiniz
##larım
sırada
fizik
##AK
##ımızı
şans
yanıt
##sul
rahatsız
önüne
##İN
Hizmet
##mür
gösteren
zorun
sürede
Çalış
Kız
alarak
etmektedir
korun
kategor
sefer
mük
##zet
##talya
##atur
Kam
CHP
##AS
tahmin
futbol
##muştu
izle
day
anlamına
##acaktır
Sar
şiddet
işi
##iran
olmuş
##lığının
May
başta
##sim
trans
işe
##ilmiştir
##say
nedir
şüp
davranış
##deniz
paket
finans
beğ
##orm
yerleş
üz
##iliyor
##sini
##atör
##larımızı
##layıcı
faiz
gerektir
Yardım
##asıyla
Eylül
sayılı
##duğunu
Yönet
##ras
tarif
güvenli
Bul
yerleştir
##fi
dışı
Sal
yor
##idi
Sür
enf
##ciler
Mec
kadro
kararı
sağlan
##medi
insanın
lira
onların
yazılı
kargo
toplumsal
##abilecek
müşteriler
yararlan
##gisi
iddia
gören
bal
##liğin
sonraki
Kiş
cep
alanı
lider
baskı
Bakanı
standart
##liğe
##rin
otel
Yüksek
Osmanlı
##ogle
##anlar
karşısında
Nasıl
takdir
ata
sayı
emin
ışık
fiyatları
güneş
ikti
Peki
anlamda
doğrudan
defa
##neği
##cil
fil
olursa
##esindeki
Bas
##kenin
##aza
##azım
##ısının
##ebilecek
##içek
##era
##liğinde
performans
##ütfen
idar
Cumhurbaşkanı
danış
##kadem
##tiler
politik
kalma
Bunu
beden
Tel
şaş
##emiş
##ulması
Buna
adr
çalışmaları
##tedir
vücu
opsiyon
personel
piş
Demir
bebek
Part
##orta
##iber
modern
dünyada
süt
##laşma
##lüyor
Kim
Şirket
sabah
yayım
soy
##EL
yüzyıl
##esiz
tutar
not
##adde
başlat
yazılım
kazandır
çocuğ
Bin
Mal
alına
##cının
alacak
##uzur
demok
##omobil
Kö
başlar
##bette
Proj
##evizyon
zam
kıy
##ia
##eceğiz
##eyn
##sur
##mar
bilgileri
Kit
##inal
tr
veriyor
##ılarak
##iyah
yaşama
aydın
Can
bilinen
##isan
olanak
pas
döneminde
duvar
öğrenciler
ısı
yeri
ren
##ülü
olmuştur
heyec
kişilerin
Mak
##ou
##leriniz
##maktan
tartış
##asa
konuşma
500
##hend
ediyoruz
Sonra
Rusya
döv
##ımızın
hayata
bağımsız
##urda
sek
##ediy
##aşa
##undaki
Üst
Yönetim
##ene
27
60
dışarı
dijital
yarış
Sat
yolc
##layıp
kims
sap
bat
imza
ortalama
güvenilir
lez
yerinde
198
tas
Temmuz
##ildiği
Web
gıda
madd
##ipto
##icari
Ocak
edeceğ
##enler
28
##lenir
sene
##elt
veri
özelliği
kesinlikle
nakl
2017
Ekim
eşit
vb
tavsiye
Film
##sas
##ayla
aylık
##dal
ettir
birik
arası
gide
altı
sert
saldırı
bakış
sonucunda
##liğine
##sizlik
yıllarda
Sadece
esas
kans
Aralık
düşür
vit
##ise
erken
belirten
eriş
geçerli
akıllı
##larındaki
kriz
kendisini
Prof
oranı
##lediği
kanı
yapmaya
davet
sayfa
nitelik
İyi
ortadan
##AM
sur
maliyet
Beş
Google
çap
##best
nedeni
borç
Res
##ücut
Tes
##elerinden
##isinden
##ündeki
##memiş
birisi
##lisi
taz
kayde
##atürk
##ikayet
St
bed
##ard
oyna
##elerle
meş
mon
Yine
aşı
##erin
dönüştür
bazen
aşırı
lim
kendisi
sil
tör
##mamız
etmeye
mesaf
Sor
uygula
pozisyon
##bay
##ternatif
Merkezi
yetiş
##emmel
gay
bol
yapacak
neredeyse
nüf
##leti
sorumlu
Ka
atı
Ahmet
Mark
Atatürk
büt
sitesi
taşın
kurtar
gol
##iyan
##erler
dök
ül
olmasına
Kıs
##EM
The
ihti
yatırımcı
Kültür
Kurul
##isiyle
üçüncü
online
vazgeç
sokak
olduğunuz
##ova
ekib
fiyatı
bunlar
huzur
Kemal
arac
##bur
##sinin
##meli
Br
se
ettiğ
##UR
yiy
Şu
kem
kilo
##anan
mec
yapacağ
##dro
yerel
Göz
ton
zih
sona
biçim
proje
Dur
operasyon
sine
##İR
aktif
Yüz
bundan
hayatını
yoksa
##tarı
bitir
bec
##biyat
şüph
##uğ
##ülebilir
popüler
çalışmalar
Çev
Mahalle
olmadan
içeren
##manızı
olumlu
etraf
Sistem
etkisi
kullanımı
Per
teknoloji
##dam
Sab
kuvvet
olduğuna
##cağız
Bağ
##ındır
anne
26
Cam
hakkı
##meliyat
hap
##niyet
##pr
tatil
kağı
diren
edilmiş
##ple
##muyor
##dıklarını
üzerindeki
##hat
Bank
Sanat
alıp
##iyatro
Müz
Tam
Müdürlüğü
yıldız
yapmış
yönetic
Oda
Ticaret
##gıç
politika
yem
hizmetleri
##ekim
##kar
ürünü
dahi
##tis
##alat
Açık
##ham
unsur
asla
the
##cisi
nda
beğen
fel
aşama
bunların
##iyer
İngilter
şöyle
düğ
Mayıs
##iği
işlemleri
##erseniz
##estiv
tren
süresi
##ayıf
2022
imkanı
önlem
orada
Haziran
soğuk
##ılmıştır
##lenmiş
değişim
yapım
Haber
##sinde
##leyici
çal
kış
tabi
Gö
çıkış
seçen
karıştır
duyg
Müdürü
düzenli
almış
##rika
hac
depo
açıklamada
dosya
Lig
seyahat
##dit
detaylı
2016
Bütün
Tarih
ters
sorunu
şiir
organiz
##leşme
##ina
##erken
gelenek
##mam
birden
kurtul
##ona
pla
Oyun
İki
##lardaki
Gir
Dış
keyif
##çiler
Gerçek
Hastan
##ısız
##ledi
##biliyor
kapas
edebilir
##anlık
öden
Araştır
süreci
##ivil
ic
##lanmıştır
günlerde
otomatik
inşa
yıldır
ir
Nisan
uçak
ediyorum
istiyorum
yola
temin
firmamız
rad
çab
şikayet
doğrult
hakim
belirtilen
köş
##hendis
geçiş
##isiniz
##üny
yı
##ilmektedir
##ğında
Türkçe
Say
olmalı
end
##masıyla
alternatif
bunları
##üstü
birim
olmaktadır
Uzun
##mur
##ED
Yunan
##uklu
buluş
otomobil
##ıklı
kullanılır
onlara
##ork
olduğundan
kaldı
##mayacak
##ıklık
##irken
lisans
işte
##ımın
Gül
söylem
##urken
yetiştir
##racat
##ampiyon
kimse
mim
Gök
##raman
yasal
aya
##ohbet
Dav
evde
Tay
çoğ
mükemmel
olmas
Yer
belirtti
Met
##lal
29
##usunu
çıkıyor
doğum
kullandı
ticari
##madı
##çak
Dan
##üper
##emey
##ılış
##lerimizi
yada
##EK
uyan
yürüy
##cilik
##ğan
##İL
##mesinin
##emizin
giden
##amı
sağlıyor
##düm
##err
roman
##irler
ayrıntı
##vekili
31
##tak
Dolay
Halk
##liliğ
Uluslararası
park
çeken
##yası
sermay
Seç
sahn
parçası
Fiyat
olduğumuz
##süz
Se
Benim
ödem
##ian
çoğun
şif
##yap
ülkenin
Frans
##retim
##ştık
##ınızın
numar
söylüyor
kod
Hiç
doğrultusunda
daki
zayıf
Eş
yerini
özen
##tion
kısmı
##liğinin
ekley
özellikleri
konut
##ğust
cilt
##ses
durumlarda
gelişim
Doğu
Taş
peş
ez
almaktadır
kapalı
etmesi
ince
kırmızı
benz
Sh
Hol
yasak
eve
askeri
yaparken
Bal
birinci
vücut
##alim
##tuk
##net
öt
##AY
yönlendir
##nak
tır
balık
çalışıyor
Ham
##ersiz
Müs
Yet
görsel
işlev
##larımıza
90
##lendi
Onun
yeşil
forex
Önc
müdahale
Program
##ata
serbest
ten
ulaşabilirsiniz
farkında
Bitcoin
İnternet
##ilim
kitab
yılda
yapabilirsiniz
Ber
dey
giderek
red
197
##are
kazanç
kalp
Re
toplu
Eski
##gr
Val
Terc
çiçek
olası
Birliği
Fat
##bilmek
ap
büny
Evet
gözlem
katıl
Şubat
##aka
getiren
yeter
olmasını
iptal
##uro
Sp
Kah
anlayış
##diklerini
Aydın
##ator
kolayca
##itik
##akar
Güney
Var
##usal
çay
öngör
Lis
##işleri
Kurum
tedbir
##mada
gördüğ
desteği
Yol
alabilirsiniz
yi
Sel
##sını
##lamış
TV
onlar
##bin
İh
becer
kuma
bahse
kişilik
lazım
hus
##ultan
bö
##OS
noktada
##dun
Başbak
bilinç
hızla
bilgilendir
##gaz
işbir
Mas
yılın
rast
Haf
ucuz
dağ
##cusu
aşk
Öğren
aracılığıyla
azalt
##iyorlar
oyunu
Bizim
##hi
isimli
##cağına
Fa
tuz
##encer
##emektedir
Küçük
Artık
Az
veriler
##LI
önceden
Samsun
istek
bulunma
35
suyu
Dön
Amerika
##emen
##eceğine
##gal
çaba
değeri
kripto
ihtiyacı
lezzet
cinsel
##son
göç
Mod
Düz
ölçüde
faktör
##ısır
##oyu
vitam
def
resim
hayır
prot
bulundur
düzenlem
##ink
gönül
vakit
##mediği
ağaç
ameliyat
bitk
kapasit
##ron
yapıldı
##sit
##zu
bulunur
##lasik
şarkı
sorumluluk
80
posta
Almanya
şiş
bi
uğraş
hassas
fatur
dolaş
Mur
içindeki
2015
Aslında
Kaz
Fransız
ins
yaşında
Te
sayede
aşağıdaki
siyah
otob
gündem
##gulama
##jans
yönetimi
Dolayısıyla
meslek
kullanmak
##ze
incelem
##teyiz
##biliriz
kum
##nam
çocuklar
##ulur
##uta
##ray
kök
görülen
televizyon
tez
sim
gücü
iktidar
Vak
Hatta
baba
ces
lütfen
kişiye
Fak
herkesin
##tansiy
##adi
karşılı
İran
##lüman
varlık
elektronik
binlerce
mat
sağlam
##lığında
Teknik
öncesi
Suriye
sunan
koruma
dizi
##duğumuz
##med
etkilen
küresel
ışı
asıl
##eceğim
Serv
##güne
harika
##tayız
Den
yasa
sıf
hükümet
edip
##va
üye
çeki
Alan
endiş
öğrenci
devrim
zorunlu
##liliği
70
fi
fab
##ğustos
yaşındaki
istiyorsanız
programı
##ros
yetkil
##İK
geçti
##ord
vad
alg
tehdit
##jen
##tıcı
zamanlarda
öy
##dat
Bunlar
kurumsal
HD
takdirde
del
uygulaması
söylen
Fener
Müşt
Hep
Sah
kapan
gem
Zaman
gösterir
atan
##ahim
durdur
##gili
görünüm
gelmiş
tit
felsef
biridir
tatlı
##ısıt
kus
##mos
##uc
##mamış
açıkladı
##OR
zev
kalın
saf
##anti
##abz
ef
Pazar
##luluğu
Bununla
Batı
##anak
Kol
Antalya
uyum
karşılık
civ
##layacak
##liler
##iciler
##avi
yarı
ilgilen
ima
Köy
hata
##eytin
rakam
kanıt
giren
tarım
##ation
Altın
dünyaya
belirterek
İngilizce
##landığı
hurda
senin
Yatır
çerçevesinde
istih
bağış
##ileştir
##luluğ
ni
sohbet
heyecan
almaya
potansiy
sanatçı
Bat
##ON
transfer
kıl
ikili
ürünlerin
milli
Üç
kulak
oldukları
##har
Üy
##rail
suy
insanları
##lacak
modelleri
Gazet
yüzey
ediliyor
yapılmış
ağrı
##ger
##iter
##anda
Fil
##makla
değildi
ade
Bilg
mus
##meni
Sin
Op
Kürt
##uldu
kaydet
##oca
##estor
kahv
böylece
düşman
aktiv
##uyucu
kanun
büyüm
içeriğ
dolayısıyla
ülkede
##unuzu
gizli
196
45
sivil
##arında
##ağın
kaçın
diyerek
Le
donan
sabit
inşaat
##onav
##artesi
hücr
deng
##afir
##all
##ulmuş
tartışma
yumuş
açıdan
bahç
##CI
est
yoluyla
##vik
##usuna
##eğe
vermektedir
site
##sına
harca
taşıyan
İkinci
##uva
kısıt
üstün
##20
fiziksel
##dığına
##kırı
katıldı
döviz
##uyordu
##AŞ
yıllar
##sör
##eğini
##memiz
##iyim
boğ
müdür
##tel
Hayat
eklen
tıp
etki
##lemeye
Düş
kampanya
projesi
danışman
yapabilir
besin
##ümüzdeki
##lanarak
##ılıç
duyar
2014
TÜ
bozuk
adını
tane
gur
itir
boya
şaşır
Bursa
be
vade
dikkate
anah
olmalıdır
ayı
ihracat
başlıyor
kaçır
benzeri
tanın
açıkla
sakin
çalıştır
iP
siyaset
##amik
kayıp
mesel
bür
bilimsel
Şehir
ederken
biliyor
çocukların
Şah
ordu
salon
ref
##tanın
edilebilir
Fenerbah
parti
sigorta
kesim
##tez
bakımından
Diy
##ovid
şim
buz
ilçesinde
demir
##lerdi
gösteriyor
güçlendir
cüm
la
hasar
36
Hasta
teor
deki
##ığ
ettiğini
sitemiz
Okul
##ube
İm
yenilik
##spor
Mac
kendilerini
aşa
##yüz
eğitimi
Pan
dokun
Mev
##usunun
Sır
yetenek
birleştir
##urta
##gah
##kır
adlandır
##int
pratik
##ezer
##tepe
olacağını
bahset
saygı
şeker
##omet
kurulan
araba
İşlem
gelin
##sında
bağır
Beşik
büyü
##yer
Müslüman
Çelik
Derneği
##ST
Ağustos
çalışır
Cen
##her
ideal
Mic
şık
üyesi
bilir
Yatırım
Un
##ukat
##lanacak
yoktu
beklent
##ock
şeyin
birinin
işler
yaşaya
hazırlanan
##oya
##uru
ilişki
##emesi
toz
##cağınız
filmi
bölgede
işçi
New
metre
alınması
##onya
##lanabilir
sıv
##ond
##car
##bu
virüs
kendilerine
mümkündür
Koca
##hone
##edim
##iklet
AKP
Sultan
##imizden
##larınızın
Arap
##bon
yatak
kalır
maddi
sebebi
Kuzey
bölgesinde
vermiş
Dok
genelinde
desteğ
ilişkiler
olanlar
arab
tören
birbirinden
kartı
Sa
##İM
km
yakala
##ılıp
kültürel
##omo
çevre
##dukları
verecek
##ılmasına
Am
##işi
Sayın
Fransa
##malısınız
yaşadığı
Park
öncelikle
komp
##yaya
akl
demektir
##ebek
yaşlı
amb
Elektr
kumaş
yaklaşım
Galat
gr
malzeme
İsrail
##ruf
uzat
sistemleri
##KK
##ima
işin
##ılmaktadır
##mail
karma
##tığımız
akadem
denetim
Hava
##arım
##mit
##ner
bina
##acağız
etik
vergi
cen
dakik
yapısı
maden
düşüş
##ileş
anlama
##masyon
Yardımcısı
kara
Beşiktaş
sahib
edilmektedir
eb
görünüyor
çalışması
Mut
##mesiyle
geldiği
##lıkta
barındır
Bab
okuy
##lerimizin
mahk
##ıldığında
##ww
İlçe
##edek
US
kaynağı
Rec
getirdi
Galatasar
##likleri
sebebiyle
##acağını
##emli
##yım
verilm
##tuğ
edebiyat
İngiltere
##ht
ib
Amerikan
##pt
sorunun
göl
##ane
sarı
Gür
mezun
kolaylaştır
##ümüş
türü
serg
##ly
Birleş
##rop
evren
geçer
yenil
Jap
küt
Kıbr
verildi
Vi
sana
söyleyen
fer
www
##ess
süs
##stik
and
gal
##oda
ulusal
##EO
##izi
Savaş
##isyen
##mesinde
Fakült
##landa
süren
köpek
##manıza
birini
bölge
Ya
300
Ün
hepsi
yerli
yöntemi
cm
##eral
sanki
##menizi
nefes
kurulu
##içi
korku
borsa
ifadelerini
##his
şef
Kıbrıs
##ılmasını
birer
nef
Trabz
##ire
tepki
ortamda
ism
Güneş
gerçekleştirilen
yüküm
##rade
##yasal
##ıf
##oter
##ğını
bölümü
istedik
##kel
##ülmesi
ağz
lar
dis
şirketi
Dir
##duğunuz
hır
##iyiz
sonuna
Apple
Güzel
##düz
to
Kul
##parator
##bileceğiniz
istik
##maması
##gre
Fark
yayınlanan
teşvik
dönüşüm
ulaştır
mevcuttur
pişir
Bölg
Co
Çağ
birbirine
kadınlar
##ıb
ofis
modeli
##droid
Herk
muhtem
Fin
Sonuç
tabii
##aca
nesn
başlangıç
##uzu
##eliği
ederim
##udi
Yas
##İT
kullanılabilir
sorunları
Bundan
Şeh
##ows
hakları
##etrol
##sızın
##daşı
umut
yakından
Cez
##nın
##ilmez
renkli
Kab
##mekten
anti
buraya
##uyoruz
##melidir
bekliyor
gerektiği
gelişmeler
##sem
tablo
hediye
##obot
ürünün
eğlenc
zek
Kendi
##maktır
seviye
altyap
tanış
organizasyon
##wit
##DE
##eceğimiz
Dünyanın
##rum
##leyerek
dava
##hane
sağlayacak
zinc
hayatı
##onavirüs
seçenekleri
elbette
Tah
iyice
##ong
Neden
duruş
Yok
ır
bez
garant
incelen
düşünce
kağıt
##dığından
Yah
Belki
##rü
##AP
yerden
görür
Araştırma
biy
32
öğretim
seyir
reh
Yayın
##usuz
mekt
##lerken
artan
vadeli
birleş
kitabı
otobüs
kısım
geleneksel
kıya
firması
alk
paylaşım
istediği
Yapılan
günümüz
Bayram
##cık
##liyoruz
Ekonom
Mus
ep
ekipleri
Sey
yüzünden
##dılar
halı
##eton
2013
aykırı
##latı
##za
kadınların
üstüne
##olog
zevk
belediye
Yılmaz
kullanan
soruştur
Öl
ant
kayded
grafik
düzelt
ayn
tanıt
bedel
düşünüyorum
##başı
dekor
katılan
##ksiyon
sınırlı
##lanmaktadır
kadının
tasarruf
taleb
##LAR
##mede
No
restor
sinyal
süreçte
Mon
yiyecek
##pa
##düstr
başlaya
kullanabilirsiniz
yılından
karşıya
##lır
##madığı
tutuk
geçtiğimiz
temizlik
##itir
Uk
orman
harit
##illa
anında
##ment
kimlik
misafir
kullanılması
kalite
Meclis
barış
##latma
işlemler
yakalan
##liye
hissed
bileş
kanser
sunulan
adeta
##ebiliriz
çö
itibariyle
Ac
##siyet
ilginç
teb
Bilim
Öte
bireysel
yapılmaktadır
##errah
##ever
erişim
##müştür
##estival
##qu
Dair
trafik
yargı
nesil
bulmak
insanı
Pat
fazlası
Dil
kred
Başka
lik
sinir
kimi
##ese
##ektif
##ınar
günümüzde
Tasar
gitti
Wind
##day
olduğunda
Murat
##ansız
konfor
esnasında
üretimi
##sızlık
##diğine
Nur
##astik
Of
##amet
seni
yaratıcı
çatı
Piyas
Galatasaray
kamera
finansal
##lukla
verme
amaçlı
buradan
yapımı
##10
Fatih
miktarda
gelişmiş
bütç
sürecinde
terk
ufak
klasik
konak
Car
çekici
##ilerden
##iyorsunuz
bulabilirsiniz
##vel
Fenerbahçe
##lerim
##dağ
indirim
maruz
sektöründe
uyumlu
Irak
Sanayi
verilir
##azi
gök
##dışı
zamanı
Birçok
##larınıza
üstünde
uyarı
Ner
Ukray
Sig
##liyet
demokras
Kitap
görevi
iyileştir
takv
kullanma
tepk
dayanıklı
Tat
suret
anahtar
Str
ulaşım
ismi
değin
Men
yükselt
gür
Hük
kusur
verimli
tiyatro
##ullah
sonuçlar
##iya
Android
uçuş
Güvenlik
okuma
alb
ler
##ikat
##üzgar
Mobil
girdi
düzeyde
sıkı
##ersin
mahkem
##ho
##rens
oranında
##cağım
##zersiz
Kil
##ebilmek
##ck
üretic
Bankası
Oysa
isterseniz
##ilerde
yalan
Gar
##ezerv
görünt
Li
Tercüme
uyku
##ry
vermeye
duruma
şer
##gü
edilmiştir
##teşem
##sey
Gerek
dip
metin
##eceksiniz
kalmış
endek
karşılaştır
##lunun
sunar
diyen
##ahmet
açılış
##lor
kli
dayalı
Med
Ann
Kılıç
##anta
salg
##book
Ed
Recep
sevk
ayakk
Kanun
okur
##ırlar
##ırım
tra
yolcu
bahis
iken
##düğünü
bugüne
##IR
##yip
üniversite
parlak
sunmaktadır
af
manz
yel
##lerindeki
##İZ
alıcı
yumurta
kaps
önde
gereği
sorunlar
dönemi
bekle
pil
Kullanıcı
alındı
##isin
verim
##melerini
##etler
dedim
çizg
##enizi
bünyesinde
mül
kavuş
rakip
yara
koltuk
izlen
Mahkem
Mahallesi
tamir
kaş
dalg
Yen
##insel
##arik
fonksiyon
kamp
potansiyel
##öğ
ülkemizde
Çar
kalıcı
usta
tok
ekibi
getirmek
alanlarda
niyet
##sının
açılan
metal
yitir
##laşık
2012
##ijinal
sertif
olacağı
##lav
mahalle
bakan
zorluk
dikkatli
##ancı
So
Dik
olabilirsiniz
##kale
ücreti
Windows
edilecek
bilgiye
Ge
kazanmak
sessiz
Yeşil
##lakalı
beyan
mevzu
göstermektedir
düşünül
Arka
alışkan
Bek
##lerimize
coğraf
Hüs
Tabii
##amaya
kıyafet
nüfus
##tt
Net
enflasyon
##etleri
idi
sanayi
derecede
hastalığı
katı
mac
haft
deprem
##üya
yaptıkları
yaralan
gelip
üretilen
husus
ilçe
sebeple
gelmektedir
hayatta
yenilen
sonuçları
ilave
##tılar
sürece
##rama
##uluğ
sorgu
donanım
olmayacak
tasarımı
Akdeniz
yürüyüş
##kil
dağıt
tedavisi
De
kahraman
Kişisel
bon
denet
İnş
çağr
temas
sıfır
olağan
##do
Tayyip
##meyecek
garanti
komisyon
Cumhurbaşkan
Ex
##urum
arıza
demiş
##eyim
olduklarını
Po
servisi
Pek
##satı
çalışmak
Bölüm
##bilen
belirlenen
pazarlama
mutfak
Yukarı
kimyasal
süredir
gecik
##lemesi
Kanunun
zir
44
##fil
kalem
##okul
çocuğun
alanları
ha
Karşı
ob
edildiği
sizler
iPhone
Hukuk
Tanrı
##üye
hazırlık
II
##müyor
Hasan
bank
vücud
##uf
rekabet
vererek
##ektörü
köt
lig
yönel
çağır
##uyla
##bileceği
##idip
##unuzun
şub
##ilmesini
Süper
br
insanlara
faydalan
sız
Tıp
##veren
##LER
sö
mühendis
Tarım
##ert
gerekç
yeme
lok
başlayacak
gündeme
##yken
Sarı
##kon
Mey
##çuk
##ps
##yol
##enkul
##utan
Milletvekili
nakliyat
Başbakan
Ödül
Üstelik
öncesinde
güne
##diye
yangın
##alesef
Günümüzde
yedek
harekete
##nik
hesabı
Be
rej
başk
günün
faydalı
33
Sü
##lamayı
Cem
inc
##ıldığını
tor
genelde
göm
Boğ
yanına
acil
##our
toplumun
dini
muhaf
Çalışma
göğ
hukuki
bom
Feder
tad
akış
karşımıza
Baz
##ell
Mi
mimar
For
##ferans
##melerin
Fer
##emize
elb
noktası
memur
kıymet
sinema
sıvı
azından
istiyoruz
elinde
olmayı
##ysa
ihtimal
kapsamlı
aşağıda
##ary
tanesi
ağr
Boz
Uygulama
2011
Zaten
##dev
görme
##uyorum
##fı
gösterdi
Uzman
gördük
Bunların
Beyaz
alınır
##köy
Ücret
mantık
öncelik
##ahh
temsilc
Fır
geçici
çekti
inanç
##ilip
turizm
Mısır
Aşağı
verici
##embe
port
sağlığı
##leğ
İtal
##unç
hali
Hakk
pah
taban
sos
##TC
vs
##rom
tutul
400
Bahç
##ity
Avust
##mut
kuzey
##UL
halkın
##ack
eşi
beslenme
Oğ
korumak
##diniz
kıv
ış
evden
PKK
##altına
günden
bilm
bask
fen
yerlerde
çalışmaya
işleri
konuk
mağaz
devletin
İçin
inanıyor
Öyle
##ai
düştü
##üyada
İsv
##oft
keşf
##iyel
##demi
yönünde
maaş
Partisi
üyeleri
Öncelikle
iklim
##layabilirsiniz
yetkili
ülkeler
savunma
kaybol
ulaşmak
##tılan
boyu
şehr
tüketim
Nak
okun
öğrencilerin
yapıldığı
ondan
kere
kup
ört
usul
düşen
Doğru
yarım
grubu
##danın
edici
Öğret
çök
sa
li
##ordin
##leyin
##ori
kilit
##teri
konser
mutluluk
Balık
geleceğ
hab
##tiğinde
lir
Yurt
65
Yıldız
##ılacağı
##SK
sanal
##liy
##ürken
memnuniyet
kariyer
Toplum
diyet
çıkart
##log
gidip
2010
##eyecek
bağlam
uğra
çey
kullanabil
##ebiliyor
kullandığı
dür
uygulanan
hit
Kart
##şap
Erz
kamer
İbr
kenar
konuşan
Erkek
moda
sözleşme
48
zamanlar
gitmek
##İY
##stit
konularda
çıkacak
bı
belediy
kurs
Dep
##ding
başkanı
##witter
şehit
##ümr
Hüküm
yönde
##lüğe
alınarak
zeytin
##itif
kitle
zemin
olmaması
##pe
##lıktan
egzersiz
##rol
##ilmesine
hazırla
oluşturan
gerekse
Enerj
muhteşem
söylemek
keyifli
oğlu
Pak
parmak
yürür
karanlık
yağmur
##eks
##cılığı
uygulamaları
Grub
Başkanlığı
##tein
yolda
gereksin
Adana
numara
##limat
##we
34
işgal
##unuza
İstanbulda
beyin
halka
tarihli
##rag
satışa
yumuşak
yapmanız
iletişime
yapılabil
alabilir
Ankar
Ardından
yükseliş
tanıtım
##larken
yaka
##ilerle
ağız
##los
Yıldır
blog
##oj
egemen
75
##MM
Kral
##lerdeki
yör
karmaşık
tarihleri
kazanan
refer
esnaf
Çek
rahatlıkla
kıyas
babası
hapis
Geçen
panel
##bat
vaka
Komisyon
##irli
sunmak
verilmesi
kiralama
yolculuk
aralık
oranda
bazıları
Sok
alet
##afer
endüstr
hayran
anı
##üldü
bölümünde
##land
yetersiz
özgürlük
Is
##ump
##elendir
meydan
enfeksiyon
özgü
Euro
çıkma
Pas
may
rezerv
##şi
avukat
sermaye
Anay
robot
başlamış
pencer
##denin
civarında
sırt
olmaktan
araçları
katılımcı
şampiyon
##stagram
geldiğini
tedarik
kahve
##landırma
yukarıda
Mem
çıkmış
##öyl
Farklı
aldığınız
olmuştu
gerçekleşen
kafa
Cumhuriyeti
başlama
oyunc
petrol
çekir
doğa
##ıyorlar
Kısa
arasından
ayakkabı
Esk
gurur
öğrenmek
istedi
Para
mikro
estetik
evet
##alaj
mail
stat
##işehir
stok
##zi
##UN
Din
##asız
üstlen
kullanılmaktadır
Don
##ende
montaj
mens
bozul
anlatan
##imden
altını
işbirliği
istihdam
müt
Sek
kelime
yıllardır
bis
Yalnız
Banka
##les
##30
Önce
Cev
mir
adalet
mesl
İşlet
mor
sağlamaktadır
##PS
Hız
Bana
bahsed
başlı
##illi
tamamı
karşın
nö
kendinizi
##ısal
##amam
La
satım
mekaniz
Ulusal
##ral
İbrahim
aksine
seçeneği
##mamak
anlamı
şeye
aralarında
haklı
alması
piyasaya
55
##memesi
masraf
güvenliği
orijinal
##itesi
Azer
Saat
Demok
##likler
şirketin
İd
##cük
çalışmalarını
ris
##diğinden
psikolojik
kullanı
Müdürlüğ
htt
kampan
Fakültesi
kabil
##isindeki
##yaz
##haba
##lanın
##tikçe
kaybı
##okol
açıkça
istif
Hır
sisteminin
masa
oluşturmak
sunduğu
fırsatı
kalıyor
Ömer
büyüme
##iki
çevrim
süreli
##balık
topr
Emniyet
Ana
##ılmak
önümüzdeki
koc
194
Gala
ente
##emeyen
gelmesi
esk
bayram
içinden
komş
eleman
oluşur
Far
farkı
meyve
##menize
Yağ
havuz
##andar
Zira
##isiz
yarg
tavsiy
##öylelikle
ekipman
mülk
Yav
amac
örneğin
##allah
##istin
Kut
##alın
##leket
##lendirme
karbon
sergil
küç
İdar
Ordu
şarj
nem
##osk
eğlenceli
Kaymak
##AB
galib
mağdur
Gazian
Hemen
##likte
le
trend
bilet
çor
##tacak
belirtildi
##ular
anlaşma
gözden
öf
kaydetti
etmeyi
##ülük
mali
kemik
Hes
adresi
Araç
Yunanistan
##oker
oyunun
sonsuz
##indistan
öm
yazık
192
rüzgar
atık
dük
geb
2000
siyasal
makam
TB
##atematik
Siv
tali
38
sevg
Saç
##OL
yolunda
##anızı
##eyerek
ettim
çelik
herkese
##gam
##bilmektedir
##ağını
##ılabilecek
##biy
bağımlı
##ris
##cebook
yönetmen
gördü
##diven
dakikada
##eleriyle
üstü
çağrı
Mu
rehber
Kaf
Aile
hayatın
futbolcu
harf
görülür
##ilerinden
içerir
damar
##lob
içeriği
VE
Ceza
Konya
Kredi
Si
150
##ceği
kons
başken
##barı
etmiştir
##ıbbi
buldu
##IM
zamanında
bizlere
Ef
##EB
uzan
aittir
Asya
Gaziantep
oluşum
oynan
algı
Adam
yeten
Van
beklenen
olmaları
Üzer
##memek
güney
etken
mür
ömür
anlaya
işleme
##ress
bilgisi
Turizm
##eğine
Bür
##zat
keşfet
itiraz
##lığından
Kent
platformu
gözaltına
alanlar
olabilecek
##umuzu
yaptığımız
##elerek
##gul
##laştık
etmeniz
##duğum
saniye
yağı
olmanın
Grup
##tesi
Rum
##imizle
versiyon
kolaylıkla
ani
hediy
Kuş
Hangi
bekleniyor
yapması
hizmetler
##bilmesi
muay
##ükle
yaşat
##şiv
##leyecek
##var
aylarında
##ometre
Özg
mini
düşünür
odaklı
İlet
çatışma
##ayım
plana
som
olmasa
##fik
##mesinden
miktarı
mavi
çocukları
denk
suna
başı
##şten
verileri
##akk
yansıt
farklılık
Bo
Cuma
##doğu
##ko
meyv
yaprak
Hayır
##gari
görüyoruz
derg
yüzlerce
Zir
cami
ahlak
arasına
Ku
iyileş
İlç
Sı
durumun
##unma
##abiliyor
sunucu
yapılıyor
namaz
yapıyoruz
Odası
bayan
yarın
beslen
ederiz
mağaza
##atistik
aralı
diler
Karadeniz
yarışma
mevsim
##zan
bulunması
Bazen
ekmek
duygusal
##ema
sürüm
disip
Kons
TR
kullanılarak
firmalar
pozitif
Olay
##istler
##eyebilirsiniz
Kanunu
yapmayı
sigara
37
prens
##tikten
##ılmaya
kaza
Süley
etkileş
çekim
Birleşik
##lemiş
sevgi
Kaç
Pa
Koç
alana
hekim
kişilere
mm
zincir
2008
##ks
co
gazetec
gayret
Arab
blok
##tifak
şeyleri
Hazır
hatırla
sıklıkla
##yayı
siteleri
##stra
niteliğ
aklı
##acık
Kav
##elif
bitki
Başvur
##diy
Günü
Plan
baktığ
kale
Abd
katkıda
##ideri
varsay
birliği
türk
##abor
Bod
##öly
esnek
Bi
doğur
işlen
önemi
attı
lam
metrek
gidiyor
191
##tiğiniz
Diyar
Ajans
kullanıyor
Doktor
cerrah
##ker
yerler
kararlı
firmaları
##ID
imk
##masın
Paşa
netic
sembol
tipi
Con
çel
##türk
##ograf
Hüseyin
sam
sevgil
Kurt
##EC
maddesi
##rada
Organ
yedi
Telefon
MHP
##melisiniz
Akadem
antik
lek
##pat
bilgilere
evlilik
yaşıyor
onunla
Dar
çekiyor
##işk
##MA
alırken
Firmamız
değişken
zorlu
Kamu
log
195
halkı
kızı
müs
telefonu
link
Karab
yılının
makinesi
Havalim
mobilya
tutan
Gön
tap
##simum
yapın
tazmin
asit
yükümlül
##oto
Borsa
Sak
##eryal
dans
dili
vizyon
başlıklı
keyf
Elbette
Ses
##isa
darb
aşkın
edilerek
##ilmelidir
##SO
Yıldırım
Mel
vası
oynaya
Kes
##şey
Orman
##ümrük
deri
genişlet
Boy
günler
##lamaları
Soy
##out
##uman
Vatan
Çift
He
Twitter
##bı
birine
##enn
ran
toh
Jo
Sözleş
kulüb
##utma
Onu
ihlal
##müştü
sendik
AL
olamaz
kalitesi
kaydı
Gez
gözük
por
Süleyman
teknolojik
##paz
bulama
ihtiyacınız
TO
##ich
hip
gelmiştir
tıklayın
mezar
cesaret
Destek
deneyimi
çocuğu
göstermek
şehrin
hakkını
halen
Bilgi
silin
bulut
büyüy
##ibe
düzenleme
yapıp
makale
##leye
Rüyada
##otik
Temel
tamamlan
darbe
##dün
Temiz
Doğal
inceleme
Çeş
gayet
##ağının
kazandı
verg
##meyin
maçı
pahalı
Şampiyon
##örü
eklem
Art
nakliye
fabrika
numarası
##tre
##bakır
gelişen
Geçtiğimiz
##labilir
##bek
akses
şartları
Mo
ırk
buluştur
başarısız
Covid
tehlikeli
##üks
Şek
istis
Öğretmen
doku
##imini
##tın
geldiğinde
ür
delik
Gençlik
anlayışı
##tah
Tor
eğilim
##ılımı
kimsenin
numaralı
##amaş
şekli
takımı
Yal
taraftan
rüya
Azerbay
yeterince
2023
sesi
seyr
kuy
2009
yapılabilir
albüm
##yiz
Onlar
##kaya
koleksiyon
açtı
Müşter
saatleri
##dış
tarihinden
##umuzun
##larımızda
arız
##ÜN
Hindistan
DE
tarafında
##yaj
Trump
Lond
fık
##adem
getirdiği
işletme
Şim
##demir
şirketleri
İt
Toplantı
Teknoloji
plastik
geril
ambalaj
hiss
zararlı
rengi
##fat
seçimi
mektup
Mad
kaynaklı
ülkelerin
Pet
Paris
İr
anlamak
tüketic
saatlerinde
##araj
Ha
mide
idari
Diyarbakır
teslimat
market
##lerinize
Teş
##emizi
Mat
gördüğü
alakalı
ust
Madde
eşlik
cezası
BM
##eth
demokratik
çözümler
aktivit
Rek
Futbol
imkansız
Değiş
Sch
##jan
Çanak
##bey
kulüp
geride
kodu
##paşa
##ildiğini
sitesinde
altındaki
sanay
Mersin
yorgun
riski
cih
##ansiyon
Tok
Roma
Danış
gelişme
görüşmeler
Güç
doğan
gram
##liğiyle
##ihayet
##lamanın
sahne
##diğin
kazanma
ked
Düzen
tuta
Com
##raz
değerlendirme
##elin
isteyenler
bilgilerin
satıcı
Turk
##ydi
##amıyor
Çevre
Cadde
kutu
yoğ
stres
evlen
##ikal
denir
olmakla
##istiyan
Ege
haberleri
##duktan
canlandır
##ülür
belirgin
kalıp
dönemin
Online
##aborat
İletişim
olmadı
##tığında
##aci
değişen
projeler
zamanla
çıkması
çıkarı
##İS
tutum
Afrika
yoksul
birimi
yapmaktadır
ayda
fiyatlar
kendisinin
##ruk
alkol
etkileri
bulan
dinamik
buy
Tasarım
##andarma
##kusuz
dilek
##ste
açma
tarzı
tıkan
##lete
koronavirüs
ailen
##lobal
kapsamda
cumhur
##orit
##çisi
alanına
##api
##alog
arkadaşı
tüc
##tığınız
sunuyoruz
kopya
Japon
##türü
Resmi
sporcu
42
adamı
##itler
etmez
Sınav
pr
bölün
düğün
arkasında
Kulüb
##medik
çizgi
##abilmek
kilometre
yılları
kişiyi
Enerji
##aseb
kırık
##dıkça
üs
eh
39
iğ
güzellik
##amazan
##azer
Sonr
Ukrayna
kullanıcıların
kendimi
tablet
dez
vize
devreye
sel
döş
izlemek
koşulları
vir
##atın
##laştırma
Malat
You
##ug
##lant
kısmını
Mez
çıkara
bölgeye
emir
gücünü
şahıs
##imum
##ohn
AR
edeceğiz
hakkındaki
oluşturur
yapay
Facebook
uygulamalar
Taraf
çıktığı
Tabi
ayrıntılı
çapında
##ann
##mali
oyunları
konular
unutul
##mekle
Kup
belgesi
evr
uzaktan
Dağ
döndü
##laz
duyurdu
yaşamak
materyal
sorunsuz
daima
başladığı
Türkiyeye
açan
final
makine
##elle
vitamini
Hareket
had
kaşı
fatura
horm
##lamalar
ahşap
unutmayın
bulunmak
##arda
gib
noktasında
##ğına
dünyayı
eme
##ick
##LE
05
Şen
hitap
dışına
redde
##lerj
hatırlat
adıyla
sk
olmasıdır
sordu
##xy
rö
suretiyle
Mim
sürücü
Play
aldım
geçiyor
şair
konus
gelince
##HA
Dışişleri
alımı
Port
tarihsel
almıştır
manevi
ekonomi
##ülasyon
ettikleri
gösterdiği
uzay
Hiçbir
##vekil
bilen
Yaşam
getiriyor
Sez
İtalyan
araz
ikisi
##eğinin
dönemlerde
sön
yıla
bilinc
193
anlatıyor
itibarı
sektörü
ilerle
memleket
##umartesi
HDP
Lim
ayrım
bence
sever
##80
uzaklaş
##FA
yönlü
Elektrik
geriye
Ede
akr
##rip
olunca
##DA
York
tuş
AT
dola
gerekirse
getirir
##otel
karşılıklı
##ebilmektedir
kör
Mesela
protein
kahvaltı
şeyden
yapılandır
eğil
ölü
kısmında
ettiğiniz
##sansör
kalb
##halefet
sağlanması
##ulacak
##üel
##lılar
antren
##iti
Samsung
kullanıcılar
##eğinde
gelerek
99
geliştirme
icra
##des
zamanlı
##amuk
olduğunun
##acağım
topluluk
taksit
##sever
sürüyor
dalga
Sakar
##ebilen
seven
##ie
koruyucu
güz
tüy
tıpkı
##ted
ilişkileri
işletim
evin
##dy
hazırlan
doz
##ica
Sabah
ziyade
biliyoruz
sürdürülebilir
Görün
##lup
merkezinde
Ho
kurmak
İtalya
kral
sömür
etkiler
Tiyatro
##tıkları
hoc
ölçek
Cor
malzemeleri
muhab
göv
##mediğini
##malarını
saatte
##melik
muhtemelen
bacak
sürük
gezeg
ötürü
##şe
traf
##larımızla
##nan
maksimum
özgün
Mühendis
##ecik
niş
anlattı
hast
Özgür
##amızda
hayatına
Diş
satışı
Yür
##IL
olaylar
arayan
##dola
Yab
gülüm
Satış
Şey
01
sayısının
sözcük
pen
eşsiz
Sizin
zirv
##irin
Genellikle
##cilerin
filmin
Üyesi
yalı
taşıyor
Psik
omuz
söyler
John
Siyas
##ışlı
##oper
akademik
prim
Th
CO
çoğunlukla
vatandaşlar
Size
çalışıyoruz
ker
ortasında
Fi
##lon
piyasasında
##ive
yolları
belge
##adet
amaçla
set
Hastanesi
Rapor
Çık
şifr
alanlarında
arzu
Nedir
Tük
ısıt
##kun
göze
olmasının
diplo
çalışmalarına
##ılığı
olmanız
yıkama
far
değişimi
senar
İp
saati
yuvar
yetişkin
aracın
izleme
dolarlık
ettiler
Stan
şirketler
Kılıçdar
Kurumu
konuyu
mensup
USD
İsmail
Bilgisayar
düşündüğ
AN
görünür
##und
öykü
##luğun
##eyebilir
##dınız
sekiz
gerç
sevin
denem
çıkıp
uyandır
bakımı
depolama
yöntemleri
##TT
insana
##linik
protokol
##elerdir
##ağına
Şahin
Min
caz
##ılmıştı
##umun
işyer
onur
büyüt
##laşması
suyun
duyarlı
##yu
##leyip
1000
haftada
Yaklaşık
görüle
yakıt
yakış
liste
gereklidir
alama
bulur
##seri
sürpr
##larımızdan
##yalet
Boğaz
##kur
ikin
Eskişehir
Not
##uğla
sistemini
aşamasında
eşliğinde
maalesef
banyo
perde
##ash
hatt
kurumlar
Dijital
##melerine
özet
kaldığı
yorumlar
arıyor
akla
##ym
anlatı
Otel
Barış
##elisiniz
çekil
Enstit
Rad
##öğretim
efsan
karan
ticareti
Karak
sistemin
yir
özellikler
Nit
olama
##amaşır
köken
çabuk
baştan
bunlara
##enize
seviyede
sahipliği
taraftar
Diz
##alel
Arkadaş
Oto
Herhangi
karşılığında
##po
araçlar
yardımıyla
haberi
Zor
Finans
gösterg
##ijyen
##anet
##masız
görmüş
anket
Bodrum
çak
yah
##gat
direnç
##lann
etkiley
adamın
kalmak
Günlük
salgın
öğrenme
hariç
bedeli
kalabalık
##çilik
Anne
##ınıyor
payı
anay
mit
cüz
Paz
arşiv
##ens
taahh
Polis
sabır
Vol
bastır
hanım
beton
##otos
cenaz
##inizden
Ker
etrafında
düzgün
soruşturma
Azerbaycan
Hollanda
Viven
olduğum
kaybetti
##aklı
komut
somut
onarım
##eveyn
tıbbi
ajans
##duğunda
teker
durumlar
emekli
İnsanlar
TC
##iğin
sunum
kriter
müte
sözü
yolunu
##esidir
FET
çevrimiçi
##lıyoruz
Mağ
aran
bekleyen
büyüklüğ
medyada
##üphan
meclis
atmos
64
ayakta
##iğe
250
##tikleri
rekor
##acağınız
##layabilir
Duy
kontrolü
yılına
süper
##ülüyor
sahipleri
02
gerçekleşti
olanı
taze
geliştirmek
vitamin
kritik
verilecek
##ole
41
evinde
##suzluk
sıradan
##lamada
Ven
Akıl
Mor
Ala
##eyse
##ayıcı
vek
olurdu
fabrik
##ice
600
örneği
ec
Beni
içecek
##liğinden
##luğunu
görülüyor
Pr
Tarihi
tutmak
kombin
Tun
teşkil
kalacak
Kocaeli
fikri
İmparator
##abilmektedir
erk
olayı
09
95
ülkelerde
bildirdi
ısın
irti
sizleri
Çoğu
görünen
hareketli
muk
##cıların
akım
Roman
noktaya
##gini
meden
##mm
işletmeler
koku
##üsünü
kanat
nelerdir
emniyet
hoca
##luğa
##elaket
ceph
##ınan
ediyordu
##cın
dükkan
##enf
açmak
Trabzon
çalıştığı
Sol
Herkes
TBMM
kaçak
Örg
##larımı
##ünür
gördüm
yerleri
irade
##sh
Bölge
istikrar
kaybeden
Ramazan
ortada
##çu
istenen
sof
47
alınacak
##uhaf
Sun
sistemine
burun
##lanmaya
##caya
46
##US
##İD
bizzat
##tılı
sürü
##ilmişti
##usuf
kaynaklanan
FETÖ
##kınma
##ekte
##çın
Tav
Bebek
Sipariş
sorular
kaşığı
Pla
verilmektedir
çalıştık
##mini
##ovy
##uncu
Hayvan
duruyor
Göl
Sivas
bölümde
##ülmüş
vazgeçilmez
Biraz
##ebileceği
raf
festival
Rob
##led
duyduğu
GB
2007
temizliği
Gazi
çekin
odası
##utin
kullanılabil
Doğan
direkt
cinsiyet
Çanakkale
ödey
hızlandır
lüks
peyn
makyaj
mask
Şube
varlığı
##AZ
##ph
anlar
olurken
filmleri
##laşmış
isteme
çıkarmak
##oğlunun
verebilir
vah
66
çekmek
sürüc
##idir
Hey
gözler
Muham
zeka
##artman
duran
##çeği
Pen
##uşturucu
önlemek
karşısına
Grubu
Emek
performansı
ailesi
##larıdır
##çilerin
56
Servis
kullanır
adayı
dör
yaptığını
Çay
bahar
denilen
Ec
Soğ
görülmektedir
dışındaki
Müşteri
klima
bisiklet
##olik
##leştirme
değişiklikler
##uydu
çıkardı
haftalık
08
ettiğimiz
##masıdır
##12
Gerçekten
zehir
##tiğim
oluştu
çıkarak
cinayet
ısrar
lideri
geçerek
paz
Sistemi
##ach
##leniyor
elektrikli
asgari
Bol
Fotoğraf
piyasası
nefret
52
beraberinde
43
##föy
##ümin
Ant
çevresinde
##rosoft
teknolojisi
kurban
hayatında
nez
altyapı
programları
şunu
##esince
sağladığı
yarattığı
koyu
olağanüstü
##tra
##ikola
tamamla
Yusuf
Adı
testi
doy
##soy
Vakfı
olas
utan
günleri
Ona
Proje
##ılacaktır
mutf
kullanmaya
##bank
Motor
##ağında
sürpriz
İçer
vermesi
##itli
ihale
Sitesi
titiz
bölgedeki
vermeden
Vali
gelebilir
girer
ilerleyen
saha
birinc
kurulum
Savaşı
Kira
kombi
Ligi
Ph
oranları
##tığım
radyo
kendileri
tescil
acaba
sıcaklık
oluşturul
##imle
ulaştı
anlamlı
##lit
##ketbol
Aksi
geçmek
##AC
profil
Kir
etiket
##ilerinde
Takım
tavır
görevl
##esto
piyasada
zamana
##adır
şehri
##ilecektir
İkili
üyelik
koz
##hats
##ates
##şet
##ami
şartı
kıyı
olsay
üzeri
##üyü
##ubu
planda
yardımı
yararlı
boşluk
##MS
##ight
ekstra
Galaxy
##rit
yüzü
disiplin
Tut
dudak
##tıktan
matematik
Ermen
##yalı
imalat
yaptığınız
almayı
##ükleer
##öv
randev
başlamıştır
sınırları
Yazar
##tral
##isti
milyonlarca
annesi
##uluğu
dolara
arayış
ederler
referans
Gam
tesisat
Birinci
##AH
##sar
Ruh
ihmal
ülkeye
pir
kutsal
mün
kaya
katk
Kahraman
önemlisi
dahilinde
##AV
Kargo
hikaye
kaynakları
yaşamını
görevini
olgu
hareketi
54
lit
desen
kamyon
devir
##peryal
merkezine
##amın
Ata
markası
Fik
##amak
##kilat
##sis
deneyimli
falan
Türkç
Kış
Ste
Microsoft
görebilirsiniz
seri
katılımı
evrak
sandal
Üret
planı
öğrencileri
mahkum
katıldığı
başını
oldum
gündüz
##ood
Yat
bulma
aşık
talebi
geleceği
elinden
içerisine
kaygı
felaket
boru
KO
bizimle
yazdığı
##lesi
etkileyen
başından
Qu
Gıda
Sem
oluşturduğu
tabak
bilgilerini
Geçmiş
Modern
bunlardan
itibarıyla
Vivense
Ağır
İspan
Uğ
bulunduğunu
ilham
fikr
49
veriyoruz
##danı
uygulamaya
##gn
sığ
kov
##ife
uyarınca
eksiksiz
##eydi
boyun
olmazsa
Ort
Kızıl
Merhaba
vatandaşların
geçirmek
değişikliği
##eten
gerektiğ
paralel
bası
tarafı
yerleşim
Karar
##ebilmesi
Hakkında
06
lastik
mel
edecektir
ağırlık
Saray
istasyon
Böylelikle
verilerin
##emiyor
Kuvvet
örgütü
gev
Hafta
motiv
obj
bilmek
##inizle
sir
Servisi
Erzurum
bağlıdır
nakit
muhalefet
Mis
konuları
Savunma
gümüş
şiddetli
batı
hid
gönüllü
süz
firmaların
Sovy
koordin
olursunuz
##rimenkul
inf
Hakan
periy
tarihine
sektörde
çalıştı
restoran
Ail
Engel
##abilen
hayli
işini
ikna
Hizmetleri
##ezil
SEO
##gıt
misiniz
##ılav
fuar
dostu
hayırlı
kablo
sizlerle
zorundadır
Kayseri
Hanım
Yemek
Adalet
kendinize
konuya
##bileceğini
çocuklara
##ukur
evine
##ence
##cüsü
maçta
derken
nden
bıçak
tetik
##igür
##resyon
organik
##renin
konse
aksesuar
elbis
SS
turn
kurgu
seviyesi
##unları
uydu
Konuş
##maların
##sk
gidecek
inanılmaz
sürdürüyor
##cunun
dünyasında
etmişti
hastanın
şirketlerin
##yeni
Baba
##alet
itha
İnşaat
eğlence
nam
engelli
değerleri
Yakın
##adı
Lütfen
kurulmuş
olabileceğini
İmam
##mara
##ildiğinde
Fu
##izmin
##bası
53
istediğini
Pay
120
açıklandı
bozukluk
anlamında
##iller
yatırımcılar
selam
kaplama
##dığınızda
ikram
öğle
evi
etkisini
##ila
çeşitleri
korunması
Filistin
teminat
##düncü
##ill
Ülkemizde
ibaret
oraya
tutun
yükseldi
edilmelidir
yerinden
lezzetli
Air
haberler
Bunlardan
##oks
##UM
##ang
tay
mahkeme
##has
##TÜ
malzemeler
başa
İade
slog
dernek
##sizin
tohum
sağlayacaktır
ortamında
faaliyetleri
mesafe
müh
yayımlanan
SP
His
Ders
laf
boşan
konaklama
krem
bakalım
no
tarayıcı
##tuğu
organize
Güncel
Nec
##takım
##larınızda
göğüs
çır
MAD
Tür
Mik
kaçınılmaz
giyim
##ilirken
kısaca
merkezli
tuhaf
##ysanız
##işle
##lüğünü
##OT
##IK
karın
Başar
öv
anal
yaptım
##oid
konferans
Emre
##abileceği
Ortak
bulaş
ihtiyaçlarını
hek
tanrı
Kalit
Normal
görünce
ölçüm
And
##dirim
forma
eyalet
##ürr
Naz
Mücadel
Dikkat
Dolar
hijyen
firmanın
bizler
Yapı
dondur
kapak
##layınız
kurtu
yazarı
düzenlediği
##raç
##amayan
yur
mevzuat
bakıldığında
tamiri
Del
alerj
Edebiyat
Pi
dağıtım
buton
muhafaza
gelecekte
kaba
Sekret
çözümü
##ünce
##çileri
lay
##vi
Cil
##abilirler
##lex
sırala
topar
##ech
Kaya
eseri
olgun
bağlan
88
taahhüt
talimat
yürütülen
varlığını
alınmış
yükselen
##IZ
sertifik
suya
masaj
##leyebilirsiniz
ortamı
üreten
##oli
##ull
hemş
İşleri
durumuna
nadir
beklet
bölgenin
abon
vadede
Türkiyedeki
##üce
##eliğin
Yorum
başladım
Orhan
nı
##giz
val
##ılmalıdır
istenilen
bölgesi
tey
Çocu
istatistik
anlık
sahil
##ğının
çıkmak
araştırmalar
bakar
koruy
açar
##lıkların
sorunların
maçında
##faf
##BB
aşamada
##estivali
##leyebilir
Instagram
nitelikli
##amış
dizisi
nereden
geliştirilen
olmuyor
olmasından
Metin
çalışırken
yerlere
gerektiren
pi
stratejik
Şanlı
Lev
85
aldık
geçerlidir
Oper
##italiz
Tra
sektörünün
##slan
miras
##kal
##iyetini
Birkaç
oluşturulan
bildirim
köylü
onlarca
seviyesine
çağdaş
uygulanır
ülkemizin
##şembe
güncellem
komşu
aldığını
hormon
Müzik
editör
yoluna
##ekler
kullanıma
##ektaş
##ısındaki
inti
açıklaması
##üminyum
yapılarak
kayıtlı
denli
izleyic
korkunç
Kılıçdaroğlu
açıldı
laborat
##dikçe
bardak
kamuoy
##şamba
##ua
##bür
ard
##ect
58
oradan
##okulu
tersine
yürürlüğe
koca
öğrencilere
Post
Tim
##yaspor
anlata
neticesinde
ba
haberdar
##olar
yapış
yapılmıştır
dünyasının
Görev
ocak
PC
eline
Hızlı
##leyic
Kaynak
sad
##elal
dekorasyon
##bel
vefat
gününde
Emir
##iliğinden
Bulgar
sürecini
koyun
Kale
##top
Eg
oyunlar
bakın
##iliğin
##iste
dilim
Aşk
Nev
Abdullah
##ünüzü
türleri
##ırda
Yoksa
sağlama
soruları
gerçeği
verdiğimiz
musunuz
##büs
zem
zamandır
kül
cevab
uzanan
dürüst
##dığının
içe
sanırım
Önemli
bugünkü
##istlerin
##lusu
Sim
sizlerin
Mek
işit
yapacağınız
Denizli
Çak
yürüm
mesleki
sözleri
yıldan
dünyadaki
hakaret
sığın
karlı
birinde
haksız
ürünlerini
Des
Dünyada
Platform
##landığını
anlamıyla
2006
Sakarya
denen
##ranı
yurtdış
karışık
çöp
duyulan
##çılık
danışmanlık
Yabancı
Amerikalı
entegre
Ünlü
kep
çıkmaktadır
Sine
çamaşır
Ajansı
ihtiyaçları
Vide
elini
Selçuk
##eminli
işlemlerini
Sınıf
##GB
sayılır
##eygam
##fendi
aldığımız
ceb
yazılmış
kısmen
Dis
##çılar
belirsiz
sahte
bilgilendirme
artırmak
tasarlanmış
##lasman
##lerimi
demokrasi
ilçesi
##ux
anım
birtakım
##üğün
atmosfer
##acağına
ebeveyn
öte
senedi
biçimi
##malıyız
##mosyon
ALI
Programı
okuya
##umuza
müşterilerimize
##ımızdan
yaşamın
biber
##uşu
minimum
maddeler
arkadaşlar
sonradan
##usun
merdiven
##uvalet
gergin
coş
Ücretsiz
hizmete
yu
hazırlanmış
Teknoloj
uyuşturucu
##ebileceğiniz
ayrıl
tecrübe
diğ
Sokak
Fre
çür
haş
gelmez
edilemez
önerir
##lıyorum
nihayet
başvurusu
deneme
şansı
düşünen
##luyor
##alığı
ndan
alabil
##bahar
##stan
toplamda
Kanada
mecbur
Etkin
YouT
72
oturum
Işık
doktora
bununla
pandemi
##stil
ge
başlık
konusundaki
görevlendir
ilişkisi
devamlı
##avan
ihtimali
Uğur
gerçekleştirildi
Hakları
##dağı
gözet
yüklen
yelpaz
format
detayları
yapıştır
filtr
imparator
değilim
hızı
istemez
defter
Ola
kula
öfk
org
##umuzda
##tip
Saf
gönderilen
Tanı
özelliklerini
yolculuğ
Kazan
kedi
biliyorum
artması
Tüket
Tedav
57
##likten
Değer
##gatif
haric
##liyat
51
##delik
işten
taşır
##tap
Cumartesi
sorumluluğ
garip
Det
ST
burj
arkadaşları
Col
inci
##akende
mesleğ
doğrusu
Maç
##ikolata
ülkemiz
yirmi
##madığını
ilti
Da
çözünür
bende
oksi
imzalan
artışı
dua
bilgiyi
tamamladı
##omotiv
asansör
MADDE
epey
olayları
##gelen
##ester
##culuk
##azz
ağrısı
tanık
##sinden
reç
getirilen
Me
bilinçli
skor
doğu
bütçe
##cıları
krizi
stil
keskin
##lemektedir
meşru
yıllarında
Doç
Sık
heykel
çiğ
taşımacılık
yemeği
Örgüt
##ştım
nöbet
uydur
tabir
listesi
Kaymakam
2005
karn
kazanı
budur
verdim
yazma
parçaları
nas
##EY
okuyucu
seviyesinde
Rab
birbirlerine
##tisiz
İçişleri
nereye
karşılığı
ast
dayanan
kuralları
##alif
Gümüş
düşt
iktis
açıklamalarda
kaleme
Fiyatları
bilinir
##ani
Mir
Sektör
parayı
Cami
##asal
Yapılır
Sn
Projesi
Geri
işley
olabileceği
mol
##emem
bilinmektedir
saatlik
değerini
sayısını
seçin
Renk
Evde
##hiş
Uç
bilmiyorum
iktid
yenilikçi
sunulmaktadır
öğrenildi
Sta
##çısı
Temsil
serisi
keşfed
tadını
uygulanması
##diğince
dedik
toplantısında
aracılığı
küf
bizleri
Mimar
yüzyılda
Tesis
Giz
sağlanır
##lerimizde
##diğimi
sus
milletvekil
##uel
sisteme
Geliş
çam
evvel
Nerede
dediğimiz
59
gidiş
##ilmeye
bilmiyor
tırman
uzaklaştır
hakem
girmek
Tep
Dal
##lini
sizden
izleyen
tal
vurguladı
öncü
görüldü
##düğünde
Vatandaş
sakat
##arya
##elerimiz
##eygamber
bağırsak
sitemizde
sağlayıcı
okumak
Şanlıur
##EV
##anların
##landırıcı
sün
Marmara
rahatsızlık
##halde
erkekler
AA
sürecinin
anlatır
kaldıraç
Kadınlar
Ulu
kaybed
Öy
cihazı
koya
##aydı
Boş
uzmanı
ilgilendir
Hesap
tüketici
duyul
##eciler
##brek
sokağa
Star
açığa
boyutu
Vad
##NA
senaryo
yapıya
kararlar
reddet
devre
ABDnin
sağladı
##ayol
nazar
##sü
halkının
gelişmeleri
##lanıp
Yönetimi
etkisiyle
Konu
##iledi
##ınızdan
titr
çil
zihn
81
##RK
##ji
##wn
müşterilerine
düşer
fazlasını
##leyi
hissettir
yanıl
kıyasla
değilse
Kör
Kulübü
kesi
##ette
##outube
çalışmaların
kurucu
göstergesi
Kontrol
projenin
Toplam
##olos
Bürosu
şarap
03
ardı
isyan
Cumhurbaşkanlığı
Çöz
yahut
sorumluluğu
Sorum
etmeden
kullanın
ex
vic
izni
maske
isimler
plaj
kuvvetli
tazminat
Ren
##tek
atıyor
sitede
YouTube
dert
yaşamı
arttı
sürdü
diğeri
Başak
seçenekler
kılı
rady
##alıyor
adımlar
durumunu
con
##ure
sahibinin
##enizin
Marka
Federasyonu
kurma
Meclisi
evrensel
istedim
bağlamda
dosy
tarihinin
kalitesini
##ebi
galibiyet
ailenin
hissede
yoksun
İspanya
yağış
2004
Malatya
gibidir
gerektirir
##bilirler
gövde
##ATO
##onspor
tespiti
göçmen
Gol
çığ
##remi
Çiçek
Siyah
##lerinizin
yüzyılın
kitl
cümle
protesto
atöly
Eğit
Avustral
yılların
uyu
yaratan
denize
##liliğini
##ayolu
yazan
verin
maliyeti
dönük
görevli
döner
bileşen
Çan
##ızı
leh
silahlı
##lenerek
Londra
##operatif
ilişkili
Medi
şok
##ura
layık
kusursuz
mutlak
##luğunda
##ilmek
Bize
vermekteyiz
artıyor
kızar
bölümünü
portföy
##red
##vat
gerçekleştirdi
çif
hayatının
##use
Senin
gazete
olabiliyor
Öğretim
##FT
başarıyla
bizden
Başvuru
zeytinya
Kurumsal
formu
##diğinizde
inç
##asi
adlandırılan
##hai
Pazartesi
Anayasa
##portaj
ismini
##ld
Profesyonel
##emeyecek
sevilen
##ilin
Alev
##ayarak
etmekte
aldıkları
vurgulayan
tarihte
ul
muhtemel
sıkça
sektörün
##sanın
##acası
mıs
##amızı
sergilen
oluşturuyor
Yukarıda
topla
bölgelerde
yargılan
kullanıldığı
##taydı
Kovid
sensör
Nitekim
önemini
yüze
imzala
##burg
oyuncak
Cep
seçilen
semt
müsa
bireyler
##ledik
Belir
girmiş
teklifi
##deme
çanta
hastaneye
kendimizi
Trabzonspor
bakter
çekme
ulaşan
bağışıklık
hamil
Max
sıkış
olanların
tarihten
mineral
ihraç
bireylerin
kanalı
gemi
fazlasıyla
günümüze
günah
iştir
OL
sizinle
limon
##yeri
ötesinde
Üs
Yarış
solun
hepsini
fı
##ATI
##omuz
gösterilen
gelişimi
şük
tecrübeli
Gece
##anları
Fen
##ojistik
verilmiştir
Antik
##espor
##cin
##lanmaz
Aziz
Geb
şimdiden
devrimci
rahmet
bekleme
baktı
##ılacağını
olursak
idare
köprü
Yum
bileti
neş
ves
Fab
Trans
Emin
##layı
800
##gül
hastalıkları
isteği
##lub
##amin
broker
arta
vasıt
##ürriyet
##metik
içerisindeki
yatırımcıların
##aport
projeleri
Kork
IP
oluşmaktadır
donat
oyuncular
emperyal
üretici
yapacağı
##laki
tıklayarak
ALICI
Lisans
kavramı
sta
geçiren
AS
kimin
sebze
alem
kalması
bıraktı
Gal
##eceğinizi
##mates
almadan
mahal
süresince
Nik
yükümlülük
kullanılıyor
##rib
Model
##avuş
İsviç
Kore
##imet
##ometr
uygundur
Köyü
##asın
cerrahi
Def
##ilemez
##çası
ekibimiz
ışığı
##dıköy
negatif
Hedef
07
Ekonomik
Seb
Kem
##yr
bulacak
kek
Tren
olurlar
tabanlı
Elektronik
##İŞ
sınıfı
##kent
##rul
##izde
almanız
açılması
tatmin
koydu
figür
oynayan
NATO
damla
Eb
hükm
Whats
Komutan
şüpheli
diyebiliriz
birikim
buzdola
dediği
cis
Sigorta
insanlık
##lemeyi
benzersiz
yürek
Muğla
sep
verdiğini
sevdik
keyfini
tarafta
67
##mektir
memnuniyeti
hesabından
##uştuk
Erdoğanın
##atür
Bos
döndür
konforlu
ittifak
ediyorlar
Bla
gözleri
meşhur
##izasyon
geldik
genetik
analizi
tüken
lak
getirerek
Festival
kitapları
milletvekili
sade
yoldan
İstanbulun
##incan
bakarak
hamur
##ılırken
alev
Jandarma
##memektedir
gereksiz
olayın
##ıplak
##eyt
neh
makal
yapmadan
görüşme
cevabı
##11
Alı
##diğinizi
Örnek
isterim
kesintisiz
gebelik
cild
çırp
tarifi
##luğunun
basınç
ispat
düzel
oynadığı
Bl
Pap
Reklam
istedikleri
##tına
kuram
pom
dinlen
##leşen
anlatım
Hz
düzenlenecek
Bon
Uygun
bekliyoruz
paylaşmak
hedefi
Ağa
Kırmızı
okula
##ebir
##60
açtığı
##ideki
çeyrek
##nu
başlamak
olacaksınız
##opark
başlamıştı
Kombi
fırın
yaşandı
bildirildi
Silah
Uygu
strateji
Kadıköy
başkenti
paylaştı
odaklan
Keş
##çının
gelmişti
düşünceler
nükleer
Kaliteli
2002
##italist
##dunuz
başlıca
işveren
mesela
evrim
tüp
gözlerini
girip
öncelikli
##YA
semin
alışkanlık
Kayı
disk
##ularak
şimdiye
hakkına
##iyesi
kadını
cihazlar
yürü
hizmetlerini
Seçim
yaptırım
Birbir
##IS
onlarla
##tina
tarihe
##kili
benden
Oyuncu
oluşuyor
Koc
##don
Kü
sürecin
##yn
Değişik
##liydi
##ümüze
şartlar
fe
Nor
rezervasyon
verilmiş
haklarını
şeffaf
yüzüne
Edir
görülebilir
Ob
Lat
##üldüğü
arasındadır
forum
##sav
kullanılacak
randevu
Yazı
##beri
takımın
Dah
sarf
etmem
##ımdan
edildiğini
bölgesel
Kanal
Meslek
Sk
Je
kadına
yağlı
çıl
Akıllı
kitabın
Afgan
çalışanları
aydınlatma
onar
##atik
Suudi
Cihaz
##amayacak
sertifika
sevgili
düzeni
bet
devleti
##mes
ithalat
raporu
sök
##lamen
fiyatlarla
girerek
söyleyebiliriz
Festivali
zafer
##40
türden
İla
seyret
##üsünde
sağlayarak
http
ayrılan
zihinsel
redded
Dek
şekillendir
havalim
Zeytin
bakmak
Ziy
##mıştım
Unut
pilot
yazın
##encere
63
ağı
işlemini
Medya
##üsünün
tavuk
sağlayabilirsiniz
yarısı
belirlemek
##losuz
zira
lev
İsveç
Kapı
topu
tir
##feri
naz
##DV
deyişle
sanık
attığı
ağırlıklı
kültürü
190
yaşamış
##şun
nis
##abilmesi
endişe
pür
2003
eks
durak
tac
##ebileceğini
kurduğu
yıkan
ışın
öyk
gerçekleştirmek
Japonya
##ğday
oynanan
olabilmektedir
istey
varol
İnsanların
atılan
##ortası
##onsor
konuyla
pet
##ilme
Çocuğ
vücudun
taşıy
verdik
diyorum
##lanmasına
şahit
##cinin
mülkiyet
şehirde
modül
Doğum
İspanyol
##ülerek
##iyorsanız
##osunu
##ayıp
##lanırken
Sc
##SY
konularında
##lının
ikiye
Konseyi
sayg
Geliştir
cüml
hattı
sözleşmesi
savaşı
##eleme
doğrul
daire
me
olsaydı
##laşan
reak
stratejisi
Ba
yönetici
hassasiyet
uyuş
zamanın
Gelecek
özenle
müthiş
göreve
araçların
Koruma
kıymetli
artar
aza
balkon
ülkeleri
görmeye
Veri
istifa
##ecilik
okum
sürdüren
Küresel
Hükümet
problemi
haliyle
Soru
boğaz
ikamet
##dilik
##şak
reform
Tuz
##şek
haftanın
modeller
direk
Balıkes
hikayesi
bant
##işli
Ermeni
##dukça
rejim
Avustur
Perşembe
gerekçesiyle
Komisyonu
Eur
olmay
dönen
##itan
temizleme
dönüm
##ache
giderken
##uyorlar
fiyata
##ciğer
##ikler
##izmi
AD
beklem
değiştirmek
##dırma
pap
mahall
medeniyet
poli
04
bulgu
##amanın
Firma
Ta
62
hang
hastalığın
mum
başlayarak
özelliğini
##lenebilir
##A±
##gur
güvenc
##lilerin
molek
röportaj
yazılan
tüccar
açıklamaya
##TV
##cuk
##ts
öp
Mahkemesi
##lamıyor
##üğü
bulunmamaktadır
şö
Elaz
olmaksızın
satılan
demo
toplantısı
pik
öteki
satır
Yüksel
yazımızda
Köp
Çocuklar
##odu
Havalimanı
##obi
##ranın
lif
yöntemler
tezgah
nün
Devrim
##antol
haricinde
kişiden
Çarşamba
sala
karşılamak
milliyet
CEO
eğitime
pu
Uzak
yır
##Kİ
işlemlerin
kılav
Mari
dönüp
dikkati
ilaçlar
##fez
Orada
yaralı
Satın
Char
sayısız
mimari
yavru
Ur
lise
Alış
dokuz
Noter
##ileriyle
örn
başardı
midir
Bayrak
Basın
##vil
kategorisinde
olacağız
yapıldığını
Devam
tef
müzak
Hıristiyan
##dığın
bağlantılı
Bes
artı
değiştirme
Bilin
Brezil
Dol
##ida
Malz
Holding
Bölümü
İster
kullanıcıları
müst
geçirdiği
dördüncü
görmez
##indedir
Terör
AV
filmler
katman
geçtiği
Sendik
bakımdan
Müzesi
##için
temsilcisi
geçirdi
ruhsal
hizmetini
yıp
idrar
##pp
adli
61
kaydeden
girdiği
kanseri
##berg
maz
##tic
##oo
Sürekli
İlişk
salgını
##mad
##th
İhtiy
kütüphan
##and
Aslan
koşullar
viz
##emaat
kalmaz
Yavuz
Fel
Oku
ekleyin
verip
Git
bırakın
etkileyici
deplasman
girecek
hayv
Form
cüzdan
baktığımızda
getirilmesi
dünyası
yanlı
Acil
700
adresine
iyisi
##allı
promosyon
yapılacaktır
Hacı
İlgili
yorumları
Halil
içten
##abileceğiniz
##aylı
##osun
herkesi
yaratmak
##rad
##mik
hatalı
başladık
dönemine
kazanır
misyon
##üyordu
Gelin
kilis
babasının
War
##laşım
Bayan
Muhammed
karşıt
kullanışlı
##ılmasının
##name
Arabistan
Antal
tutarı
lı
şof
hissi
##elli
3D
##omi
Kilis
gereksinim
##adiş
##lanmasını
bayrak
kadros
##idin
Suriy
Caddesi
bakır
oyuna
düşünmek
##ish
düzenlendi
bomba
açıp
noktasına
Belg
atmak
çeşidi
Ul
hücre
endeksi
böcek
Kardeş
Uzmanı
Akşam
##ladım
hareketleri
muc
planlama
kişileri
Red
yaşar
##OM
dır
sars
derhal
Suç
tuvalet
Onların
Dig
gökyüz
tahta
Lisesi
müsab
duygusu
MP
isimleri
##iver
Ateş
hastaların
gençler
##ino
##maktadırlar
kardeşi
tebrik
avantajlı
havada
kucak
Ziraat
kg
üzün
kapitaliz
görünüş
dilediğiniz
içerikleri
duv
PS
Canlı
manzar
77
şan
verilerine
geleceğe
##resel
ert
oturma
keşif
insani
eksikliği
Kayıt
##luğuna
##etli
önder
muayene
kazı
##leşmiş
##işe
harcama
Bizler
hükümeti
seviyeye
yang
##lerimizden
İb
terap
sh
çalışanların
##otosiklet
Hatay
heyet
iOS
Günde
Selim
Yerel
##arın
##mıyorum
tehlike
##duklarını
##idor
##pınar
nitelendir
Bölgesi
komün
Köpr
parçalar
Du
Şehit
tüketimi
##çü
ilgisi
##ındık
hepimiz
Oğuz
arayınız
kapsayan
nik
##sedür
yatan
büyüyen
##stri
üste
yazdı
gölg
List
içme
Site
##urdu
##ith
Onayı
riskli
özelliklere
##mu
##UT
hastane
metr
meme
gerçekleştirilecek
boyutlu
Tanr
Ref
Gr
şeylerin
ailesinin
##üğünü
edebilecek
telif
konsept
bebeğin
İstik
##ald
je
##PG
##yim
##ırıl
Üniversite
##yurt
##rekans
Na
##adal
müşterilerimizin
sıç
Ankarada
Mevcut
gene
İnan
verirken
sözler
gerilim
garantisi
##Lİ
##amadı
kontr
##matı
getirildi
##VID
şidde
Şark
insanlarla
gerçekleştirdiği
yapılmalıdır
duya
cezalandır
kapısı
sürüş
geçmişte
Müşteriler
başlamadan
AP
rolü
toplanan
sosy
##lerimizle
Geniş
klinik
##oksi
yeterlidir
Lin
motoru
liman
##lenin
##lemesine
çatış
tarafa
##tezi
çekirdek
bot
Aşağıdaki
sik
Sup
çıkmaya
mantar
##ason
Olarak
##cağımız
çalışmanın
sef
tamamını
paketi
kavuştur
Mosk
mıdır
ekledi
yazmak
kalıntı
birşey
##aciğer
yapıt
etmenin
Mahmut
##OK
Yeminli
politikası
##ümüzün
katli
görüldüğü
##bas
Kesin
aley
taşına
Amaz
##mec
başlandı
Yahudi
Bakanlığının
işlemlerinin
mekanik
atar
yüzünü
kirala
başrol
katılma
sorusu
limit
##oza
Por
belgeler
ET
işlerini
olmasın
Üçüncü
riskini
fit
fan
##faiye
Kullanım
KK
kendisinden
Fuar
Manisa
çalışmalarının
edenler
sevdiği
bırakıp
Balkan
Eth
onlardan
liraya
Bakanlık
belirtmek
sorgulama
Kupası
küm
Nes
zorla
Üretim
dışarıdan
personeli
##üsüne
##kas
##ekom
Tip
KAR
kader
##ğin
halini
fıkr
üyelerinin
örgü
olanağı
varmış
kitaplar
bürok
bahçe
Ep
çekerek
etmesini
sebz
##epyeni
##mıza
destekleyen
alındığı
Nakliyat
##ikmet
çikolata
##kes
antrenman
Gu
suçlu
Demek
Danışman
Kripto
Süt
Hotel
oranla
kurucusu
Mc
geçmesi
kopar
gümrük
temsilcileri
bam
Yay
sark
açıklanan
Mavi
Maliye
Bayramı
paranın
Elazığ
noktaları
uf
yaşamaya
Salon
AY
tedavisinde
sakın
Wat
Hac
##orld
##cül
vermez
Word
yazılımı
işken
Dört
tela
kuruluşu
Sıcak
Valisi
Giriş
##olan
deh
farkına
##zir
yaşadıkları
##ücel
68
##veni
geliyordu
bakıyor
çadır
hayati
##lüğüne
haberine
çalışmalara
yakında
Teb
aktör
takib
##ergah
geçecek
Çat
kendiliğinden
Büyükel
Bülen
şap
bitcoin
serin
Lir
Duvar
satan
Düşün
##cileri
Kaş
uygar
belgeleri
kendime
fiyatlı
vicdan
##BA
itiraf
##onlar
##liyordu
çoktan
elden
maddeleri
Ele
saçma
intik
özür
süp
##mamaktadır
arayüz
saklı
akraba
##emedi
##bilirim
fırça
Bakım
olacağına
kadrosu
konul
##mamalıdır
kullanabilir
samimi
##uki
##miştim
sağlanan
Onur
etmeleri
##oni
##tiz
kronik
teşkilat
Balıkesir
Reh
Mücadele
gibiydi
dalgalan
##eysel
alay
Sonrasında
##iliğe
TRT
vel
olayların
toplama
kasab
sözcü
istediğimiz
endeks
gösterebilir
##dinde
Tez
meşgul
Kongr
gelmek
şehirler
yönelt
Forum
eman
##ox
kısmına
##ümüzü
kurumların
Ask
Avrupada
ücretleri
ifadesi
Bunları
##izin
##ayn
aydınlat
Ki
Stratej
Hoca
beyn
tavan
Dost
m2
bankalar
Bülent
gezegen
yüklü
rah
ayırt
kuşak
verdikleri
Lib
Cey
tanıma
##eğiyle
OS
##liyorum
ilah
##ilmesinin
Ziyaret
mantıklı
Salı
oturan
kavg
Kolay
lav
zan
Gec
edilecektir
kesint
etkinliği
sayfasında
sorusuna
Abdül
rit
Çetin
katılmak
perakende
180
kokusu
ayağa
bonus
tev
seans
yolun
eti
atarak
terörist
Vek
peynir
gerçekçi
kuruluşları
haftasında
rica
edilmesini
buradaki
alanın
kızın
##eceğinden
##jinal
##EP
mağlup
Turg
taşımaktadır
müd
sınırsız
Kartal
böbrek
##omen
##ling
best
ücretli
ahlaki
başlığı
kullanımına
laboratuvar
cadde
çözümleri
https
oynama
minik
sözlerine
yürüttü
prosedür
##hap
kalmaya
so
bireyin
belirlendi
Cin
kentin
kaplı
depresyon
çoğunluğu
BİR
Toprak
maddenin
Pop
Türkmen
##olojisi
turist
kolaydır
##dere
##press
Bahçeli
işlevsel
pantol
alüminyum
tanınan
##amızın
oyuncusu
duş
Zar
##sün
Alp
gayrimenkul
aksiyon
##balı
katlı
santral
##ğe
çıkabilir
amir
dikkatini
Yık
İŞ
makul
##ağından
##vin
gözle
özn
bulunmayan
Tör
Tal
üzüm
yetki
şaşkın
Ölüm
dü
değerler
##tiş
inanıyorum
##ganda
yayınlandı
yukarıdaki
kurulması
##app
Merkezinde
##mazlık
buhar
Paul
ileride
kılan
görebil
birimleri
Bet
Ekonomi
Mit
oyunda
sürecine
Makin
gerçekleşecek
##lari
ga
1980
sözleşmeler
düşünün
teşhis
by
hesaplama
##adişah
çekilen
gözü
Bro
##ınma
ödün
Çam
güncelleme
simg
##ft
verebilirsiniz
##amıza
hacmi
göstererek
Korun
aksi
kurdu
toplantıda
ekim
Tom
değişir
çarpıcı
bran
Sağlıklı
edemez
##arş
etmey
zul
##work
herhalde
tutk
staj
hafız
sıkıştır
merkezleri
##ediler
delil
öğrencisi
##linin
##GS
edeceğini
sponsor
söyleyerek
koşt
tırnak
Sinan
gençlerin
akademisyen
önlemler
şamp
Dağı
sesle
##atörü
Ekip
Dönem
çıkaran
ilanları
ayrıldı
##gele
kararını
yaralandı
Öztürk
ettiklerini
ölen
solunum
kenara
altından
Pe
Kürd
##mazlar
##lükte
sonlandır
va
Buz
çalışarak
programına
##lığımız
hazırladığı
##inda
baskın
olmayabilir
##düstri
artarak
Öğrenciler
Ortadoğu
barındıran
Kel
güzergah
##udu
AM
kendiniz
##ilebilecek
soyut
kurallar
çub
gerçekleştiren
çıkarma
Endek
mesajı
##ptom
ağac
ürünlerinin
69
Person
Plus
İncel
güvenle
ömrün
izlem
domates
İY
macer
açıklan
reng
kapsa
güçlük
rüy
Sorun
internetten
76
sahada
soya
##dava
##unt
adresinden
##ümde
Televizyon
1990
##ıklığı
##leştirilmiş
ambulan
##eğince
villa
çim
ayının
kapitalist
işg
ifadesini
karışım
##dıran
açabilir
Arn
anlaşılır
Belediyesinin
##alır
öldü
Koronavirüs
çıkmıştır
##ayacak
kanaat
##akal
##LU
menf
Soğuk
yetkilileri
başlattı
oluşturma
##taç
Kanununun
çalışanlar
bebeğ
trav
pis
##fe
yaşadı
yapacağız
Nef
Lak
yollar
dökül
##ington
maddesinin
Blu
##io
detaylar
emr
beklentiler
##GK
##ower
öğrenim
ilgisini
##leyse
yaşadığımız
çalışmaktadır
KDV
Birleşmiş
eli
inceleyebilirsiniz
kimseye
programında
bağlantısı
tarihin
gereğince
Dairesi
niye
yükümlü
cezaev
Katılım
getirecek
Fah
hastanede
##etle
geleceğini
atın
##gazi
Zeyn
Konut
##yolu
sayfada
kredisi
Seni
işle
Fizik
##mesin
şüphesiz
##amızdan
istediğim
daim
##oth
açılır
yaptığım
##rağı
manzara
diliyorum
çeşitliliği
1999
alındığında
Prot
belirlenir
##Tİ
Koş
söylediği
saptan
kib
planlanan
gördüğümüz
sözlü
duyan
Dam
talepleri
garantili
kadınlara
olmayacaktır
##eğinden
Hikay
terim
##cal
küp
Eve
çeker
78
filmde
açıklamasında
geçin
andan
kadem
##ebilirim
##ılışı
Dayan
dolaylı
Enstitüsü
kullanıcının
yeryüz
ilke
üretmek
alıyoruz
##laj
geçip
toplumda
tıklayınız
73
zordur
arayarak
MS
faaliyetlerini
##unuzda
yurttaş
mücadelesi
Geor
elem
2001
##inizdeki
zamandan
saray
elbise
##sus
##cağından
konusudur
fos
sağlığını
miz
yollarını
harc
yepyeni
alacağı
kurut
##iğit
##ersek
savaşın
Kalkınma
veda
##ınıp
döneme
##iyorsa
sisteminde
bilinmeyen
Şanlıurfa
faş
gazeteci
taşıya
Sonunda
yapabilecek
değerlendirmek
Girişim
Direktörü
doğdu
global
kavga
yaşta
Kamp
beklemek
opt
kesme
Ga
yazıda
##emeye
zahmet
başarılar
anlatmak
şaşırtıcı
bardağı
Kimi
Konferans
dolap
Cih
koşullarda
##tab
One
gideceğ
##lenmektedir
bilginin
yatırımı
cay
Ra
Eğitimi
felsefe
Esen
vakti
##işkin
##ingir
Durum
teknolojileri
79
euro
yöneticileri
iv
vermeyi
Hoc
##eliğine
çıplak
##lamadan
Burak
hayvanlar
düşünme
güçleri
##ung
esir
Gre
##cell
grubun
ihtiyacını
yuvarlak
##abileceğini
dayanarak
göreceksiniz
işareti
Kum
hev
saldırgan
Milletler
##irse
problemleri
hükümetin
Belç
çalışacak
nar
fiz
##larm
Cengiz
ülkeden
Evden
adil
Arslan
ithal
vasıtasıyla
##teydi
sesini
Nok
98
farklıdır
##lıyordu
Metal
maka
müddet
Bence
aleyh
kendinden
Kitab
güler
Şeker
kırsal
ülkeyi
Foreks
##bula
74
gitmiş
Video
Yalnızca
üyeler
direktör
günlerinde
Allahın
ABDde
##OP
kayg
pres
kiralık
konumda
Gran
##KS
hesaba
kapasitesi
Ekran
medyum
##larınızla
grev
kablosuz
Afyon
##barat
giys
peşinde
bitkisel
Yaşar
kurtulmak
akciğer
bilme
gerekiyordu
EUR
yaşandığı
##olasyon
dib
borc
katılımıyla
ster
##madım
PD
82
Avustralya
Belgesi
gözy
kalitede
##fli
teknolojinin
gerçeklik
##hid
##emeden
Üskü
Çavuş
düzeyinde
UN
bildiği
kurulmuştur
##adüf
değerlendirmeler
otuz
gittikçe
##II
kurumları
hastalıklar
köklü
fav
bırakmak
topluma
kazanmış
bag
yapmıştır
sorunlarını
pişman
menfaat
Div
92
Ürünler
metab
köşe
Mahallesinde
müdahal
sürecek
kullanıcılara
koymak
söndür
enstr
masal
öbür
Koz
buğday
kurtarma
Çeşitli
##alarda
tasarlanan
çıktığını
acel
durumdan
eserleri
olduktan
fes
intihar
bük
sorunlara
Hazine
##ımlı
destekler
##cha
İstan
Kızı
Edin
oksijen
tv
yolla
Est
Almanca
olanları
tanıyor
DA
alacağınız
adaylar
endüstriyel
buluyor
avantajı
İle
kuşkusuz
toplumu
Gönül
Üniversitesinde
Meydan
çant
aldıktan
vaat
yazısı
bilgisini
algılan
lan
doğrultu
varan
yetmez
giriyor
##lenmiştir
##ültü
tarihlerinde
##ülecek
karakteri
yanınızda
Gelenek
Şef
yüksektir
seviyorum
masaya
##mus
oynat
yatırımlar
Ayak
##rah
azaltmak
durumları
Klasik
kayd
süreçleri
##ehr
sonuçlarını
aldığım
kupon
84
##unuş
sizde
salonu
##ney
kabar
Biy
yazarak
grupları
ulaşabilir
##poz
gruplar
Kahv
sürer
belgesel
talebinde
tencer
Binomo
düşünerek
yapıda
tema
belirle
BI
Feth
semptom
ekrana
Sınır
geçebilirsiniz
Göster
##tasyon
direniş
erkeklerin
koltuğ
edeceği
ertelen
metrekare
tarla
Başsav
başladılar
gençlik
Jam
askı
taraflı
TS
Sanki
We
Görüş
nisp
mült
Tamam
ışığında
DS
Alex
##ance
tabl
##göz
gösterge
Edi
siteler
##ştan
davası
##çinin
Avukat
##ymp
##LAN
çıkarılan
gerektiğine
TH
Bulgaristan
etmeyen
##graf
milletin
Youtube
içerikler
##lamaktadır
mesele
sevinç
soluk
sistemler
ER
işine
konunun
huzurlu
##üzün
muam
biliniyor
tıkla
kazanım
##erg
##alep
arkadaşım
atom
atış
dergi
geliştirilmesi
##mesidir
dezenf
dışarıda
işlemlerinde
Salih
İnce
tutuklu
sesli
Bulut
birebir
alçak
Özer
açıktır
köyü
##azzam
USB
tahsil
evlat
ayın
doğalgaz
bors
Gay
sezonu
ilçesine
##diğinin
boşalt
Gazetesi
kaydedildi
farkındalık
##odik
Pir
##ilde
kuruş
İçeri
##ita
##oterapi
Macar
radikal
ıslak
Benzer
prensip
Bizi
Amazon
Henüz
Sitemiz
hazırlanıyor
EN
keç
##tions
sırasıyla
yapılmasını
Paş
##grama
dinle
lazer
ünit
kole
Ez
yaşına
alınmıştır
yerin
yıllarca
Dönüş
Afganistan
yetkin
niteliği
##acılık
zarf
Usta
emeği
Öğrenci
derinlik
ertesi
biyolojik
unvan
oynamak
Sonuçta
çeviri
imkanları
##leridir
CD
Kadir
muz
kararları
##iyonu
Bolu
hastalar
muhtar
Alk
gündelik
takibi
akışı
mezunu
##desi
muhat
YÖ
##ome
meraklı
hızlıca
patates
900
Beb
taşımak
vergisi
##onim
ilerlem
İndir
Yunus
eskiden
yuv
##calı
nihai
müşterilerin
başlatılan
Kuru
##larsa
##low
Ukrayn
aktaran
##maye
Akın
##read
##meliyiz
kılavuz
geçmeden
ediniz
Vakıf
afet
##örler
dünyasına
standar
enerjisi
şekeri
97
frekans
yazılar
Fet
##ora
buluştu
çektiği
saygın
aşağıya
##mun
üstelik
işsiz
Kağı
konumu
##İH
puanı
devamı
burası
açarak
Black
Sovyet
##sunun
başladığını
##kender
##ürt
baraj
görevleri
pe
İslami
ömrü
tahsis
kurumun
bilmeyen
doları
işçiler
##lerince
refah
yapının
şunları
Rak
gördüğünüz
Bizans
fiziki
okudum
kel
etkinlikler
okuyan
konumunda
vermiştir
83
molekül
gelişmesi
sesleri
bellek
vol
##ladığımız
IŞ
veriliyor
##ont
öğrencinin
up
mevdu
##rid
sınırı
##IT
##anızın
hizmetlerin
ch
belirtileri
Hint
##çuklu
durumdur
boyn
bölgesine
alanındaki
engellemek
Edirne
menü
belirlenmiş
çocukluk
açıl
cemaat
kömür
Aday
tutarak
aşan
geleni
açısı
Üzerine
evli
Gires
oranının
çözmek
##ülten
##main
sayılan
kısmının
Anlaş
Maden
yaratır
##emiyorum
yapmanın
pasta
kaldırılması
arındır
##lıklarını
litre
ucu
bro
sözünü
##biyotik
zihin
astr
gittiği
Albay
yapısını
##urun
##lendiği
##ESİ
arma
İstanbula
bölgelerinde
##avantaj
temelinde
Beyin
Türkler
pamuk
tadı
renkler
fot
##val
imaj
71
Sağlığı
yapılacağı
dakikalık
ortağı
reaksiyon
Taşıma
##deler
##amda
ayına
ipuç
kuruldu
kalmadı
##diğimizde
başlayıp
ürünlere
işçilerin
sanıyor
karaciğer
yayınlan
Arda
etkileşim
liber
muayen
Mün
bizde
##fan
##ebilirler
COVID
İnşallah
kalkış
cumhurbaş
mücadelede
engeller
##lenmesine
mükelle
dersleri
yönü
resmen
muhaseb
oluyordu
Market
otopark
##mayınız
##uştum
kökenli
kilometr
us
edebilmek
özelliklerine
toprağa
##gusu
ısıtma
tasarlanmıştır
iadesi
hizmetin
pasaport
Sevgili
Ermenistan
##diki
sitesinden
##emediği
##mışlar
İsviçre
İYİ
tekniği
uğur
##AĞ
##flix
Selçuklu
müj
hamile
th
Yalçın
Hy
Bakır
Efendi
cevabını
benims
ekipler
açıklamalar
yönünden
Sana
##larımın
İlaç
fotoğraflar
cok
arazi
işsizlik
##ılırsa
Analiz
##ilyon
sözde
yaptıklarını
Standart
Tama
##izme
vas
Gro
sanı
##paganda
##tia
güvence
bazlı
kullanılamaz
İşletme
##ozof
müraca
uzmanlar
tabela
Özdemir
ekme
aradığınız
Test
kurallarına
##masa
olacaktı
##ational
nazaran
birbirini
biriktir
etmeyin
çalışmayı
buçuk
İZ
ettiğim
mevki
##ank
Fransızca
##CO
SATI
Davut
##tara
adında
birç
##uğu
ülkelere
olmadığına
aro
işbu
##tam
##ASI
Örgütü
adamları
##leği
##imizdeki
Daire
##dığımı
teorik
ndeki
belirlenmesi
Arama
aldat
Eşya
##elikop
takvim
demişti
##ekat
edelim
##che
##siyum
Gem
musun
##ünüze
binanın
füz
##elerindeki
kapanış
Kurtul
My
##sından
eğitimini
##leks
satmak
gelmeye
Kahramanmar
açılmış
geçtikçe
konuşul
NAS
##lata
##mayıp
kıt
erdi
Ülke
##piyat
olduğunuzu
karşıtı
gücüne
göstermeye
aldır
düşüyor
bölgeler
##memiştir
kurumu
kolaylık
vakıf
ci
kazanıyor
Evren
hükümleri
##lana
##langıç
96
algorit
memnuniyetini
görüntüler
Acı
Bulun
ibadet
Ödülü
tarihini
oyuncuların
deposu
romantik
arı
##rist
parma
sayfası
Sitemizde
Küt
Bugüne
##dükten
##terin
ertel
Vücu
çıkardığı
komb
Beton
##ase
##yetik
sandaly
cihazları
İçinde
##ciliği
##OĞ
Mahk
kurşun
inşallah
formül
mesai
eserler
Dub
Nelerdir
Buradan
##FF
şüphel
##ilmesinde
taht
zarif
Döv
Buradaki
şeydir
sigortalı
##tiniz
tün
Cilt
86
bozukluğu
Pamuk
##steri
onayı
Çeki
hakikat
koridor
markanın
Takımı
Global
meselesi
yapılırken
ödülü
##acaksınız
örgütün
oluyoruz
Doğa
gelebilecek
yoğurt
KKTC
paralar
unutma
Yazılım
PR
##buki
##doğan
Ayşe
87
##minin
muazzam
##veç
etap
##unuzdan
Türkiyeyi
bulunu
tesadüf
İstiklal
##App
işlerin
Esas
sunuluyor
misin
boşal
iyilik
##falt
##ınızdaki
edilmez
##box
tüf
##fesör
##gon
Ni
İşin
poş
##iliğini
sergi
başlaması
renkleri
etkilerini
##oliz
Üye
ışıl
eğitimin
sitenin
Kuruluş
çekip
zorlan
fotoğrafı
olasılığı
soruların
sahiplerinin
almıştı
yükleme
etkinlikleri
vuruş
şehre
bazında
tamamlayan
89
Polonya
bölümünden
çaresiz
dönüyor
##ınak
Apache
konuşmak
dengeli
emanet
etmelisiniz
David
Rusyanın
muhalif
Tamir
##OB
##TL
çılgın
görevlisi
Nil
anılan
ihtiyacımız
Mutfak
başkalarının
Koordin
gerçekte
ruhsat
Portek
özelliğine
incelemek
doğrultuda
toptan
IM
Sm
kare
motivasyon
çoğal
mutluluğ
yazıyor
hayvanların
çeyr
harita
##ARI
müc
##siyle
yaptıktan
Gelir
Olymp
olabildiğince
kenti
İskender
yalıtım
Kahramanmaraş
güvenliğini
motosiklet
Anayas
Hürriyet
Kiralama
hangisi
##mece
iman
sonuca
turnuv
##lamasına
tasarı
##ifi
solu
##iğini
saatler
fotoğrafları
Çözüm
parası
Kalp
izleyebilirsiniz
Erdem
Yukarıdaki
İhracat
Ayr
Körfez
birisidir
Neyse
düşünüyoruz
Netflix
aniden
ilerleme
##avut
isteriz
önündeki
insanlığın
cazip
benimle
ret
miyim
arkasından
gündür
##dön
yaptırmak
çir
diyalog
hazırlamak
Başkanımız
uygulamayı
uygulanacak
##birliği
burs
ölümü
kapıyı
Wash
gezin
okulda
irtib
##önü
internette
denge
Olim
tedbirleri
başarısı
iskel
dışından
girmesi
##lerinizde
Sil
miydi
Korunması
serp
dolandırıcı
Tunc
Umar
yönetiminin
sağlanmaktadır
korur
inceley
Vit
##yaman
fed
##TA
Çel
çocuğa
kırk
etnik
şeref
Lirası
##ony
örnekleri
##so
verdiğiniz
karara
Birlik
önlemleri
inanc
karıştırın
dizayn
gerektiğinde
otor
istemiş
başarıya
ceviz
yal
Karaman
şehrinde
belirleyen
##malarına
UY
##rey
gerçekleşir
##dig
kişilerde
imar
Ağrı
masum
nitelikte
birlikt
##wa
koruya
Sad
başlangı
Tol
peşin
neye
Kısacası
ilişkilerin
##üğünde
Zafer
Başbakanı
verilere
##ulları
şeklindeki
##sed
karşılaya
Adnan
adımları
korkut
##avüz
kağıdı
Hala
kuran
kocaman
ambulans
malzemesi
##ğunu
enj
çalışmasını
Trafik
Bing
babam
##ınızla
##iyordum
açıyor
propaganda
burç
Bis
gürült
seslendir
Berlin
dikkatle
özlem
adımı
fiyatlarını
Pandemi
teknikleri
kitapta
kullanılmış
Kud
yatay
hukuka
tutarlı
geçirilen
şüphe
kaldırıldı
##esk
##PSS
tahliye
gelecektir
öneriler
Kuran
yazmaya
borçlu
seçerek
diyabet
çalışmalarında
gerekebilir
##lanmak
##uştan
Avrupanın
çocuklarının
ürettiği
yut
sanatı
Tatlı
mesafede
UE
dizinin
BTC
yanından
Yönetmelik
uzaklıkta
çıkarken
Okulu
kalori
finansman
##enlerin
##osta
yurtdışı
Nar
Biden
Yoğun
fas
Şüp
Şer
gönl
soğu
Marx
konulu
faz
yapabilmek
omur
annem
dezavantaj
##rasi
Geleneksel
yararlanmak
##ff
kumanda
##ografi
gri
##vir
##oğl
kullanmayı
##abey
cumhuriyet
çözül
##ılmamış
getirmiş
çıkmaz
arkasına
bırakan
iddialı
kalmadan
İpek
çerçevede
kaldırmak
maçın
İşçi
başkent
TÜRK
aktardı
yapılar
##tas
ömürlü
bildiğimiz
##isar
##laşır
coğrafi
fırsatları
Nas
##lası
şimdilik
vesile
Ofis
piyan
ekleyerek
açın
Wi
##ladığını
suda
sayıları
##atlar
yapısal
Boya
Avusturya
##içeği
##ongul
adap
listelen
yöneticisi
durdu
öğrenebilirsiniz
Hua
partinin
##osistem
vahşi
hepimizin
bitim
işlemin
Hizmeti
elma
gittim
sınıflandır
koyup
Fon
basamak
tank
aileler
hareketle
oluşturmaktadır
lojistik
taksi
Başakşehir
düşündüm
yoğunluk
gecesi
kentinde
##başka
seminer
geçmişi
Garanti
destekli
macera
işlemci
##osunun
bırakır
##ıh
Hele
##onguldak
kolon
TLye
Önümüzdeki
1960
klav
iştah
aynen
sitesine
yerlerden
ferah
kampanyası
##enizde
karşılaşma
fren
başlarında
hırsız
ortamlarda
BB
##SA
Yeter
üretilmiş
Tap
van
##akkak
belirtiliyor
##umda
##ota
çorba
rız
defalarca
##ava
karışımı
metro
##edd
Bö
ikil
kalkın
dinleme
hikayesini
Key
oturup
razı
Türkiyeden
##ersp
aklına
bırakarak
Sizler
yapısına
cenaze
Erken
Muhar
##hen
uygulamasını
oyuncuları
yerlerinde
World
kanama
muhabir
Komut
madal
yayınladı
##das
sözlerini
yaklaşımı
anlatmaya
sendika
yaşından
tedbirler
Turgut
bankacılık
rakib
tekstil
belirtiyor
Şiir
dediler
##cilere
sü
avantajları
düşmüş
yanındaki
koruyan
Adan
İlan
butonuna
##iyse
sütü
Tekrar
çalışmada
Trade
olduğunca
rutin
Eren
93
verildiği
kimliği
yaşıyoruz
fırtına
oldular
Herkesin
seçkin
##tiçi
sağlayabilir
nedenlerle
Otomobil
İsa
Cap
Tekir
sitemizden
Aşağıda
Çukur
sosyalist
Arnavut
GÖ
##ulamaz
Yeniden
kötülük
##bit
SMS
izler
Dernek
mav
termin
Wil
kasa
gücünün
yeğ
tümüyle
süpür
Basketbol
Gü
Kli
Moda
görmesi
gelmiyor
başlayabilirsiniz
tansiyon
tarafın
Zonguldak
sahiplerine
indirmek
benzeyen
##lamasını
##üse
Yayınları
şartlarda
belirtir
sarım
iseniz
fakir
koyan
muhafaz
bulunabilir
sağlığ
94
##gir
benzet
Ten
IŞİD
sendro
düzenlemeler
plak
Devleti
##sten
kuz
Yarat
Anti
tayin
kurtarı
kentsel
fedakar
eğitimler
Kırk
müziği
sundu
imp
etmiyor
malı
ekle
##fendim
##ilmeli
##mis
LED
hadis
belirler
Belli
sistemde
##laşmaya
zorunludur
esin
sürek
##icil
AF
ağacı
stü
kullandığımız
zamanki
uygulamanın
kullanımını
uygulanabilir
DNA
rev
Milyon
seçmek
fazladır
yazarın
Hamil
##DK
frag
##bal
Telekom
bitti
haklarına
programlar
töreni
go
Cevap
Otur
##mine
##alisyon
Ödeme
oturt
çekirde
pirinç
okulu
apartman
fet
##port
Hepsi
Başk
##arn
tercihi
kullanılmıştır
Flor
başkanlık
Sinema
öğretmenler
Güçlü
Dern
Kazak
nedenleri
Sizi
##aktif
çalışın
##rettin
erit
Tas
##ott
tarama
##üsk
##afe
Piyasa
##CA
suyunu
##ılmadan
türüdür
yama
Diler
##oley
bulundukları
dersi
##IA
tüzel
Frank
##ksür
kazandığı
ileriye
yazıyı
Buraya
doğanın
nüfusu
Huawe
Ümit
çalıştığını
##atları
pandem
maddesinde
yönden
Batman
Polit
Hadi
Fazla
dosyaları
özgürlüğü
çıkışı
görüp
diğerleri
##xt
karı
Verilerin
WhatsApp
dayanışma
Beden
faydaları
konuşmada
sağlıyoruz
eşyalar
biten
üncü
##ovasyon
özdeş
görülmesi
Avrupalı
arttırmak
düşündü
##ÜR
yeteneği
alkış
##çin
izolasyon
edine
berek
desteklemek
bulduğu
bini
Tuğ
##diğimde
Gazete
##MB
##oksidan
Ayn
##tıkça
vermişti
Kongre
akşamı
yardımcısı
kongr
Başarılı
Eser
##urlar
istiyordu
Seyahat
kirli
UEFA
kampany
##ski
keyfi
ameliyatı
##tıklarını
##lerse
Halı
tarımsal
ürünlerde
Arapça
##raj
CN
##irim
kabuk
##over
##şa
pürüz
Mete
dersler
mükellef
ayrılır
feder
gözlük
City
Birinc
Kole
duyuru
İkin
##imer
##ehenn
uygulamak
Sw
Marmar
##esif
kavur
Kampanya
##ektüel
param
hedefleyen
Kendisi
##ladık
##DP
yetin
oluşabilecek
Alışveriş
Parkı
Mars
##leştirmek
birbirleriyle
graf
borcu
kestir
verecektir
entel
pantolon
kullanırken
kullanabileceğiniz
oluşturulması
unutulmaz
kurallara
Kuvvetleri
Üsküdar
kadarıyla
##gara
koşulu
bölümüne
zeytinyağı
kurtarmak
içsel
edinmek
Genelde
görüntüsü
##tımı
Umut
korkusu
eliyle
##gue
balon
ekonomisi
görüşü
görüyorum
Ze
azaltır
Turan
uğrat
Giresun
patlama
##itab
odasına
hayali
karşınıza
##usundan
imal
yaşantı
senet
animasyon
arayın
çevresel
salata
atak
çözüme
kıskan
dökü
hesabına
Almanyada
devasa
çıkarır
ihtiyaçlarına
anladım
çalışmalarda
ru
Olağan
kullandığınız
##98
yapabileceğiniz
siteye
olursanız
Havaliman
Premi
değişiklikleri
stratejileri
Kurtuluş
kelimeler
uyk
Ast
bambaşka
adrese
Bitco
şoför
listesinde
İN
Cerrah
okumaya
ötek
##miyorum
üstesinden
Sunu
Mali
düşünüyorsanız
soruyu
hiper
lin
etek
sigortası
Konak
##iğinin
ihbar
varoluş
ressam
850
neyi
##IŞ
faydası
gezi
Şeri
##hassa
SATICI
Opsiyon
icin
örnekler
Vergi
nu
istediklerini
Evrim
Washington
aklıma
sahneye
Zeynep
alanların
teşh
çevreye
irtibata
sitesinin
Uzay
##miyordu
sadık
bulup
İST
Turkcell
Dos
üreticiler
bulunmakta
cihazın
emeklilik
çelişk
kaydıyla
Bart
##lamayacak
izi
Mutlu
tanır
Oldukça
##ozit
neyin
Erol
olduğumuzu
uzmanlık
alanlara
##inler
havaya
düşüncesi
açlık
Esn
##mışlardır
##ivert
meslektaş
Başlangıç
RAM
konsan
hop
##apı
Afrik
##ektro
Başta
kalor
etmekten
Sekreteri
metrekar
kadınları
Tv
şebek
düzenleyen
araştırmaya
tecavüz
görünümü
Cemal
varken
inkar
isabet
Rah
##lidir
Kalite
yapıları
dostluk
acımasız
aylarda
Hip
harcan
şekillerde
sıralarda
Mesl
kullanıcıya
##istal
##tığına
nişan
helikop
kuruluşlar
##tığınızda
Göç
Şüph
Kapalı
istemiyorum
Gökhan
İddi
Diyan
temeli
##anıyla
arsa
ağırlığı
nci
yayılan
koyduğu
##acivert
ız
elveriş
batarya
değiliz
teşekkürler
seçimleri
Sözleşmesi
ailesine
ümit
beğeni
yenileme
yakalaya
yaratıyor
##atlı
aralığında
desteğiyle
##opol
hastalarda
hesapları
ziyaretç
Yargıt
cesur
bürün
ibar
##lamayan
mühendislik
Sir
##egment
otorit
##edikleri
havale
eğitmen
Sy
Bahar
gürültü
fiyatının
söylemiş
siparişi
şarkıcı
taklit
##iyeler
Düzce
Mahkeme
Onları
Temizlik
##erspektif
##abi
katkısı
göstermiştir
Kıy
sınava
tutuyor
uzakta
##UK
çocuklarda
Arıza
işlevi
##dil
girişi
basketbol
Kütah
ÖZ
işyeri
kurulumu
Kürdistan
1970
temp
korumaya
hizmetine
başbak
##memişti
anlamaya
kutusu
kaybeder
nesne
Kişi
pembe
boşanma
yarısında
yürüten
##latan
oranını
İnsanın
ılık
Kans
edilmesine
konuma
SGK
yönetmelik
Mobilya
Nih
siv
diyordu
ca
aramak
seviyesini
olanlara
Demokrat
tutulması
Birden
Kök
Burası
soğutma
görüntüleri
yüzme
##andum
yıpran
pomp
Mardin
Mini
sunmaktayız
tl
gerçekleştirebilirsiniz
entegr
etkisiz
soğut
Peygamber
çalıştım
Portekiz
Şük
##medim
transferi
##vey
Adım
takdim
değerinin
yazıları
müzisyen
saatlerde
##tınız
üreticisi
KPSS
##asus
oyuncunun
Sony
Serdar
koyuyor
elle
cennet
ortaklık
Çor
##hisar
##ily
yerleşik
sevdiğim
hepsinin
Fed
geliştirdiği
İdaresi
Kurban
Pazarlama
azın
nemlendir
Gümrük
Amaç
biliyordu
firmalara
Sivil
olduğumu
istemeyen
indirme
bulmuş
rahatça
##urk
söylenen
rep
##lemez
ürüne
##eliyiz
alınabilir
istenmeyen
siber
sorulara
Kendini
düşmesi
##eto
aralıklarla
Ür
##artma
Ül
##EX
hemde
Log
uzmanları
üretiminde
buldum
aydır
virüsü
sağlamaya
Ameliyat
artışla
kl
##afak
kaldığını
çirkin
kası
sıkıcı
Eskiden
öncül
tercüme
sayısına
vaj
##LA
müş
ilgilendiren
Yur
kef
MÜ
pencere
##LARI
operatör
##ileceği
Soylu
##anılan
videoları
yetenekli
##abiliriz
##dex
gas
iyidir
Hor
##adok
dönemlerinde
sistemlerinin
##jik
ekosistem
Askeri
kozmetik
##amıyorum
Radyo
makineleri
hidro
hususunda
pul
Paket
Sayfa
##ızın
##ço
beklenmedik
##IP
oğlum
komik
##layabil
Intel
taşıt
yöntemlerle
bulunmuş
alınıp
Gelen
girişimi
dilde
Sof
sandık
mevduat
Adıyaman
yapmakta
Tıpkı
ilde
çekiş
sürdürdü
parlamen
kurtuluş
##ame
enstrüman
##eceğin
bine
salgının
inter
değerinde
Fırat
muaf
doğumlu
koyarak
hi
Real
soruya
koşullarına
Arı
döneminin
alanını
düzenledi
Otob
Düğün
sağlaması
filozof
##İB
kuşat
mısır
ordusu
##asıdır
ideolojik
Görüntü
Milliyet
ulaşması
##hidrat
tersi
##dirme
Halbuki
küfür
##tefik
diyoruz
1998
##meme
##üydü
atma
fındık
desteğini
##ımını
##ansal
objektif
müracaat
havaalan
sofra
vatandaşı
bedava
otomotiv
fikirleri
Acaba
başlayın
fiyatlarının
Brezilya
Sistemleri
##EF
kuşku
Yaşa
Felsef
Çorum
Zek
##wood
dinlemek
##osuna
mermer
ceket
belirlem
katliam
##icileri
Çekici
MEB
itfaiye
başlangıc
##ERİ
##füm
email
Türklerin
Büt
ilki
112
sevdiğiniz
TEK
Risk
ruhu
Çevr
dayat
seçmen
Kağıt
##70
İklim
fırsatlar
##gıcı
##leşmesi
uğruna
hafıza
vakt
niteliğinde
sırf
söylenebilir
Lok
sağlığına
Enf
##TR
hareketler
düştüğü
Kadar
##hael
Moskova
##ografik
cezai
Wal
##cik
Master
dereceye
zaf
