[PAD]
[UNK]
[CLS]
[SEP]
[MASK]
!
"
#
$
%
&
'
(
)
*
+
,
-
.
/
0
1
2
3
4
5
6
7
8
9
:
;
<
=
>
?
@
A
B
C
D
E
F
G
H
I
J
K
L
M
N
O
P
Q
R
S
T
U
V
W
X
Y
Z
[
\
]
^
_
`
a
b
c
d
e
f
g
h
i
j
k
l
m
n
o
p
q
r
s
t
u
v
w
x
y
z
{
|
}
~
¡
¢
£
¤
¥
¦
¨
°
±
²
³
µ
¶
·
¸
¹
»
¼
½
¾
¿
À
Á
Â
Ã
Å
Æ
Ç
È
É
Ê
Ë
Ì
Í
Î
Ï
Ð
Ñ
Ò
Ó
Ô
Õ
Ö
Ø
Ù
Ú
Ü
Ý
Þ
ß
à
á
â
ã
ä
å
æ
ç
è
é
ê
ë
ì
í
î
ð
ñ
ò
ó
ô
õ
ö
÷
ø
ù
ú
û
ü
ý
ÿ
Ā
ā
Ă
ă
Ą
ą
Ć
ć
Ĉ
ĉ
Ċ
ċ
Č
č
Ď
ď
Đ
đ
Ē
ē
Ĕ
ĕ
Ė
ė
Ę
ę
Ě
ě
Ĝ
ĝ
Ğ
ğ
ģ
Ĥ
ĥ
Ħ
ħ
Ĩ
ĩ
Ī
ī
Ĭ
ĭ
Į
į
İ
ı
Ĳ
ĳ
Ĵ
ĵ
Ķ
ķ
ĸ
Ĺ
ĺ
Ļ
ļ
Ľ
ľ
Ŀ
ŀ
Ł
Ń
ń
Ņ
ņ
Ň
ň
ŉ
Ŋ
ŋ
Ō
ō
Ŏ
ŏ
Ő
ő
Œ
Ŕ
ŕ
Ŗ
ŗ
Ř
ř
Ś
ś
Ŝ
ŝ
Ş
ş
Ţ
ţ
Ť
ť
Ŧ
ŧ
Ũ
ũ
Ū
ū
Ŭ
ŭ
Ů
ů
Ű
ű
Ų
ų
Ŵ
ŵ
Ŷ
ŷ
Ÿ
Ź
ź
Ż
ż
Ž
ž
ſ
ƀ
Ɓ
Ƃ
ƃ
Ƅ
ƅ
Ɔ
Ƈ
ƈ
Ɖ
Ɗ
Ƌ
ƌ
ƍ
Ǝ
Ɛ
Ƒ
ƒ
Ɠ
Ɣ
ƕ
Ɩ
Ɨ
Ƙ
ƙ
ƚ
ƛ
Ɯ
Ɲ
ƞ
Ɵ
Ơ
ơ
Ƣ
ƣ
Ƥ
ƥ
Ʀ
Ƨ
ƨ
Ʃ
ƪ
ƫ
Ƭ
ƭ
Ʈ
Ư
ư
Ʊ
Ʋ
Ƴ
ƴ
Ƶ
ƶ
Ʒ
Ƹ
ƹ
ƺ
ƻ
Ƽ
ƽ
ƾ
ƿ
ǀ
ǁ
ǂ
ǃ
Ǆ
ǅ
ǆ
Ǉ
ǈ
ǉ
Ǌ
ǋ
ǌ
Ǎ
ǎ
Ǐ
ǐ
Ǒ
ǒ
Ǔ
ǔ
Ǖ
ǖ
Ǘ
ǘ
Ǚ
ǚ
Ǜ
ǜ
ǝ
Ǟ
ǟ
Ǡ
ǡ
Ǣ
ǣ
Ǥ
ǥ
Ǧ
ǧ
Ǩ
ǩ
Ǫ
ǫ
Ǭ
ǭ
Ǯ
ǯ
ǰ
Ǳ
ǲ
ǳ
Ǵ
ǵ
Ƕ
Ƿ
Ǹ
ǹ
Ǻ
ǻ
Ǽ
ǽ
Ǿ
ǿ
Ȁ
ȁ
Ȃ
ȃ
Ȅ
ȅ
Ȇ
ȇ
Ȉ
ȉ
Ȋ
ȋ
Ȍ
ȍ
Ȏ
ȏ
Ȑ
ȑ
Ȓ
ȓ
Ȕ
ȕ
Ȗ
ȗ
Ș
ș
Ț
ț
Ȝ
ȝ
Ȟ
ȟ
Ƞ
ȡ
Ȣ
ȣ
Ȥ
ȥ
Ȧ
ȧ
Ȩ
ȩ
Ȫ
ȫ
Ȭ
ȭ
Ȯ
ȯ
Ȱ
ȱ
Ȳ
ȳ
ȴ
ȵ
ȶ
ȷ
ȸ
ȹ
Ⱥ
Ȼ
ȼ
Ƚ
Ⱦ
ȿ
ɀ
Ɂ
ɂ
Ƀ
Ʉ
Ʌ
Ɇ
ɇ
Ɉ
ɉ
Ɋ
ɋ
Ɍ
ɍ
Ɏ
ɏ
ɐ
ɑ
ɒ
ɓ
ɔ
ɕ
ɖ
ɗ
ɘ
ə
ɚ
ɛ
ɜ
ɝ
ɞ
ɟ
ɠ
ɡ
ɢ
ɣ
ɤ
ɥ
ɦ
ɧ
ɨ
ɩ
ɪ
ɫ
ɬ
ɭ
ɮ
ɯ
ɰ
ɱ
ɲ
ɳ
ɴ
ɵ
ɶ
ɷ
ɸ
ɹ
ɺ
ɻ
ɼ
ɽ
ɾ
ɿ
ʀ
ʁ
ʂ
ʃ
ʄ
ʅ
ʆ
ʇ
ʈ
ʉ
ʊ
ʋ
ʌ
ʍ
ʎ
ʏ
ʐ
ʑ
ʒ
ʓ
ʔ
ʕ
ʖ
ʗ
ʘ
ʙ
ʚ
ʛ
ʜ
ʝ
ʞ
ʟ
ʠ
ʡ
ʢ
ʣ
ʤ
ʥ
ʦ
ʧ
ʨ
ʩ
ʪ
ʫ
ʬ
ʭ
ʮ
ʯ
ʰ
ʱ
ʲ
ʳ
ʴ
ʵ
ʶ
ʷ
ʸ
ʹ
ʺ
ʼ
ʽ
ʾ
ʿ
ˀ
ˁ
˂
˃
˄
˅
ˆ
ˈ
ˉ
ˊ
ˋ
ˌ
ˍ
ˎ
ˏ
ː
ˑ
˒
˓
˔
˕
˗
˙
˚
˛
˜
˝
˞
˟
ˠ
ˡ
ˢ
ˣ
ˤ
˥
˦
˧
˨
˩
˪
˫
ˬ
˭
ˮ
˯
˰
˱
˲
˳
˴
˵
˷
˸
˹
˺
˻
˼
˽
˾
˿
̀
́
̂
̃
̄
̅
̇
̈
̉
̊
̋
̍
̎
̏
̐
̑
̒
̓
̔
̕
̖
̗
̘
̙
̚
̛
̜
̝
̞
̟
̠
̡
̢
̣
̤
̥
̦
̧
̨
̩
̪
̬
̭
̯
̰
̱
̲
̳
̴
̵
̶
̷
̸
̹
̺
̻
̼
̽
̾
̿
̀
́
͂
̓
̈́
ͅ
͆
͇
͉
͊
͋
͌
͍
͎
͏
͐
͑
͒
͓
͔
͕
͖
͗
͘
͙
͚
͛
͜
͝
͞
͟
͠
͢
ͣ
ͤ
ͥ
ͦ
ͧ
ͨ
ͩ
ͪ
ͫ
ͬ
ͭ
ͮ
ͯ
Ͱ
ͱ
Ͳ
ͳ
ʹ
͵
Ͷ
ͷ
͸
͹
ͺ
ͻ
ͼ
ͽ
;
Ϳ
΀
΁
΂
΃
΄
΅
Ά
·
Έ
Ή
Ί
΋
Ό
΍
Ύ
Ώ
ΐ
Α
Β
Γ
Δ
Ε
Ζ
Η
Θ
Ι
Κ
Λ
Μ
Ν
Ξ
Ο
Π
Ρ
΢
Σ
Τ
Υ
Φ
Χ
Ψ
Ω
Ϊ
Ϋ
ά
έ
ή
ί
ΰ
α
β
γ
δ
ε
ζ
η
θ
ι
κ
λ
μ
ν
ξ
ο
π
ρ
ς
σ
τ
υ
φ
χ
ψ
ω
ϊ
ϋ
ό
ύ
ώ
Ϗ
ϐ
ϑ
ϒ
ϓ
ϔ
ϕ
ϖ
ϗ
Ϙ
ϙ
Ϛ
ϛ
Ϝ
ϝ
Ϟ
ϟ
Ϡ
ϡ
Ϣ
ϣ
Ϥ
ϥ
Ϧ
ϧ
Ϩ
ϩ
Ϫ
ϫ
Ϭ
ϭ
Ϯ
ϯ
ϰ
ϱ
ϲ
ϳ
ϴ
ϵ
϶
Ϸ
ϸ
Ϲ
Ϻ
ϻ
ϼ
Ͻ
Ͼ
Ͽ
Ѐ
Ё
Ђ
Ѓ
Є
Ѕ
І
Ї
Ј
Љ
Њ
Ћ
Ќ
Ѝ
Ў
Џ
Ж
Й
Ф
Ц
Ч
Ш
Щ
Ъ
Ы
Ь
Э
Ю
ъ
ѐ
ђ
ѓ
є
ѕ
ї
ј
љ
њ
ћ
ќ
ѝ
џ
Ѡ
ѡ
Ѣ
ѣ
Ѥ
ѥ
Ѧ
ѧ
Ѩ
ѩ
Ѫ
ѫ
Ѭ
ѭ
Ѯ
ѯ
Ѱ
ѱ
Ѳ
Ѵ
ѵ
Ѷ
ѷ
Ѹ
ѹ
Ѻ
ѻ
Ѽ
ѽ
Ѿ
ѿ
Ҁ
ҁ
҂
҃
҄
҅
҆
҇
҈
҉
Ҋ
ҋ
Ҍ
ҍ
Ҏ
ҏ
Ґ
ґ
Ғ
Ҕ
ҕ
Җ
җ
Ҙ
ҙ
Қ
Ҝ
ҝ
Ҟ
ҟ
Ҡ
ҡ
Ң
ң
Ҥ
ҥ
Ҧ
ҧ
Ҩ
ҩ
Ҫ
ҫ
Ҭ
ҭ
Ү
Ұ
ұ
Ҳ
Ҵ
ҵ
Ҷ
ҷ
Ҹ
ҹ
Һ
һ
Ҽ
ҽ
Ҿ
ҿ
Ӏ
Ӂ
ӂ
Ӄ
ӄ
Ӆ
ӆ
Ӈ
ӈ
Ӊ
ӊ
Ӌ
ӌ
Ӎ
ӎ
ӏ
Ӑ
ӑ
Ӓ
ӓ
Ӕ
ӕ
Ӗ
ӗ
Ә
Ӛ
ӛ
Ӝ
ӝ
Ӟ
ӟ
Ӡ
ӡ
Ӣ
ӣ
Ӥ
ӥ
Ӧ
ӧ
Ө
Ӫ
ӫ
Ӭ
ӭ
Ӯ
ӯ
Ӱ
ӱ
Ӳ
ӳ
Ӵ
ӵ
Ӷ
ӷ
Ӹ
ӹ
Ӻ
ӻ
Ӽ
ӽ
Ӿ
ӿ
Ԁ
ԁ
Ԃ
ԃ
Ԅ
ԅ
Ԇ
ԇ
Ԉ
ԉ
Ԋ
ԋ
Ԍ
ԍ
Ԏ
ԏ
Ԑ
ԑ
Ԓ
ԓ
Ԕ
ԕ
Ԗ
ԗ
Ԙ
ԙ
Ԛ
ԛ
Ԝ
ԝ
Ԟ
ԟ
Ԡ
ԡ
Ԣ
ԣ
Ԥ
ԥ
Ԧ
ԧ
Ԩ
ԩ
Ԫ
Ԭ
ԭ
Ԯ
ԯ
԰
Ա
Բ
Գ
Դ
Ե
Զ
Է
Ը
Թ
Ժ
Ի
Լ
Խ
Ծ
Կ
Հ
Ձ
Ղ
Ճ
Մ
Յ
Ն
Շ
Ո
Չ
Պ
Ջ
Ռ
Ս
Վ
Տ
Ր
Ց
Ւ
Փ
Ք
Օ
Ֆ
՗
՘
ՙ
՚
՛
՜
՝
՞
՟
ՠ
ա
բ
գ
դ
ե
զ
է
ը
թ
ի
լ
խ
ծ
կ
հ
ձ
ղ
ճ
մ
յ
ն
շ
ո
չ
պ
ջ
ռ
ս
վ
տ
ր
ց
ւ
փ
ք
օ
ֆ
և
ֈ
։
֊
֋
֌
֍
֎
֏
֐
֑
֒
֓
֔
֕
֖
֗
֘
֙
֚
֛
֜
֝
֞
֟
֠
֡
֢
֣
֤
֥
֦
֧
֨
֩
֪
֫
֬
֭
֮
֯
ְ
ֱ
ֲ
ֳ
ִ
ֵ
ֶ
ַ
ָ
ֹ
ֺ
ֻ
ּ
ֽ
־
ֿ
׀
ׁ
ׂ
׃
ׄ
ׅ
׆
ׇ
׈
׉
׊
׋
׌
׍
׎
׏
א
ב
ג
ד
ה
ו
ז
ח
ט
י
ך
כ
ל
ם
מ
ן
נ
ס
ע
ף
פ
ץ
צ
ק
ר
ש
ת
׫
׬
׭
׮
ׯ
װ
ױ
ײ
׳
״
׵
׶
׷
׸
׹
׺
׻
׼
׽
׾
׿
؆
؇
؈
؉
؊
؋
؍
؎
؏
ؐ
ؑ
ؒ
ؓ
ؔ
ؕ
ؖ
ؗ
ؘ
ؙ
ؚ
؛
؝
؞
ؠ
ء
آ
أ
إ
ا
ب
ة
ت
ث
ج
ح
خ
د
ذ
ر
ز
س
ش
ص
ض
ط
ظ
ع
غ
ف
ق
ك
ل
م
ن
ه
و
ى
ي
ٌ
ٍ
َ
ُ
ِ
ْ
ٓ
ٔ
ٕ
ٖ
ٗ
٘
ٙ
ٚ
ٛ
ٜ
ٝ
ٞ
ٟ
١
٢
٤
٥
٦
٧
٨
٩
٪
٫
٬
٭
ٮ
ٯ
ٰ
ٱ
ٲ
ٳ
ٴ
ٵ
ٶ
ٷ
ٸ
ٹ
ٺ
ٻ
ټ
ٽ
پ
ٿ
ڀ
ځ
ڂ
ڃ
ڄ
څ
چ
ڇ
ڈ
ډ
ڊ
ڋ
ڌ
ڍ
ڎ
ڏ
ڐ
ڑ
ڒ
ړ
ڔ
ڕ
ږ
ڗ
ژ
ڙ
ښ
ڛ
ڜ
ڝ
ڞ
ڟ
ڠ
ڡ
ڢ
ڣ
ڤ
ڥ
ڦ
ڧ
ڨ
ک
ڪ
ګ
ڬ
ڭ
ڮ
گ
ڰ
ڱ
ڲ
ڳ
ڴ
ڵ
ڶ
ڷ
ڸ
ڹ
ں
ڻ
ڼ
ڽ
ھ
ڿ
ۀ
ہ
ۂ
ۃ
ۄ
ۅ
ۆ
ۇ
ۈ
ۉ
ۊ
ۋ
ی
ۍ
ێ
ۏ
ې
ۑ
ے
ۓ
۔
ە
ۖ
ۗ
ۘ
ۙ
ۚ
ۛ
ۜ
۞
۟
۠
ۡ
ۢ
ۣ
ۥ
ۦ
ۧ
ۨ
۩
۪
۫
۬
ۭ
ۮ
ۯ
۱
۲
۳
۴
۵
۶
۷
۸
۹
ۺ
ۻ
ۼ
۽
۾
ۿ
܀
܁
܂
܃
܄
܆
܇
܈
܉
܊
܋
܌
܍
܎
ܐ
ܑ
ܒ
ܓ
ܔ
ܕ
ܖ
ܗ
ܘ
ܙ
ܚ
ܛ
ܜ
ܝ
ܞ
ܟ
ܠ
ܡ
ܢ
ܣ
ܤ
ܥ
ܦ
ܧ
ܨ
ܩ
ܪ
ܫ
ܬ
ܭ
ܮ
ܯ
ܰ
ܱ
ܲ
ܳ
ܴ
ܵ
ܶ
ܷ
ܸ
ܹ
ܺ
ܻ
ܼ
ܽ
ܾ
ܿ
݀
݁
݂
݃
݄
݅
݆
݇
݈
݉
݋
݌
ݍ
ݎ
ݏ
ݐ
ݑ
ݒ
ݓ
ݔ
ݕ
ݖ
ݗ
ݘ
ݚ
ݛ
ݜ
ݝ
ݞ
ݟ
ݠ
ݡ
ݢ
ݣ
ݤ
ݥ
ݦ
ݧ
ݨ
ݩ
ݪ
ݫ
ݬ
ݭ
ݮ
ݯ
ݰ
ݱ
ݲ
ݳ
ݴ
ݵ
ݶ
ݷ
ݸ
ݹ
ݺ
ݻ
ݼ
ݽ
ݾ
ݿ
ހ
ށ
ނ
ރ
ބ
ޅ
ކ
އ
ވ
މ
ފ
ދ
ތ
ލ
ގ
ޏ
ސ
ޑ
ޒ
ޓ
ޔ
ޕ
ޖ
ޗ
ޘ
ޙ
ޚ
ޛ
ޜ
ޝ
ޞ
ޟ
ޠ
ޡ
ޢ
ޣ
ާ
ި
ީ
ު
ޫ
ެ
ޭ
ޮ
ޯ
ް
ޱ
޳
޴
޵
޶
޷
޸
޹
޺
޻
޼
޽
޾
޿
߁
߂
߃
߄
߅
߈
߉
ߊ
ߋ
ߍ
ߎ
ߏ
ߐ
ߑ
ߒ
ߓ
ߔ
ߕ
ߖ
ߗ
ߘ
ߙ
ߚ
ߛ
ߜ
ߝ
ߞ
ߟ
ߠ
ߡ
ߢ
ߣ
ߤ
ߥ
ߦ
ߧ
ߨ
ߩ
ߪ
߫
߬
߭
߮
߯
߰
߱
߲
߳
ߴ
ߵ
߶
߷
߸
߹
ߺ
߻
߼
߽
߾
߿
ࠀ
ࠁ
ࠂ
ࠃ
ࠄ
ࠅ
ࠈ
ࠊ
ࠋ
ࠌ
ࠍ
ࠎ
ࠏ
ࠐ
ࠑ
ࠒ
ࠓ
ࠔ
ࠕ
ࠖ
ࠗ
࠘
࠙
ࠚ
ࠛ
ࠜ
ࠝ
ࠞ
ࠟ
ࠠ
ࠡ
ࠢ
ࠣ
ࠤ
ࠥ
ࠦ
ࠧ
ࠨ
ࠩ
ࠪ
ࠫ
ࠬ
࠭
࠮
࠯
࠰
࠱
࠲
࠳
࠴
࠵
࠶
࠷
࠸
࠹
࠺
࠼
࠽
࠾
࠿
ࡀ
ࡁ
ࡂ
ࡃ
ࡄ
ࡅ
ࡆ
ࡇ
ࡈ
ࡉ
ࡊ
ࡋ
ࡌ
ࡍ
ࡎ
ࡏ
ࡐ
ࡑ
ࡒ
ࡓ
ࡔ
ࡕ
ࡖ
ࡗ
ࡘ
࡙
࡚
࡛
࡜
࡝
࡞
࡟
ࡠ
ࡡ
ࡢ
ࡣ
ࡤ
ࡥ
ࡦ
ࡧ
ࡨ
ࡩ
ࡪ
࡬
࡭
࡮
࡯
ࡰ
ࡱ
ࡲ
ࡳ
ࡴ
ࡵ
ࡶ
ࡷ
ࡸ
ࡹ
ࡺ
ࡻ
ࡼ
ࡽ
ࡾ
ࡿ
ࢀ
ࢁ
ࢃ
ࢄ
ࢅ
ࢆ
ࢇ
࢈
ࢉ
ࢊ
ࢋ
ࢌ
ࢍ
ࢎ
࢏
࢐
࢑
࢒
࢓
࢔
࢕
࢖
ࢗ
࢘
࢙
࢚
࢛
࢜
࢝
࢞
࢟
ࢠ
ࢡ
ࢢ
ࢣ
ࢤ
ࢦ
ࢧ
ࢨ
ࢩ
ࢪ
ࢫ
ࢬ
ࢭ
ࢮ
ࢯ
ࢵ
ࢷ
ࢸ
ࢹ
ࢻ
ࢼ
ࢽ
ࢾ
ࢿ
ࣀ
ࣁ
ࣂ
ࣃ
ࣄ
ࣅ
ࣆ
ࣇ
ࣈ
ࣉ
࣋
࣌
࣍
࣎
࣏
࣐
࣒
࣓
ࣔ
ࣕ
ࣖ
ࣗ
ࣘ
ࣙ
ࣚ
ࣛ
ࣜ
ࣝ
ࣞ
ࣟ
࣠
࣡
࣢
ࣣ
ࣤ
ࣥ
ࣦ
ࣧ
ࣩ
࣪
࣫
࣬
࣭
࣮
࣯
ࣰ
ࣱ
ࣳ
ࣴ
ࣵ
ࣶ
ࣷ
ࣸ
ࣹ
ࣺ
ࣻ
ࣼ
ࣽ
ࣾ
ࣿ
ऀ
ँ
ं
ः
ऄ
अ
आ
इ
ई
उ
ऊ
ऋ
ऌ
ऍ
ऎ
ए
ऐ
ऑ
ऒ
ओ
औ
क
ख
ग
घ
ङ
च
छ
ज
झ
ञ
ट
ठ
ड
ढ
ण
त
थ
द
ध
न
ऩ
प
फ
ब
भ
म
य
र
ऱ
ल
ळ
ऴ
व
श
ष
स
ह
ऺ
ऻ
़
ऽ
ा
ि
ी
ु
ृ
ॄ
ॅ
ॆ
े
ै
ॉ
ॊ
ो
ौ
्
ॎ
ॏ
ॐ
॑
॒
॓
॔
ॕ
ॖ
ॗ
क़
ख़
ग़
ज़
ड़
ढ़
फ़
य़
ॠ
ॡ
ॢ
ॣ
।
॥
०
१
२
३
४
५
६
७
८
९
॰
ॱ
ॲ
ॳ
ॵ
ॶ
ॷ
ॸ
ॹ
ॺ
ॻ
ॼ
ॽ
ॾ
ॿ
ঀ
ঁ
ং
ঃ
঄
অ
আ
ই
ঈ
উ
ঊ
ঋ
ঌ
঍
঎
এ
ঐ
঑
঒
ও
ঔ
ক
খ
গ
ঘ
ঙ
চ
ছ
জ
ঝ
ঞ
ট
ঠ
ড
ঢ
ণ
ত
থ
দ
ধ
ন
঩
প
ফ
ব
ভ
ম
য
র
঱
ল
঳
঴
শ
ষ
স
হ
঻
়
ঽ
া
ি
ী
ু
ূ
ৃ
ে
ৈ
ো
ৌ
্
৏
৑
৒
৓
৔
৕
৖
ৗ
৘
৙
৚
৛
ড়
৞
য়
ৠ
ৢ
ৣ
৤
৥
০
১
২
৩
৪
৫
৬
৭
৮
৯
ৰ
ৱ
৲
৳
৴
৵
৶
৷
৸
৹
৺
৻
ৼ
৽
৾
৿
਀
ਁ
ਂ
਄
ਅ
ਆ
ਇ
ਈ
ਊ
਌
਑
਒
ਕ
ਖ
ਗ
ਘ
ਙ
ਜ
ਝ
ਟ
ਠ
ਡ
ਣ
ਤ
ਥ
ਦ
ਧ
ਨ
਩
ਪ
ਫ
ਬ
ਭ
ਮ
ਯ
ਰ
ਲ
ਸ਼
ਸ
ਹ
਻
਼
ਾ
ਿ
ੀ
ੁ
ੂ
੃
੄
੅
੆
ੇ
ੈ
੉
੊
ੌ
੍
੎
੏
੐
੒
੓
੔
੕
੖
੗
੘
ਖ਼
ਗ਼
ਜ਼
ੜ
ਫ਼
੟
੠
੡
੢
੣
੤
੥
੧
੨
੩
੪
੫
੬
੭
੮
੯
ੰ
ੱ
ੲ
ੳ
ੴ
ੵ
੶
੷
੸
੹
੺
੻
੼
੽
੾
੿
઀
ઁ
ં
ઃ
઄
આ
ઇ
ઈ
ઉ
ઊ
ઋ
ઌ
ઍ
એ
ઑ
ઔ
ક
ખ
ગ
ઘ
ઙ
ચ
જ
ઞ
ટ
ડ
ઢ
ણ
ત
થ
દ
ધ
ન
પ
બ
ભ
મ
ર
઱
ળ
વ
શ
સ
હ
઺
ઽ
ા
ી
ુ
ૃ
ૄ
ૅ
૆
ે
૊
ો
ૌ
્
૏
ૐ
૑
૒
૓
૔
૕
૖
૗
૘
૙
૚
૛
૜
૝
૞
૟
ૠ
ૡ
ૢ
ૣ
૤
૥
૧
૩
૪
૫
૬
૯
૰
૱
૲
૳
૴
૵
૶
૷
૸
ૹ
ૺ
ૻ
ૼ
૽
૾
૿
଀
ଁ
ଂ
ଃ
଄
ଅ
ଆ
ଇ
ଈ
ଊ
ଋ
ଌ
଍
଎
଑
଒
ଔ
କ
ଖ
ଗ
ଜ
ଞ
ଠ
ଡ
ଣ
ଥ
ଦ
ଧ
ନ
ପ
ଫ
ର
଱
ଵ
ଶ
ହ
ା
ି
ୂ
୆
େ
ୈ
୉
୊
ୋ
ୌ
୍
୎
୏
୑
ୗ
୘
ୠ
୤
୥
୬
୭
୮
ୱ
୳
୷
୸
୹
୺
୻
୼
୽
୾
୿
஀
஁
ஂ
ஃ
஄
அ
ஆ
இ
ஈ
உ
ஊ
஋
஌
஍
எ
ஏ
஑
ஒ
ஓ
ஔ
க
஖
஘
ங
ச
஛
ஜ
஝
ஞ
ட
஠
஡
஢
ண
த
஥
஦
஧
ந
ன
ப
஫
஬
஭
ம
ய
ர
ற
ல
ள
ழ
வ
ஶ
ஷ
ஸ
ஹ
஺
஻
஼
஽
ா
ி
ீ
ு
ூ
௃
௄
௅
ெ
ே
ை
௉
ொ
ோ
்
௎
௏
ௐ
௒
௓
௕
௖
௝
௞
௟
௡
௢
௣
௤
௥
௦
௧
௨
௩
௪
௫
௭
௮
௯
௰
௱
௵
௶
௷
௸
௹
௺
௻
௼
௽
௾
௿
ఀ
ఁ
ం
ః
ఄ
అ
ఆ
ఇ
ఈ
ఉ
ఊ
ఋ
ఌ
఍
ఎ
ఏ
ఐ
఑
ఒ
ఓ
ఔ
క
ఖ
గ
ఘ
ఙ
చ
ఛ
జ
ఝ
ఞ
ట
ఠ
డ
ఢ
ణ
త
థ
ద
ధ
న
఩
ప
ఫ
బ
భ
మ
య
ర
ఱ
ల
ళ
ఴ
వ
శ
ష
స
హ
఺
఻
఼
ఽ
ా
ి
ీ
ు
ూ
ృ
ౄ
౅
ె
ే
ై
౉
ొ
ో
ౌ
్
౎
౏
౐
౑
౒
౓
౔
ౕ
ౘ
ౙ
ౚ
౛
౜
ౝ
౞
ౠ
ౡ
ౢ
ౣ
౤
౥
౧
౨
౩
౪
౫
౬
౭
౮
౯
౰
౲
౳
౴
౵
౶
౸
౹
౺
౻
౼
౽
౾
౿
ಀ
ಁ
ಂ
ಃ
಄
ಅ
ಆ
ಇ
ಈ
ಉ
ಋ
ಌ
಍
ಎ
ಐ
಑
ಒ
ಓ
ಔ
ಕ
ಖ
ಗ
ಘ
ಙ
ಚ
ಛ
ಜ
ಝ
ಞ
ಟ
ಡ
ಢ
ಣ
ದ
ಧ
ನ
ಪ
ಫ
ಬ
ಮ
ಯ
ರ
ಱ
ಲ
ಳ
಴
ವ
ಶ
ಸ
ಹ
಺
಻
ಾ
ೀ
ು
ೂ
ೃ
ೄ
೅
ೆ
ೇ
ೈ
ೊ
ೋ
್
೎
೏
೑
೒
೓
ೕ
ೖ
೗
೘
೜
ೝ
೟
ೠ
ೡ
ೢ
೦
೧
೨
೩
೪
೫
೬
೭
೮
೯
೰
ೱ
ೲ
೴
೵
೶
೷
೸
೹
೺
೻
೼
೽
೾
೿
ഀ
ഁ
ം
ഃ
ഄ
അ
ആ
ഇ
ഈ
ഉ
ഊ
ഋ
ഌ
഍
എ
ഏ
ഐ
഑
ഒ
ഓ
ഔ
ക
ഖ
ഗ
ഘ
ങ
ച
ജ
ഝ
ഞ
ട
ഡ
ഢ
ണ
ത
ധ
ന
പ
ബ
ഭ
മ
യ
ര
റ
ല
ള
ഴ
വ
ശ
ഷ
സ
ഹ
ഺ
഻
഼
ഽ
ാ
ി
ീ
ു
ൂ
ൃ
ൄ
െ
േ
ൈ
ൊ
ോ
ൌ
്
ൎ
൏
൐
൑
൒
൓
ൔ
ൖ
ൗ
൚
൛
൜
൝
ൢ
ൣ
൤
൥
൦
൧
൨
൩
൫
൬
൱
൴
൵
൷
൸
൹
ൻ
ർ
ൽ
ൾ
ൿ
ං
අ
ආ
ඈ
ඉ
ඊ
ඌ
එ
ඒ
ඔ
඗
඘
඙
ක
ග
ඝ
ඟ
ච
ඡ
ජ
ඣ
ඥ
ඦ
ට
ඨ
ඩ
ඪ
ණ
ඬ
ත
ථ
ද
ධ
න
඲
ඳ
ප
ඵ
බ
භ
ම
ඹ
ය
ර
ල
඿
ව
ශ
ෂ
ස
හ
ළ
෉
්
෌
෍
ා
ැ
ෑ
ි
ී
ු
෕
ූ
ෙ
ේ
ෛ
ො
ෝ
ෞ
ෟ
෠
෥
෦
෨
෩
෪
෫
෬
෭
෮
෯
෰
෱
ෲ
ෳ
෴
෵
෶
෷
෸
෹
෼
෽
෾
෿
฀
ก
ข
ฃ
ค
ฆ
ง
จ
ฉ
ช
ซ
ฌ
ญ
ฎ
ฏ
ฑ
ณ
ด
ต
ถ
ท
ธ
น
บ
ป
ผ
ฝ
พ
ฟ
ภ
ม
ย
ฤ
ล
ฦ
ว
ศ
ษ
ส
ห
ฬ
อ
ฮ
ฯ
ะ
ั
า
ำ
ิ
ี
ึ
ื
ุ
ู
฻
฾
฿
เ
แ
โ
ใ
ไ
ๆ
็
่
้
๊
์
ํ
๎
๏
๐
๒
๓
๔
๕
๖
๗
๘
๙
๚
๛
๜
๝
๠
๢
๣
๤
๥
๦
๧
๨
๩
๪
๫
๬
๭
๯
๰
๱
๲
๳
๶
๷
๸
๹
๺
๻
๼
๽
๾
๿
຀
ກ
ຂ
຃
ຄ
຅
ຆ
ງ
ຈ
ຊ
຋
ຌ
ຍ
ຏ
ຐ
ຑ
ຒ
ຓ
ດ
ຕ
ຖ
ທ
ຘ
ນ
ບ
ປ
ຜ
ຝ
ພ
ຟ
ຠ
ມ
ຢ
຤
ລ
຦
ວ
ຨ
ຩ
ສ
ຫ
ຬ
ອ
ະ
ັ
າ
ີ
ື
ຸ
ູ
຺
ົ
ຼ
ຽ
຾
ເ
ແ
ໂ
ໃ
ໄ
໅
່
້
໊
໋
໌
໎
໒
໖
໗
໙
໚
ໝ
ໞ
ໟ
໠
໡
໢
໣
໤
໨
໩
໭
໮
໰
໱
໲
໳
໴
໶
໷
໹
໺
໼
༁
༂
༄
༅
༇
༈
༉
་
།
༏
༒
༕
༖
༗
༘
༙
༛
༜
༞
༟
༠
༡
༢
༣
༤
༥
༦
༧
༬
༭
༮
༯
༰
༱
༲
༳
༴
༵
༶
༷
༸
༺
༻
༼
༽
༾
༿
ཀ
ཁ
ག
ང
ཆ
ཇ
ཉ
ཊ
ཋ
ཌ
ཎ
ཏ
ད
ན
པ
ཕ
བ
མ
ཙ
ཚ
ཛ
ཞ
ཟ
འ
ཡ
ར
ལ
ས
ཨ
ཪ
ཬ
཭
཮
཯
ཱ
ི
ུ
ྲྀ
ཷ
ཹ
ེ
ོ
ཽ
ཾ
ྀ
ཱྀ
ྂ
ྃ
྄
྆
྇
ྈ
ྋ
ྌ
ྍ
ྎ
ྐ
ྑ
ྒ
ྔ
ྕ
ྖ
ྗ
྘
ྙ
ྚ
ྛ
ྜྷ
ྞ
ྟ
ྠ
ྡ
ྡྷ
ྣ
ྤ
ྥ
ྦ
ྨ
ྩ
ྪ
ྫ
ྫྷ
ྭ
ྮ
ྯ
ྱ
ྲ
ླ
ྴ
ྵ
ྶ
ྷ
ྸ
ྐྵ
ྺ
ྻ
྽
྿
࿁
࿂
࿃
࿄
࿅
࿇
࿈
࿋
࿍
࿎
࿏
࿐
࿑
࿔
࿖
࿗
࿙
࿚
࿛
࿝
࿞
࿟
࿠
࿡
࿢
࿣
࿤
࿦
࿨
࿩
࿪
࿫
࿬
࿭
࿮
࿯
࿰
࿱
࿲
࿳
࿴
࿵
࿸
࿹
࿺
࿻
࿼
࿽
࿾
࿿
က
ခ
ဂ
ဃ
င
စ
ဆ
ဇ
ဈ
ည
ဋ
ဌ
ဍ
ဎ
ဏ
တ
ထ
ဒ
ဓ
န
ပ
ဖ
ဗ
ဘ
မ
ယ
ရ
လ
ဝ
သ
ဟ
ဠ
အ
ဢ
ဣ
ဤ
ဥ
ဦ
ဧ
ဨ
ဩ
ဪ
ါ
ာ
ိ
ီ
ု
ူ
ေ
ဲ
ဳ
ဴ
ဵ
ံ
့
း
္
်
ျ
ြ
ွ
ှ
ဿ
၀
၁
၂
၃
၄
၅
၆
၇
၈
၉
၊
။
၌
၍
၎
၏
ၐ
ၑ
ၒ
ၓ
ၔ
ၕ
ၖ
ၗ
ၙ
ၛ
ၜ
ၝ
ၞ
ၟ
ၠ
ၡ
ၢ
ၣ
ၤ
ၥ
ၦ
ၨ
ၩ
ၪ
ၫ
ၬ
ၮ
ၯ
ၰ
ၱ
ၲ
ၳ
ၴ
ၵ
ၶ
ၷ
ၸ
ၹ
ၻ
ၼ
ၽ
ၾ
ၿ
ႀ
ႁ
ႂ
ႃ
ႄ
ႅ
ႆ
ႈ
ႉ
ႊ
ႋ
ႎ
႑
႒
႓
႕
႖
႗
႙
ႚ
ႛ
ႜ
႞
Ⴀ
Ⴂ
Ⴃ
Ⴄ
Ⴇ
Ⴈ
Ⴊ
Ⴋ
Ⴍ
Ⴐ
Ⴑ
Ⴒ
Ⴓ
Ⴔ
Ⴕ
Ⴗ
Ⴘ
Ⴙ
Ⴚ
Ⴛ
Ⴜ
Ⴝ
Ⴞ
Ⴟ
Ⴠ
Ⴡ
Ⴢ
Ⴣ
Ⴤ
Ⴥ
჆
Ⴧ
჈
჊
჋
჌
჏
ჰ
ჱ
ჲ
ჳ
ჶ
ჷ
ჸ
჻
ჼ
ᅠ
ᅳ
ሀ
ሁ
ሂ
ሃ
ሄ
ህ
ለ
ሊ
ላ
ሌ
ል
ሎ
ሐ
ሑ
ሔ
ሕ
ሖ
ሗ
መ
ማ
ሜ
ም
ሠ
ሡ
ሥ
ረ
ሪ
ራ
ሬ
ር
ሮ
ሯ
ሰ
ሱ
ሲ
ሳ
ሴ
ስ
ሶ
ሷ
ሸ
ሹ
ሺ
ሻ
ሼ
ሽ
ቀ
ቁ
ቂ
ቃ
ቄ
ቅ
ቆ
ቈ
቉
ቊ
ቋ
ቌ
ቍ
቎
቏
ቐ
ቒ
ቓ
ቔ
ቕ
ቖ
ቘ
቙
ቚ
ቜ
቟
በ
ቡ
ቢ
ባ
ቤ
ብ
ቦ
ቧ
ቨ
ቩ
ቪ
ቫ
ቭ
ቮ
ቯ
ተ
ቱ
ቲ
ታ
ቴ
ት
ቶ
ቷ
ቸ
ቹ
ቺ
ቻ
ቼ
ች
ቾ
ቿ
ኀ
ኁ
ኂ
ኃ
ኄ
ኅ
ኇ
ኈ
኉
ኊ
ኋ
ኌ
ኍ
኎
኏
ነ
ኑ
ኒ
ና
ኔ
ን
ኗ
ኘ
ኙ
ኚ
ኛ
ኜ
ኞ
ኟ
አ
ኡ
ኢ
ኣ
ኤ
እ
ኦ
ኧ
ከ
ኩ
ካ
ኬ
ክ
ኮ
ኯ
ኰ
኱
ኳ
ኴ
ኵ
኶
኷
ኺ
ኻ
ኼ
ኽ
ኾ
኿
ዀ
ዄ
዆
ወ
ዊ
ዋ
ዌ
ዐ
዗
ዘ
ዙ
ዚ
ዝ
ዠ
ዩ
ዪ
ያ
ዬ
ይ
ዮ
ዯ
ደ
ዱ
ዲ
ዳ
ዴ
ድ
ዷ
ዸ
ዺ
ዻ
ዼ
ዾ
ዿ
ጀ
ጁ
ጂ
ጃ
ጄ
ጅ
ጆ
ገ
ጉ
ጊ
ጋ
ጌ
ግ
ጏ
ጕ
጖
጗
ጘ
ጙ
ጚ
ጛ
ጜ
ጝ
ጞ
ጟ
ጠ
ጢ
ጤ
ጥ
ጦ
ጧ
ጩ
ጪ
ጬ
ጭ
ጮ
ጯ
ጰ
ጱ
ጳ
ጴ
ጶ
ጷ
ጸ
ጹ
ጻ
ጼ
ጽ
ጾ
ጿ
ፀ
ፁ
ፂ
ፃ
ፄ
ፈ
ፉ
ፊ
ፍ
ፔ
ፘ
ፙ
፥
፨
፩
፫
፬
፭
፮
፰
፴
፵
፹
፺
፼
፽
፾
፿
ᎂ
ᎃ
ᎄ
ᎆ
ᎈ
᎑
᎓
᎕
᎖
᎗
᎙
᎛
᎜
᎝
᎞
᎟
Ꭰ
Ꭱ
Ꭲ
Ꭳ
Ꭴ
Ꭵ
Ꭶ
Ꭸ
Ꭹ
Ꭺ
Ꭻ
Ꭼ
Ꭽ
Ꭾ
Ꭿ
Ꮀ
Ꮁ
Ꮂ
Ꮃ
Ꮄ
Ꮆ
Ꮇ
Ꮈ
Ꮉ
Ꮊ
Ꮋ
Ꮌ
Ꮍ
Ꮎ
Ꮏ
Ꮐ
Ꮒ
Ꮓ
Ꮔ
Ꮕ
Ꮖ
Ꮗ
Ꮘ
Ꮚ
Ꮛ
Ꮜ
Ꮝ
Ꮞ
Ꮟ
Ꮠ
Ꮡ
Ꮤ
Ꮥ
Ꮩ
Ꮪ
Ꮫ
Ꮬ
Ꮮ
Ꮰ
Ꮲ
Ꮳ
Ꮴ
Ꮵ
Ꮶ
Ꮷ
Ꮺ
Ꮽ
Ꮿ
Ᏹ
Ᏻ
Ᏼ
Ᏽ
᏷
ᏻ
ᏼ
᏿
ᐂ
ᐃ
ᐅ
ᐈ
ᐉ
ᐊ
ᐋ
ᐍ
ᐏ
ᐐ
ᐑ
ᐒ
ᐕ
ᐖ
ᐘ
ᐙ
ᐚ
ᐛ
ᐜ
ᐠ
ᐣ
ᐤ
ᐥ
ᐦ
ᐧ
ᐪ
ᐭ
ᐮ
ᐰ
ᐱ
ᐳ
ᐴ
ᐵ
ᐶ
ᐷ
ᐹ
ᐻ
ᐽ
ᐾ
ᐿ
ᑀ
ᑄ
ᑈ
ᑊ
ᑋ
ᑌ
ᑎ
ᑐ
ᑑ
ᑔ
ᑕ
ᑖ
ᑗ
ᑘ
ᑙ
ᑚ
ᑛ
ᑝ
ᑟ
ᑠ
ᑢ
ᑣ
ᑥ
ᑦ
ᑧ
ᑨ
ᑩ
ᑫ
ᑭ
ᑯ
ᑱ
ᑲ
ᑺ
ᑼ
ᑿ
ᒃ
ᒆ
ᒌ
ᒍ
ᒎ
ᒏ
ᒐ
ᒑ
ᒒ
ᒗ
ᒛ
ᒟ
ᒡ
ᒥ
ᒧ
ᒨ
ᒩ
ᒪ
ᒮ
ᒯ
ᒰ
ᒱ
ᒳ
ᒴ
ᒶ
ᒷ
ᒸ
ᒹ
ᒻ
ᒼ
ᒽ
ᒾ
ᓀ
ᓁ
ᓂ
ᓃ
ᓄ
ᓅ
ᓆ
ᓇ
ᓈ
ᓉ
ᓊ
ᓎ
ᓏ
ᓐ
ᓒ
ᓓ
ᓔ
ᓕ
ᓗ
ᓘ
ᓙ
ᓛ
ᓜ
ᓝ
ᓡ
ᓢ
ᓣ
ᓤ
ᓦ
ᓪ
ᓭ
ᓮ
ᓯ
ᓰ
ᓱ
ᓲ
ᓳ
ᓴ
ᓵ
ᓶ
ᓸ
ᓹ
ᓺ
ᓼ
ᓿ
ᔀ
ᔁ
ᔂ
ᔃ
ᔄ
ᔅ
ᔆ
ᔉ
ᔊ
ᔋ
ᔌ
ᔎ
ᔐ
ᔑ
ᔔ
ᔕ
ᔖ
ᔗ
ᔚ
ᔟ
ᔠ
ᔣ
ᔤ
ᔥ
ᔦ
ᔧ
ᔨ
ᔪ
ᔫ
ᔬ
ᔭ
ᔮ
ᔯ
ᔰ
ᔱ
ᔳ
ᔴ
ᔵ
ᔶ
ᔷ
ᔸ
ᔺ
ᔻ
ᔽ
ᔾ
ᕀ
ᕁ
ᕃ
ᕅ
ᕆ
ᕈ
ᕉ
ᕊ
ᕋ
ᕍ
ᕎ
ᕐ
ᕓ
ᕔ
ᕕ
ᕖ
ᕘ
ᕞ
ᕟ
ᕠ
ᕡ
ᕢ
ᕤ
ᕥ
ᕦ
ᕧ
ᕨ
ᕪ
ᕫ
ᕬ
ᕮ
ᕯ
ᕰ
ᕱ
ᕲ
ᕷ
ᕸ
ᕻ
ᕼ
ᕽ
ᕿ
ᖁ
ᖂ
ᖃ
ᖅ
ᖆ
ᖇ
ᖈ
ᖊ
ᖌ
ᖍ
ᖎ
ᖏ
ᖒ
ᖓ
ᖔ
ᖗ
ᖘ
ᖚ
ᖠ
ᖡ
ᖦ
ᖧ
ᖨ
ᖩ
ᖪ
ᖫ
ᖬ
ᖮ
ᖱ
ᖴ
ᖵ
ᖺ
ᖽ
ᖿ
ᗀ
ᗁ
ᗂ
ᗅ
ᗌ
ᗍ
ᗎ
ᗏ
ᗐ
ᗒ
ᗓ
ᗕ
ᗖ
ᗗ
ᗙ
ᗚ
ᗝ
ᗞ
ᗠ
ᗡ
ᗢ
ᗣ
ᗩ
ᗪ
ᗮ
ᗯ
ᗰ
ᗱ
ᗲ
ᗴ
ᗵ
ᗷ
ᗸ
ᗹ
ᗺ
ᗼ
ᗾ
ᗿ
ᘀ
ᘁ
ᘃ
ᘄ
ᘇ
ᘈ
ᘉ
ᘊ
ᘌ
ᘍ
ᘎ
ᘑ
ᘒ
ᘓ
ᘚ
ᘜ
ᘝ
ᘟ
ᘥ
ᘦ
ᘧ
ᘪ
ᘫ
ᘬ
ᘭ
ᘮ
ᘱ
ᘴ
ᘵ
ᘶ
ᘻ
ᘼ
ᘽ
ᘾ
ᘿ
ᙀ
ᙁ
ᙄ
ᙆ
ᙇ
ᙈ
ᙌ
ᙎ
ᙐ
ᙓ
ᙔ
ᙕ
ᙖ
ᙗ
ᙜ
ᙢ
ᙧ
ᙨ
ᙩ
᙭
ᙰ
ᙱ
ᙲ
ᙳ
ᙵ
ᙷ
ᙹ
ᙺ
ᙻ
ᙼ
ᙾ
ᚃ
ᚄ
ᚉ
ᚋ
ᚌ
ᚏ
ᚐ
ᚑ
ᚒ
ᚓ
ᚔ
ᚕ
ᚖ
ᚗ
ᚙ
᚛
᚜
᚞
᚟
ᚡ
ᚢ
ᚣ
ᚧ
ᚨ
ᚩ
ᚫ
ᚭ
ᚮ
ᚰ
ᚱ
ᚲ
ᚳ
ᚴ
ᚶ
ᚷ
ᚸ
ᚹ
ᚻ
ᚼ
ᚽ
ᚾ
ᚿ
ᛀ
ᛁ
ᛃ
ᛄ
ᛅ
ᛆ
ᛇ
ᛈ
ᛉ
ᛊ
ᛋ
ᛌ
ᛎ
ᛏ
ᛐ
ᛑ
ᛒ
ᛓ
ᛔ
ᛕ
ᛖ
ᛗ
ᛘ
ᛙ
ᛚ
ᛝ
ᛞ
ᛠ
ᛣ
ᛤ
ᛥ
ᛦ
ᛨ
ᛩ
᛫
᛬
᛭
ᛮ
ᛯ
ᛲ
ᛳ
ᛴ
ᛵ
ᛶ
ᛷ
ᛸ
᛺
᛾
᛿
ᜀ
ᜂ
ᜃ
ᜄ
ᜅ
ᜇ
ᜉ
ᜋ
ᜌ
ᜎ
ᜐ
ᜑ
ᜒ
ᜓ
᜔
᜕
᜖
᜗
᜙
᜝
᜞
ᜡ
ᜣ
ᜪ
ᜬ
ᜲ
᜸
᜹
᜻
᜿
ᝀ
ᝂ
ᝅ
ᝆ
ᝇ
ᝉ
ᝊ
ᝍ
ᝏ
ᝑ
ᝒ
ᝓ
᝔
᝕
᝗
᝘
᝚
ᝤ
ᝥ
ᝦ
ᝩ
ᝮ
᝼
᝽
᝾
᝿
ក
ខ
គ
ឃ
ង
ច
ឆ
ជ
ញ
ដ
ឋ
ណ
ត
ថ
ទ
ធ
ន
ប
ផ
ព
ភ
ម
យ
រ
ល
វ
ឝ
ឞ
ស
ហ
ឮ
ឯ
ឲ
ឳ
឴
ា
ិ
ី
ឹ
ឺ
ុ
ូ
ើ
ៀ
េ
ែ
ៃ
ោ
ៅ
ំ
ះ
ៈ
៉
៊
់
៌
៍
៏
័
៑
្
។
៕
៖
ៗ
៘
៚
ៜ
៞
៟
០
១
៣
៥
៦
៧
៩
៪
៫
៭
៰
៹
៺
᠀
᠁
᠂
᠃
᠄
᠅
᠇
᠈
᠉
᠊
᠋
᠌
᠍
᠒
᠓
᠖
᠗
᠘
᠚
᠛
᠜
᠝
᠞
᠟
ᠠ
ᠡ
ᠢ
ᠣ
ᠤ
ᠥ
ᠦ
ᠨ
ᠩ
ᠪ
ᠫ
ᠬ
ᠭ
ᠮ
ᠯ
ᠰ
ᠱ
ᠲ
ᠳ
ᠴ
ᡀ
ᡁ
ᡂ
ᡃ
ᡄ
ᡅ
ᡆ
ᡉ
ᡋ
ᡌ
ᡍ
ᡎ
ᡏ
ᡐ
ᡒ
ᡓ
ᡔ
ᡛ
ᡝ
ᡞ
ᡟ
ᡠ
ᡢ
ᡤ
ᡥ
ᡩ
ᡫ
ᡭ
ᡱ
ᡳ
ᡴ
ᢂ
ᢃ
ᢄ
ᢅ
ᢉ
ᢔ
ᢖ
ᢘ
ᢙ
ᢠ
ᢡ
ᢢ
ᢣ
ᢤ
ᢥ
ᢦ
ᢧ
ᢨ
᢫
᢬
᢭
᢯
ᢰ
ᢲ
ᢳ
ᢵ
ᢶ
ᢺ
ᢻ
ᢼ
ᢾ
ᣀ
ᣁ
ᣃ
ᣅ
ᣆ
ᣉ
ᣊ
ᣎ
ᣐ
ᣓ
ᣔ
ᣕ
ᣖ
ᣗ
ᣙ
ᣚ
ᣜ
ᣝ
ᣞ
ᣟ
ᣡ
ᣢ
ᣦ
ᣧ
ᣳ
᣽
ᤁ
ᤃ
ᤆ
ᤓ
ᤖ
ᤗ
ᤜ
ᤝ
ᤞ
ᤦ
ᤧ
ᤪ
ᤳ
᥀
᥁
ᥓ
ᥙ
ᥛ
ᥨ
ᥩ
ᥭ
᥵
ᦃ
ᦄ
ᦋ
ᦍ
ᦎ
ᦐ
ᦒ
ᦴ
ᦵ
᧐
᧑
᧔
᧕
᧖
᧘
᧙
᧚
᧛
᧜
᧞
᧟
᧥
᧩
᧪
᧫
᧬
᧭
᧮
᧯
᧰
᧲
᧳
᧶
᧷
᧸
᧹
᧺
᧻
ᨋ
ᨠ
ᨡ
ᨼ
᪖
᪗
᪘
᪙
᪞
᪟
᪠
᪡
᪦
᪨
᪮
᪻
᪽
ᪿ
᫂
᫃
ᫍ
᫏
᫐
᫑
᫓
᫖
᫘
᫙
ᬀ
ᬄ
ᬇ
ᭇ
ᭈ
ᭉ
ᭊ
ᭌ
᭍
᭎
᭏
᭐
᭑
᭒
᭕
᭘
᭚
᭝
᭞
᭠
᭣
᭤
᭥
᭦
᭧
᭨
᭩
᭪
᭫
᭬
᭭
᭮
᭯
᭰
᭱
᭲
᭳
᭴
᭵
᭶
᭷
᭸
᭺
ᮣ
ᮭ
ᮮ
ᮯ
᮲
᮳
᮴
᮵
᮶
᮷
᮹
ᮺ
ᮻ
ᮼ
ᮽ
ᮾ
ᮿ
ᯆ
ᯇ
ᯉ
ᯍ
ᯒ
ᯓ
ᯔ
ᯕ
ᯖ
ᯗ
ᯘ
ᯙ
ᯚ
ᯛ
ᯞ
ᯟ
ᯠ
ᯥ
ᯧ
ᯨ
ᯩ
ᯪ
ᯫ
ᯬ
ᯭ
ᯮ
ᯯ
ᯰ
ᯱ
᯲
᯳
᯴
᯵
᯶
᯷
᯸
᯹
᯺
᯽
᯾
᯿
ᰀ
ᰁ
ᰂ
ᰃ
ᰅ
ᰇ
ᰈ
ᰉ
ᰊ
ᰋ
ᰌ
ᰍ
ᰎ
ᰏ
ᰐ
ᰑ
ᰒ
ᰓ
ᰕ
ᰖ
ᰘ
ᰙ
ᰚ
ᰟ
ᰡ
ᰢ
ᰣ
ᰤ
ᰥ
ᰦ
ᰧ
ᰨ
ᰩ
ᰪ
ᰶ
᰸
᱅
᱈
᱉
᱑
᱗
ᱛ
ᱢ
ᱨ
ᱩ
ᱪ
ᱰ
ᱹ
ᱻ
᱿
ᲄ
ᲈ
᲋
Გ
Რ
Ტ
Ც
Ჭ
Ხ
Ჷ
Ჹ
Ჿ
᳀
᳁
᳃
᳆
᳇
᳈
᳉
᳊
᳋
᳏
᳑
᳒
᳓
᳔
᳖
᳘
᳙
᳚
᳛
᳠
ᳪ
ᳫ
ᳲ
ᳳ
᳴
᳸
᳹
᳻
᳼
᳽
᳾
ᴂ
ᴈ
ᴉ
ᴌ
ᴎ
ᴓ
ᴔ
ᴖ
ᴘ
ᴚ
ᴡ
ᴨ
ᴪ
ᴮ
ᴶ
ᴻ
ᵅ
ᵋ
ᵎ
ᵏ
ᵗ
ᵛ
ᵝ
ᵡ
ᵣ
ᵨ
ᵩ
ᵬ
ᵳ
ᵵ
ᵹ
ᵻ
ᵼ
ᵽ
ᵾ
ᵿ
ᶀ
ᶂ
ᶃ
ᶄ
ᶅ
ᶆ
ᶇ
ᶈ
ᶉ
ᶊ
ᶋ
ᶌ
ᶍ
ᶎ
ᶏ
ᶐ
ᶒ
ᶔ
ᶕ
ᶖ
ᶗ
ᶘ
ᶙ
ᶚ
ᶛ
ᶜ
ᶞ
ᶟ
ᶠ
ᶣ
ᶭ
ᶮ
ᶯ
ᶳ
ᶵ
ᶷ
ᶺ
ᶻ
ᶼ
ᶾ
᷀
᷁
᷂
᷃
᷄
᷅
᷉
᷋
᷍
ᷗ
ᷚ
ᷜ
ᷧ
ᷩ
ᷫ
ᷬ
ᷯ
ᷰ
᷷
᷸
᷺
᷻
᷾
Ḁ
Ḃ
ḃ
Ḅ
ḅ
ḇ
Ḉ
ḉ
ḋ
Ḍ
ḍ
Ḏ
ḏ
Ḑ
ḑ
ḓ
Ḕ
ḕ
Ḗ
ḗ
ḙ
Ḛ
ḛ
ḝ
Ḡ
ḡ
Ḣ
Ḥ
ḥ
Ḧ
ḧ
Ḩ
ḩ
Ḫ
ḫ
Ḭ
ḭ
Ḯ
ḯ
Ḱ
ḱ
Ḳ
ḳ
Ḵ
ḵ
Ḷ
ḷ
Ḹ
ḹ
Ḻ
ḻ
Ḽ
ḽ
Ḿ
ḿ
Ṁ
ṁ
Ṃ
ṃ
Ṅ
ṅ
Ṇ
ṇ
ṉ
ṋ
ṍ
Ṏ
ṏ
Ṑ
ṑ
Ṓ
ṓ
Ṕ
ṕ
Ṗ
ṗ
Ṙ
ṙ
Ṛ
ṛ
Ṝ
Ṟ
ṟ
Ṡ
ṡ
ṣ
Ṥ
ṥ
Ṧ
ṩ
Ṫ
ṫ
Ṭ
ṭ
ṯ
Ṱ
ṱ
ṳ
Ṵ
ṵ
Ṷ
ṷ
Ṹ
ṹ
ṿ
Ẁ
ẁ
Ẃ
ẃ
Ẅ
ẅ
Ẇ
ẉ
Ẋ
ẋ
ẍ
ẏ
Ẑ
Ẓ
ẓ
Ẕ
ẕ
ẖ
ẗ
ẘ
ẚ
ẛ
ẝ
ẞ
ẟ
Ạ
ạ
Ả
ả
Ấ
ấ
Ầ
ầ
Ẩ
ẩ
Ẫ
ẫ
Ậ
ậ
Ắ
ắ
Ằ
ằ
Ẳ
ẳ
ẵ
Ặ
ặ
Ẹ
ẹ
ẻ
Ẽ
ẽ
Ế
ế
Ề
ề
Ể
ể
Ễ
ễ
Ệ
ệ
Ỉ
ỉ
Ị
Ọ
ọ
ỏ
Ố
ố
Ồ
ồ
Ổ
ổ
ỗ
Ộ
ộ
Ớ
ớ
Ờ
ờ
ở
ỡ
Ợ
ợ
Ụ
ụ
Ủ
ủ
Ứ
ứ
ừ
ử
Ữ
ữ
Ự
ự
ỳ
Ỵ
ỵ
Ỷ
ỷ
Ỹ
ỹ
Ỻ
ỻ
ỽ
ἀ
ἁ
ἂ
ἃ
ἄ
ἅ
ἆ
Ἀ
Ἁ
Ἄ
Ἅ
Ἆ
ἐ
ἑ
ἒ
ἓ
ἔ
ἕ
἗
Ἐ
Ἑ
Ἒ
Ἔ
Ἕ
἟
ἠ
ἡ
ἢ
ἣ
ἤ
ἥ
ἦ
ἧ
Ἠ
Ἡ
Ἢ
Ἤ
Ἥ
Ἦ
Ἧ
ἰ
ἱ
ἲ
ἳ
ἴ
ἵ
ἶ
ἷ
Ἰ
Ἱ
Ἳ
Ἴ
Ἶ
Ἷ
ὀ
ὁ
ὂ
ὃ
ὄ
ὅ
Ὀ
Ὁ
Ὂ
Ὄ
Ὅ
ὐ
ὑ
ὔ
ὕ
ὖ
ὗ
Ὑ
὚
Ὓ
Ὕ
Ὗ
ὠ
ὡ
ὢ
Ὠ
Ὡ
Ὣ
Ὤ
Ὧ
ὰ
ὲ
έ
ὴ
ὶ
ί
ὸ
ό
ὺ
ύ
ὼ
὾
὿
ᾀ
ᾁ
ᾂ
ᾃ
ᾅ
ᾆ
ᾇ
ᾊ
ᾋ
ᾌ
ᾍ
ᾎ
ᾏ
ᾐ
ᾑ
ᾒ
ᾓ
ᾔ
ᾕ
ᾖ
ᾗ
ᾙ
ᾚ
ᾛ
ᾝ
ᾟ
ᾠ
ᾢ
ᾣ
ᾥ
ᾧ
ᾩ
ᾪ
ᾬ
ᾭ
ᾯ
ᾰ
ᾱ
ᾳ
ᾴ
᾵
ᾶ
ᾷ
Ᾰ
Ᾱ
Ά
᾽
᾿
῀
ῃ
ῄ
ῆ
ῇ
Ὲ
ῌ
῎
῏
ῐ
ῑ
ΐ
῔
ῖ
Ῐ
Ῑ
Ὶ
Ί
῜
῝
῞
ῠ
ῡ
ῢ
ΰ
ῤ
ῥ
ῦ
ῧ
Ῠ
Ῡ
Ύ
Ῥ
῭
΅
ῲ
ῳ
ῴ
῵
ῶ
ῷ
Ὸ
Ό
Ὼ
Ώ
ῼ
´
῿
‒
—
―
‖
‗
‛
‟
‡
‣
․
‥
‧
‱
′
″
‴
‵
‹
›
※
‽
⁀
⁁
⁂
⁃
⁄
⁅
⁆
⁇
⁈
⁊
⁋
⁌
⁎
⁏
⁒
⁓
⁕
⁚
⁛
⁜
⁝
⁞
⁼
⁾
₃
₆
₈
₉
₍
₎
ₑ
ₒ
ₓ
ₔ
ₚ
ₛ
ₜ
₝
₟
₠
₡
₢
₣
₤
₥
₦
₧
₩
₪
₫
₭
₮
₯
₰
₱
₲
₳
₴
₶
₷
₸
₹
₻
₽
₾
₿
⃀
⃁
⃄
⃆
⃒
⃕
⃖
⃗
⃘
⃙
⃚
⃛
⃜
⃝
⃠
⃡
⃢
⃥
⃦
⃧
⃨
⃩
⃪
⃫
⃭
⃮
⃰
⃳
⃴
⃷
⃹
⃺
⃼
⃽
⃾
℀
℁
℃
℄
ℇ
℈
℉
ℋ
ℌ
ℍ
ℐ
℔
ℕ
№
℗
℘
ℙ
ℚ
ℛ
℞
℟
ℤ
℥
℧
ℨ
℩
K
Å
ℬ
ℭ
℮
ℰ
ℱ
Ⅎ
ℳ
ℶ
ℸ
ℹ
℺
ℼ
ℽ
⅄
ⅅ
⅖
⅗
⅟
Ⅸ
Ⅿ
ⅲ
ⅳ
ⅷ
ↄ
ↇ
↊
↋
↍
↎
←
↑
↓
↔
↕
↖
↗
↘
↛
↜
↝
↞
↟
↠
↢
↤
↥
↦
↧
↨
↪
↫
↬
↭
↯
↰
↱
↲
↳
↴
↵
↶
↷
↸
↹
↺
↽
⇄
⇅
⇉
⇊
⇋
⇌
⇏
⇐
⇑
⇒
⇓
⇔
⇕
⇖
⇗
⇘
⇙
⇛
⇜
⇝
⇢
⇣
⇥
⇦
⇧
⇨
⇩
⇪
⇫
⇬
⇰
⇲
⇵
⇶
⇻
⇼
⇽
⇾
∀
∁
∂
∃
∄
∅
∇
∈
∉
∊
∋
∎
∏
∑
−
∓
∔
∕
∖
∗
∘
∙
∛
∝
∟
∠
∡
∣
∤
∥
∨
∩
∪
∫
∭
∮
∲
∳
∴
∵
∶
∷
∸
∺
∼
∽
∿
≂
≃
≅
≆
≈
≊
≋
≌
≍
≏
≒
≓
≔
≖
≘
≙
≚
≛
≜
≝
≞
≠
≡
≢
≤
≥
≨
≩
≪
≫
≬
≮
≰
≱
≲
≳
≴
≵
≶
≸
≹
≺
≻
≽
≾
≿
⊃
⊄
⊅
⊆
⊇
⊈
⊉
⊊
⊋
⊍
⊎
⊐
⊑
⊒
⊓
⊔
⊕
⊖
⊗
⊘
⊙
⊚
⊛
⊝
⊞
⊟
⊢
⊣
⊤
⊥
⊦
⊧
⊨
⊩
⊪
⊬
⊭
⊮
⊯
⊰
⊱
⊲
⊳
⊴
⊵
⊷
⊸
⊹
⊺
⊻
⊼
⊽
⊿
⋁
⋂
⋃
⋄
⋅
⋆
⋇
⋈
⋊
⋋
⋌
⋍
⋎
⋏
⋐
⋖
⋗
⋘
⋙
⋚
⋛
⋜
⋝
⋞
⋟
⋢
⋤
⋦
⋧
⋩
⋫
⋬
⋭
⋮
⋯
⋰
⋳
⋵
⋸
⋺
⋿
⌀
⌂
⌃
⌄
⌇
⌈
⌉
⌊
⌋
⌏
⌐
⌒
⌔
⌕
⌖
⌗
⌘
⌙
⌚
⌛
⌜
⌝
⌡
⌢
⌥
⌦
⌨
〈
〉
⌫
⌬
⌭
⌮
⌱
⌲
⌳
⌴
⌵
⌷
⌸
⌹
⌻
⌽
⌾
⍂
⍇
⍈
⍋
⍌
⍍
⍐
⍒
⍓
⍙
⍚
⍜
⍞
⍟
⍡
⍢
⍣
⍧
⍫
⍬
⍲
⍵
⍸
⍹
⍺
⍼
⍾
⍿
⎀
⎃
⎄
⎇
⎈
⎋
⎌
⎐
⎑
⎒
⎓
⎘
⎙
⎚
⎛
⎜
⎝
⎞
⎟
⎠
⎡
⎢
⎣
⎤
⎥
⎦
⎧
⎪
⎫
⎬
⎮
⎯
⎰
⎱
⎲
⎴
⎷
⎼
⎽
⎾
⏃
⏆
⏇
⏉
⏌
⏎
⏏
⏑
⏔
⏜
⏝
⏟
⏤
⏩
⏪
⏬
⏭
⏯
⏰
⏱
⏲
⏳
⏴
⏵
⏸
⏹
⏺
␈
␒
␓
␔
␖
␙
␠
␡
␢
␥
␦
␨
␩
␪
␫
␬
␵
␶
␷
␾
␿
⑃
⑇
⑈
⑌
⑍
⑎
⑐
⑑
⑖
⑛
⑜
⑝
②
⑥
⑫
⑬
⑯
⑰
⑱
⑳
⑶
⑿
⒀
⒔
⒕
⒨
⒱
Ⓑ
Ⓔ
Ⓕ
Ⓖ
Ⓗ
Ⓘ
Ⓙ
Ⓚ
Ⓝ
Ⓞ
Ⓢ
Ⓣ
Ⓤ
Ⓧ
Ⓩ
ⓑ
ⓓ
ⓔ
ⓕ
ⓖ
ⓗ
ⓘ
ⓙ
ⓚ
ⓛ
ⓝ
ⓞ
ⓡ
ⓢ
ⓩ
⓪
⓳
⓵
⓷
⓸
⓽
│
┅
┆
┉
┊
┋
┌
┎
┐
┑
└
┘
┚
├
┝
┞
┟
┠
┤
┦
┨
┪
┬
┮
┰
┴
┷
┸
┹
┼
╁
╂
╄
╈
═
╡
╢
╤
╨
╪
╫
╬
▀
▂
▃
▄
▅
▆
▇
█
▌
▐
░
▒
▓
■
□
▢
▣
▤
▥
▦
▧
▨
▩
▪
▫
▬
▭
▲
△
▴
▵
▶
▸
▹
►
▻
▼
▾
◀
◄
◅
◆
◈
◊
○
◌
◎
◐
◑
◔
◕
◗
◘
◙
◞
◟
◣
◤
◥
◦
◯
◼
◽
◾
☀
☁
☂
★
☆
☊
☋
☍
☎
☏
☐
☑
☔
☕
☖
☘
☚
☛
☜
☝
☟
☠
☡
☢
☣
☤
☥
☦
☩
☪
☬
☭
☮
☯
☰
☷
☸
☹
☺
☻
☼
☾
☿
♀
♁
♂
♃
♄
♅
♆
♈
♉
♊
♋
♌
♍
♎
♏
♐
♑
♒
♓
♔
♕
♖
♗
♘
♙
♚
♛
♜
♝
♞
♟
♠
♡
♢
♣
♤
♥
♦
♧
♨
♩
♪
♫
♬
♭
♮
♯
♰
♻
♾
♿
⚈
⚊
⚋
⚐
⚑
⚒
⚓
⚔
⚕
⚖
⚗
⚘
⚙
⚚
⚛
⚜
⚝
⚠
⚡
⚣
⚤
⚧
⚪
⚫
⚬
⚰
⚵
⚶
⚷
⚽
⚾
⛄
⛅
⛇
⛈
⛏
⛑
⛓
⛔
⛝
⛟
⛩
⛪
⛰
⛱
⛲
⛳
⛴
⛵
⛷
⛸
⛹
⛺
⛽
✂
✄
✅
✆
✈
✉
✊
✋
✌
✍
✎
✏
✐
✑
✒
✓
✔
✕
✖
✗
✘
✚
✛
✜
✝
✞
✠
✡
✣
✤
✥
✦
✧
✨
✩
✪
✫
✬
✭
✮
✯
✰
✱
✳
✴
✵
✶
✷
✸
✹
✺
✻
✽
✾
✿
❀
❁
❂
❃
❄
❅
❆
❇
❈
❉
❊
❋
❌
❍
❎
❏
❑
❒
❓
❔
❕
❖
❗
❚
❛
❜
❝
❞
❣
❤
❥
❦
❧
❬
❮
❯
❰
❱
❴
❵
❶
❷
❸
❹
❺
❻
❼
❾
➀
➁
➂
➃
➄
➅
➆
➇
➈
➉
➊
➋
➌
➍
➎
➏
➐
➑
➔
➕
➖
➗
➘
➙
➚
➛
➜
➝
➞
➟
➠
➡
➢
➣
➤
➥
➦
➧
➨
➩
➪
➫
➭
➮
➯
➰
➱
➲
➳
➵
➶
➷
➸
➹
➺
➻
➼
➽
➾
➿
⟐
⟓
⟟
⟠
⟨
⟩
⟳
⟴
⟵
⟶
⟹
⠀
⠇
⠥
⠻
⣭
⣽
⤀
⤁
⤄
⤉
⤓
⤔
⤕
⤛
⤠
⤤
⤥
⤦
⤲
⤴
⤵
⤷
⤹
⥄
⥅
⥈
⥚
⥟
⥤
⥿
⦁
⦅
⦋
⦌
⦕
⦖
⦸
⦽
⦿
⧊
⧋
⧌
⧍
⧐
⧫
⧬
⧭
⧼
⧽
⨀
⨠
⨯
⩏
⩙
⩚
⩡
⩨
⩯
⩽
⩾
⪂
⪅
⪋
⪍
⪎
⪏
⪒
⪛
⪦
⪭
⪰
⪱
⪸
⪹
⫈
⫉
⫔
⫷
⫸
⬅
⬆
⬇
⬌
⬛
⬜
⬤
⬥
⬩
⬪
⭄
⭐
⭑
⭕
⮐
⮚
⮟
⮫
⮶
⯁
⯄
⯅
⯐
⯓
⯙
⯡
⯭
Ⰼ
Ⱅ
Ⱗ
Ɫ
Ɽ
Ⱪ
ⱪ
Ⱬ
Ɐ
ⱷ
ⲁ
Ⲉ
ⲉ
Ⲏ
Ⲕ
ⲙ
Ⲛ
Ⲟ
ⲟ
Ⲥ
ⲥ
Ⲩ
ⳉ
Ⳍ
ⳏ
Ⳑ
ⳑ
Ⳓ
ⳓ
Ⳕ
ⳗ
Ⳙ
ⳙ
Ⳛ
ⳛ
Ⳝ
ⳝ
ⳟ
Ⳡ
ⳡ
Ⳣ
ⳤ
⳥
⳨
⳩
⳪
Ⳬ
ⳬ
Ⳮ
ⳮ
⳯
⳱
Ⳳ
ⳳ
ⴀ
ⴗ
ⴰ
ⴳ
ⴷ
ⵉ
ⵏ
ⵔ
ⵖ
ⵜ
ⵡ
ⷌ
⸀
⸄
⸅
⸜
⸝
⸬
⸭
⸮
ⸯ
⸰
⸸
⸺
⸾
⸿
⹏
⹑
⹕
⹡
⹥
⹩
⹶
⹺
⹼
⺇
⺎
⺑
⺒
⺓
⺘
⺙
⺛
⺡
⺶
⺷
⻢
⾗
⾠
⾤
⾲
⿇
⿞
⿥
⿲
⿿
、
。
〃
〄
々
〆
〇
〈
〉
《
》
「
」
『
』
【
】
〒
〓
〔
〕
〖
〗
〘
〚
〜
〝
〞
〫
〲
〴
〷
あ
ぃ
い
ぅ
う
え
お
か
が
き
ぎ
く
け
げ
こ
ご
さ
ざ
し
じ
す
ず
せ
ぜ
そ
ぞ
た
だ
ち
ぢ
っ
つ
づ
て
で
と
ど
な
に
ぬ
ね
の
は
ば
ぱ
ひ
び
ぴ
ふ
ぶ
ぷ
へ
べ
ぺ
ほ
ぼ
ぽ
ま
み
む
め
も
ゃ
や
ゅ
ゆ
ょ
よ
ら
り
る
れ
ろ
わ
を
ん
゙
ァ
ア
ィ
イ
ゥ
ウ
エ
ォ
オ
カ
ガ
キ
ギ
ク
グ
ケ
ゲ
コ
ゴ
サ
ザ
シ
ジ
ス
ズ
セ
ゼ
ソ
ゾ
タ
ダ
チ
ヂ
ッ
ツ
ヅ
テ
デ
ト
ド
ナ
ニ
ヌ
ネ
ノ
ハ
バ
パ
ヒ
ビ
ピ
フ
ブ
プ
ヘ
ベ
ペ
ホ
ボ
ポ
マ
ミ
ム
メ
モ
ャ
ヤ
ュ
ユ
ョ
ヨ
ラ
リ
ル
レ
ロ
ワ
ヲ
ン
ヴ
ヶ
ヹ
ー
ヽ
ヾ
㄀
ㄅ
ㄊ
ㄎ
ㄏ
ㄒ
ㄖ
ㄘ
ㄙ
ㄟ
ㄨ
ㄩ
㉠
㉢
㉤
㉧
㉨
㉪
㉭
㉱
㉵
㉶
㉷
㉺
㉻
㉼
㉿
㊀
㊅
㊔
㊕
㊖
㊜
㊠
㊣
㊤
㊦
㊧
㊨
㊩
㊪
㊬
㊭
㊱
㋂
㋇
㋉
㋊
㋐
㋑
㋒
㋓
㋔
㋕
㋗
㋘
㋙
㋛
㋩
㋪
㋮
㋳
㋶
㋷
㋾
㋿
㌄
㌆
㌋
㌍
㌓
㌔
㌟
㌡
㌢
㌧
㌭
㌰
㌱
㌸
㌽
㍇
㓇
㓌
㓍
㓢
㓣
㓤
㓧
㓫
㓬
㓮
㓲
㓷
㓸
㓹
㓺
㓻
㔉
㔖
㔗
㔢
㔤
㔯
㔻
㕂
㕃
㕍
㕎
㕐
㕑
㕒
㕓
㕔
㕕
㕖
㕘
㕛
㕝
㕞
㕟
㕢
㕥
㕧
㕨
㕩
㕪
㕫
㕭
㕮
㕰
㕱
㕴
㕵
㕷
㕼
㕿
㖀
㖂
㖇
㖉
㖏
㖓
㖟
㖤
㖥
㖦
㖨
㖩
㖪
㖬
㖮
㖰
㖱
㖳
㖷
㖸
㗇
㗈
㗉
㗊
㗋
㗍
㗎
㗕
㟶
㟻
㟽
㟾
㟿
㠄
㠈
㠊
㠍
㠎
㠐
㠔
㠕
㠘
㠚
㠛
㠪
㠭
㠯
㠳
㠴
㡂
㡅
㡆
㡏
㡘
㡛
㡞
㡭
㡯
㡰
㡶
㢍
㢓
㢗
㢘
㢜
㢟
㢠
㢡
㢣
㢵
㢸
㢹
㣅
㣋
㣌
㣎
㣓
㣜
㣞
㣟
㣢
㣣
㣮
㣰
㣵
㣶
㣷
㣾
㤂
㤇
㤉
㤓
㤡
㤥
㤧
㤮
㥈
㥗
㥜
㥞
㥡
㥧
㥲
㥿
㦅
㦆
㦈
㦉
㦏
㦑
㦗
㦚
㦜
㦝
㦟
㦤
㦨
㦫
㦬
㦯
㦲
㦳
㦵
㧐
㧚
㧥
㱮
㴤
㵄
㵅
㵆
㵇
㵉
㵊
㵋
㵍
㵏
㵔
㵕
㵖
㵘
㵙
㵛
㵞
㵟
㵠
㵢
㵣
㵦
㵨
㵩
㵪
㵫
㵬
㵭
㵮
㵱
㵴
㵻
㵽
㵾
㶁
㶇
㶏
㶕
㶙
㶡
㶢
㶣
㶮
㶯
㶱
㶳
㶴
㶵
㶶
㶻
㶾
㶿
㷀
㷁
㷂
㷅
㷇
㷈
㷉
㷋
㷎
㷏
㷐
㷕
㷚
㷞
㷟
㷬
㷮
㷱
㷹
㷺
㷽
㷾
㷿
㸀
㸅
㸆
㸇
㸉
㸊
㸋
㸌
㸍
㸑
㸓
㸔
㸞
㸡
㸣
㸦
㸧
㸪
㸬
㸯
㸱
㸲
㸳
㸸
㸹
㸻
㸽
㹁
㹂
㹅
㹆
㹇
㹉
㹊
㹋
㹏
㹐
㹑
㹒
㹖
㹟
㹡
㹢
㹤
㹥
㹦
㹧
㹨
㹫
㹬
㹭
㹱
㹶
䃿
䄏
䄩
䄪
䄫
䄭
䄱
䄻
䄽
䅅
䅠
䈀
䒣
䕀
䛥
䛧
䛩
䛬
䛭
䛱
䛲
䛳
䛸
䛿
䜉
䜊
䜋
䜐
䜓
䜕
䜧
䜨
䜰
䜳
䜸
䝁
䝂
䝅
䝌
䝍
䝎
䝐
䝒
䝘
䝧
䝩
䝭
䝿
䞂
䞊
䞓
䞔
䞖
䞚
䞝
䞞
䞟
䞠
䞢
䞣
䞯
䞳
䞶
䞷
䞺
䞻
䟂
䟄
䟅
䟈
䟉
䟗
䥢
䦾
䧆
䧑
䧓
䧕
䧝
䧠
䧪
䧳
䧻
䧼
䨅
䨗
䨪
䨲
䩀
䩂
䩇
䩍
䭯
䷺
一
丁
丂
七
丅
万
丈
三
上
下
丌
不
与
丑
丒
专
且
世
丘
丙
业
东
丝
両
丢
两
严
並
丨
个
中
丰
串
临
丶
丸
丹
为
主
丽
举
丿
乁
乂
乃
久
乇
么
义
之
乌
乍
乎
乏
乐
乒
乓
乗
乘
乙
九
乞
也
习
乡
书
买
乱
乳
乾
亀
亂
了
予
争
事
二
于
亏
云
互
亓
五
井
亚
些
亜
亞
亡
亢
交
亥
亦
产
亨
享
京
亭
亮
亰
亲
亳
人
亻
亿
什
仁
仅
仇
今
介
从
仏
仑
仔
仕
他
付
仙
代
令
以
仪
们
仮
仰
仲
件
价
任
份
企
伊
伍
伎
伏
休
众
优
会
伝
伟
传
伦
伪
伯
似
伽
但
位
低
住
佐
佑
体
何
余
佛
作
你
佣
佳
使
侃
來
例
侍
侘
供
依
侠
価
侧
侨
侯
侵
便
係
促
俄
俊
俑
俗
保
俟
信
俣
俥
俩
俭
修
俳
俺
倉
個
倍
們
倒
候
倚
借
倠
値
倫
倭
倶
债
值
倾
偆
假
偉
偏
偕
偙
做
停
偣
健
偰
側
偵
偷
偽
傅
傌
備
储
催
傲
傳
傷
傾
働
像
僕
僚
價
儀
億
儒
優
儿
元
兄
充
兇
先
光
克
免
児
兑
兒
兔
党
兜
入
內
全
兩
八
公
六
兰
共
关
兴
兵
其
具
典
兹
养
兼
兽
冀
内
円
冉
冊
册
再
冒
写
军
农
冠
冢
冥
冬
冯
冰
冲
决
况
冷
冼
净
准
减
凝
几
凡
凤
処
凪
凯
凰
凱
凶
凹
出
击
函
刀
刃
分
切
刊
划
列
刘
则
刚
创
初
删
判
別
利
别
到
制
刷
券
刹
刺
刻
剂
則
前
剑
剖
剛
剣
剤
剥
剧
剪
副
割
創
剿
劃
劇
劉
劍
力
办
功
加
务
动
助
努
劫
劳
労
势
勃
勅
勇
勉
勋
勒
動
勖
勘
務
勝
勢
勤
勲
勳
勾
勿
匀
匁
包
匈
匕
化
北
匝
匠
匡
匪
匮
匯
匹
区
医
區
十
千
升
午
半
卋
卍
华
协
卐
卑
卒
卓
協
单
卖
南
単
博
卜
占
卡
卢
卦
卫
卯
印
危
即
卵
卷
卸
卻
卿
厂
厄
厅
历
厉
压
厘
厚
原
厥
厦
厨
厲
厳
厶
去
县
参
參
叉
及
友
双
反
发
叔
取
受
变
叡
叢
口
古
句
另
只
叫
召
可
台
史
右
叶
号
司
吃
各
合
吉
吋
同
名
后
向
吒
吓
吗
君
吟
否
吧
含
听
启
吳
吴
吸
吹
吾
呂
呈
呉
告
员
呟
周
呪
味
呵
呼
命
咄
和
咕
咖
咣
咥
咨
咩
咬
咭
咯
咱
咲
咴
咵
咶
咸
咹
咺
咼
咾
咿
哀
品
哂
哄
哅
哆
哈
哉
哊
哋
响
哐
哓
哙
哜
哟
員
哥
哦
哩
哪
哫
哯
哲
哵
哹
哺
哼
哾
哿
唀
唁
唇
唐
唒
唓
唘
唙
唚
唞
唢
唣
唥
唭
售
唯
唰
唱
唴
唵
唼
唽
啀
啁
啂
啃
商
啊
啋
啍
問
啓
啛
啜
啝
啞
啟
啡
啢
啦
啯
啸
喀
喂
喃
善
喅
喇
喉
喋
喒
喓
喔
喙
喚
喜
喝
喪
喫
單
喰
喱
営
喷
喻
嗇
嗎
嗏
嗑
嗕
嗖
嗗
嗛
嗜
嗡
嗣
嗤
嗧
嗨
嗩
嗭
嗯
嗳
嘀
嘉
嘑
嘛
嘴
嘿
噂
噌
噠
器
噴
噶
嚳
嚴
四
回
因
团
団
囧
园
困
囲
図
围
固
国
图
圆
圈
國
圍
圏
園
圓
圖
團
土
圣
圧
在
圭
地
圳
场
址
坂
均
坊
坏
坐
坑
块
坛
坠
坡
坤
坦
坪
坯
垂
型
垒
埃
埋
城
埔
域
埠
執
培
基
埼
堂
堅
堡
堪
堯
堰
報
場
塑
塔
塗
塚
塞
塩
填
塾
境
墊
墓
増
增
墟
墨
壁
壇
壊
壢
士
壬
壮
壯
声
壱
売
壳
壽
处
备
変
复
夏
夕
外
多
夜
够
夢
大
天
太
夫
央
失
头
夷
夺
奇
奈
奉
奎
契
奕
奖
套
奘
奥
奨
奪
奮
女
奴
奶
奸
她
好
如
妃
妇
妈
妊
妓
妖
妘
妙
妝
妥
妩
妮
妳
妹
妻
姁
姆
姉
姊
始
姑
姒
姓
委
姚
姜
姞
姫
姬
姿
威
娃
娇
娘
娛
娜
娠
娥
娱
婆
婚
婦
婷
婿
媙
媚
媛
媧
媯
媽
嫁
嫌
嫦
嫩
嬉
嬰
嬴
孁
子
孔
字
存
孙
孚
孝
孟
季
孤
学
孩
孫
學
宀
宁
它
宅
宇
守
安
宋
完
宏
宗
官
宙
定
宛
宜
宝
实
実
客
宣
室
宪
宫
宮
宰
害
宴
宵
家
容
宽
宾
宿
寂
寄
寅
密
寇
富
寒
寝
察
寡
實
寧
寫
寰
寶
寸
对
寺
导
対
寿
封
専
射
将
將
專
尊
尋
對
導
小
少
尔
尖
尚
尤
尧
就
尸
尺
尼
尽
尾
局
层
居
屈
届
屋
屍
屏
展
属
屠
層
履
屬
山
岁
岐
岛
岡
岩
岭
岱
岳
岷
岸
峡
峰
島
峽
崇
崎
崔
崖
崙
崛
崩
嵐
嵩
嶋
嶺
嶼
嶽
巅
川
州
巡
巢
工
左
巧
巨
巫
差
己
已
巳
巴
巻
巽
币
市
布
帆
师
希
帖
帝
帥
带
師
席
帮
帯
帰
帳
帶
常
帽
幅
幌
幕
幡
幣
干
平
年
并
幸
幹
幻
幼
幽
幾
广
庁
広
庄
庆
床
序
库
应
底
庖
店
庙
庚
府
庞
度
座
庫
庭
庵
庶
康
庸
廈
廉
廊
廓
廖
廚
廟
廢
廣
廳
延
建
廻
廿
开
弁
异
弄
弉
式
弓
弔
引
弗
弘
弟
张
弥
弧
弩
弱
張
強
弹
强
弼
弾
彌
归
当
录
彡
形
彦
彩
彪
彫
彬
彭
彰
影
役
彼
往
征
径
待
很
律
後
徐
徑
徒
得
從
御
復
微
徳
徵
德
徹
徽
心
必
忆
忌
忍
忒
志
忘
忙
応
忠
快
念
怀
态
怎
怒
怕
怖
怛
思
怡
急
性
怨
怪
总
恆
恋
恐
恒
恨
恩
息
恵
恶
恼
悄
悉
悟
悠
患
悦
您
悩
悪
情
惊
惑
惠
惡
惯
想
愍
意
愛
感
愿
慈
態
慎
慕
慘
慢
慧
慮
慰
慶
慷
憂
憩
憲
懂
應
懐
懧
懨
懩
懪
懫
懬
懭
懱
懲
懳
懴
懵
懶
懷
懸
懼
懾
懿
戀
戁
戂
戃
戇
戈
戊
戌
戎
戏
成
我
戒
或
战
戛
戟
戠
戦
戩
戯
戰
戱
戲
戳
戴
戶
户
戸
戹
戺
戻
戾
房
所
扁
扈
扉
扊
手
才
扎
打
払
托
扜
扝
扞
扡
扢
扣
扪
扫
扭
扮
扯
扰
扱
扵
扶
扷
扸
批
扽
找
承
技
抁
抄
抈
把
抋
抌
抓
投
抖
抗
折
抛
抜
択
抠
抡
抢
护
报
抧
抨
披
抬
抭
抯
抱
抵
抷
抸
抹
抺
押
抽
拀
担
拈
拉
拊
拋
拍
拏
拐
拒
拓
拔
拕
拖
拗
拘
招
拜
拟
拠
拡
择
括
拭
拱
拳
拴
拶
拷
拸
拻
拼
拾
拿
持
挂
挃
挅
指
按
挊
挋
挑
挒
挖
挙
挚
挡
挥
挨
挬
振
捁
捋
捎
捕
捗
捝
捞
损
捠
换
捣
捧
捨
据
捳
捷
捹
捺
掀
掃
掄
掅
掆
掇
掌
掎
掏
掐
排
掖
掛
採
探
接
控
推
掩
掬
掭
掮
掱
掲
描
提
插
揚
換
握
揭
援
揺
搀
搏
搜
搞
搭
搶
携
摂
摄
摘
摩
摸
撃
撒
撥
撩
播
撮
撲
撼
擇
擊
操
擬
支
收
改
攻
放
政
故
效
敌
敏
救
敖
敗
教
敢
散
敦
敬
数
整
敵
敷
數
文
斉
斌
斎
斐
斗
料
斛
斜
斡
斤
斬
断
斯
新
方
於
施
旅
旋
族
旗
无
日
旦
旧
旨
早
旭
时
昂
昆
昇
昊
昌
明
昏
易
昔
星
映
春
昧
昨
昫
昭
是
显
時
晃
晉
晋
晏
晒
晓
晖
晚
晦
晨
普
景
晴
晶
智
暁
暂
暈
暑
暖
暗
暠
暢
暨
暮
暴
暾
曆
曌
曙
曜
曝
曲
更
書
曹
曼
曽
曾
替
最
會
月
有
朋
服
朗
望
朝
期
朧
木
未
末
本
札
术
朱
机
朽
杀
权
杆
杉
李
杏
材
村
杖
杜
束
条
来
杨
杪
杭
杯
杰
東
杳
杵
松
板
极
构
枉
析
枕
林
枚
果
枝
枢
枪
枯
架
柄
柏
某
柑
染
柔
查
柱
柳
柴
査
栀
栃
栄
栅
标
栏
树
栖
栗
校
株
样
核
根
格
栽
桁
桂
桃
框
案
桑
桓
桜
档
桥
梁
梅
梆
條
梦
梨
梭
梯
械
梱
梵
检
棉
棋
棍
棒
棘
棚
棠
棣
森
棲
棵
椅
植
椒
検
椿
楊
楚
楢
業
極
楷
楸
楼
楽
概
榄
榕
榜
榮
榴
構
槍
槐
様
樂
樊
樓
標
樞
樟
模
樣
権
横
樸
樹
樺
橋
橘
機
橡
橫
檀
檚
檜
櫃
櫻
欄
權
欠
次
欢
欣
欧
欲
款
歇
歌
歐
歛
歡
止
正
此
步
武
歧
歩
歯
歲
歳
歴
歷
歸
死
歼
殃
殆
殊
残
殕
殞
殡
殲
殳
段
殷
殺
殻
殿
毅
母
毎
每
毒
比
毗
毘
毛
毫
毯
毽
氏
氐
民
气
氕
気
氛
氣
氧
水
氷
永
氹
氾
汁
求
汇
汉
汕
汗
江
池
汤
汪
決
汽
沁
沃
沈
沒
沖
沙
沛
沟
没
沢
沧
沪
沫
沮
河
沸
油
治
沼
沿
況
泄
泉
泊
法
泛
泠
泡
波
泥
注
泫
泰
泳
泵
泻
泽
洁
洋
洗
洙
洛
洞
津
洪
洱
洲
活
派
流
浄
浅
测
济
浏
浓
浙
浜
浣
浦
浩
浪
浮
浲
浴
海
浸
涂
消
涉
涖
涛
润
涨
涩
液
涵
涼
淀
淔
淘
淙
淚
淜
淝
淠
淡
淢
淤
淨
淫
淬
淮
深
淳
淴
淵
混
淸
淺
添
淽
淾
淿
清
済
渉
渊
渋
渏
渓
渕
渗
渘
渚
減
渜
渝
渠
渡
渤
渥
渧
温
渪
渫
測
渭
渮
港
渴
渵
渶
游
渾
湀
湁
湅
湈
湉
湋
湍
湎
湑
湒
湔
湖
湘
湙
湛
湜
湞
湠
湢
湣
湥
湪
湫
湮
湯
湰
湴
湸
湹
湻
湼
湽
湾
湿
満
溈
溉
源
溑
溔
準
溙
溜
溝
溠
溡
溢
溥
溦
溩
溪
溫
溯
溰
溹
溽
溿
滃
滄
滅
滉
滍
滎
滑
滗
滙
滚
滝
滠
满
滣
滤
滦
滨
滪
滫
滮
滳
滴
滵
滷
滸
滻
滼
滽
滿
漀
漁
漂
漃
漄
漈
漍
漎
漏
漑
漓
演
漕
漘
漞
漟
漠
漡
漢
漣
漦
漧
漨
漩
漪
漫
漬
漮
漰
漱
漲
漷
漽
漾
漿
潄
潅
潇
潈
潊
潌
潎
潔
潙
潜
潟
潠
潤
潪
潭
潮
潲
潶
潹
潽
澁
澃
澈
澎
澐
澓
澟
澡
澢
澣
澤
澳
激
濛
濟
濠
濤
濱
瀋
瀑
瀛
瀬
灣
火
灭
灯
灵
灸
災
灾
灿
炅
炉
炊
炎
炒
炫
炬
炭
炮
点
為
烂
烈
烊
烏
烙
烟
烤
烦
烧
热
烽
焉
焕
焚
無
焦
然
焼
煉
煌
煎
煒
煕
煞
煤
煥
煦
照
煮
煲
熈
熊
熟
熱
熹
燈
燉
燒
燕
燭
燵
爀
爆
爐
爪
爭
爰
爱
爲
爵
父
爸
爻
爾
牆
片
版
牌
牒
牙
牛
牟
牡
牢
牧
物
牲
特
牺
犁
犠
犬
犯
状
犹
狀
狂
狄
狐
狗
狙
狩
独
狱
狸
狼
猎
猗
猛
猪
猫
猴
猿
獄
獅
獒
獣
獨
獵
獺
獻
玄
率
玉
王
玛
玠
玩
玮
环
现
玲
玺
玻
珍
珞
珠
珩
珪
班
現
球
琅
理
琉
琏
琪
琮
琳
琴
琵
琶
琼
瑄
瑛
瑜
瑞
瑟
瑠
瑤
瑩
瑪
瑭
瑶
璃
環
璽
瓊
瓚
瓜
瓣
瓶
瓷
甘
生
產
産
用
甩
甫
田
由
甲
申
电
男
甸
町
画
畅
界
畏
畑
留
畜
略
番
異
畳
當
畿
疆
疎
疏
疑
疗
疫
疯
疲
疾
病
症
痕
痴
瘕
療
癟
癡
癢
癸
発
登
發
白
百
的
皆
皇
皐
皓
皝
皮
盆
益
监
盖
盗
盘
盛
盟
盡
監
盤
盧
目
直
相
盾
省
眉
看
県
眞
真
眠
眩
眼
着
睈
睉
睌
睍
睖
睛
睡
督
睦
睫
瞇
瞬
瞳
矇
矛
矢
知
矫
短
石
矿
码
砂
研
砖
砲
破
硅
硕
硝
硫
硬
确
碁
碉
碎
碑
碕
碗
碩
碱
碳
確
碼
磊
磐
磚
磯
礦
礪
示
礻
礼
社
祁
祇
祈
祐
祓
祖
祛
祝
神
祠
祥
票
祭
祿
禁
禄
禅
禎
福
禥
禧
禪
禮
禹
禺
离
禽
禿
秀
私
秋
种
科
秒
秘
租
秦
积
称
移
程
稍
税
稔
稚
種
稱
稲
稽
稿
穂
穆
穌
積
穢
究
穹
空
穿
突
窈
窓
窕
窗
窟
窦
窮
立
站
竜
竟
章
童
端
競
竹
竺
笃
笑
笔
笛
笠
符
第
笺
筆
等
筋
筑
筒
答
策
筷
签
简
箏
箕
算
管
箭
箱
箸
節
範
篆
篇
築
篠
篤
篭
篮
簡
簧
簪
簽
簾
籀
籃
籍
籠
米
类
粉
粋
粒
粗
粘
粛
粟
粤
粥
粵
粽
精
糊
糖
糨
糸
系
紀
約
紅
紋
納
紐
純
紙
級
素
索
紧
紫
細
紳
紹
終
組
経
結
絡
給
統
絲
絳
絵
絶
經
継
続
綠
綢
維
綱
網
綴
綷
綸
綹
綺
綻
綼
綽
綾
綿
緀
緂
緃
緅
緆
緇
緈
緊
緋
緌
総
緑
緒
緓
緔
緖
緗
緘
線
緜
緡
緢
緣
緥
緦
編
緪
緯
緲
緳
練
緶
緹
緿
縁
縂
縃
縄
縉
縒
縓
縛
縣
縨
縬
縭
縯
縳
縶
縷
縺
縻
總
績
繀
繁
繌
繍
繎
繐
織
繕
繚
繝
繞
繟
繡
繪
繫
繰
繶
繸
繹
繼
纇
纈
纋
續
纍
纎
纐
纑
纒
纗
纜
纟
纠
红
纤
纥
约
级
纪
纬
纭
纯
纲
纵
纶
纷
纸
纺
纻
纽
线
绁
练
组
细
织
终
绉
绋
绍
经
绑
绒
结
绔
绘
给
络
绞
统
绠
绦
绩
绫
续
绮
绯
绲
绳
维
绶
绸
综
绿
缀
缁
缃
缄
缅
缆
缇
缋
缌
缐
缔
编
缗
缘
缝
缢
缣
缤
缥
缦
缩
缪
缬
缮
缸
缺
缻
缼
缽
罐
网
罓
罔
罕
罗
罝
罞
罡
罥
罩
罪
罫
罭
置
署
罶
罽
羅
羈
羊
羌
美
羓
羙
羚
羛
羜
群
羥
羧
義
羪
羫
羬
羮
羯
羰
羲
羴
羶
羷
羹
羽
羾
羿
翁
翅
翆
翉
習
翔
翟
翠
翡
翰
翻
翼
耀
老
考
者
耆
而
耐
耕
耳
耶
耻
聆
聊
职
联
聖
聚
聞
聡
聯
聴
職
聽
肃
肄
肅
肇
肉
肌
肑
肕
肖
肘
肙
肜
肠
股
肢
肥
肦
肩
肬
肱
育
肵
肺
肻
胀
胃
背
胎
胖
胜
胞
胡
胤
胴
胶
胸
能
脂
脅
脇
脈
脑
脚
脳
脸
脹
腐
腕
腰
腹
腾
腿
膚
膝
膺
臀
臉
臣
臧
臨
自
臭
至
致
臺
臼
舆
與
興
舉
舊
舌
舒
舜
舞
舟
航
般
舱
船
艇
艦
良
色
艳
艺
节
芒
芝
芦
芬
芮
芯
花
芳
芸
芹
苍
苏
苑
苔
苗
苟
若
苦
英
苹
苻
苾
茂
范
茜
茨
茶
茸
茹
荆
草
荊
荐
荒
荔
荣
药
荳
荷
莉
莊
莎
莫
莲
获
菅
菇
菊
菓
菜
菩
華
菱
菲
萊
萌
萝
营
萧
萨
萩
萬
落
葉
著
葛
葡
董
葫
葬
葵
蒂
蒋
蒔
蒙
蒲
蒸
蓄
蓉
蓝
蓮
蓼
蔘
蔚
蔡
蔣
蔵
蕃
蕨
蕪
蕭
薄
薌
薛
薩
薬
藍
藏
藝
藤
藥
藻
蘆
蘇
蘑
蘭
蘿
虍
虎
虐
虜
號
虫
虹
虽
蚊
蛇
蛋
蛍
蛎
蛟
蛤
蛭
蛮
蛰
蛳
蜀
蜜
蜡
蝚
蝦
蝶
融
螢
螺
蟠
蟬
蟲
蟽
蟾
蟿
蠁
蠕
蠻
血
衅
行
衒
術
街
衛
衝
衡
衢
衣
补
表
衰
衷
袁
袅
袋
袖
袜
被
袴
裁
裂
装
裏
裔
裕
補
裝
裡
裸
製
褂
褌
褒
褘
襄
襖
襤
襪
襲
西
要
覆
覇
見
規
視
覚
覧
親
観
覺
觀
见
观
规
视
览
觉
角
解
言
訂
計
訊
討
訓
託
記
訪
設
許
訳
訶
註
証
詐
評
詞
詠
詢
試
詩
詰
話
詳
誅
誉
誌
認
誓
誕
語
誠
說
説
読
誰
課
誼
調
諄
談
請
論
諦
諫
諭
諱
諸
諺
諾
謀
謎
謙
講
謝
謟
謳
證
識
譙
譜
警
譯
議
譲
護
讀
變
讐
讗
讚
讝
计
认
让
训
议
讯
记
讲
许
论
讻
设
访
诀
证
评
识
诉
诌
词
译
试
诗
诚
话
诞
诡
询
该
详
诪
语
误
诱
说
请
诸
诺
读
调
谈
谊
谋
谎
谐
谢
谭
谱
谷
豆
豊
豐
豚
象
豢
豪
豫
豬
貂
貓
貝
貞
負
財
貢
貧
貨
販
貫
責
貴
買
貸
費
貿
賀
賃
資
賈
賊
賞
賢
賣
賤
質
賭
購
賽
贏
贝
负
贡
财
责
贤
败
账
货
质
购
贯
贴
贸
费
贺
赁
资
赏
赖
赚
赛
赞
赢
赣
赤
赫
走
赵
起
超
越
趙
趣
趨
足
跃
跋
跌
跑
距
跟
跡
跨
跪
路
跳
践
跻
踊
踏
踣
踩
踪
蹦
躍
身
躲
車
軍
軟
転
軸
軻
軽
較
載
輔
輘
輝
輟
輦
輩
輪
輯
輸
轄
轉
车
轨
轩
转
轮
软
轻
载
较
辆
辑
输
辖
辙
辛
辜
辝
辞
辣
辨
辭
辰
農
边
辺
込
辽
达
迁
迄
迅
过
迎
运
近
返
还
这
进
远
连
迦
迪
述
迷
追
退
送
适
逅
逆
选
逊
逍
透
逐
递
這
通
速
造
逢
連
週
進
逸
逻
遁
遂
遅
遇
遊
運
遍
過
道
達
遗
遜
遠
遥
適
遮
遷
選
遺
遼
避
邀
邂
還
邇
邏
邓
邕
邝
那
邦
邪
邬
邮
邵
邸
邽
邿
郁
郅
郊
郎
郑
郕
郡
郦
部
郬
郭
郱
郷
都
鄂
鄉
鄒
鄧
鄭
鄰
鄺
酈
酉
配
酒
酔
酢
酥
酬
酱
酷
酸
醉
醍
醐
醜
醢
醤
醫
醸
采
释
釋
里
重
野
量
金
針
釣
釧
釵
鈥
鈴
鉄
鉛
鉢
鉱
鉴
鉾
銀
銃
銅
銆
銈
銉
銘
銭
鋤
鋼
錄
錕
錢
錦
錫
錬
録
錾
鍋
鍔
鍛
鎌
鎖
鎗
鎮
鏡
鏴
鏸
鏻
鐘
鐵
鑄
鑊
鑑
鑫
针
钗
钟
钢
钦
钮
钱
铁
铅
铝
银
铺
链
销
锁
锅
锋
错
锟
锡
锤
锦
键
镇
镑
镜
長
长
門
閃
開
間
関
閣
閩
閭
閲
闇
闔
闕
闖
闘
關
门
闭
问
闲
间
闻
闽
阁
阅
阉
阔
阖
阙
阜
队
阪
阮
防
阳
阴
阻
阿
陀
附
际
陆
陈
陋
陌
降
限
陕
陛
院
除
陥
险
陪
陰
陳
陵
陶
陷
陸
険
陽
隆
隊
隋
階
随
隔
際
障
隞
隠
隨
隱
隴
隶
隸
难
雀
雁
雄
雅
集
雇
雑
雛
雜
雞
離
難
雨
雪
雲
雳
零
雷
電
需
震
霊
霍
霏
霑
霖
霜
霧
露
霸
霹
靈
青
靓
靖
静
靜
非
靠
面
革
靴
鞋
鞍
鞘
鞭
鞮
韓
韜
韦
韩
韬
韭
音
韶
響
頁
頂
頃
項
順
須
頊
頑
頓
領
頡
頤
頫
頭
頼
題
額
顏
顒
顓
願
類
页
顶
项
顺
顿
预
领
颉
频
颖
题
颜
额
風
飄
风
飛
飞
食
飢
飯
飲
飽
飾
餅
養
餐
餓
餘
館
餴
餷
饀
饅
饑
饢
饥
饨
饭
饮
饰
饼
馄
馆
馕
首
香
馨
馬
馳
駄
駅
駆
駒
駕
騎
騒
験
騙
騨
騰
騷
马
驰
驶
驻
驾
驿
验
骨
骸
體
高
髙
髪
髮
鬚
鬱
鬼
魂
魄
魏
魔
魚
魨
魯
鮎
鮑
鮨
鮮
鯉
鯤
鯰
鰉
鰊
鰎
鰏
鰒
鰕
鰖
鱀
鱉
鱼
鲁
鳄
鳜
鳥
鳩
鳳
鳴
鴉
鴎
鴨
鴻
鵬
鶴
鶻
鷄
鷹
鸟
鸡
鸯
鸳
鸽
鸿
鹅
鹏
鹤
鹿
麋
麒
麓
麗
麟
麦
麵
麺
麻
麼
麿
黃
黄
黎
黑
黒
默
黙
點
黠
黡
黨
黭
黮
黰
黱
黵
黶
鼀
鼁
鼎
鼓
鼠
鼻
齊
齋
齐
齝
齡
齢
齥
齦
齧
齨
齬
齳
齴
龍
龐
龙
龜
ꀀ
ꀠ
꓊
ꓕ
ꓹ
Ꙇ
Ꙩ
ꙮ
꙰
꙳
ꚙ
ꜣ
ꜥ
ꜰ
ꜱ
ꜿ
ꝏ
Ꝡ
ꝱ
꞊
ꞌ
ꞏ
ꞑ
ꟷ
꧁
꧂
ꪜ
ﬀ
ﬁ
ﬂ
ﬞ
ﱠ
ﲔ
ﳜ
﴾
﴿
﷽
﷿
︎
️
︠
︡
︣
﹅
ﺎ
ﺐ
ﺑ
ﺒ
ﺔ
ﺜ
ﺠ
ﺮ
ﺴ
ﺸ
ﻋ
ﻐ
ﻓ
ﻔ
ﻘ
ﻛ
ﻞ
ﻟ
ﻠ
ﻣ
ﻧ
ﻨ
ﻪ
ﻬ
ﻮ
ﻳ
ﻴ
￧
￰
𐊀
𐊁
𐊂
𐊆
𐊍
𐊎
𐊐
𐊓
𐊕
𐊖
𐊗
𐊛
𐎀
𐎗
𐎘
𐎚
𐎧
𐎭
𐎱
𐎼
𐎿
𐏁
𐏂
𐤁
𐤃
𐤅
𐤇
𐤉
𐤋
𐤍
𐤏
𐤒
𐤓
𐤕
𐤟
𐦣
𐦥
𐦯
𐭥
𐭧
𐭩
𐭬
𐭯
𐭱
𐭲
𐰀
𐰃
𐰅
𐰆
𐰇
𐰉
𐰋
𐰍
𐰏
𐰑
𐰓
𐰔
𐰖
𐰘
𐰚
𐰜
𐰞
𐰠
𐰡
𐰢
𐰣
𐰤
𐰦
𐰧
𐰪
𐰭
𐰯
𐰰
𐰲
𐰴
𐰸
𐰺
𐰼
𐰽
𐰾
𐱁
𐱃
𐱄
𐱅
𑁍
𑁦
𒀀
𒀉
𒀜
𒀫
𒀭
𒀸
𒁀
𒁉
𒁕
𒁶
𒁹
𒁺
𒁾
𒂍
𒂗
𒂵
𒃲
𒃾
𒄀
𒄈
𒄑
𒄠
𒄩
𒄬
𒄿
𒅀
𒅁
𒅆
𒅍
𒅎
𒅗
𒆠
𒆪
𒆳
𒆷
𒇉
𒇷
𒇻
𒈗
𒈛
𒈠
𒈥
𒈨
𒈩
𒈪
𒈬
𒈹
𒉆
𒉈
𒉋
𒉌
𒉏
𒉺
𒉿
𒊏
𒊑
𒊒
𒊩
𒊭
𒋢
𒋫
𒋻
𒋼
𒋾
𒌅
𒌆
𒌋
𒌑
𒌓
𒌣
𒌨
𒌷
𒍪
𓁭
𓂀
𓃠
𓃵
𔄁
𔄙
𔄛
𔄝
𝅘
𝅥
𝅮
🀄
🂡
🂢
🂣
🂤
🂥
🂦
🂧
🂨
🂪
🃏
🅐
🅔
🅕
🅘
🅚
🅛
🅜
🅞
🅡
🅢
🅣
🅤
🅧
🅨
🅰
🅱
🅲
🅴
🅷
🅸
🅻
🅼
🅾
🅿
🆁
🆃
🆈
🆎
🆑
🆒
🆓
🆔
🆕
🆖
🆗
🆘
🆙
🆚
🇦
🇧
🇨
🇩
🇪
🇫
🇬
🇭
🇮
🇯
🇰
🇱
🇲
🇳
🇴
🇵
🇶
🇷
🇸
🇹
🇺
🇻
🇼
🇽
🇾
🇿
🌀
🌁
🌂
🌃
🌄
🌅
🌆
🌇
🌈
🌉
🌊
🌋
🌌
🌍
🌎
🌏
🌐
🌑
🌒
🌓
🌔
🌕
🌖
🌗
🌘
🌙
🌚
🌛
🌜
🌝
🌞
🌟
🌠
🌡
🌤
🌥
🌦
🌧
🌨
🌩
🌪
🌫
🌬
🌭
🌮
🌯
🌰
🌱
🌲
🌳
🌴
🌵
🌶
🌷
🌸
🌹
🌺
🌻
🌼
🌽
🌾
🌿
🍀
🍁
🍂
🍃
🍄
🍅
🍆
🍇
🍈
🍉
🍊
🍋
🍌
🍍
🍎
🍏
🍐
🍑
🍒
🍓
🍔
🍕
🍖
🍗
🍘
🍙
🍚
🍛
🍜
🍝
🍞
🍟
🍠
🍡
🍢
🍣
🍤
🍥
🍦
🍧
🍨
🍩
🍪
🍫
🍬
🍭
🍮
🍯
🍰
🍱
🍲
🍳
🍴
🍵
🍶
🍷
🍸
🍹
🍺
🍻
🍼
🍽
🍾
🍿
🎀
🎁
🎂
🎃
🎄
🎅
🎆
🎇
🎈
🎉
🎊
🎋
🎌
🎍
🎎
🎏
🎐
🎑
🎒
🎓
🎖
🎗
🎙
🎚
🎛
🎞
🎟
🎠
🎡
🎢
🎣
🎤
🎥
🎦
🎧
🎨
🎩
🎪
🎫
🎬
🎭
🎮
🎯
🎰
🎱
🎲
🎳
🎴
🎵
🎶
🎷
🎸
🎹
🎺
🎻
🎼
🎽
🎾
🎿
🏀
🏁
🏂
🏃
🏄
🏅
🏆
🏇
🏈
🏉
🏊
🏋
🏌
🏍
🏎
🏐
🏒
🏓
🏔
🏕
🏖
🏗
🏘
🏚
🏛
🏜
🏝
🏞
🏟
🏠
🏡
🏢
🏣
🏤
🏥
🏦
🏧
🏨
🏩
🏪
🏫
🏬
🏭
🏮
🏯
🏰
🏳
🏴
🏵
🏷
🏸
🏹
🏺
🏻
🏼
🏽
🏾
🏿
🐀
🐁
🐂
🐄
🐅
🐆
🐇
🐈
🐉
🐊
🐋
🐌
🐍
🐎
🐏
🐐
🐑
🐒
🐓
🐔
🐕
🐖
🐗
🐘
🐙
🐚
🐛
🐜
🐝
🐞
🐟
🐠
🐡
🐢
🐣
🐤
🐥
🐦
🐧
🐨
🐩
🐪
🐫
🐬
🐭
🐮
🐯
🐰
🐱
🐲
🐳
🐴
🐵
🐶
🐷
🐸
🐹
🐺
🐻
🐼
🐽
🐾
🐿
👀
👁
👂
👃
👄
👅
👆
👇
👈
👉
👊
👋
👌
👍
👎
👏
👐
👑
👒
👓
👔
👕
👖
👗
👘
👙
👚
👛
👜
👝
👞
👟
👠
👡
👢
👣
👤
👥
👦
👧
👨
👩
👪
👫
👬
👭
👮
👯
👰
👱
👲
👳
👴
👵
👶
👷
👸
👹
👺
👻
👼
👽
👾
👿
💀
💁
💂
💃
💄
💅
💆
💇
💈
💉
💊
💋
💌
💍
💎
💏
💐
💑
💒
💓
💔
💕
💖
💗
💘
💙
💚
💛
💜
💝
💞
💟
💠
💡
💢
💣
💤
💥
💦
💧
💨
💩
💪
💫
💬
💭
💮
💯
💰
💱
💲
💳
💴
💵
💶
💷
💸
💹
💺
💻
💼
💽
💾
💿
📀
📁
📂
📃
📄
📅
📆
📇
📈
📉
📊
📋
📌
📍
📎
📏
📐
📑
📒
📓
📔
📕
📖
📗
📘
📙
📚
📛
📜
📝
📞
📟
📠
📡
📢
📣
📤
📥
📦
📧
📨
📩
📬
📭
📮
📯
📰
📱
📲
📳
📴
📵
📶
📷
📸
📹
📺
📻
📼
📽
📿
🔀
🔁
🔂
🔃
🔄
🔅
🔆
🔇
🔈
🔉
🔊
🔋
🔌
🔍
🔎
🔏
🔐
🔑
🔒
🔓
🔔
🔕
🔖
🔗
🔘
🔙
🔚
🔛
🔜
🔝
🔞
🔟
🔠
🔡
🔢
🔣
🔤
🔥
🔦
🔧
🔨
🔩
🔪
🔫
🔬
🔭
🔮
🔯
🔰
🔱
🔲
🔳
🔴
🔵
🔶
🔷
🔸
🔹
🔺
🔻
🔼
🔽
🕉
🕊
🕌
🕎
🕐
🕑
🕒
🕓
🕔
🕕
🕖
🕗
🕘
🕙
🕚
🕛
🕞
🕤
🕯
🕳
🕴
🕵
🕷
🕸
🕺
🖋
🖍
🖐
🖕
🖖
🖤
🖥
🖲
🖼
🗑
🗒
🗓
🗝
🗣
🗨
🗪
🗮
🗯
🗳
🗺
🗻
🗼
🗽
🗾
🗿
😀
😁
😂
😃
😄
😅
😆
😇
😈
😉
😊
😋
😌
😍
😎
😏
😐
😑
😒
😓
😔
😕
😖
😗
😘
😙
😚
😛
😜
😝
😞
😟
😠
😡
😢
😣
😤
😥
😦
😧
😨
😩
😪
😫
😬
😭
😮
😯
😰
😱
😲
😳
😴
😵
😶
😷
😸
😹
😺
😻
😼
😽
😾
😿
🙀
🙁
🙂
🙃
🙄
🙅
🙆
🙇
🙈
🙉
🙊
🙋
🙌
🙍
🙎
🙏
🚀
🚁
🚂
🚃
🚄
🚅
🚆
🚇
🚈
🚉
🚋
🚌
🚍
🚎
🚏
🚐
🚑
🚒
🚓
🚔
🚕
🚖
🚗
🚘
🚙
🚚
🚛
🚜
🚝
🚠
🚡
🚢
🚣
🚤
🚥
🚦
🚧
🚨
🚩
🚪
🚫
🚬
🚭
🚮
🚯
🚰
🚱
🚲
🚳
🚴
🚵
🚶
🚷
🚸
🚹
🚺
🚻
🚼
🚽
🚾
🚿
🛀
🛁
🛂
🛃
🛄
🛅
🛌
🛍
🛏
🛐
🛑
🛒
🛕
🛠
🛤
🛰
🛳
🛴
🛵
🛸
🛺
🝓
🟠
🟡
🟢
🟦
🟨
🤌
🤍
🤎
🤏
🤐
🤑
🤒
🤓
🤔
🤕
🤖
🤗
🤘
🤙
🤚
🤛
🤜
🤝
🤞
🤟
🤠
🤡
🤢
🤣
🤤
🤥
🤦
🤧
🤨
🤩
🤪
🤫
🤬
🤭
🤮
🤯
🤰
🤱
🤲
🤳
🤴
🤵
🤶
🤷
🤸
🤹
🤺
🤼
🤽
🤾
🤿
🥀
🥁
🥂
🥇
🥈
🥉
🥊
🥐
🥑
🥒
🥓
🥔
🥕
🥖
🥗
🥘
🥚
🥛
🥜
🥞
🥟
🥤
🥥
🥦
🥧
🥨
🥩
🥪
🥬
🥭
🥰
🥱
🥲
🥳
🥴
🥵
🥶
🥸
🥹
🥺
🥾
🦁
🦄
🦅
🦆
🦈
🦋
🦎
🦔
🦕
🦚
🦠
🦢
🦥
🦦
🦧
🦩
🦯
🦰
🦱
🦲
🦳
🦴
🦵
🦶
🦷
🦸
🦹
🦺
🦻
🦼
🦽
🦾
🦿
🧀
🧁
🧂
🧅
🧇
🧍
🧎
🧏
🧐
🧑
🧒
🧓
🧔
🧕
🧖
🧗
🧘
🧙
🧚
🧛
🧜
🧝
🧞
🧟
🧠
🧡
🧢
🧣
🧤
🧥
🧦
🧭
🧯
🧳
🧵
🧸
🧺
🧻
🧾
🧿
🩵
🩷
🩸
🩹
🩺
🪁
🪂
🪄
🪐
🪙
🪜
🪦
🪨
🪬
🪱
🪴
🪼
🫀
🫐
##o
##k
##ü
##m
##a
##n
##ı
##j
##y
##g
##r
##f
##u
##l
##d
##s
##9
##8
##i
##z
##e
##ş
##t
##V
##Y
##ğ
##Ş
##ç
##b
##c
##ö
##U
##v
##ć
##N
##I
##Q
##E
##p
##h
##O
##0
##5
##2
##P
##T
##A
##L
##R
##M
##F
##K
##Z
##D
##İ
##7
##3
##B
##G
##C
##w
##1
##S
##ý
##4
##ň
##x
##q
##J
##6
##Ö
##Ü
##ó
##W
##H
##¢
##ë
##῝
##˃
##ț
##α
##ι
##ɑ
##ʼ
##̲
##±
##ē
##Ğ
##ǧ
##ñ
##¦
##é
##͘
##í
##ϫ
##Ç
##ð
##ș
##X
##Ȋ
##ƫ
##õ
##ĸ
##ʮ
##Ő
##ƽ
##ɪ
##ɴ
##ʏ
##☺
##Ć
##Ű
##̵
##į
##á
##˔
##ʿ
##🏽
##ǵ
##π
##Ã
##⁄
##è
##ß
##Õ
##Ŵ
##Å
##Ÿ
##Ĵ
##ȶ
##ì
##Ņ
##ä
##ȏ
##ã
##Ð
##ų
##ԁ
##➤
##ĵ
##ו
##ר
##ם
##à
##ה
##י
##פ
##ג
##ש
##ă
##Æ
##ǔ
##Ā
##Į
##Ï
##ə
##ĝ
##ɐ
##Ɗ
##Ō
##֔
##æ
##ȫ
##ʹ
##ǀ
##ř
##ƻ
##ȭ
##μ
##−
##ʆ
##µ
##ϋ
##È
##ņ
##č
##÷
##Ƈ
##ɔ
##ǚ
##ή
##δ
##Ì
##ˆ
##Ͽ
##ς
##ɾ
##ƀ
##ܰ
##ܠ
##ܡ
##ܶ
##ܕ
##ś
##ā
##ࠓ
##ø
##˞
##ū
##£
##अ
##Ŋ
##ī
##ʬ
##˽
##ʔ
##Ʉ
##Ľ
##ǎ
##ʢ
##̽
##Ϛ
##ɨ
##ȼ
##ͪ
##͕
##ě
##ʄ
##ˍ
##ˀ
##ž
##ɣ
##▒
##̶
##Ý
##ƌ
##σ
##τ
##ρ
##ú
##⊙
##Ī
##ʣ
##ѕ
##Ʋ
##෕
##Α
##ǒ
##݃
##ȁ
##ǻ
##Ɓ
##ĕ
##ύ
##Ɲ
##ʌ
##ά
##κ
##η
##ת
##מ
##ל
##ɸ
##χ
##ẕ
##ḳ
##Ť
##ǿ
##ũ
##đ
##ா
##ஜ
##ப
##க
##்
##Ĕ
##ɫ
##Ó
##Ȉ
##ϊ
##ό
##🙈
##😊
##ů
##ɕ
##ʛ
##️
##ȹ
##͌
##ŧ
##҃
##☛
##λ
##ɢ
##🏼
##Ĝ
##Ǟ
##Ȟ
##Ħ
##΃
##ŋ
##ż
##Ò
##Ɩ
##͠
##Ǫ
##ķ
##ţ
##Ŏ
##ʪ
##ȣ
##צ
##ė
##ċ
##Ʒ
##Ă
##Ù
##ˁ
##Ú
##å
##ʍ
##Ď
##ȃ
##â
##ǟ
##Ø
##ҫ
##Ɵ
##͏
##Ϯ
##ę
##Á
##ο
##Ń
##Ǐ
##ɓ
##ƚ
##ȟ
##ŝ
##ḥ
##ʾ
##ƴ
##ƕ
##উ
##ন
##ূ
##স
##ǰ
##Þ
##⭕
##ƹ
##ј
##ɗ
##📊
##💲
##🅰
##🅱
##📉
##٥
##ͬ
##φ
##৪
##ˈ
##ʦ
##ա
##ե
##ւ
##ƒ
##Ŗ
##👋
##Ě
##ō
##ģ
##ẩ
##ɚ
##ò
##ą
##˼
##Í
##˯
##📢
##Ɯ
##ĭ
##ɱ
##Ĺ
##🌸
##Ñ
##≫
##ʫ
##🍀
##ÿ
##Ǖ
##Ω
##Ƒ
##ń
##̪
##ȑ
##°
##ּ
##ף
##ᒸ
##נ
##ק
##ט
##ד
##ȋ
##Ȩ
##͟
##Ē
##ˌ
##ƈ
##ν
##À
##ő
##̊
##ħ
##ِ
##́
##Ǡ
##ŗ
##ệ
##ļ
##υ
##ί
##̃
##ː
##ʀ
##ɟ
##Ɖ
##ʁ
##γ
##😀
##Ĭ
##έ
##ȇ
##Γ
##ҧ
##Ʊ
##ト
##ル
##コ
##β
##Ȕ
##ȱ
##ƶ
##̞
##क
##्
##म
##े
##स
##ह
##ΐ
##ˑ
##★
##ビ
##ス
##Ǯ
##ɭ
##Θ
##😂
##ַ
##ְ
##ִ
##ָ
##˹
##Ɛ
##Đ
##ต
##า
##ม
##โ
##ด
##ย
##เ
##ั
##ȕ
##¥
##ɮ
##ế
##㉢
##̋
##ƪ
##͹
##Ȓ
##̛
##Ƀ
##˅
##👍
##🏻
##Φ
##⋅
##ע
##ǝ
##ε
##Ǩ
##😅
##❤
##ȓ
##ƛ
##🙏
##ď
##ɛ
##ɵ
##ʥ
##̺
##Ë
##Ǔ
##ص
##ل
##ى
##≈
##Ĉ
##Ǧ
##˸
##Ͷ
##ɶ
##˥
##ɹ
##ၞ
##Ơ
##Ů
##Ʈ
##Ǣ
##Ė
##ǃ
##˨
##ű
##̨
##ͭ
##Ȥ
##ͣ
##Ƽ
##🔥
##ĉ
##ゃ
##べ
##く
##り
##Ɏ
##ס
##ȳ
##Ζ
##ư
##👇
##˵
##Ͼ
##ӧ
##Κ
##ù
##ъ
##ƿ
##ಡ
##ն
##ի
##😉
##ʊ
##ľ
##ȅ
##͍
##ờ
##ɡ
##ƭ
##Ƶ
##⠀
##Ȼ
##Ƹ
##͇
##̱
##Ŧ
##∣
##Ɔ
##Ͱ
##Ȯ
##լ
##է
##ճ
##Ͳ
##Ƣ
##ƨ
##ɽ
##Ɋ
##ĩ
##ͻ
##ŕ
##Ȗ
##˷
##♥
##➚
##Ρ
##◊
##ἶ
##ʽ
##ɻ
##̍
##ܙ
##ኻ
##Č
##˴
##ῆ
##Ε
##͜
##ॣ
##̩
##͞
##΢
##̉
##Ǎ
##Ƨ
##Ƚ
##ȍ
##Ȝ
##ʟ
##ފ
##Œ
##΋
##𐰞
##𐰴
##𐰺
##𐰃
##𐰽
##ϭ
##ۆ
##Ǜ
##ʐ
##Ą
##∂
##ɞ
##💯
##ǹ
##Ј
##Ƙ
##Ų
##で
##オ
##マ
##ン
##ロ
##ǡ
##ĥ
##ȿ
##Ʀ
##Ł
##ŷ
##ͤ
##ϗ
##ɖ
##😔
##ᾶ
##ɠ
##ξ
##ȩ
##♦
##♣
##♠
##│
##Ĥ
##ɋ
##Ư
##ắ
##Ţ
##ỷ
##ἵ
##ƍ
##ť
##Ǹ
##ϻ
##Ȍ
##ి
##ప
##ా
##ర
##ల
##ే
##ẓ
##Ϫ
##ȉ
##ϥ
##ȵ
##ͳ
##ї
##̭
##̹
##ȧ
##̄
##💕
##ս
##տ
##ղ
##ր
##😻
##ɍ
##Σ
##ḫ
##ਠ
##Ķ
##ǯ
##Ũ
##ΰ
##̴
##Ċ
##׹
##Ś
##ɝ
##̔
##Ʃ
##◆
##դ
##հ
##ŀ
##˩
##ǁ
##ώ
##ζ
##Ǒ
##ʺ
##Ύ
##🏃
##♀
##♂
##Ȳ
##ĺ
##Ƃ
##͚
##ψ
##Ș
##̘
##Ή
##Ȅ
##Ϧ
##़
##ɼ
##ƞ
##ͮ
##ǫ
##̢
##チ
##Ƕ
##Η
##ꞑ
##Ę
##Ň
##Ϊ
##ʃ
##ɩ
##͝
##ȝ
##Ϝ
##θ
##Ƅ
##Ŝ
##Ψ
##て
##い
##る
##◕
##ǩ
##Ԙ
##Ŭ
##ȯ
##˭
##΀
##գ
##շ
##բ
##թ
##Ŕ
##⚪
##َ
##ஔ
##׽
##ͧ
##ͨ
##ǐ
##℺
##ћ
##じ
##っ
##た
##ב
##Ȃ
##Ț
##ͦ
##ך
##ɧ
##Ⱥ
##ῦ
##ࣿ
##😆
##̯
##ˊ
##ˮ
##͵
##Β
##א
##ʗ
##࡭
##ƣ
##ッ
##ク
##Ȁ
##І
##█
##Ϳ
##̕
##➡
##ʩ
##Ƿ
##Ɠ
##˺
##Ο
##Υ
##ầ
##ʜ
##ތ
##ɇ
##͊
##℮
##˂
##⇨
##˄
##ʚ
##Ĩ
##̖
##Ɉ
##ṭ
##ȴ
##≤
##ャ
##サ
##リ
##ド
##ナ
##😘
##Ǘ
##ố
##৯
##น
##ϣ
##ǂ
##϶
##⚜
##ô
##ȗ
##̳
##˕
##ˬ
##̿
##ϳ
##ʅ
##😌
##ǘ
##ු
##ŵ
##🕯
##Ⱦ
##ʖ
##Ǽ
##̓
##ṇ
##Ŷ
##ܧ
##Ƥ
##🌹
##ʝ
##ῶ
##᧔
##ƺ
##Ƴ
##ŏ
##ʋ
##৓
##Ϥ
##ీ
##͖
##ḡ
##ƙ
##̒
##̰
##ᱢ
##୾
##Ϸ
##∩
##👉
##Ƞ
##💛
##Ź
##ӕ
##͆
##¸
##ặ
##ˋ
##Ϻ
##͉
##Ɂ
##Ž
##ˏ
##み
##ź
##ɯ
##😄
##ơ
##ɀ
##Җ
##⋙
##͔
##ʓ
##̙
##ʤ
##ƥ
##💪
##🔸
##😍
##ữ
##ἱ
##ӗ
##˻
##ጦ
##ԕ
##🌞
##ြ
##ạ
##ߋ
##ݷ
##ǽ
##ઙ
##٦
##Ȣ
##ͷ
##̠
##њ
##Ϋ
##̻
##ƅ
##Ū
##̜
##➖
##ࠀ
##Ǝ
##̸
##👆
##ሼ
##≥
##ข
##้
##ส
##ู
##่
##ะ
##บ
##พ
##ื
##อ
##ɜ
##Ȇ
##͂
##૥
##Ώ
##Ř
##Ό
##Ί
##ق
##ا
##ط
##Μ
##Ђ
##ќ
##ͫ
##̑
##↑
##📍
##ͼ
##̅
##ŭ
##͗
##ӓ
##ừ
##ן
##Ȭ
##ɂ
##ʂ
##ɬ
##Ǭ
##Ǥ
##ʑ
##𐰣
##∶
##ᰟ
##˧
##ၤ
##व
##ज
##ˉ
##Ȱ
##ɤ
##😢
##😁
##̷
##Ļ
##ᱨ
##ϛ
##ົ
##ດ
##ບ
##ັ
##ນ
##ທ
##ກ
##ໃ
##ຂ
##ະ
##ີ
##່
##າ
##ອ
##Ż
##Ȫ
##ɉ
##ṯ
##ু
##ল
##ি
##ῖ
##Ϩ
##ɘ
##☀
##ϩ
##Δ
##ˎ
##😞
##̦
##׿
##Ά
##Ν
##🍅
##ո
##կ
##ϝ
##ʕ
##ƾ
##ࣶ
##Һ
##Ч
##Ы
##̀
##͢
##Ǵ
##ᛋ
##🙄
##😎
##џ
##す
##む
##Ϭ
##♮
##ׁ
##ƃ
##ȡ
##̝
##˾
##Ʌ
##👌
##˳
##Ǿ
##♫
##ẽ
##ṅ
##ि
##ध
##ʘ
##ܛ
##ܢ
##ܳ
##ܐ
##⮶
##ɿ
##ȸ
##ʈ
##ͩ
##ք
##Λ
##Ι
##˗
##👏
##ǜ
##һ
##🐣
##ͽ
##😇
##ʲ
##Ȏ
##⇒
##˓
##˪
##ͅ
##ʙ
##⚖
##ヤ
##ノ
##は
##め
##➳
##ẟ
##হ
##ǖ
##ẫ
##͸
##ே
##ட
##ி
##ய
##ோ
##ֹ
##̡
##ѐ
##ʒ
##ं
##ग
##ラ
##ア
##イ
##ூ
##ல
##˲
##Ք
##ח
##ɥ
##Ƭ
##͐
##❓
##Ῐ
##₣
##ʯ
##ᘾ
##Ϣ
##ʇ
##ϯ
##❗
##☹
##🎁
##☕
##🍪
##🍫
##̼
##૞
##մ
##յ
##ả
##ɲ
##😣
##✱
##̐
##ṃ
##׻
##༘
##є
##ဨ
##❣
##💐
##🌼
##🌷
##ǥ
##ɳ
##🔴
##🔵
##✨
##ܷ
##మ
##ʉ
##̏
##🚀
##🕺
##☆
##ἰ
##き
##ボ
##ウ
##վ
##📩
##ץ
##ム
##ミ
##ʭ
##̬
##ಱ
##ゾ
##な
##ら
##ポ
##˱
##Ң
##ल
##ा
##ށ
##ో
##ట
##ͥ
##ʎ
##᯺
##カ
##ɦ
##Ɣ
##う
##こ
##そ
##֫
##ڶ
##ɰ
##ញ
##្
##ា
##૪
##ǣ
##ݪ
##え
##の
##ͱ
##ḇ
##🚚
##🌲
##Τ
##ޡ
##ȷ
##Έ
##🙆
##🔬
##ቓ
##˒
##Ǚ
##ー
##₟
##ז
##ϙ
##ʧ
##̈
##ࣴ
##ͯ
##ῡ
##̚
##ϧ
##パ
##ҝ
##ը
##͓
##↓
##ɺ
##၇
##½
##ٴ
##ܺ
##ܻ
##̓
##ࠜ
##₮
##👑
##כ
##フ
##र
##├
##˦
##Ȧ
##Ȑ
##ሹ
##ϵ
##≽
##ါ
##Ɇ
##೹
##Ɍ
##💗
##ӆ
##˫
##∫
##΁
##᭫
##ま
##び
##՗
##ծ
##🍮
##🙂
##⑶
##ᔥ
##ǉ
##ǭ
##ồ
##☁
##̟
##ֽ
##֧
##޺
##ֵ
##ܬ
##ܒ
##😮
##🎉
##ऩ
##∼
##ὑ
##😐
##Ϙ
##Չ
##ゆ
##ʞ
##ࡦ
##ȥ
##Ց
##֘
##̗
##ష
##఺
##⤵
##ྫྷ
##🧿
##↵
##৙
##৚
##١
##٢
##న
##్
##త
##᾽
##࢐
##ܫ
##✔
##ܪ
##ứ
##♓
##Ᏼ
##ۘ
##Π
##ष
##ट
##ヒ
##☼
##ὴ
##Ԅ
##🍋
##Ấ
##ậ
##ấ
##Є
##އ
##✏
##ṑ
##ẻ
##ভ
##׷
##◼
##ล
##💙
##ڲ
##͑
##ἀ
##ണ
##🍶
##😃
##ᜡ
##Ш
##🥰
##デ
##ィ
##が
##🇬
##🏹
##Ξ
##㉻
##¾
##ĳ
##Ƌ
##͎
##ɒ
##🤣
##ႂ
##ܘ
##ܼ
##ܝ
##ܟ
##ষ
##˿
##؈
##౏
##न
##ᾱ
##ؐ
##ὕ
##խ
##ջ
##̥
##Ꮁ
##∗
##͒
##ɷ
##🧢
##∄
##れ
##ワ
##📺
##၈
##🍚
##≵
##ੁ
##ਧ
##ਿ
##ਆ
##ਣ
##ਾ
##ち
##ෝ
##ֶ
##͙
##🚗
##î
##ፉ
##🥲
##🏿
##Ϟ
##ソ
##ุ
##ง
##ี
##ࢍ
##ϸ
##Ͻ
##ニ
##グ
##ᶊ
##ن
##ي
##ه
##ὐ
##֞
##😲
##Ц
##˟
##⏸
##ஏ
##ে
##্
##ত
##া
##র
##ʡ
##̎
##ѽ
##Ϡ
##メ
##🍓
##Ҵ
##አ
##🏳
##🌈
##ピ
##🎭
##ɏ
##ᗎ
##🐞
##😱
##▪
##✯
##📌
##∅
##ૢ
##ԃ
##Ԟ
##Ԧ
##̾
##໹
##ձ
##◾
##ܦ
##Ւ
##≠
##🇧
##պ
##⬇
##څ
##ठ
##🇺
##🙋
##🏠
##ʨ
##⊎
##ᖇ
##シ
##Ӏ
##¼
##ϡ
##ก
##⿿
##😡
##ࠣ
##य
##や
##と
##ধ
##ォ
##ԑ
##ُ
##ê
##👩
##👀
##🇹
##🇷
##⍫
##▻
##∘
##Ɨ
##Ḡ
##⊋
##🎊
##ْ
##࿝
##ọ
##ూ
##గ
##బ
##య
##😏
##ᎆ
##ᨋ
##💜
##ḗ
##ݾ
##Ѐ
##Ё
##঒
##😶
##ֱ
##ѵ
##͛
##ไ
##ſ
##ݎ
##═
##भ
##∑
##ඡ
##✌
##⌢
##👧
##΍
##♪
##Ҫ
##ᠲ
##ꜱ
##ʠ
##৩
##Ϗ
##㋔
##͋
##ዌ
##޼
##૶
##ᾳ
##ว
##Ⓘ
##১
##˰
##📆
##Э
##🤫
##̀
##̣
##ֻ
##ቅ
##ὺ
##خ
##ӈ
##Ь
##ج
##ك
##م
##ϼ
##ೲ
##ң
##😑
##߰
##श
##ʵ
##ी
##૟
##ḏ
##ケ
##ھ
##💰
##💵
##📈
##Ⳣ
##⭐
##♡
##🍳
##̂
##🍝
##Ӛ
##Ế
##つ
##۱
##Ḕ
##ম
##٤
##ခ
##😋
##𐰇
##𐰼
##𐱁
##𐰑
##👈
##ὲ
##Ӗ
##➼
##ޝ
##あ
##ὔ
##ॐ
##ռ
##⺶
##プ
##レ
##ゼ
##テ
##ョ
##࠮
##ܚ
##ܗ
##ં
##∴
##😹
##🌟
##س
##Ю
##🏁
##द
##♏
##✅
##😒
##֥
##ց
##を
##ற
##ை
##வ
##খ
##🌴
##🎤
##⇐
##ो
##ײ
##ੂ
##ᘮ
##🇸
##त
##ᷜ
##ٯ
##Ԑ
##💎
##🆗
##ช
##🤩
##▲
##ߔ
##ท
##ธ
##ิ
##Ԉ
##🏍
##᾿
##Ꭿ
##ె
##お
##💞
##🎓
##࣪
##᭵
##¤
##😭
##🤭
##௅
##🌿
##༠
##ࡘ
##Й
##💚
##̤
##ॿ
##ถ
##ค
##キ
##Ἧ
##ダ
##ߧ
##୍
##ゴ
##🎬
##ླ
##ི
##ང
##ಉ
##☘
##ݍ
##🇿
##ޢ
##ु
##✧
##🌜
##ゅ
##♭
##💼
##😩
##ん
##Ⳝ
##Χ
##🐠
##🐟
##ΰ
##ἳ
##⏰
##▥
##▦
##▧
##▨
##▩
##👷
##ℌ
##ϟ
##ٚ
##し
##ử
##📣
##ﬁ
##៏
##௣
##ି
##ଵ
##ై
##︎
##च
##ި
##ވ
##ެ
##ހ
##○
##□
##ʸ
##🌮
##ࢻ
##⇗
##ঀ
##Ⓕ
##छ
##🤍
##🧡
##▓
##░
##ಾ
##ಮ
##್
##ರ
##ಜ
##ಯ
##ੇ
##❌
##೵
##💭
##💫
##💋
##ූ
##⯁
##཮
##≒
##🏾
##👂
##ῤ
##ࢩ
##Դ
##ಕ
##ಣ
##ದ
##ೠ
##Ǻ
##Ɫ
##ఞ
##జ
##ர
##ு
##ࣃ
##࿫
##࡜
##փ
##ろ
##੷
##🔗
##ڝ
##け
##🌙
##🐤
##ڟ
##ታ
##ѻ
##👦
##👐
##😥
##֗
##ૼ
##ޜ
##ホ
##ۓ
##✋
##ٵ
##చ
##Њ
##ྫ
##ོ
##ڭ
##ป
##ᛖ
##û
##ﬞ
##߲
##Ґ
##డ
##స
##ߍ
##Ŀ
##ํ
##จ
##≱
##ᒶ
##ề
##ใ
##ห
##ผ
##᎝
##ణ
##వ
##ం
##ͺ
##់
##😖
##📚
##ﬂ
##᯴
##ܩ
##ፃ
##ⳏ
##✍
##⍒
##ᶙ
##👫
##எ
##ỏ
##ᶀ
##΂
##💃
##฿
##ᔕ
##Ꭵ
##ᑎ
##ᗴ
##ᗯ
##ѧ
##📱
##🔱
##ݲ
##ဵ
##แ
##ᾃ
##♾
##ϔ
##よ
##̈́
##³
##🐈
##✓
##ⓛ
##🚜
##∙
##ῷ
##݁
##ܿ
##ڮ
##∈
##🌺
##ు
##క
##ᚌ
##🙊
##֓
##🇳
##ں
##ᑭ
##ᖅ
##ᑖ
##ᓗ
##ᒃ
##ね
##💌
##↔
##Ⳕ
##՘
##ݑ
##🎵
##ᙇ
##́
##😠
##ဤ
##も
##์
##ஸ
##ෙ
##ස
##ි
##ල
##්
##গ
##ょ
##ḍ
##か
##😪
##ធ
##រ
##ណ
##ដ
##ឋ
##ប
##ជ
##ម
##ន
##ិ
##ត
##ក
##ព
##ុ
##↠
##🤧
##セ
##ジ
##׺
##ళ
##ඈ
##౺
##ዘ
##🍌
##ṵ
##ḭ
##ự
##🔻
##ै
##ࡷ
##۷
##៍
##ˤ
##🇵
##🎀
##᪖
##Â
##⚕
##🇦
##💖
##ӄ
##✫
##⚡
##྘
##⍞
##⍙
##ः
##💸
##∷
##ߡ
##ӂ
##ڃ
##📝
##▶
##ὸ
##ՙ
##ỗ
##🇯
##ӳ
##஌
##আ
##ᴘ
##👶
##ன
##💻
##Ɽ
##₭
##₴
##Ⱬ
##৕
##ュ
##Ύ
##݌
##🚨
##׬
##ټ
##🎈
##ẳ
##օ
##ᯨ
##ছ
##চ
##Ф
##𐰔
##𐱃
##ổ
##ޛ
##🍍
##🦄
##ெ
##ड
##🌾
##∝
##ѿ
##ښ
##۩
##🌱
##╢
##ኧ
##॒
##ब
##ण
##ỳ
##ࠩ
##ဗ
##ズ
##ᕨ
##॔
##ۏ
##Щ
##੡
##ز
##ပ
##💝
##💓
##ヘ
##🌶
##ベ
##バ
##Ꮛ
##Ꮜ
##ߎ
##ḉ
##ṛ
##◦
##ザ
##⇔
##ﻔ
##ﻠ
##ﳜ
##⚠
##🌵
##࢔
##ౚ
##ڌ
##ႃ
##प
##ᾀ
##▌
##❕
##པ
##ر
##ت
##ṥ
##০
##੬
##ړ
##ۙ
##ḵ
##ܾ
##Կ
##ඩ
##න
##ブ
##ਭ
##ᮼ
##⎱
##֩
##≅
##ṣ
##Զ
##Ա
##Տ
##Գ
##Ր
##Ո
##Թ
##Յ
##Ն
##ネ
##🐰
##タ
##ガ
##😵
##😕
##ܮ
##🏔
##⎌
##🎮
##ए
##ጜ
##ӹ
##ޏ
##ڠ
##Ԕ
##😤
##←
##ࢠ
##ঘ
##✦
##🔪
##¨
##Ĳ
##🍆
##🍉
##❞
##𐰢
##𐰾
##ハ
##🏛
##ෛ
##🌚
##🤦
##ᗼ
##Ъ
##ب
##޶
##ശ
##ྈ
##ኵ
##ῠ
##ず
##ር
##ባ
##ὃ
##׼
##᫐
##🌊
##🏄
##࡙
##𔄁
##չ
##ڳ
##ῃ
##ৣ
##🤔
##Ғ
##✿
##௏
##എ
##ጴ
##߅
##≡
##ァ
##ொ
##ᾠ
##ம
##℧
##∪
##ळ
##ፍ
##♈
##㉠
##ở
##ۄ
##🅾
##🅻
##🆈
##֨
##ߐ
##🔔
##த
##٧
##ụ
##௥
##ੱ
##ਥ
##ؗ
##਑
##▬
##∀
##ʳ
##ẞ
##∳
##ớ
##🥹
##🙃
##൥
##Ж
##Ե
##に
##❇
##ၣ
##ા
##ધ
##ી
##ન
##ગ
##ર
##዗
##🎃
##🚙
##🎶
##🎧
##🍰
##ൻ
##だ
##さ
##ペ
##ܓ
##ත
##ා
##࡬
##ٕ
##஦
##₪
##⋆
##ۅ
##ẵ
##ʰ
##Ѧ
##ᰢ
##ณ
##Լ
##ợ
##ۀ
##๜
##⪋
##ʶ
##Ḫ
##Ԁ
##🏌
##Ԋ
##౥
##┼
##ࡰ
##ಙ
##🇩
##ವ
##ೊ
##ಗ
##𒊩
##𒌆
##𒄈
##𒋢
##ዮ
##ን
##↸
##Ѱ
##ख़
##⊃
##ୂ
##ቢ
##ੵ
##ẖ
##ጙ
##ǲ
##Ծ
##ঽ
##ŉ
##۵
##🇭
##ወ
##و
##২
##Ѡ
##ڹ
##զ
##Ԗ
##𒄠
##𒈬
##𒊏
##𒁉
##Ջ
##ݿ
##🔝
##ৌ
##ক
##੎
##ᔄ
##↗
##👎
##ၢ
##Ҁ
##📽
##֡
##┘
##Օ
##Ի
##Ս
##ဧ
##ఱ
##ख
##٩
##ڣ
##◎
##ӣ
##ࢵ
##આ
##৮
##ʷ
##◔
##⏩
##ཛ
##ན
##ಝ
##߃
##❖
##ܣ
##ʹ
##഑
##ྦ
##෶
##²
##Ҕ
##😧
##❜
##ீ
##ங
##ृ
##₲
##ϰ
##Ⱅ
##Ҳ
##ể
##᭨
##ݐ
##ᦋ
##ጠ
##😬
##ҏ
##😟
##✴
##᠛
##љ
##ᡳ
##ᠰ
##ᡠ
##ᠨ
##۬
##🌽
##ު
##ఒ
##ኞ
##֐
##ࣣ
##🎂
##د
##🙌
##▼
##🌳
##ቈ
##ԓ
##಄
##ݘ
##ࠪ
##↴
##ἐ
##ˢ
##࠙
##ச
##჏
##ܲ
##ܵ
##ܸ
##ݶ
##᧟
##ⓓ
##📎
##𒌷
##𒈪
##𒋫
##𒀭
##𒉌
##𒀉
##モ
##🌍
##׎
##ና
##኏
##ܹ
##ධ
##👿
##❄
##ǆ
##🫀
##ਰ
##ਮ
##ੰ
##ਦ
##ਸ
##ߗ
##ဪ
##ҁ
##♯
##Ḥ
##ኢ
##ቷ
##௪
##ủ
##Ꮵ
##📖
##₿
##஼
##🍺
##প
##⛵
##⏬
##Ⴢ
##⃳
##ࡎ
##ফ
##₱
##⛔
##ٓ
##ਟ
##ਗ
##໰
##🙅
##🍲
##↎
##↍
##ҙ
##𐰠
##𐰚
##𐰀
##⚽
##૑
##ح
##ء
##ش
##ࠍ
##ঢ
##💊
##🙉
##🍸
##🐘
##🐗
##🐔
##🐫
##💘
##💟
##👚
##💏
##🐒
##৾
##ଣ
##🐶
##🐱
##ὼ
##ӊ
##ࠤ
##๖
##🎰
##߭
##Բ
##ㄘ
##㌋
##ǈ
##᫃
##԰
##ᖱ
##௹
##౜
##੟
##ॄ
##㊱
##Ԏ
##ᣗ
##ࣰ
##👨
##ೈ
##ಳ
##ು
##ಂ
##ೆ
##😛
##ᔚ
##֌
##ಐ
##¹
##ண
##ご
##ộ
##༿
##🔳
##ܞ
##ᚡ
##ဲ
##👓
##ࣅ
##Շ
##ԉ
##🤪
##௤
##🇪
##Ꭶ
##Ꭸ
##Ᏹ
##ቂ
##ላ
##🍔
##஀
##⃦
##֎
##🍕
##ꚙ
##ᔶ
##և
##቙
##ਫ਼
##֕
##㉨
##Ӎ
##ὅ
##👠
##💍
##👗
##🎯
##࢝
##๥
##ٞ
##🇱
##ҍ
##ᠣ
##👒
##ྐ
##ྱ
##😜
##৿
##⑬
##◅
##ໂ
##Ռ
##Ѯ
##💱
##Ǌ
##Ị
##ḱ
##ѡ
##૘
##ی
##🐄
##Ỷ
##🇾
##ӥ
##ࠎ
##ซ
##ކ
##✩
##හ
##ණ
##Ⓗ
##ጝ
##ゲ
##ొ
##ۛ
##ઌ
##Է
##ڗ
##ኴ
##ⓩ
##ݠ
##🏫
##෬
##ᵻ
##せ
##😚
##᯲
##Қ
##☻
##औ
##ツ
##🍄
##🍂
##ݽ
##֮
##൨
##ђ
##⎡
##⎢
##ᓅ
##𒅆
##𒇷
##ᛙ
##ᵏ
##ᚑ
##ӽ
##Ԓ
##ৈ
##ޟ
##⌹
##ӏ
##थ
##ܭ
##🇮
##෩
##ᙵ
##ᐃ
##ᑦ
##࿇
##☝
##޴
##ὰ
##🍎
##෼
##ᥙ
##🥜
##ద
##Ժ
##ᗺ
##ᗷ
##ᗅ
##দ
##ѣ
##ڻ
##൹
##΅
##ⳗ
##ᚢ
##ᚾ
##ᛁ
##𐰆
##Ά
##Ӿ
##Ԭ
##ᯟ
##🍊
##જ
##޻
##ߙ
##ѝ
##🍖
##㋉
##ᛔ
##🎥
##ฟ
##≳
##📲
##≩
##ৰ
##੨
##ᘑ
##ݤ
##ਈ
##ࡳ
##ᓄ
##ም
##ደ
##ῄ
##ﺠ
##ﻧ
##ந
##ጿ
##ݓ
##᪻
##ֳ
##ോ
##ക
##്
##ൂ
##🍏
##🤗
##ત
##Ҙ
##ޓ
##ṡ
##✘
##ট
##ˡ
##᠋
##਩
##Ԇ
##🎲
##≲
##Ҟ
##᧛
##Ԫ
##🏡
##Ѣ
##έ
##৸
##ᾴ
##ᘚ
##ᜃ
##ఎ
##ऀ
##𐰰
##🏆
##ᒾ
##඲
##ࣀ
##ႋ
##᧻
##♖
##♘
##♗
##♕
##♔
##ฝ
##ڢ
##₹
##🏎
##߂
##✶
##௻
##😳
##🎷
##ヨ
##ݕ
##🍱
##🍹
##ࡇ
##֣
##🤮
##➶
##܎
##ᰋ
##ึ
##ᶐ
##৬
##ྲ
##མ
##࢟
##ፁ
##✄
##ᔦ
##ࡸ
##ၱ
##ᕞ
##۹
##۸
##۲
##Ǉ
##⛇
##𐰍
##ᭊ
##🌌
##ڑ
##ࠃ
##ච
##ᡴ
##ᡥ
##ᠠ
##ᠯ
##ᡟ
##ϖ
##ⳟ
##ѭ
##㉷
##ࡐ
##ࡑ
##Ụ
##๷
##ڰ
##ԗ
##࣬
##ፘ
##Մ
##ঁ
##๗
##ᔱ
##ԭ
##ぶ
##ࡪ
##ぱ
##℈
##℉
##ᔴ
##ٌ
##ޙ
##ྕ
##ᔾ
##☢
##✈
##߄
##💡
##ֲ
##🐺
##ఀ
##ਊ
##Ǳ
##ಀ
##ỹ
##ߓ
##㋊
##😰
##ױ
##ݜ
##๔
##ᗲ
##ழ
##ள
##༰
##Ү
##Ѓ
##ߟ
##ᾭ
##ං
##ක
##⓷
##૽
##🎻
##ও
##ׂ
##Ꮖ
##इ
##߳
##Љ
##૩
##🐾
##጖
##၀
##ೱ
##Ⓧ
##ႉ
##ܥ
##ᚨ
##ஶ
##ஈ
##ᱩ
##ݱ
##ᝮ
##ஒ
##ߠ
##೬
##௨
##ಪ
##ኮ
##⌗
##₤
##🐑
##🎆
##🚶
##ᖂ
##🍭
##🔮
##ો
##હ
##દ
##સ
##૛
##ࣥ
##👮
##💂
##🔧
##🏭
##🎨
##🚒
##ᘌ
##🎗
##Ѩ
##🥂
##げ
##Ⳡ
##ॎ
##ễ
##ဝ
##ٹ
##🖼
##🍧
##👔
##ೖ
##ተ
##ܱ
##೭
##🧺
##∵
##ޭ
##ṟ
##ড়
##ቄ
##𐰭
##ེ
##඘
##ྸ
##৖
##ࡄ
##ྭ
##ἴ
##ૅ
##ڧ
##🐳
##၂
##၁
##ነ
##ގ
##ޔ
##ᪿ
##⊑
##এ
##┤
##ࡔ
##❎
##җ
##ਜ਼
##ญ
##⌬
##Ӕ
##ﻣ
##ߒ
##஝
##഼
##ຽ
##੢
##೪
##ڤ
##ࡗ
##∉
##ᰃ
##ˠ
##■
##ǅ
##𐰋
##ߘ
##๬
##➽
##૏
##۶
##ః
##ศ
##👟
##Ը
##ڿ
##അ
##ҽ
##ゥ
##エ
##💴
##😗
##😙
##🥺
##᧥
##ᣢ
##ၖ
##એ
##႖
##ఉ
##᷾
##🐭
##Ტ
##🌰
##ϱ
##⥿
##಍
##ᠩ
##➟
##ၕ
##ℐ
##۳
##⌱
##◀
##🤙
##ᶃ
##Ѫ
##໷
##ര
##ڨ
##ᵬ
##ቪ
##😨
##ӎ
##ՠ
##⊍
##ᯔ
##ᕷ
##🆚
##ﻬ
##ﻓ
##࣭
##Ⓑ
##ꞌ
##౑
##🌃
##🌄
##݉
##ද
##⚓
##K
##〄
##➷
##ⓖ
##Ҋ
##ӑ
##उ
##ひ
##आ
##ڋ
##ဌ
##🏖
##≖
##⃰
##⦁
##ᡃ
##ᡄ
##ᡅ
##ऻ
##ۖ
##≺
##⌥
##׍
##ᝇ
##߬
##ង
##ំ
##ỡ
##޷
##⟶
##ࣚ
##🛴
##Ѕ
##०
##᠞
##⋞
##౭
##ௐ
##߾
##ݸ
##⨯
##ᵗ
##๳
##ಸ
##ᔅ
##ٲ
##ض
##ऊ
##𒈛
##𒄩
##𒆠
##💁
##᧺
##ᓵ
##᯷
##ẏ
##ౌ
##ো
##ব
##ই
##ࡽ
##⚫
##🌝
##ᡤ
##ᡛ
##❔
##🍟
##🍗
##ほ
##᭮
##ᠢ
##ᠭ
##ᠤ
##ආ
##ѱ
##ঃ
##ޣ
##४
##ੲ
##♐
##۪
##ࡴ
##ᚩ
##ⵉ
##ⵖ
##ݖ
##ऽ
##ኺ
##🧀
##ࠔ
##ʱ
##ۣ
##૬
##ῳ
##ࢫ
##⌘
##💅
##ㄙ
##⋗
##⛰
##ኋ
##⛱
##🍞
##🍢
##ု
##ᶅ
##😫
##👸
##🌻
##࠭
##Ᏻ
##ٱ
##݅
##🔊
##⛺
##ഝ
##घ
##ူ
##᧩
##᧪
##೩
##ֺ
##ߏ
##Ѷ
##𒇉
##ࣱ
##ᾇ
##گ
##੩
##⏳
##💥
##ካ
##߶
##ᚹ
##ꓹ
##ၥ
##╨
##৳
##Ӆ
##💔
##ᗩ
##ᖆ
##ៃ
##᜖
##ᚼ
##ڵ
##𐰡
##𐰲
##ٖ
##੮
##ᓦ
##△
##ٶ
##💿
##📀
##⩡
##ᕥ
##໮
##₫
##❥
##✤
##ṁ
##🤡
##ᘇ
##็
##ภ
##ભ
##ݬ
##ව
##ී
##ම
##ේ
##ᢘ
##ӛ
##္
##မ
##ိ
##ဂ
##်
##ስ
##ቀ
##ል
##ွ
##ީ
##ׇ
##ᶗ
##💣
##῵
##ၨ
##Ў
##҉
##🍁
##٨
##ᘼ
##ዯ
##঍
##ូ
##ល
##ទ
##੥
##ؘ
##ῧ
##ﲔ
##ﻛ
##ﺮ
##ﺸ
##ዀ
##🐼
##᫖
##⃗
##🐆
##😷
##🇰
##☟
##ⳬ
##ড
##়
##౛
##∨
##֤
##ᳫ
##᠌
##ࡻ
##ᯗ
##ٺ
##҆
##ቡ
##Ⳮ
##💧
##⺓
##ৠ
##😦
##৶
##য
##৵
##〲
##Ⓚ
##ቶ
##ఓ
##؆
##ঞ
##🌬
##ٍ
##ᢢ
##ኅ
##ᛯ
##⌙
##ዄ
##∕
##ౄ
##ᛒ
##🔭
##ḓ
##ᶇ
##ຘ
##ህ
##መ
##ድ
##۫
##Ӂ
##ঋ
##ࢾ
##🍷
##ஃ
##ὶ
##ী
##▾
##ଇ
##ॉ
##✂
##᷅
##Փ
##֚
##ះ
##ស
##៊
##ី
##វ
##ថ
##℗
##ϑ
##⌖
##ؙ
##♨
##ษ
##🇨
##🦔
##ᯖ
##ྒ
##ဏ
##ᐾ
##᎗
##≙
##ؚ
##ٳ
##≿
##୏
##ߴ
##⍍
##ے
##୸
##૖
##〓
##ᔤ
##ѓ
##Ӻ
##🅼
##ࡍ
##⍺
##ݯ
##≰
##ݥ
##Ӳ
##⋁
##ޞ
##ڜ
##✊
##࿼
##ᔀ
##߉
##ᖽ
##ᐧ
##ᖿ
##┷
##ല
##ബ
##ാ
##ർ
##ۉ
##ṹ
##ࣺ
##Ẁ
##☮
##┐
##ᶍ
##ઘ
##ဣ
##ಬ
##ಧ
##ࠁ
##ਅ
##᮳
##׫
##ৗ
##👻
##ຢ
##🙁
##ਁ
##ૠ
##ࠟ
##Ѻ
##🚴
##ᔪ
##ဿ
##ᛃ
##୬
##૧
##዆
##Ⲛ
##ѩ
##೰
##☎
##ӌ
##Պ
##🐮
##ᶆ
##ϲ
##΅
##ࡤ
##ऋ
##଑
##ϕ
##ど
##ུ
##ལ
##ᾰ
##ࢯ
##ࢉ
##ࢅ
##ࣜ
##ﬀ
##ഀ
##ᓹ
##ቖ
##ǋ
##⋍
##ງ
##Ό
##ᓝ
##៑
##ඥ
##Ձ
##௽
##🔀
##਄
##ᢡ
##ֿ
##઄
##ݼ
##ޫ
##੪
##१
##ګ
##᎞
##က
##ڪ
##ῐ
##ұ
##ঔ
##ᶈ
##𒉋
##𒂵
##𒈩
##ḷ
##ᣙ
##ေ
##ည
##တ
##ာ
##ằ
##Ѝ
##ག
##ਪ
##ࠋ
##🔞
##🐧
##ࣉ
##࢏
##ᜐ
##Ӈ
##🐴
##⩙
##ဒ
##ࡨ
##ᰤ
##භ
##ҋ
##⎼
##জ
##ঙ
##ং
##শ
##ଈ
##ᰕ
##ރ
##ර
##ᓁ
##Ѿ
##ᯮ
##ᴉ
##߽
##ࠕ
##۴
##ᝥ
##ڽ
##೽
##ⳮ
##▭
##ڒ
##ቕ
##🎡
##༱
##⊨
##ڴ
##׉
##📹
##⎛
##֖
##Ὅ
##೧
##ࢊ
##ӻ
##Ặ
##ヌ
##⇌
##ぷ
##ത
##േ
##ϐ
##ീ
##ി
##യ
##ൽ
##ὀ
##📁
##ର
##˜
##ḻ
##⃺
##㌢
##₡
##೯
##🏊
##🚣
##⛹
##ප
##ය
##⊦
##ڇ
##Ҏ
##਌
##💮
##✹
##ౡ
##ە
##ヴ
##ߺ
##ᾟ
##🍽
##䷺
##߿
##ݩ
##ຄ
##🇴
##ᖫ
##ኒ
##ఐ
##ధ
##ࣻ
##Ꮰ
##ڔ
##ḛ
##ٗ
##ݧ
##૙
##֑
##ޱ
##࢈
##ↄ
##Ӌ
##ៗ
##ઋ
##Ѳ
##💦
##☔
##੶
##ژ
##؋
##𐱅
##ῇ
##౸
##௖
##ℹ
##޵
##ℋ
##ܜ
##Ҥ
##ҥ
##ϓ
##ᾪ
##ᘟ
##ݨ
##҈
##ᐮ
##Ⳑ
##ḿ
##റ
##ྷ
##݀
##♬
##ᵋ
##◽
##ᰁ
##᾵
##♎
##⋢
##Ҹ
##᜞
##ḕ
##ᘊ
##Ố
##🦁
##🐎
##ࡧ
##๊
##໅
##ࡹ
##⬛
##▀
##🌀
##😿
##ࡵ
##᧰
##ӭ
##◄
##ࡿ
##ⳉ
##📮
##␩
##ࣤ
##ҕ
##ᕼ
##ℳ
##⪰
##࣌
##🌗
##🌖
##🌕
##🌔
##🌓
##🌒
##🔚
##ଅ
##わ
##ׄ
##ユ
##ば
##๒
##🐦
##ỉ
##🏈
##🌧
##ᎈ
##✚
##⫷
##ざ
##⊹
##⚔
##Ê
##🗮
##ڦ
##੕
##ࣽ
##૯
##ۜ
##ڼ
##߮
##Ҍ
##ԛ
##ẛ
##ԟ
##ҩ
##㉼
##ಲ
##🎄
##Ѥ
##ܴ
##😓
##ૌ
##๤
##🍘
##҄
##౹
##ࡠ
##ฎ
##🐬
##🌛
##஥
##📯
##ጛ
##᮴
##΄
##📞
##へ
##𒀫
##𒌓
##ኗ
##ࡥ
##Ӹ
##ฮ
##Ǆ
##᭷
##ٮ
##⎲
##Ӧ
##࣒
##ज़
##ৱ
##ನ
##㋇
##Ԃ
##በ
##ሌ
##ث
##🐷
##ಶ
##ಚ
##ጌ
##׶
##♛
##ۃ
##💨
##ᔬ
##ྖ
##ﺐ
##ﻋ
##ﺎ
##ᕟ
##☪
##📿
##ׯ
##༭
##༙
##ѹ
##💉
##Ӱ
##᱅
##𒃲
##🎖
##ೂ
##ぺ
##🌎
##ᯚ
##߯
##🐋
##🐡
##ۈ
##💑
##🇻
##ᘁ
##⋦
##ቌ
##၆
##ૻ
##ૺ
##⇑
##ᔊ
##๪
##💄
##👄
##↲
##⳪
##ᑿ
##༥
##⊥
##ഊ
##㋮
##މ
##ふ
##ߪ
##ࣛ
##ᑋ
##ᑯ
##ᑊ
##ᓀ
##ṓ
##ᾏ
##🔅
##ݔ
##∥
##׏
##຃
##ൈ
##ṿ
##९
##੻
##🍒
##ᚫ
##௫
##ᮯ
##৔
##Ћ
##₽
##ࡣ
##↜
##⪹
##𒌑
##𒁕
##𒀀
##ߦ
##੖
##⎠
##׌
##ູ
##ເ
##້
##ຍ
##💶
##📰
##ԍ
##Ὣ
##ۻ
##ᨠ
##ԡ
##🍃
##𐤉
##𐤕
##𐤃
##𐤅
##Վ
##ᢰ
##⍟
##ඌ
##ᖺ
##ᚉ
##⎯
##ྣ
##᮹
##ࠞ
##း
##ఽ
##ᢺ
##ᶞ
##⪸
##ᑲ
##ᐱ
##ۭ
##ǌ
##Ꮳ
##᜔
##ꪜ
##☯
##৫
##ߢ
##ಌ
##۞
##ᘉ
##᭎
##೨
##ᚧ
##ॽ
##ॾ
##ḃ
##Ⴝ
##ཎ
##⊊
##ᅳ
##๦
##ᘈ
##∋
##ఆ
##থ
##⚾
##⊆
##᥁
##ၲ
##ၳ
##௉
##ࣝ
##င
##ျ
##ၝ
##ዋ
##🏕
##☑
##࿣
##ᾋ
##ࣖ
##🎩
##ٛ
##ᕢ
##੼
##≚
##ޘ
##ઈ
##ᐛ
##᠘
##ڞ
##ጻ
##᭴
##ℤ
##ઁ
##᭰
##ᾧ
##ਕ
##फ
##ᝀ
##💇
##🏋
##॑
##ጤ
##஄
##ਝ
##🏢
##₷
##ぼ
##ٸ
##૿
##੧
##⚛
##஢
##ۊ
##ႅ
##ᠮ
##ᐚ
##ᐤ
##ौ
##Ԥ
##𐰖
##࠯
##ၮ
##֬
##ԋ
##ࠂ
##ف
##Ꮊ
##ๆ
##ᢤ
##ࠖ
##㊅
##ẹ
##௩
##Խ
##ࣆ
##⍬
##ࣂ
##ኘ
##ٽ
##ു
##ᓙ
##੒
##ڙ
##🐝
##⊼
##ҭ
##ዾ
##ቮ
##ࠊ
##ቭ
##ᐿ
##ࡖ
##ᛳ
##ϒ
##ᚙ
##ႀ
##ဖ
##ቆ
##⊧
##ぜ
##ം
##ೋ
##๩
##🔜
##෯
##֦
##ብ
##ᕘ
##⚘
##຅
##⿇
##Հ
##ӯ
##🐍
##ఋ
##৽
##ࣗ
##ᾩ
##֍
##ᡏ
##ಖ
##Ұ
##᛿
##Ὠ
##૷
##آ
##𐤓
##𐤒
##Ӥ
##஘
##৴
##ࢮ
##ၗ
##ߊ
##୆
##᠖
##ڍ
##๰
##௮
##೺
##ಹ
##🤷
##ڸ
##ࢬ
##❈
##ៅ
##׾
##🚬
##ऄ
##݂
##ဆ
##န
##စ
##≞
##ྞ
##֪
##ґ
##⃩
##Ὧ
##῔
##പ
##🏰
##ྵ
##ས
##ԏ
##⃪
##࢙
##ⱪ
##࿢
##ӡ
##๘
##ٙ
##🛍
##😝
##ວ
##ඳ
##ۺ
##㊨
##ฬ
##☠
##Ҝ
##☬
##Џ
##ࡡ
##࡯
##࡟
##ഃ
##ؠ
##ᓇ
##ኯ
##ॻ
##㋪
##႓
##࢘
##Ꮓ
##ӫ
##😼
##🧠
##ೀ
##๢
##ᶄ
##ࣁ
##༴
##௷
##⪏
##஛
##ኑ
##🇼
##ት
##ථ
##Ղ
##⋯
##ᤓ
##ᐏ
##🚫
##ಛ
##ഺ
##⎄
##🥤
##େ
##🏇
##૸
##Ⴠ
##ߥ
##Ꮆ
##ギ
##ݺ
##⊸
##ݭ
##⇵
##ധ
##┞
##😯
##ᓺ
##➜
##ބ
##ኊ
##ከ
##⍣
##༬
##ۗ
##ഡ
##ട
##ന
##♧
##ೕ
##⊟
##Ṭ
##ᮾ
##ࢷ
##እ
##ᰒ
##ᾛ
##࿺
##👜
##💳
##🏧
##📅
##⏲
##🚌
##🚎
##🚖
##🚋
##🚃
##🚆
##🚉
##🚇
##🚡
##🚠
##⛴
##🎇
##Ӽ
##ঠ
##ヾ
##ఏ
##🎼
##👯
##ኰ
##✭
##ይ
##຾
##ঊ
##ࠅ
##ᚲ
##ᠦ
##ᠳ
##ᠡ
##🔲
##🔺
##┌
##༤
##♊
##ရ
##௄
##ᵨ
##❛
##୷
##ӷ
##ᓸ
##੣
##📷
##ӱ
##᮶
##᧶
##ड़
##ᕐ
##ᐊ
##ۇ
##ᐳ
##Ӄ
##ฆ
##ࡓ
##🔽
##🚘
##Ჿ
##㉭
##ܨ
##ࡺ
##👁
##ᚻ
##ނ
##ࠏ
##ᠪ
##ᠴ
##⹕
##ቲ
##׸
##ᚓ
##࡚
##👼
##ऱ
##߼
##⤛
##🎅
##≔
##Ḏ
##㌸
##🕊
##ࡶ
##੾
##⛄
##Ї
##ԧ
##🏤
##🏯
##ذ
##ⓞ
##๾
##ٰ
##ѥ
##৭
##ᯘ
##ٿ
##ಟ
##ᗏ
##ҿ
##᭏
##ᾣ
##⋮
##ˣ
##ञ
##ၛ
##ৼ
##♿
##Ֆ
##ࣷ
##׈
##ࢦ
##Ӝ
##୮
##ԥ
##Ꮃ
##ۼ
##ҹ
##೾
##ኟ
##Ⴑ
##ဓ
##઀
##ई
##঱
##ᝑ
##ܯ
##᭒
##ࡏ
##႑
##💬
##ࠒ
##ᕱ
##૆
##৺
##ԇ
##👊
##ᶟ
##𒆷
##𒅀
##ຟ
##᫑
##⊢
##⍵
##ꜣ
##ฑ
##ਹ
##ਬ
##ထ
##ံ
##ኛ
##ဢ
##ҵ
##ᱹ
##፫
##ʴ
##቉
##ૡ
##ޯ
##२
##݆
##ᣐ
##ഭ
##വ
##മ
##᳏
##ટ
##᭸
##ၯ
##ឹ
##ℶ
##ࣔ
##ඬ
##ᓆ
##˛
##⃧
##࿠
##ဴ
##֭
##🤘
##ങ
##െ
##ἷ
##ԅ
##෫
##ᣎ
##ޖ
##Ӓ
##ᕤ
##ᛨ
##Ҷ
##𐭲
##𐭥
##ὄ
##ቍ
##᮲
##෭
##ዱ
##ࠠ
##🇶
##᧬
##✵
##ᶠ
##⏎
##🍼
##ة
##㄀
##⤀
##ׅ
##ປ
##ǳ
##ཚ
##🍿
##ぎ
##஽
##᷺
##ၔ
##Ẕ
##᎑
##🟡
##ࡅ
##👹
##▫
##🅔
##🅢
##🅘
##🅛
##🅚
##🅐
##🅡
##🅣
##ᕊ
##Ҭ
##⍂
##🍬
##🎙
##ಎ
##ဍ
##఻
##↶
##ᢶ
##఼
##🏀
##৲
##➠
##⫸
##ঐ
##ᔉ
##ॡ
##ᯒ
##ݗ
##૔
##🌅
##ැ
##ܖ
##ߜ
##઺
##ࡕ
##ܑ
##ഇ
##ጁ
##🌁
##┹
##▂
##੹
##🥶
##🇫
##ہ
##ڈ
##🐐
##౉
##᭦
##ࠝ
##ࢎ
##ᕕ
##ᓕ
##ᒡ
##⒀
##ڀ
##ኤ
##ቊ
##ᯬ
##ᒹ
##౔
##׊
##ማ
##౬
##𐰤
##⊯
##᮵
##ٻ
##ഄ
##ٷ
##🐓
##ڡ
##ῼ
##ຏ
##ሽ
##Ԩ
##ஞ
##⌮
##ѫ
##ṙ
##ᰇ
##⤲
##Ꭰ
##🎟
##੠
##𐤍
##𐤁
##𐤏
##𐤋
##ஓ
##ᓳ
##Ꭾ
##ᔆ
##Ќ
##Ễ
##߫
##ߑ
##ᵎ
##ݢ
##ݣ
##␦
##᧜
##ࢣ
##😴
##཯
##ጭ
##჆
##௕
##غ
##ᏼ
##ੳ
##⥈
##ヅ
##҅
##≬
##☾
##㋗
##🖥
##ᨼ
##🦋
##೗
##ᷬ
##⛓
##झ
##ച
##༖
##🐙
##ೇ
##ߖ
##ॅ
##ࢀ
##ડ
##ቾ
##ഐ
##ਂ
##ྡྷ
##ॸ
##ኙ
##ᭉ
##⤁
##ⴷ
##𒋼
##𒅎
##𒅍
##ᛚ
##ቹ
##ဇ
##ဠ
##ಅ
##ᖧ
##ᖨ
##ݒ
##↕
##🍵
##📥
##፼
##ۑ
##┟
##৞
##ࢭ
##ΐ
##ᛄ
##੯
##Ⓙ
##┴
##ᔰ
##ݡ
##֟
##Ӊ
##အ
##Ⴚ
##🙍
##🙇
##ऌ
##ᕖ
##ଡ
##🍑
##ᛝ
##໎
##ऑ
##↞
##⃾
##঴
##Ṧ
##ᯫ
##ᕅ
##ೡ
##⺒
##≆
##ᢦ
##🧜
##🇲
##ଶ
##Ⴄ
##Ⴇ
##Ⴐ
##Ⴈ
##㉵
##੘
##ᢣ
##👵
##㌆
##🐽
##ቧ
##ሊ
##⬆
##🍾
##ኜ
##׵
##≓
##ဈ
##హ
##ᖃ
##ᑑ
##ಞ
##ॼ
##💢
##Ⓢ
##࿾
##ᦄ
##৤
##ع
##ۥ
##೦
##ྌ
##ڱ
##๫
##ጹ
##ॳ
##ᘻ
##ὗ
##☊
##ډ
##౵
##✗
##೏
##🚕
##Ꮂ
##ഘ
##ሯ
##ྐྵ
##⊄
##ܽ
##֜
##ဟ
##Ә
##᭧
##🐥
##ఴ
##࿭
##ࣄ
##֛
##ਤ
##⎤
##⎥
##ၹ
##▃
##▅
##▆
##▇
##ᦒ
##஬
##✪
##🛐
##੿
##🤹
##Ớ
##ཾ
##ຠ
##Ẳ
##ၡ
##۽
##Ⴤ
##؇
##ᑱ
##ఊ
##૳
##🍴
##Ꮽ
##ኚ
##؝
##ᢵ
##≏
##ᣟ
##൬
##㋙
##෉
##ጆ
##ች
##⋖
##ݵ
##⅄
##ᚸ
##⃕
##଍
##቟
##➧
##៥
##௒
##🌯
##᜕
##ሐ
##🌏
##❀
##Ⳙ
##ቤ
##ֆ
##ῑ
##ᕡ
##శ
##⌨
##⍋
##ஹ
##😺
##ྡ
##ᜇ
##ᜌ
##࿁
##🌠
##Ᾱ
##🚩
##🌫
##৹
##↛
##٘
##ᴡ
##ܤ
##ሶ
##ޗ
##🤞
##ԣ
##࡝
##๓
##📛
##⪒
##ҷ
##य़
##࣏
##ۮ
##৻
##׮
##ᗣ
##㊦
##஑
##⌇
##➭
##ဎ
##⺑
##⍿
##គ
##📻
##🎹
##ૹ
##ᔻ
##🔍
##ට
##ග
##ෑ
##✽
##ຫ
##ຼ
##ໄ
##ລ
##⎚
##ࣹ
##🎞
##࿈
##ᝒ
##ࣞ
##᧹
##Ề
##Ꮈ
##⏆
##ލ
##ਫ
##ᰏ
##ᛗ
##੄
##ॲ
##🤚
##ځ
##🧸
##┪
##ᑫ
##᭶
##ኃ
##ⓑ
##🚲
##ѯ
##⇜
##ఌ
##୻
##👤
##װ
##ࡃ
##ᱪ
##🍐
##🧚
##ᒪ
##ᓂ
##ᑐ
##🔹
##ᕰ
##ኄ
##〷
##Ӷ
##ፄ
##ℬ
##భ
##ॢ
##ᑣ
##ᖓ
##፺
##፩
##𒊒
##𒄿
##𒊭
##঎
##ඨ
##∭
##ݮ
##ఝ
##ᕲ
##ᖌ
##ᐠ
##᪞
##ڥ
##ᗢ
##🌐
##ᯱ
##⤦
##⇓
##ࠌ
##ᓣ
##፽
##╄
##Ḳ
##ࠛ
##࡮
##᧭
##㉪
##ࢡ
##ې
##௓
##࿿
##ᒷ
##➵
##ᐍ
##Ꮶ
##ར
##؎
##ࠫ
##ႄ
##ぬ
##ಓ
##༧
##ࡋ
##ٟ
##߱
##֋
##ᒧ
##ᐅ
##ᓐ
##൐
##჈
##֙
##➔
##Ạ
##౎
##ᰀ
##↷
##ࡒ
##ޚ
##ࡱ
##ࡲ
##㉺
##ݳ
##ᗙ
##֠
##⃚
##ဳ
##௯
##ဦ
##ᝊ
##᪘
##🏺
##🪬
##޾
##㋳
##ᔂ
##࿸
##𐰏
##Ѭ
##⎙
##⃮
##ၾ
##💀
##ޠ
##ⅷ
##ᘵ
##ቴ
##∇
##ഷ
##ራ
##๐
##🐻
##⎦
##⎧
##ࠚ
##⧫
##🔫
##ᮿ
##ᗁ
##🔎
##🍦
##𐎱
##𐎼
##𐎭
##⋬
##ୱ
##ࢼ
##߻
##Ὂ
##஭
##پ
##ᒳ
##ᝅ
##ᦐ
##㌽
##ڬ
##ङ
##೮
##ᶉ
##ֈ
##ߣ
##ߞ
##ႜ
##ᬇ
##௦
##ॏ
##ഹ
##🏞
##ओ
##ለ
##८
##ﱠ
##ﻨ
##ᰐ
##࣓
##ڎ
##஠
##ၷ
##🍇
##ࣟ
##ᷫ
##ฯ
##પ
##ુ
##ί
##🎱
##ऺ
##቏
##ྤ
##೻
##޸
##ፂ
##ۋ
##ଧ
##႕
##⑫
##ⓕ
##ᯭ
##⎮
##෰
##଄
##ᤞ
##📠
##ᘀ
##⑝
##ៜ
##└
##👱
##Ḛ
##ౣ
##Ⴜ
##ජ
##֏
##㌟
##ᰨ
##⓸
##ᐘ
##ᔮ
##ᐣ
##ᣁ
##ᴎ
##⑍
##⑎
##ڛ
##ᣅ
##ᔠ
##Ԝ
##ᱛ
##ڂ
##💆
##⬅
##ۧ
##🤠
##┦
##೼
##ᛎ
##൓
##ᰑ
##🐂
##Ԛ
##ㄖ
##ྠ
##ጅ
##ᢲ
##ሔ
##ቜ
##၉
##🎪
##࠿
##౰
##ຌ
##ὖ
##࢛
##ᤗ
##👰
##💩
##ਘ
##࿅
##ࣵ
##ള
##᧘
##৏
##ౢ
##𒌣
##ṳ
##➢
##𝅥
##𝅮
##📑
##⇛
##ቸ
##௡
##⿥
##𒆳
##৘
##ᒰ
##࣠
##ぅ
##ᕽ
##Ꝡ
##ઔ
##ഢ
##ᕍ
##ᚴ
##࿽
##ൖ
##ቔ
##ᕃ
##ᮺ
##🔰
##ࢢ
##⎟
##Ậ
##ࠈ
##຦
##လ
##఩
##ⳤ
##ၜ
##࣐
##Ằ
##ஆ
##℄
##ෳ
##ฃ
##ຊ
##့
##ⳛ
##ᔖ
##ચ
##🆖
##༟
##ㄅ
##𓃵
##൷
##൸
##֒
##ᚕ
##៦
##ᛊ
##ઇ
##˙
##ആ
##▄
##⃫
##ږ
##֝
##∏
##৒
##ା
##⹼
##಑
##ᵼ
##ᾑ
##Ợ
##຋
##🐕
##ढ
##Ḗ
##⑳
##Ӵ
##⛈
##ᮭ
##೫
##ҡ
##∠
##࿰
##𐏁
##𐏂
##ᯛ
##〇
##ḩ
##Რ
##ᔭ
##💤
##ᯠ
##⍹
##᱑
##๼
##ࣦ
##ࢽ
##𒉺
##׭
##𐭧
##𐭯
##𐭩
##Ⴔ
##↝
##ྟ
##🍩
##ꓕ
##ԝ
##𒁺
##ၓ
##᳑
##🍻
##ँ
##≍
##Ꮒ
##ઽ
##🩸
##ഁ
##📙
##ࠐ
##Ἁ
##ߛ
##᧮
##ᛲ
##ዝ
##𒅁
##࣋
##Ԡ
##ቱ
##🤲
##♉
##Ṙ
##᝔
##𐰓
##Ꭹ
##ݛ
##ᨡ
##㋶
##ଃ
##Ⓝ
##ጘ
##⚚
##ᥛ
##ଁ
##ᶔ
##๧
##೟
##෹
##⃢
##⩾
##ᒨ
##ཙ
##Ꮘ
##Ḣ
##ᔨ
##េ
##ሷ
##݋
##Ⴊ
##🥇
##🎾
##਻
##଒
##Ӑ
##ᗵ
##ⴰ
##ⴳ
##ⵔ
##ⵡ
##ⵜ
##೷
##ॕ
##🤛
##ࢃ
##๸
##ꟷ
##ᰥ
##ቫ
##ࢋ
##ℚ
##ᯰ
##☭
##Ḩ
##ऴ
##👳
##ݰ
##🎫
##ಘ
##Ԯ
##ᐐ
##Ὤ
##໭
##𐊕
##𐊐
##𐊎
##𐊆
##𐊖
##ຈ
##ᾆ
##᫏
##଎
##ߩ
##ኽ
##ⳝ
##⊱
##ᣔ
##ℍ
##Ỹ
##ӿ
##⋰
##ᣡ
##ṫ
##Ꮔ
##૚
##ཁ
##Ủ
##ᾥ
##Ꮀ
##Ꮉ
##ߤ
##㌰
##ஂ
##⋸
##⌛
##⩏
##Ѽ
##൩
##⃭
##🐹
##ᘄ
##Ө
##᭬
##㋓
##🪁
##Ⴗ
##ោ
##🇽
##ㄒ
##௭
##⊽
##🔷
##🏂
##👬
##⛅
##ޮ
##ꜿ
##བ
##ᚣ
##ⳓ
##🍜
##🍙
##ᣆ
##ฉ
##ၵ
##➪
##⓪
##Ӫ
##ᒽ
##⛸
##ᦴ
##੭
##ృ
##ڄ
##۾
##༵
##७
##ၿ
##ᰧ
##ḙ
##ఠ
##௧
##☂
##ො
##Ẹ
##ྃ
##ᕓ
##ၒ
##஁
##␵
##҇
##Ꮗ
##ኳ
##ਡ
##🗨
##҂
##ᡁ
##ࡆ
##ᢨ
##ₜ
##𐎘
##𐎗
##𐎚
##Ꮄ
##ὂ
##෽
##˝
##✰
##ඒ
##🎦
##ᛮ
##ᯆ
##ḋ
##஻
##ጼ
##ጚ
##ᶜ
##🥳
##ᰶ
##⊕
##ک
##ఘ
##ᛓ
##ৃ
##⊅
##ࠥ
##ଦ
##૜
##ⱷ
##඙
##Ώ
##🦱
##👭
##ဃ
##ഴ
##௾
##ᢾ
##㉿
##࣎
##৑
##Ⴋ
##ϴ
##၅
##߈
##໢
##㋘
##Ꭼ
##ଊ
##ᒯ
##ᓲ
##᥀
##ၸ
##ῲ
##Ⴟ
##ጕ
##᛺
##ඵ
##⪭
##ጽ
##ྂ
##ൗ
##౼
##ᖔ
##⊴
##ᚳ
##ߝ
##Ҡ
##௟
##♢
##🔇
##🔈
##🔉
##ࡢ
##〴
##័
##ើ
##૫
##ؖ
##ၐ
##👽
##ੈ
##ቦ
##㋕
##੓
##⇧
##┰
##ฏ
##🐢
##ઉ
##ⓝ
##ἒ
##Ả
##🗽
##🗼
##🎠
##🗻
##⩚
##ࢿ
##ఁ
##ᡭ
##♌
##🖤
##ዳ
##ዊ
##ਯ
##Ӟ
##ᘥ
##ᕆ
##ད
##Ἅ
##🛵
##அ
##৷
##ἆ
##⎜
##ᒼ
##ࣩ
##သ
##᮷
##ࠬ
##⧬
##🔖
##ᘫ
##➰
##મ
##્
##શ
##ે
##😈
##ॺ
##ᯉ
##👖
##◌
##⎀
##῞
##۟
##ౙ
##᪟
##⭑
##ᔗ
##౒
##௼
##︠
##︡
##஍
##ᶖ
##঄
##ຝ
##ᚖ
##Ꮪ
##኉
##ౝ
##ቐ
##ݫ
##∓
##༜
##಺
##ڕ
##൧
##𒀜
##𒌅
##Ṁ
##ॷ
##⎇
##ᵛ
##ೝ
##ᷗ
##ԩ
##ᒍ
##ཨ
##⯙
##⎴
##୼
##✳
##ዻ
##ᚽ
##ḹ
##♍
##∃
##⪍
##෾
##ᰖ
##ྩ
##ᛣ
##ẗ
##ᓢ
##ḯ
##☡
##🌇
##ႁ
##ⅅ
##ঌ
##ມ
##♤
##≝
##✒
##౪
##ᕎ
##ᐦ
##༣
##ኾ
##ᯕ
##୭
##଱
##෱
##વ
##ൃ
##⌷
##ᒐ
##ᯥ
##㊜
##ᗞ
##ᡀ
##👥
##ੴ
##ᒩ
##📐
##࣡
##إ
##᭩
##኿
##ࠧ
##㉶
##֯
##🐛
##޳
##ቋ
##ᡎ
##᫘
##ṋ
##౅
##஫
##ⲙ
##ⲥ
##ⲁ
##Ί
##៣
##😸
##ᑀ
##༯
##ᙈ
##⤉
##ᖬ
##𐰜
##ॗ
##౶
##޽
##ᒗ
##🅧
##🔆
##≋
##❊
##൤
##≶
##ૣ
##ࡂ
##💷
##Ⱗ
##ᢧ
##௱
##ێ
##⺷
##అ
##क़
##ജ
##┅
##🏝
##ࢄ
##ᕋ
##ཌ
##㊭
##᯵
##ᛐ
##🎸
##ጯ
##🥚
##ᘿ
##𒄑
##𒈨
##𒌋
##🎺
##ሳ
##኷
##ᣞ
##㋾
##🚁
##˚
##ᡓ
##ᡔ
##࣯
##ࣾ
##ፙ
##ቯ
##⋺
##𓂀
##➋
##෮
##۠
##Ӯ
##ٔ
##ᐕ
##ᕁ
##೓
##☜
##♞
##Ꮝ
##៌
##࿗
##Ⲥ
##Ⲉ
##Ⴕ
##ᓤ
##ྋ
##࠘
##ዩ
##ጂ
##🐊
##൏
##ޅ
##ୌ
##೑
##╂
##🏘
##થ
##Ⴣ
##꙰
##㌄
##᭥
##࢚
##ଖ
##⃛
##᪽
##᯶
##ণ
##ẅ
##᳚
##౴
##ᣕ
##ࠨ
##Ⴡ
##♩
##Ệ
##Ⴒ
##📒
##᧙
##ḅ
##ᕉ
##ᘎ
##ᾊ
##࢓
##ᠬ
##ᯯ
##⧌
##ᣃ
##ߵ
##ጀ
##ᓡ
##ݻ
##Ⓣ
##ṍ
##ᘱ
##ᘜ
##ᖦ
##਀
##🅞
##🅤
##🅜
##⊒
##᪙
##᭲
##╪
##੊
##▵
##💾
##⊗
##👃
##ࢌ
##ଂ
##ᕻ
##📸
##਒
##৛
##࿯
##ጮ
##࿮
##౐
##ާ
##ࠗ
##୽
##㊔
##ଫ
##🪂
##🛸
##👣
##କ
##✝
##⇘
##ഋ
##Ꮫ
##ἠ
##ື
##ଆ
##ଠ
##ፊ
##🧐
##ယ
##ࣼ
##׋
##இ
##ࡉ
##🅴
##ྺ
##🔃
##ᛅ
##ᛘ
##ᚱ
##🥀
##ኁ
##⚈
##￧
##໼
##݄
##ᯇ
##⎒
##ṷ
##⹏
##ᣖ
##ᡉ
##ᢠ
##𒁀
##⒔
##঑
##੤
##ᰈ
##⫔
##ࢇ
##ሪ
##ୋ
##ॱ
##ጳ
##౾
##✷
##ੜ
##㊤
##ῴ
##🍨
##჋
##♒
##᧲
##௢
##࢞
##ᦍ
##ಒ
##ౠ
##ᴮ
##᳔
##╬
##ṏ
##໚
##Ճ
##ヲ
##ᒏ
##ਇ
##♝
##ᜋ
##ۯ
##ᔧ
##㌱
##ࢤ
##ݚ
##ࡀ
##ߕ
##᷀
##᷁
##🗿
##ᾢ
##🌋
##Ꭱ
##🤿
##❚
##㌡
##ಆ
##🍛
##᭕
##⑛
##ൾ
##૵
##ᘝ
##ؑ
##෪
##≪
##ႈ
##സ
##፹
##፬
##፭
##౧
##ୠ
##ް
##ઃ
##ᑺ
##🅷
##🆁
##🅸
##🆃
##ऍ
##ᐖ
##🏅
##௎
##᭯
##ၑ
##ၟ
##⋩
##Ꮴ
##ᛷ
##᧳
##Ṏ
##㊀
##࣢
##ᶷ
##␙
##🌪
##ݹ
##ߚ
##෥
##Ꮍ
##🙀
##🌭
##❑
##ൔ
##⏌
##◗
##ᦵ
##ਲ
##ᔁ
##ৢ
##ᕀ
##ୈ
##┨
##ⸯ
##ॶ
##Ⳬ
##ᦃ
##🤯
##ᘶ
##࣫
##ଞ
##Ꮮ
##Ҩ
##↦
##ૐ
##ྴ
##ൢ
##ൣ
##ఄ
##ಈ
##Ể
##ඪ
##ཽ
##੽
##Ḧ
##಴
##౳
##ۂ
##Ἀ
##🏮
##🤓
##ࣙ
##⃴
##ؒ
##᏿
##ီ
##🪴
##⌜
##ᐶ
##ٝ
##ၰ
##๺
##ᠫ
##ᖩ
##૾
##ᛤ
##🏐
##ྥ
##໙
##ዠ
##Ἱ
##꓊
##ၫ
##ᒒ
##ሱ
##ᔋ
##♑
##ፀ
##ሕ
##∔
##ﺜ
##ῌ
##⍌
##ݟ
##ክ
##޹
##ݏ
##౯
##◯
##🩷
##ﻮ
##ﻘ
##ﺒ
##ﺴ
##ﻳ
##᛾
##ଋ
##◟
##≌
##ྙ
##👴
##🏷
##ኈ
##ޕ
##Ꮋ
##ጥ
##✎
##ڊ
##⊓
##ဥ
##ࠦ
##㊣
##फ़
##⤄
##࢒
##ᔸ
##Ѵ
##ဘ
##ᠥ
##🏦
##ቨ
##ྗ
##ᮻ
##ࢆ
##ℰ
##⊭
##👕
##ఫ
##६
##ጊ
##𒋾
##𒂗
##𒍪
##♟
##᭑
##ᰡ
##ݦ
##ҟ
##য়
##ࢸ
##ؔ
##ḑ
##጗
##ᗚ
##ޑ
##ऎ
##๕
##஺
##ၙ
##ᡍ
##⎓
##ޒ
##ۿ
##ԙ
##౻
##࿱
##ቘ
##ຆ
##ᰙ
##⳩
##࣍
##᧯
##ॊ
##᳊
##ᔵ
##࿛
##ᵵ
##↊
##㌧
##ॆ
##Ꮐ
##Ἑ
##ࡩ
##Ҿ
##ढ़
##ᰘ
##ᣦ
##ᔑ
##Ṟ
##🎒
##𒉿
##𒀸
##✡
##┬
##਼
##ྜྷ
##ꜥ
##഻
##౿
##♻
##༸
##੔
##᧷
##ᛀ
##🎋
##Ҧ
##౞
##ఢ
##ݴ
##౓
##𐰯
##ᭌ
##ቚ
##๭
##฀
##൫
##㋒
##↢
##ဋ
##Ⴘ
##῏
##ᾓ
##ᙎ
##ᐹ
##ᖏ
##ᒥ
##థ
##ࡊ
##Ꮡ
##⳨
##ސ
##Ꮞ
##᯹
##ⓡ
##೅
##ၪ
##Ⴀ
##⍓
##⋿
##ភ
##ៈ
##ぽ
##൒
##଀
##ᶌ
##ᰦ
##᎛
##🔶
##🚢
##ᛞ
##Ⓖ
##Ϲ
##ஊ
##🪐
##⌚
##ⳡ
##ၻ
##𒄬
##𒁶
##߁
##ऒ
##ᔌ
##ঈ
##ᔽ
##অ
##⌡
##⎪
##௶
##ᶒ
##🍯
##᭘
##ྚ
##📬
##⩨
##🐿
##ළ
##𐊁
##𐊍
##𐊂
##𐊛
##ᒱ
##ⓗ
##੺
##⌔
##⌕
##ឮ
##㋩
##ᾍ
##౫
##⟓
##╈
##Ḿ
##🌑
##୿
##᳹
##૴
##ࠡ
##∸
##🌤
##኶
##ᯪ
##ᒻ
##੉
##໺
##⯄
##ᰍ
##ਖ
##ੀ
##஋
##኎
##⏪
##⯭
##ఇ
##Ӣ
##၃
##႒
##ጟ
##ਖ਼
##🔁
##ሰ
##ಇ
##ᛩ
##ጧ
##ພ
##㊕
##🍡
##༗
##ኔ
##⫈
##ᐒ
##♙
##┉
##ᙰ
##Ⓞ
##ሻ
##ᓿ
##୥
##ᖈ
##Ꮿ
##᳋
##໨
##ࣕ
##੗
##᭤
##∲
##ଜ
##ಃ
##Ꮕ
##Ꮟ
##៟
##Ộ
##३
##ଌ
##𐱄
##🌘
##◥
##ዺ
##ᎂ
##´
##⪎
##🦳
##๙
##🏓
##๠
##📋
##⍾
##🔒
##🔑
##Ṅ
##ⳑ
##ᔔ
##ຑ
##ဩ
##ᖠ
##🚛
##🚿
##੍
##ਨ
##ረ
##ཊ
##✞
##⓽
##↧
##ℸ
##⪅
##Ⳍ
##ሲ
##ഽ
##ෂ
##࢑
##🤝
##☰
##ঝ
##໌
##ڷ
##ቼ
##॓
##Ⓩ
##ఙ
##ㄊ
##︣
##ഌ
##ᰉ
##஖
##⫉
##ᚒ
##ᚐ
##ᚔ
##ᚏ
##ᚋ
##ぃ
##೜
##㉱
##ᜣ
##ⓙ
##Ῑ
##🤐
##⚵
##១
##☐
##፵
##ሁ
##㊬
##ᓯ
##ᓃ
##ᑕ
##༞
##⠥
##ᚰ
##௃
##≾
##ṱ
##⤴
##ጢ
##ॠ
##ฤ
##ಋ
##ᶚ
##ඟ
##ṉ
##஧
##෨
##ྔ
##០
##ៀ
##ໞ
##ࢧ
##૒
##ሴ
##ࣳ
##ẃ
##ۦ
##ⲉ
##╁
##᢯
##┑
##Ḁ
##Ṡ
##🐜
##៉
##ₓ
##૲
##ࢪ
##ᛴ
##බ
##Ꭻ
##⩯
##ែ
##෿
##ᷧ
##ދ
##ዸ
##ጷ
##ጸ
##ۍ
##ኣ
##உ
##ᣝ
##ਸ਼
##ᾷ
##ࠄ
##⋵
##੫
##᎖
##Ờ
##௞
##ᐥ
##Ὼ
##ࢹ
##ᮮ
##ⲟ
##෍
##ٜ
##ఈ
##Ҽ
##૤
##ඣ
##ᬀ
##𒉆
##𒋻
##ἧ
##ඦ
##᧖
##ᮽ
##ቻ
##ှ
##঻
##୘
##ጰ
##ᔺ
##ᡩ
##𐦣
##𐦯
##ࡼ
##Ἒ
##ᡐ
##Ṹ
##᳙
##ጉ
##℞
##Ⴛ
##ヂ
##ぴ
##ጾ
##ᰌ
##▴
##㌭
##ᑙ
##᭭
##ᗍ
##൵
##ቒ
##🔌
##ቃ
##↨
##✺
##ग़
##ஷ
##⏱
##ߨ
##ᖚ
##ପ
##ἣ
##㋷
##ཞ
##ਗ਼
##⳱
##၄
##🏩
##🏨
##ଔ
##᷄
##⊛
##೘
##🐇
##؏
##🍤
##໋
##ࠢ
##𒊑
##ሗ
##🩵
##ᓎ
##🚧
##᧞
##⃷
##⚷
##ཟ
##Ᾰ
##ౘ
##ᣀ
##ᔐ
##ᰊ
##ኌ
##ၠ
##👅
##Î
##ᖍ
##᠟
##ﻴ
##ﻐ
##ﻟ
##ﺑ
##੸
##ຐ
##ቺ
##Ⴃ
##᭳
##ࣈ
##Ꭺ
##ਙ
##ઊ
##௰
##᎟
##൴
##౨
##⎃
##⑥
##ፈ
##⇦
##⃙
##ળ
##ؕ
##ઑ
##ខ
##យ
##Ꮺ
##ᙲ
##௵
##∽
##㊩
##ଥ
##Ӭ
##ࡈ
##🥭
##🥑
##ᰅ
##ᕦ
##⺘
##Ὸ
##๹
##ऐ
##ᢻ
##⋎
##݇
##⋋
##㋂
##≨
##⊻
##࿲
##ࡌ
##᷻
##Ⴙ
##ኬ
##Ⴂ
##┝
##𒃾
##𒇻
##ᚃ
##ૃ
##֢
##ṩ
##ԯ
##Ⴧ
##Ⳳ
##௺
##᳴
##៩
##➨
##ᚄ
##ݝ
##ൊ
##𒈠
##೿
##ຸ
##Å
##ᔯ
##ግ
##঩
##⃄
##൱
##ᡞ
##ᡝ
##ظ
##Ꮠ
##ᚷ
##𐊗
##𐊀
##ຜ
##la
##er
##in
##an
##ın
##ir
##en
##ar
##il
##lar
##ma
##ek
##el
##ak
##le
##da
##de
##un
##ler
##lı
ve
##or
##iz
bir
##iy
##et
##es
##ik
##ır
##at
##on
##lan
##im
##ur
##ay
##as
##ün
##al
##em
ya
##is
ol
##ul
de
##iş
##ür
##am
##ız
##ların
##di
##ey
##dı
##it
da
##den
##aş
##dan
iç
##ya
##li
##ları
ka
##um
gö
##ıl
##bil
##ım
##st
##ini
##ık
##ağ
##ış
##ok
##inde
##ında
##ine
##du
ar
##ta
yap
bu
##az
##ol
##ec
##mak
##dir
##ah
için
##ük
##mas
##yor
##dır
##iler
##ti
##te
##üm
##eler
##leri
##üz
ile
##esi
##inin
##tı
##iyor
##ev
##ını
##mek
gör
##ab
##lık
##me
baş
##cak
et
##iniz
al
##şt
an
##af
##uz
ger
##ği
kar
##larak
##lik
##ına
##oğ
##eç
##bilir
ön
##ğı
gel
son
ver
in
##cı
##ut
##ön
bil
olarak
##len
##ce
##uk
iş
oldu
ed
en
##alı
il
Bu
##us
##ib
##ip
##ması
kon
##iye
değ
##ıs
##ha
##ra
ay
tar
##man
##ından
##se
##unu
##üş
olan
##ro
##lay
##tır
##mış
yer
##ca
##tir
##ullan
##ez
çok
##uş
kullan
ne
##lama
##ül
##laş
##ibi
daha
##tan
##anı
##ap
bul
##miş
sür
##ed
##ının
##av
or
##op
kad
aç
##imiz
olduğ
##zer
gün
her
##ası
uy
##ark
##üy
ist
kur
##inden
##lem
gibi
##lu
##ılı
##yon
##aki
##eki
##öy
##eni
##ih
##ecek
##om
##ki
ken
çık
##eş
var
bel
##ör
##aman
##ili
çalı
##ka
geç
yıl
##ürk
##san
gerek
##yla
yaş
##eğ
sağ
##ret
##eye
20
##isi
çalış
yar
##ic
öz
##aya
üzer
on
##ad
##ınız
kal
ek
##sa
##unda
##ken
##ilen
Türk
##eli
##ist
zaman
##lara
##lerin
##ru
##larını
##ıyor
##ama
dur
##iyle
ola
##os
kadar
yön
ko
##şı
##lü
##ilm
bulun
##daki
##eb
##met
olma
##öz
##üt
düş
##diğ
tek
doğ
sor
##asında
An
sah
##let
##unun
##gi
yan
##men
par
say
##id
##dığ
şek
kay
##siniz
##makta
##gu
gü
##ede
##iyet
büy
##aç
taraf
##uy
##eh
##çek
##larda
##ılan
##eri
##ade
##arak
pro
dev
yaz
ak
dön
kap
top
##dığı
##mekte
alan
veya
##ley
el
##ac
##uşt
##öl
sonra
ise
##ren
##ep
##if
##cu
##arı
##ot
##iç
belir
kat
##maya
##erek
##ers
##deki
##lerini
##bilirsiniz
uz
özel
Bir
kiş
oy
##sel
##ğer
##dım
hay
den
##maktadır
##ans
yeni
hak
yüz
ama
##anın
##lam
##diği
##tr
karşı
mü
yak
##iyat
##imi
iy
ev
##ten
gen
gerçek
##esinde
bo
##ada
##mektedir
kend
büyük
önem
##una
şekil
##ımız
öğ
hal
##elik
##ster
##larının
##rün
değil
yük
##öyle
##izmet
siz
##lat
insan
Baş
##ci
bak
durum
##ter
fark
göre
yol
tak
##ştir
bağ
hem
##kin
##mız
düz
##lere
##enin
neden
##lk
##est
edil
##mesi
##eleri
##larına
tarafından
do
şey
##dür
şekilde
açık
göster
##sı
hizmet
ilg
ort
##ağı
ilk
##lığı
##ef
##rı
olduğu
ben
##may
böl
sev
tüm
##lığ
ürün
##emiz
har
iyi
##leştir
##00
##art
##leş
gir
sahip
alı
##uştur
seç
##re
##üs
##eceğ
değiş
##larında
##aret
##ğu
##od
alt
biz
##kan
ser
##oc
##ram
##ven
##bul
##uyor
##ça
##ıla
##bir
sat
di
kaz
has
##ıcı
uygu
der
göz
yet
##ara
Ay
es
düşün
##siz
##etir
sır
##nı
bilg
##iv
##ran
##dü
##dur
##eyi
##atır
ih
geliş
##ileri
içer
getir
##ısı
19
##dık
önemli
Türkiye
ad
dün
ok
çek
##azla
##ıp
##aat
iz
eğ
ter
##dik
san
ki
Al
##ece
aş
##tık
##olo
##istem
##tik
##si
##ale
##liğ
tarih
##lardan
az
fazla
yok
kor
işlem
as
##liği
değer
##unuz
ot
##lerde
söz
olduğunu
ede
tut
duy
##esine
##ile
##acak
su
yay
##lerinin
##erk
kıs
##asyon
taş
##likle
er
ağ
201
İn
etk
öğren
önce
##tiğ
devam
##up
##tar
mil
arasında
##raf
##esini
ilgili
içinde
birlik
##usu
##uh
zor
üret
başla
##sek
##oloj
farklı
Ar
##gun
##sız
##han
##lerine
hayat
iki
sistem
hiç
##lendir
diğer
çalışma
dış
sonu
##ocuk
ülk
##iyas
##ındaki
tes
##aber
##ayı
öl
haz
doğru
##asıl
kazan
bin
düzen
##üyor
##azı
##itim
##ket
##larla
##ünde
tem
##meye
aynı
##ekt
fiyat
##ımı
alın
##kanı
##ilik
##der
hakk
birlikte
##abil
olur
at
##esin
Er
konu
güven
bek
te
##erkez
##maz
##cel
##daş
##tığı
dik
##siy
sit
##emek
görün
kö
##yan
##ika
tür
##eyen
dönem
##larımız
##ilerin
bas
yapıl
gelen
##ulu
##adece
hazır
olmak
##yal
ulaş
İst
eş
Bel
diye
sun
##çe
##üne
##cağ
olacak
tan
##oz
is
##kü
kendi
ada
##ayan
oyun
##ünü
üst
tekn
yönet
##ala
##mıştır
im
boy
##eniz
##ide
saat
##ig
Öz
##lerinde
##eket
bur
##lanan
İş
##asar
ediyor
##tür
##üzel
##por
iliş
##masını
En
tama
mod
##tığ
##eme
yüksek
ör
kan
##kat
##layan
##masına
Kur
##ütün
##tü
çıkar
##ebilir
sık
##uv
un
yapılan
##isinde
##ehir
uygun
nasıl
ara
mes
##dığını
##larından
çocuk
belirt
##laya
bölg
##leme
10
oluştur
##luk
##ebil
##rup
eden
haf
hız
##tiy
if
##malı
mal
yatır
Gen
##inizi
fir
olması
##estek
kim
##üp
##irket
etti
sadece
##ılır
güç
##esinin
##gram
yardım
olduk
##miştir
##gün
ik
##dem
genel
söy
ban
çev
##işim
##muş
Bak
Ak
##lerden
##sal
##ub
##lak
tab
##sun
##usunda
##rıca
Kar
başka
##ahat
sen
##for
##ilmesi
karar
biri
tel
dikkat
hav
kit
destek
sal
nin
para
güzel
##üç
##ici
mak
##lük
art
hareket
kolay
##ştır
sav
Mü
##anbul
kam
##van
bulunan
##dar
##mez
##manın
ihtiy
hasta
önc
eder
görev
dav
##bet
##lerle
uzun
gön
bun
dedi
oluş
sı
bile
mut
eğitim
##ne
##çok
kr
##üc
Son
##abilir
kayn
gerçekleştir
##kı
##mayı
##osyal
İstanbul
##ektör
Her
##lah
##ırak
Av
ortaya
anlam
sorun
##lerinden
##tern
##uma
##siyon
##min
##eden
üzerinde
##det
çöz
tam
##og
##mal
üzere
tasar
##ilir
##manız
##elerin
##larınız
pay
hes
hat
bit
##oy
##aba
söyle
##olu
##ing
202
yatırım
##duğu
gid
bazı
ala
##lum
kurul
##ümüz
##ğü
##cret
yür
bırak
##ov
nok
çeş
##sam
Ancak
Or
git
##yı
Pro
kaç
hakkında
##ildi
##rak
şirket
##lerimiz
##enk
üzerine
seb
##diğini
##ıt
fa
##ünkü
İs
proj
film
##gel
bütün
On
geçir
##lus
##atı
##aştır
##onom
ın
kadın
##lamak
orta
##gan
##iyoruz
##hur
konuş
arka
terc
met
##sik
Gün
Kon
##umuz
Ben
kabul
birçok
##bar
##niv
düny
##lıyor
##tem
##nivers
mev
##landır
##iyorum
etmek
Başkanı
##üçük
merkez
##indeki
##niversit
##ılması
sonr
Bur
##rar
##akat
yılında
##ob
##çi
ancak
üç
çeşit
his
##mı
bilin
taşı
##lantı
##dim
##abilirsiniz
##ri
Beled
##mi
##orum
##lenen
##suz
ücret
##efon
mad
bilgi
##sanız
plan
##isini
##atan
##ver
##gil
##kün
dil
Bil
karş
##vur
mi
tercih
15
##laştır
##gı
müşt
kes
##dından
uygulama
başar
firma
böyle
##eceği
##fa
içerisinde
##umhur
olabilir
yaklaş
gönder
yayın
Ama
##ore
yas
dünya
kalit
araç
yüzde
program
kom
bah
can
##ge
##meler
##tif
bölüm
tah
yanı
haber
süre
oyn
##acağ
##duğ
dok
İl
kır
üy
rahat
##asına
Ev
##madan
ifade
konusunda
din
iste
##trol
sağlık
sıra
##elim
##tal
AB
edilen
yaşam
man
yakın
pol
paylaş
##ıda
##azar
geliştir
##diğiniz
yerine
piyas
kişi
Genel
##ira
##edef
dah
kurum
kı
##isine
etm
zamanda
##ıldı
Ek
##undan
tamam
dem
vardır
##ize
telefon
kısa
##cek
##sin
ayr
##ladı
kız
sosyal
koy
Ne
##dav
muh
kapsam
##ınır
##gin
hiçbir
##üşt
##del
sonuç
toplum
bey
Dün
han
müm
kav
##ültür
gelir
nın
res
Cumhur
görüş
##ternet
12
##hangi
##unca
ses
As
bağlı
##mer
model
hep
##urt
San
200
üzerinden
##ılmış
oldukça
##çı
diz
Ayrıca
mümkün
##uluk
##he
##res
##oğun
Tek
##uştu
##ilere
##ılacak
pek
milyon
Bunun
##icaret
tale
##tu
##leyen
##oğu
kontrol
araştır
küçük
ardından
zar
El
##eg
mı
ziy
olay
yarat
tanı
dolay
##ünün
kaynak
##eti
Biz
##cü
sektör
hedef
teş
##sınız
##las
mas
##aha
##larıyla
ekonom
mu
başvur
##enek
incel
##ıntı
##oğraf
değerlendir
mey
##baş
##gın
##erli
fır
Mil
mark
geri
##tur
mah
iti
##meden
##imdi
##end
##istan
artık
##nek
altında
hafta
gereken
yapan
Büy
temel
hemen
ilet
##iyordu
Ara
elde
##isinin
Kan
mer
öğrenc
herhangi
teknoloj
##ilmiş
##oğlu
yöntem
##bol
kez
yaşan
size
Özel
per
##ost
satış
oran
Avrup
##obil
##oş
yen
##ök
dan
onun
##arası
çalışan
##mel
##ektr
##per
özellik
kol
tav
##lim
##tiği
sınır
yağ
yapmak
##aj
##uyu
##ecektir
em
##ban
TL
##unuyor
##mıştı
Dev
##asını
tük
ilişk
şu
##iyi
##cadel
##tım
gerekir
##rim
koş
açıklama
temiz
tedav
hızlı
takip
30
deney
##taj
##alan
##eğin
##kinci
dir
olup
biç
##umlu
vur
##tin
##ayda
bor
Büyük
##dum
Yap
##ikay
yüksel
anlaş
uç
ait
##sunuz
ber
##aln
##asının
arkadaş
uzak
Bakan
##dak
geniş
##imde
##masının
Başkan
##ate
for
çözüm
öğret
18
Par
bar
##erj
mik
değildir
geçen
##aliyet
##alnız
yaptığı
renk
##fes
öde
yine
ziyaret
##tiğini
kaldır
sanat
genç
nedeniyle
ABD
dak
Ser
##mem
hük
devlet
bunu
##isyon
yaşa
isim
##meniz
tur
birbir
##orex
##etim
ihtiyaç
yardımcı
yorum
yeniden
konusu
hesap
tat
##lo
kullanıcı
özellikle
##ari
maç
Es
kil
indir
anla
##ba
serv
sak
Ön
onu
günü
##eceğini
Müdür
##ılım
##lemek
##ekli
eski
ila
görül
##rat
##ebilirsiniz
ma
değiştir
benim
savaş
diy
##cağı
sürec
değişik
id
mem
Yeni
Daha
ağır
##ye
sayesinde
etkin
herk
yapı
com
soru
Yıl
##tiv
##ilerini
itibar
siyas
##ışma
alış
mücadel
kesin
##inize
tekrar
Tar
##ince
##sil
##abı
Üniversit
##isk
##leriyle
vatan
##diğimiz
##ime
dep
11
olmayan
##cut
sab
ye
müz
bunun
gaz
100
uğ
nokta
engel
##elerini
biraz
##kın
ün
ölç
veren
##kek
##ola
fayda
##AR
##otoğraf
##ali
Yar
faaliyet
##elere
##ent
kitap
##ihaz
##yle
##üb
sey
##alt
almak
##esinden
##asındaki
gerekli
Eğer
yönelik
##lardır
##lanır
inan
cev
ner
internet
##dın
##meyi
##elen
çağ
##pan
çiz
uzman
##duk
olabil
müşter
Yan
ortam
bugün
oluyor
##ınıf
##AN
##alar
boyunca
##ch
kültür
##aliz
ekip
##isel
İz
Has
dayan
çeşitli
##düğ
bakım
başladı
##elerde
oda
##ust
Yön
çıkan
##ER
##ünden
amaç
adım
Çünkü
At
Merkez
nedenle
##landı
bildir
ticaret
dahil
##ant
boz
##dığınız
Top
Mah
zarar
amacı
dair
sürdür
durumda
##tor
yat
##lında
İngil
med
##ve
rek
##ısından
hale
hava
##ulan
##imizin
benzer
Eğ
##lanması
##bi
olsa
##to
##kaç
geldi
Hal
##laması
##lüğ
sar
##mir
yani
İç
ele
otur
beraber
##maları
gerçekleş
yalnız
kullanıl
Ban
##umu
mevcut
seviy
Ank
##iğ
takım
kut
rağ
öner
##arken
yarar
Ve
##ilerine
boş
##mişti
şekl
Avrupa
det
aracı
##üsü
Hay
mek
dol
talep
anlat
aşağı
ulus
##menin
##dana
##imize
des
##ukuk
dışında
olsun
ortak
teknik
ilç
dönüş
##imizi
##rans
##iliğ
##ğa
kah
##of
hüküm
ilişkin
elektr
##ülen
cez
kas
vak
Rus
##mesini
bizim
##muştur
##ku
##ıyoruz
seçim
14
adam
sok
##ısında
Der
##ift
Dr
Uz
rağmen
olacaktır
çevr
karış
üretim
fotoğraf
halinde
##yacak
25
malz
##na
##lıkla
##fer
##lanmış
İlk
Doğ
Bey
##ılıyor
##ayın
bilim
doğal
yoğun
Dünya
str
sebep
satın
##sın
##matik
Ko
##set
##esiyle
##ber
gez
şehir
##ort
burada
##lararası
sınıf
Türkiy
süreç
teh
enerj
saç
okul
24
##nin
##dığımız
dolayı
fik
##eceğiniz
##mey
edin
ayak
suç
adı
özg
Mar
ta
isteyen
ikinci
kullanım
##fet
##luluk
tık
##ışı
##masında
yolu
spor
vatandaş
##din
söyledi
Belediy
##ört
##ula
##latfor
cihaz
##go
pazar
beklen
Amer
parça
##mesine
anda
tasarım
ask
##oh
iletişim
ail
Sağ
yemek
kapsamında
ayrı
##teş
##mat
Do
çar
türlü
##tim
web
##cağını
veril
işlet
##malıdır
16
##üf
dakika
şart
Gaz
##doğ
##üler
nit
sizin
grup
ister
##iştir
##inc
##eği
Gel
##pit
##dül
organ
##latform
tüket
##ela
cin
Ör
##mayan
##amaz
madde
##ırı
##şık
Os
Böyle
Bun
##uvar
Di
##üğ
##lek
bize
##ere
iddi
birkaç
Oy
##emin
##ocu
polit
artır
sahibi
yaklaşık
##redi
##sat
13
hangi
##edi
##br
Alman
Böl
##üme
şeh
ders
erkek
Tüm
##lış
açısından
##üle
##iyeti
gider
detay
istem
##esel
of
kullanılan
araştırma
##lığın
##dıkları
##tör
sin
saldır
av
##acı
##isay
##bilecek
Kom
##ekk
davran
##ilerinin
##layarak
yönetim
sıcak
tep
##ınızı
imz
Siz
ona
yık
bana
##meyen
sürekli
Tur
##atif
##ital
alıyor
##aten
##lüğü
yanında
Hak
kab
Ter
##dığında
##apor
inş
karşılaş
yazı
ana
İnsan
örg
kuruluş
##co
kişinin
Kay
##elidir
sağlaya
Forex
aldı
ederek
##ipar
ip
risk
halk
kayıt
Fakat
##lilik
tamamen
##elerinin
vardı
güçlü
gelecek
çünkü
##ısıyla
etkil
mekan
##aları
Eğitim
ettiği
istiyor
##uan
unut
seçenek
##deş
##lül
17
sırasında
mağ
##ınıza
edecek
arasındaki
##ern
##sak
##ılabilir
tespit
Belediye
##izm
Tem
kalan
kötü
##yar
cid
Kas
zorunda
##efer
##ipariş
Kal
50
net
alır
birey
hey
koşul
##lardı
rak
hizmeti
num
##amız
doğr
işaret
hatır
##lıdır
##ukarı
##tiğimiz
Kad
yetk
belli
adet
##yanın
##yada
##inizin
servis
verilen
nak
lis
##lanma
##ite
##meleri
giy
kalı
güncel
tart
##lığını
teslim
köy
Dem
kayb
oku
baz
bilgiler
deneyim
örnek
düşük
tanım
oyuncu
kendini
belg
##isayar
haline
ayrıca
##luğ
Ankara
kişiler
tarihi
vide
yürüt
##inci
yüzden
dolar
temsil
Kor
Bay
izin
toplam
edilir
başarılı
Çok
nokt
Osman
##olojik
##ydı
sözleş
sistemi
yapılacak
derece
##amp
##müş
##vet
platform
sez
st
dö
hisse
ekonomik
pat
##iden
dal
Haz
##neğin
##ılma
##lamaya
##yo
edilm
Uy
fin
##şehir
sağlar
##şam
pan
görüntü
hukuk
##rub
Öğ
##otor
bes
Ah
##hale
adına
yaban
##ormal
akıl
canlı
don
başarı
hastalık
##liğini
kaybet
şeklinde
Hav
##osu
ruh
##atej
beb
##ınav
##iliği
##veriş
##onu
##sta
gerekiyor
Su
Ma
##rem
yav
AK
In
##ceğ
aktar
##ow
##iri
##tay
##ga
Devlet
giriş
geçmiş
toplantı
şimdi
günlük
Har
gar
##elikle
##nun
konuda
Erdoğ
itibaren
Gör
##muz
00
##üst
geliyor
Ey
##lin
Ada
yaptı
Özellikle
##elerine
##emizde
##ıyla
oluşan
yurt
si
tip
##lıklı
##ast
##lerce
banka
iler
ah
Söz
Üniversitesi
yum
Tekn
vermek
ey
##erson
sayf
##yum
öyle
list
demek
##etik
##düğü
##ayet
dile
##yonel
dar
##fen
men
##larınızı
verdi
mez
meydana
##ıyorum
herkes
##ınca
sebeb
##luğu
ölüm
##iydi
Ok
edi
##ilerek
Geç
yaptığ
çift
insanlar
##rafik
##lif
##üştür
çocu
bulunmaktadır
gazet
ac
##alle
##asından
karak
miktar
##fesyonel
##yi
Em
çıktı
##ucu
##engin
bula
##forman
Kap
##ii
bay
Aynı
cevap
kala
alma
##elerinde
##diğinde
kuş
sonunda
##blem
cam
ku
##su
##üncü
Sav
op
##oloji
##ünüz
dünyanın
araya
bağlantı
Hat
hayvan
hatta
##emez
##anlı
kaliteli
##onun
##laka
##HP
##diler
ekran
içeri
Cumhurbaş
amacıyla
##liyor
eser
##bak
Han
belirlen
katkı
ilan
sorum
giz
2020
##sine
kork
##onik
##lulu
sunu
sonucu
##line
İzmir
##dıktan
ciddi
##diğim
aday
##lamaz
dos
##caktır
ann
yerde
##cılık
gec
##rik
##gar
yaptır
##be
it
içerik
poz
##eliğ
hikay
##alık
##dek
düşünc
malzem
insanların
##dız
sağla
##izyon
konuştu
##yas
aslında
ücretsiz
test
bab
um
Sen
dört
##edik
Türkiyenin
##ekkür
düzey
ham
##adan
##etin
Bit
soğ
beni
nes
Meh
makin
##dikleri
eksik
deniz
kamu
am
sol
##imleri
sig
köp
verir
başvuru
etkili
yabancı
yapma
güvenlik
merak
problem
kart
isten
199
performan
etme
Yani
aldığı
Mer
kelim
sipariş
tarz
rapor
kişisel
##ıma
##utbol
nerede
Ger
hastan
yana
açı
dağı
diş
##lerdir
durumu
##can
##lığa
##larca
kapat
key
stratej
Ali
durumunda
Hem
analiz
2021
Tab
altına
stan
boyut
yeterli
varsa
tec
yazar
düşünüyor
bulunuyor
Alt
##mızı
yanlış
Çocuk
hala
bağım
##tep
dönemde
##lis
deste
yıllık
##ele
##imin
##ıza
Yaş
##ıldığı
##cılar
Ulus
##dük
##eksiyon
yandan
sonrası
##ıyordu
yere
##anıyor
##imli
Yük
başına
##izik
kir
İngiliz
bulunduğu
##sef
##lasyon
tarihinde
koru
yalnızca
##ni
000
rol
##lev
Aç
ilaç
derin
Ro
sahiptir
##AT
##asyonu
yansı
##ült
fakat
değişiklik
##miyor
##ümü
##ider
Türkiyede
video
##teki
##ısını
##ilendir
##ımıza
Ap
mesaj
yoktur
cil
bilgisayar
eşya
##masından
parç
zengin
verdiği
milyar
Ab
##irüs
mis
##tıyor
savun
çer
pak
edilmesi
ro
millet
gerekmektedir
kapı
##ET
Man
ora
Belediyesi
üniversit
##taş
örgüt
kural
##çev
##afa
##ser
##yıl
##uç
Ver
##fak
##eşil
emek
Yaz
##lım
kent
##iyon
olmaz
##one
##üven
beş
Bar
##üman
Mes
genellikle
##layın
form
gece
özgür
Tan
başlayan
uygulan
artış
ülke
##EN
beyaz
teşekkür
Tr
kredi
yapabil
21
##ke
Erdoğan
alışveriş
ödeme
##imler
ileri
Anad
Şub
##enüz
##dığım
##gen
Kr
##lenme
buna
tedavi
##lığına
##evi
gerçekten
sayıda
Sur
vaz
içine
alanında
sizi
ayır
yaşayan
arama
memnun
yapılır
sağlıklı
adres
profesyonel
##inç
##jital
kardeş
part
sayısı
olun
iade
puan
onay
motor
Ch
doktor
##ratik
Bugün
Deniz
fikir
Kullan
##ati
##seniz
sonuc
kısm
##arlar
person
mo
##kem
yaptık
oper
uğr
edildi
Kür
sizlere
alınan
Mehmet
sağlamak
sonrasında
40
hoş
##inizde
acı
Şimdi
ürünler
şid
Muh
##ediye
re
##üyle
yavaş
##ısına
##str
keş
çerçev
sağlayan
toprak
İşte
Ol
Af
Tak
şah
Orta
##ümüzde
##eder
hayal
marka
sınav
dost
ıs
##tey
fırsat
ted
##ind
Allah
duyur
beri
götür
normal
karakter
ürünleri
kurt
##vantaj
medya
Ad
##enc
kaf
şeyi
Milli
anlay
##ırken
##eyin
halde
kavram
dek
mutlaka
yukarı
##ılabil
Ürün
olmadığını
başında
##yen
başlan
olmaya
önünde
tesis
uyar
du
##ğın
taşıma
odak
##ag
istediğiniz
düzenlen
söyley
önceki
Burada
mobil
##lıklar
kür
öldür
silah
elektrik
alanda
esn
mücadele
müşteri
çat
uluslararası
başkan
min
resmi
derec
vurgu
oto
22
##lıkları
olmadığı
belki
imkan
ceza
Cumhuriyet
##alım
##manı
##ıştır
##yse
##adaki
Kır
##dart
nun
fak
yılı
zaten
##elerden
##yız
Kurulu
enerji
##ücu
Go
bulundu
biçimde
##ınızda
avantaj
arz
alım
duygu
diyor
##air
şeyler
##umsuz
basit
kullanarak
müzik
ödül
##AL
çevir
öğretmen
mutlu
yapıyor
güc
Amerik
şark
tehlik
Anadolu
hisset
görmek
##bah
Aş
##altı
çoğu
Kend
po
Kadın
pop
bizi
reklam
Değ
etkinlik
Ot
##uvvet
##rek
düzenlenen
##ilebilir
piyasa
##lerinizi
günde
değerli
##rüb
adlı
kok
yapılması
Spor
basın
Kasım
ayında
ab
##ücü
gerektiğini
##ener
Sam
##alış
na
çarp
polis
grub
Sit
##vek
eylem
konum
Örneğin
Mart
##ete
##50
##tığını
sunuyor
##hal
doldur
arada
Must
##edeki
##ij
izley
nde
aray
kalk
eg
##ayi
hafif
kendisine
##taki
ark
sıkıntı
sp
##ons
Yak
##ladığı
teklif
siyasi
##egor
girişim
akşam
Bor
belirli
Fran
Sağlık
Parti
##malar
gül
Et
##ılmaz
Bazı
Sosyal
##ud
ettik
##emi
yaparak
henüz
Büyükşehir
##anız
##ağa
##uar
##rac
Fir
Diğer
##ton
mar
onları
##istik
Yun
##geç
kanal
##aşı
ihtiyac
##lanıyor
müda
önemlidir
2018
##ES
Sev
##iir
##sen
post
yaşanan
sunul
##mayın
##mıyor
Genç
sezon
##üştü
kira
neler
##ult
İslam
##AD
Kı
##siye
23
ateş
##gör
kop
Kat
##etr
##larımızın
dam
altın
##ilecek
eğlen
##ana
oğ
Ağ
terör
##panya
bl
edebil
Ülk
##uzey
eleştir
içi
eğer
ölçü
dolu
##dikten
psik
##eci
Mustafa
##par
##IN
kendine
işç
şar
kul
##acağı
##emal
Kara
##abet
uc
##eyle
##bo
Millet
Ken
tecrüb
##ımızda
devr
Bakanlığı
Çin
öne
eğit
Böylece
##cısı
ayar
##lenmesi
azal
fon
kuru
asker
merkezi
İk
##imizde
Güven
etmiş
olumsuz
##ımda
##coin
ide
hüc
hesab
sem
ilgi
görüyor
ifad
katılım
##lığıyla
arttır
Bah
Pol
işlemi
2019
yapar
##gesi
ünlü
aile
yaygın
edebilirsiniz
##larım
sırada
fizik
##AK
##ımızı
şans
yanıt
##sul
rahatsız
önüne
##İN
Hizmet
##mür
gösteren
zorun
sürede
Çalış
Kız
alarak
etmektedir
korun
kategor
sefer
mük
##zet
##talya
##atur
Kam
CHP
##AS
tahmin
futbol
##muştu
izle
day
anlamına
##acaktır
Sar
şiddet
işi
##iran
olmuş
##lığının
May
başta
##sim
trans
işe
##ilmiştir
##say
nedir
şüp
davranış
##deniz
paket
finans
beğ
##orm
yerleş
üz
##iliyor
##sini
##atör
##larımızı
##layıcı
faiz
gerektir
Yardım
##asıyla
Eylül
sayılı
##duğunu
Yönet
##ras
tarif
güvenli
Bul
yerleştir
##fi
dışı
Sal
yor
##idi
Sür
enf
##ciler
Mec
kadro
kararı
sağlan
##medi
insanın
lira
onların
yazılı
kargo
toplumsal
##abilecek
müşteriler
yararlan
##gisi
iddia
gören
bal
##liğin
sonraki
Kiş
cep
alanı
lider
baskı
Bakanı
standart
##liğe
##rin
otel
Yüksek
Osmanlı
##ogle
##anlar
karşısında
Nasıl
takdir
ata
sayı
emin
ışık
fiyatları
güneş
ikti
Peki
anlamda
doğrudan
defa
##neği
##cil
fil
olursa
##esindeki
Bas
##kenin
##aza
##azım
##ısının
##ebilecek
##içek
##era
##liğinde
performans
##ütfen
idar
Cumhurbaşkanı
danış
##kadem
##tiler
politik
kalma
Bunu
beden
Tel
şaş
##emiş
##ulması
Buna
adr
çalışmaları
##tedir
vücu
opsiyon
personel
piş
Demir
bebek
Part
##orta
##iber
modern
dünyada
süt
##laşma
##lüyor
Kim
Şirket
sabah
yayım
soy
##EL
yüzyıl
##esiz
tutar
not
##adde
başlat
yazılım
kazandır
çocuğ
Bin
Mal
alına
##cının
alacak
##uzur
demok
##omobil
Kö
başlar
##bette
Proj
##evizyon
zam
kıy
##ia
##eceğiz
##eyn
##sur
##mar
bilgileri
Kit
##inal
tr
veriyor
##ılarak
##iyah
yaşama
aydın
Can
bilinen
##isan
olanak
pas
döneminde
duvar
öğrenciler
ısı
yeri
ren
##ülü
olmuştur
heyec
kişilerin
Mak
##ou
##leriniz
##maktan
tartış
##asa
konuşma
500
##hend
ediyoruz
Sonra
Rusya
döv
##ımızın
hayata
bağımsız
##urda
sek
##ediy
##aşa
##undaki
Üst
Yönetim
##ene
27
60
dışarı
dijital
yarış
Sat
yolc
##layıp
kims
sap
bat
imza
ortalama
güvenilir
lez
yerinde
198
tas
Temmuz
##ildiği
Web
gıda
madd
##ipto
##icari
Ocak
edeceğ
##enler
28
##lenir
sene
##elt
veri
özelliği
kesinlikle
nakl
2017
Ekim
eşit
vb
tavsiye
Film
##sas
##ayla
aylık
##dal
ettir
birik
arası
gide
altı
sert
saldırı
bakış
sonucunda
##liğine
##sizlik
yıllarda
Sadece
esas
kans
Aralık
düşür
vit
##ise
erken
belirten
eriş
geçerli
akıllı
##larındaki
kriz
kendisini
Prof
oranı
##lediği
kanı
yapmaya
davet
sayfa
nitelik
İyi
ortadan
##AM
sur
maliyet
Beş
Google
çap
##best
nedeni
borç
Res
##ücut
Tes
##elerinden
##isinden
##ündeki
##memiş
birisi
##lisi
taz
kayde
##atürk
##ikayet
St
bed
##ard
oyna
##elerle
meş
mon
Yine
aşı
##erin
dönüştür
bazen
aşırı
lim
kendisi
sil
tör
##mamız
etmeye
mesaf
Sor
uygula
pozisyon
##bay
##ternatif
Merkezi
yetiş
##emmel
gay
bol
yapacak
neredeyse
nüf
##leti
sorumlu
Ka
atı
Ahmet
Mark
Atatürk
büt
sitesi
taşın
kurtar
gol
##iyan
##erler
dök
ül
olmasına
Kıs
##EM
The
ihti
yatırımcı
Kültür
Kurul
##isiyle
üçüncü
online
vazgeç
sokak
olduğunuz
##ova
ekib
fiyatı
bunlar
huzur
Kemal
arac
##bur
##sinin
##meli
Br
se
ettiğ
##UR
yiy
Şu
kem
kilo
##anan
mec
yapacağ
##dro
yerel
Göz
ton
zih
sona
biçim
proje
Dur
operasyon
sine
##İR
aktif
Yüz
bundan
hayatını
yoksa
##tarı
bitir
bec
##biyat
şüph
##uğ
##ülebilir
popüler
çalışmalar
Çev
Mahalle
olmadan
içeren
##manızı
olumlu
etraf
Sistem
etkisi
kullanımı
Per
teknoloji
##dam
Sab
kuvvet
olduğuna
##cağız
Bağ
##ındır
anne
26
Cam
hakkı
##meliyat
hap
##niyet
##pr
tatil
kağı
diren
edilmiş
##ple
##muyor
##dıklarını
üzerindeki
##hat
Bank
Sanat
alıp
##iyatro
Müz
Tam
Müdürlüğü
yıldız
yapmış
yönetic
Oda
Ticaret
##gıç
politika
yem
hizmetleri
##ekim
##kar
ürünü
dahi
##tis
##alat
Açık
##ham
unsur
asla
the
##cisi
nda
beğen
fel
aşama
bunların
##iyer
İngilter
şöyle
düğ
Mayıs
##iği
işlemleri
##erseniz
##estiv
tren
süresi
##ayıf
2022
imkanı
önlem
orada
Haziran
soğuk
##ılmıştır
##lenmiş
değişim
yapım
Haber
##sinde
##leyici
çal
kış
tabi
Gö
çıkış
seçen
karıştır
duyg
Müdürü
düzenli
almış
##rika
hac
depo
açıklamada
dosya
Lig
seyahat
##dit
detaylı
2016
Bütün
Tarih
ters
sorunu
şiir
organiz
##leşme
##ina
##erken
gelenek
##mam
birden
kurtul
##ona
pla
Oyun
İki
##lardaki
Gir
Dış
keyif
##çiler
Gerçek
Hastan
##ısız
##ledi
##biliyor
kapas
edebilir
##anlık
öden
Araştır
süreci
##ivil
ic
##lanmıştır
günlerde
otomatik
inşa
yıldır
ir
Nisan
uçak
ediyorum
istiyorum
yola
temin
firmamız
rad
çab
şikayet
doğrult
hakim
belirtilen
köş
##hendis
geçiş
##isiniz
##üny
yı
##ilmektedir
##ğında
Türkçe
Say
olmalı
end
##masıyla
alternatif
bunları
##üstü
birim
olmaktadır
Uzun
##mur
##ED
Yunan
##uklu
buluş
otomobil
##ıklı
kullanılır
onlara
##ork
olduğundan
kaldı
##mayacak
##ıklık
##irken
lisans
işte
##ımın
Gül
söylem
##urken
yetiştir
##racat
##ampiyon
kimse
mim
Gök
##raman
yasal
aya
##ohbet
Dav
evde
Tay
çoğ
mükemmel
olmas
Yer
belirtti
Met
##lal
29
##usunu
çıkıyor
doğum
kullandı
ticari
##madı
##çak
Dan
##üper
##emey
##ılış
##lerimizi
yada
##EK
uyan
yürüy
##cilik
##ğan
##İL
##mesinin
##emizin
giden
##amı
sağlıyor
##düm
##err
roman
##irler
ayrıntı
##vekili
31
##tak
Dolay
Halk
##liliğ
Uluslararası
park
çeken
##yası
sermay
Seç
sahn
parçası
Fiyat
olduğumuz
##süz
Se
Benim
ödem
##ian
çoğun
şif
##yap
ülkenin
Frans
##retim
##ştık
##ınızın
numar
söylüyor
kod
Hiç
doğrultusunda
daki
zayıf
Eş
yerini
özen
##tion
kısmı
##liğinin
ekley
özellikleri
konut
##ğust
cilt
##ses
durumlarda
gelişim
Doğu
Taş
peş
ez
almaktadır
kapalı
etmesi
ince
kırmızı
benz
Sh
Hol
yasak
eve
askeri
yaparken
Bal
birinci
vücut
##alim
##tuk
##net
öt
##AY
yönlendir
##nak
tır
balık
çalışıyor
Ham
##ersiz
Müs
Yet
görsel
işlev
##larımıza
90
##lendi
Onun
yeşil
forex
Önc
müdahale
Program
##ata
serbest
ten
ulaşabilirsiniz
farkında
Bitcoin
İnternet
##ilim
kitab
yılda
yapabilirsiniz
Ber
dey
giderek
red
197
##are
kazanç
kalp
Re
toplu
Eski
##gr
Val
Terc
çiçek
olası
Birliği
Fat
##bilmek
ap
büny
Evet
gözlem
katıl
Şubat
##aka
getiren
yeter
olmasını
iptal
##uro
Sp
Kah
anlayış
##diklerini
Aydın
##ator
kolayca
##itik
##akar
Güney
Var
##usal
çay
öngör
Lis
##işleri
Kurum
tedbir
##mada
gördüğ
desteği
Yol
alabilirsiniz
yi
Sel
##sını
##lamış
TV
onlar
##bin
İh
becer
kuma
bahse
kişilik
lazım
hus
##ultan
bö
##OS
noktada
##dun
Başbak
bilinç
hızla
bilgilendir
##gaz
işbir
Mas
yılın
rast
Haf
ucuz
dağ
##cusu
aşk
Öğren
aracılığıyla
azalt
##iyorlar
oyunu
Bizim
##hi
isimli
##cağına
Fa
tuz
##encer
##emektedir
Küçük
Artık
Az
veriler
##LI
önceden
Samsun
istek
bulunma
35
suyu
Dön
Amerika
##emen
##eceğine
##gal
çaba
değeri
kripto
ihtiyacı
lezzet
cinsel
##son
göç
Mod
Düz
ölçüde
faktör
##ısır
##oyu
vitam
def
resim
hayır
prot
bulundur
düzenlem
##ink
gönül
vakit
##mediği
ağaç
ameliyat
bitk
kapasit
##ron
yapıldı
##sit
##zu
bulunur
##lasik
şarkı
sorumluluk
80
posta
Almanya
şiş
bi
uğraş
hassas
fatur
dolaş
Mur
içindeki
2015
Aslında
Kaz
Fransız
ins
yaşında
Te
sayede
aşağıdaki
siyah
otob
gündem
##gulama
##jans
yönetimi
Dolayısıyla
meslek
kullanmak
##ze
incelem
##teyiz
##biliriz
kum
##nam
çocuklar
##ulur
##uta
##ray
kök
görülen
televizyon
tez
sim
gücü
iktidar
Vak
Hatta
baba
ces
lütfen
kişiye
Fak
herkesin
##tansiy
##adi
karşılı
İran
##lüman
varlık
elektronik
binlerce
mat
sağlam
##lığında
Teknik
öncesi
Suriye
sunan
koruma
dizi
##duğumuz
##med
etkilen
küresel
ışı
asıl
##eceğim
Serv
##güne
harika
##tayız
Den
yasa
sıf
hükümet
edip
##va
üye
çeki
Alan
endiş
öğrenci
devrim
zorunlu
##liliği
70
fi
fab
##ğustos
yaşındaki
istiyorsanız
programı
##ros
yetkil
##İK
geçti
##ord
vad
alg
tehdit
##jen
##tıcı
zamanlarda
öy
##dat
Bunlar
kurumsal
HD
takdirde
del
uygulaması
söylen
Fener
Müşt
Hep
Sah
kapan
gem
Zaman
gösterir
atan
##ahim
durdur
##gili
görünüm
gelmiş
tit
felsef
biridir
tatlı
##ısıt
kus
##mos
##uc
##mamış
açıkladı
##OR
zev
kalın
saf
##anti
##abz
ef
Pazar
##luluğu
Bununla
Batı
##anak
Kol
Antalya
uyum
karşılık
civ
##layacak
##liler
##iciler
##avi
yarı
ilgilen
ima
Köy
hata
##eytin
rakam
kanıt
giren
tarım
##ation
Altın
dünyaya
belirterek
İngilizce
##landığı
hurda
senin
Yatır
çerçevesinde
istih
bağış
##ileştir
##luluğ
ni
sohbet
heyecan
almaya
potansiy
sanatçı
Bat
##ON
transfer
kıl
ikili
ürünlerin
milli
Üç
kulak
oldukları
##har
Üy
##rail
suy
insanları
##lacak
modelleri
Gazet
yüzey
ediliyor
yapılmış
ağrı
##ger
##iter
##anda
Fil
##makla
değildi
ade
Bilg
mus
##meni
Sin
Op
Kürt
##uldu
kaydet
##oca
##estor
kahv
böylece
düşman
aktiv
##uyucu
kanun
büyüm
içeriğ
dolayısıyla
ülkede
##unuzu
gizli
196
45
sivil
##arında
##ağın
kaçın
diyerek
Le
donan
sabit
inşaat
##onav
##artesi
hücr
deng
##afir
##all
##ulmuş
tartışma
yumuş
açıdan
bahç
##CI
est
yoluyla
##vik
##usuna
##eğe
vermektedir
site
##sına
harca
taşıyan
İkinci
##uva
kısıt
üstün
##20
fiziksel
##dığına
##kırı
katıldı
döviz
##uyordu
##AŞ
yıllar
##sör
##eğini
##memiz
##iyim
boğ
müdür
##tel
Hayat
eklen
tıp
etki
##lemeye
Düş
kampanya
projesi
danışman
yapabilir
besin
##ümüzdeki
##lanarak
##ılıç
duyar
2014
TÜ
bozuk
adını
tane
gur
itir
boya
şaşır
Bursa
be
vade
dikkate
anah
olmalıdır
ayı
ihracat
başlıyor
kaçır
benzeri
tanın
açıkla
sakin
çalıştır
iP
siyaset
##amik
kayıp
mesel
bür
bilimsel
Şehir
ederken
biliyor
çocukların
Şah
ordu
salon
ref
##tanın
edilebilir
Fenerbah
parti
sigorta
kesim
##tez
bakımından
Diy
##ovid
şim
buz
ilçesinde
demir
##lerdi
gösteriyor
güçlendir
cüm
la
hasar
36
Hasta
teor
deki
##ığ
ettiğini
sitemiz
Okul
##ube
İm
yenilik
##spor
Mac
kendilerini
aşa
##yüz
eğitimi
Pan
dokun
Mev
##usunun
Sır
yetenek
birleştir
##urta
##gah
##kır
adlandır
##int
pratik
##ezer
##tepe
olacağını
bahset
saygı
şeker
##omet
kurulan
araba
İşlem
gelin
##sında
bağır
Beşik
büyü
##yer
Müslüman
Çelik
Derneği
##ST
Ağustos
çalışır
Cen
##her
ideal
Mic
şık
üyesi
bilir
Yatırım
Un
##ukat
##lanacak
yoktu
beklent
##ock
şeyin
birinin
işler
yaşaya
hazırlanan
##oya
##uru
ilişki
##emesi
toz
##cağınız
filmi
bölgede
işçi
New
metre
alınması
##onya
##lanabilir
sıv
##ond
##car
##bu
virüs
kendilerine
mümkündür
Koca
##hone
##edim
##iklet
AKP
Sultan
##imizden
##larınızın
Arap
##bon
yatak
kalır
maddi
sebebi
Kuzey
bölgesinde
vermiş
Dok
genelinde
desteğ
ilişkiler
olanlar
arab
tören
birbirinden
kartı
Sa
##İM
km
yakala
##ılıp
kültürel
##omo
çevre
##dukları
verecek
##ılmasına
Am
##işi
Sayın
Fransa
##malısınız
yaşadığı
Park
öncelikle
komp
##yaya
akl
demektir
##ebek
yaşlı
amb
Elektr
kumaş
yaklaşım
Galat
gr
malzeme
İsrail
##ruf
uzat
sistemleri
##KK
##ima
işin
##ılmaktadır
##mail
karma
##tığımız
akadem
denetim
Hava
##arım
##mit
##ner
bina
##acağız
etik
vergi
cen
dakik
yapısı
maden
düşüş
##ileş
anlama
##masyon
Yardımcısı
kara
Beşiktaş
sahib
edilmektedir
eb
görünüyor
çalışması
Mut
##mesiyle
geldiği
##lıkta
barındır
Bab
okuy
##lerimizin
mahk
##ıldığında
##ww
İlçe
##edek
US
kaynağı
Rec
getirdi
Galatasar
##likleri
sebebiyle
##acağını
##emli
##yım
verilm
##tuğ
edebiyat
İngiltere
##ht
ib
Amerikan
##pt
sorunun
göl
##ane
sarı
Gür
mezun
kolaylaştır
##ümüş
türü
serg
##ly
Birleş
##rop
evren
geçer
yenil
Jap
küt
Kıbr
verildi
Vi
sana
söyleyen
fer
www
##ess
süs
##stik
and
gal
##oda
ulusal
##EO
##izi
Savaş
##isyen
##mesinde
Fakült
##landa
süren
köpek
##manıza
birini
bölge
Ya
300
Ün
hepsi
yerli
yöntemi
cm
##eral
sanki
##menizi
nefes
kurulu
##içi
korku
borsa
ifadelerini
##his
şef
Kıbrıs
##ılmasını
birer
nef
Trabz
##ire
tepki
ortamda
ism
Güneş
gerçekleştirilen
yüküm
##rade
##yasal
##ıf
##oter
##ğını
bölümü
istedik
##kel
##ülmesi
ağz
lar
dis
şirketi
Dir
##duğunuz
hır
##iyiz
sonuna
Apple
Güzel
##düz
to
Kul
##parator
##bileceğiniz
istik
##maması
##gre
Fark
yayınlanan
teşvik
dönüşüm
ulaştır
mevcuttur
pişir
Bölg
Co
Çağ
birbirine
kadınlar
##ıb
ofis
modeli
##droid
Herk
muhtem
Fin
Sonuç
tabii
##aca
nesn
başlangıç
##uzu
##eliği
ederim
##udi
Yas
##İT
kullanılabilir
sorunları
Bundan
Şeh
##ows
hakları
##etrol
##sızın
##daşı
umut
yakından
Cez
##nın
##ilmez
renkli
Kab
##mekten
anti
buraya
##uyoruz
##melidir
bekliyor
gerektiği
gelişmeler
##sem
tablo
hediye
##obot
ürünün
eğlenc
zek
Kendi
##maktır
seviye
altyap
tanış
organizasyon
##wit
##DE
##eceğimiz
Dünyanın
##rum
##leyerek
dava
##hane
sağlayacak
zinc
hayatı
##onavirüs
seçenekleri
elbette
Tah
iyice
##ong
Neden
duruş
Yok
ır
bez
garant
incelen
düşünce
kağıt
##dığından
Yah
Belki
##rü
##AP
yerden
görür
Araştırma
biy
32
öğretim
seyir
reh
Yayın
##usuz
mekt
##lerken
artan
vadeli
birleş
kitabı
otobüs
kısım
geleneksel
kıya
firması
alk
paylaşım
istediği
Yapılan
günümüz
Bayram
##cık
##liyoruz
Ekonom
Mus
ep
ekipleri
Sey
yüzünden
##dılar
halı
##eton
2013
aykırı
##latı
##za
kadınların
üstüne
##olog
zevk
belediye
Yılmaz
kullanan
soruştur
Öl
ant
kayded
grafik
düzelt
ayn
tanıt
bedel
düşünüyorum
##başı
dekor
katılan
##ksiyon
sınırlı
##lanmaktadır
kadının
tasarruf
taleb
##LAR
##mede
No
restor
sinyal
süreçte
Mon
yiyecek
##pa
##düstr
başlaya
kullanabilirsiniz
yılından
karşıya
##lır
##madığı
tutuk
geçtiğimiz
temizlik
##itir
Uk
orman
harit
##illa
anında
##ment
kimlik
misafir
kullanılması
kalite
Meclis
barış
##latma
işlemler
yakalan
##liye
hissed
bileş
kanser
sunulan
adeta
##ebiliriz
çö
itibariyle
Ac
##siyet
ilginç
teb
Bilim
Öte
bireysel
yapılmaktadır
##errah
##ever
erişim
##müştür
##estival
##qu
Dair
trafik
yargı
nesil
bulmak
insanı
Pat
fazlası
Dil
kred
Başka
lik
sinir
kimi
##ese
##ektif
##ınar
günümüzde
Tasar
gitti
Wind
##day
olduğunda
Murat
##ansız
konfor
esnasında
üretimi
##sızlık
##diğine
Nur
##astik
Of
##amet
seni
yaratıcı
çatı
Piyas
Galatasaray
kamera
finansal
##lukla
verme
amaçlı
buradan
yapımı
##10
Fatih
miktarda
gelişmiş
bütç
sürecinde
terk
ufak
klasik
konak
Car
çekici
##ilerden
##iyorsunuz
bulabilirsiniz
##vel
Fenerbahçe
##lerim
##dağ
indirim
maruz
sektöründe
uyumlu
Irak
Sanayi
verilir
##azi
gök
##dışı
zamanı
Birçok
##larınıza
üstünde
uyarı
Ner
Ukray
Sig
##liyet
demokras
Kitap
görevi
iyileştir
takv
kullanma
tepk
dayanıklı
Tat
suret
anahtar
Str
ulaşım
ismi
değin
Men
yükselt
gür
Hük
kusur
verimli
tiyatro
##ullah
sonuçlar
##iya
Android
uçuş
Güvenlik
okuma
alb
ler
##ikat
##üzgar
Mobil
girdi
düzeyde
sıkı
##ersin
mahkem
##ho
##rens
oranında
##cağım
##zersiz
Kil
##ebilmek
##ck
üretic
Bankası
Oysa
isterseniz
##ilerde
yalan
Gar
##ezerv
görünt
Li
Tercüme
uyku
##ry
vermeye
duruma
şer
##gü
edilmiştir
##teşem
##sey
Gerek
dip
metin
##eceksiniz
kalmış
endek
karşılaştır
##lunun
sunar
diyen
##ahmet
açılış
##lor
kli
dayalı
Med
Ann
Kılıç
##anta
salg
##book
Ed
Recep
sevk
ayakk
Kanun
okur
##ırlar
##ırım
tra
yolcu
bahis
iken
##düğünü
bugüne
##IR
##yip
üniversite
parlak
sunmaktadır
af
manz
yel
##lerindeki
##İZ
alıcı
yumurta
kaps
önde
gereği
sorunlar
dönemi
bekle
pil
Kullanıcı
alındı
##isin
verim
##melerini
##etler
dedim
çizg
##enizi
bünyesinde
mül
kavuş
rakip
yara
koltuk
izlen
Mahkem
Mahallesi
tamir
kaş
dalg
Yen
##insel
##arik
fonksiyon
kamp
potansiyel
##öğ
ülkemizde
Çar
kalıcı
usta
tok
ekibi
getirmek
alanlarda
niyet
##sının
açılan
metal
yitir
##laşık
2012
##ijinal
sertif
olacağı
##lav
mahalle
bakan
zorluk
dikkatli
##ancı
So
Dik
olabilirsiniz
##kale
ücreti
Windows
edilecek
bilgiye
Ge
kazanmak
sessiz
Yeşil
##lakalı
beyan
mevzu
göstermektedir
düşünül
Arka
alışkan
Bek
##lerimize
coğraf
Hüs
Tabii
##amaya
kıyafet
nüfus
##tt
Net
enflasyon
##etleri
idi
sanayi
derecede
hastalığı
katı
mac
haft
deprem
##üya
yaptıkları
yaralan
gelip
üretilen
husus
ilçe
sebeple
gelmektedir
hayatta
yenilen
sonuçları
ilave
##tılar
sürece
##rama
##uluğ
sorgu
donanım
olmayacak
tasarımı
Akdeniz
yürüyüş
##kil
dağıt
tedavisi
De
kahraman
Kişisel
bon
denet
İnş
çağr
temas
sıfır
olağan
##do
Tayyip
##meyecek
garanti
komisyon
Cumhurbaşkan
Ex
##urum
arıza
demiş
##eyim
olduklarını
Po
servisi
Pek
##satı
çalışmak
Bölüm
##bilen
belirlenen
pazarlama
mutfak
Yukarı
kimyasal
süredir
gecik
##lemesi
Kanunun
zir
44
##fil
kalem
##okul
çocuğun
alanları
ha
Karşı
ob
edildiği
sizler
iPhone
Hukuk
Tanrı
##üye
hazırlık
II
##müyor
Hasan
bank
vücud
##uf
rekabet
vererek
##ektörü
köt
lig
yönel
çağır
##uyla
##bileceği
##idip
##unuzun
şub
##ilmesini
Süper
br
insanlara
faydalan
sız
Tıp
##veren
##LER
sö
mühendis
Tarım
##ert
gerekç
yeme
lok
başlayacak
gündeme
##yken
Sarı
##kon
Mey
##çuk
##ps
##yol
##enkul
##utan
Milletvekili
nakliyat
Başbakan
Ödül
Üstelik
öncesinde
güne
##diye
yangın
##alesef
Günümüzde
yedek
harekete
##nik
hesabı
Be
rej
başk
günün
faydalı
33
Sü
##lamayı
Cem
inc
##ıldığını
tor
genelde
göm
Boğ
yanına
acil
##our
toplumun
dini
muhaf
Çalışma
göğ
hukuki
bom
Feder
tad
akış
karşımıza
Baz
##ell
Mi
mimar
For
##ferans
##melerin
Fer
##emize
elb
noktası
memur
kıymet
sinema
sıvı
azından
istiyoruz
elinde
olmayı
##ysa
ihtimal
kapsamlı
aşağıda
##ary
tanesi
ağr
Boz
Uygulama
2011
Zaten
##dev
görme
##uyorum
##fı
gösterdi
Uzman
gördük
Bunların
Beyaz
alınır
##köy
Ücret
mantık
öncelik
##ahh
temsilc
Fır
geçici
çekti
inanç
##ilip
turizm
Mısır
Aşağı
verici
##embe
port
sağlığı
##leğ
İtal
##unç
hali
Hakk
pah
taban
sos
##TC
vs
##rom
tutul
400
Bahç
##ity
Avust
##mut
kuzey
##UL
halkın
##ack
eşi
beslenme
Oğ
korumak
##diniz
kıv
ış
evden
PKK
##altına
günden
bilm
bask
fen
yerlerde
çalışmaya
işleri
konuk
mağaz
devletin
İçin
inanıyor
Öyle
##ai
düştü
##üyada
İsv
##oft
keşf
##iyel
##demi
yönünde
maaş
Partisi
üyeleri
Öncelikle
iklim
##layabilirsiniz
yetkili
ülkeler
savunma
kaybol
ulaşmak
##tılan
boyu
şehr
tüketim
Nak
okun
öğrencilerin
yapıldığı
ondan
kere
kup
ört
usul
düşen
Doğru
yarım
grubu
##danın
edici
Öğret
çök
sa
li
##ordin
##leyin
##ori
kilit
##teri
konser
mutluluk
Balık
geleceğ
hab
##tiğinde
lir
Yurt
65
Yıldız
##ılacağı
##SK
sanal
##liy
##ürken
memnuniyet
kariyer
Toplum
diyet
çıkart
##log
gidip
2010
##eyecek
bağlam
uğra
çey
kullanabil
##ebiliyor
kullandığı
dür
uygulanan
hit
Kart
##şap
Erz
kamer
İbr
kenar
konuşan
Erkek
moda
sözleşme
48
zamanlar
gitmek
##İY
##stit
konularda
çıkacak
bı
belediy
kurs
Dep
##ding
başkanı
##witter
şehit
##ümr
Hüküm
yönde
##lüğe
alınarak
zeytin
##itif
kitle
zemin
olmaması
##pe
##lıktan
egzersiz
##rol
##ilmesine
hazırla
oluşturan
gerekse
Enerj
muhteşem
söylemek
keyifli
oğlu
Pak
parmak
yürür
karanlık
yağmur
##eks
##cılığı
uygulamaları
Grub
Başkanlığı
##tein
yolda
gereksin
Adana
numara
##limat
##we
34
işgal
##unuza
İstanbulda
beyin
halka
tarihli
##rag
satışa
yumuşak
yapmanız
iletişime
yapılabil
alabilir
Ankar
Ardından
yükseliş
tanıtım
##larken
yaka
##ilerle
ağız
##los
Yıldır
blog
##oj
egemen
75
##MM
Kral
##lerdeki
yör
karmaşık
tarihleri
kazanan
refer
esnaf
Çek
rahatlıkla
kıyas
babası
hapis
Geçen
panel
##bat
vaka
Komisyon
##irli
sunmak
verilmesi
kiralama
yolculuk
aralık
oranda
bazıları
Sok
alet
##afer
endüstr
hayran
anı
##üldü
bölümünde
##land
yetersiz
özgürlük
Is
##ump
##elendir
meydan
enfeksiyon
özgü
Euro
çıkma
Pas
may
rezerv
##şi
avukat
sermaye
Anay
robot
başlamış
pencer
##denin
civarında
sırt
olmaktan
araçları
katılımcı
şampiyon
##stagram
geldiğini
tedarik
kahve
##landırma
yukarıda
Mem
çıkmış
##öyl
Farklı
aldığınız
olmuştu
gerçekleşen
kafa
Cumhuriyeti
başlama
oyunc
petrol
çekir
doğa
##ıyorlar
Kısa
arasından
ayakkabı
Esk
gurur
öğrenmek
istedi
Para
mikro
estetik
evet
##alaj
mail
stat
##işehir
stok
##zi
##UN
Din
##asız
üstlen
kullanılmaktadır
Don
##ende
montaj
mens
bozul
anlatan
##imden
altını
işbirliği
istihdam
müt
Sek
kelime
yıllardır
bis
Yalnız
Banka
##les
##30
Önce
Cev
mir
adalet
mesl
İşlet
mor
sağlamaktadır
##PS
Hız
Bana
bahsed
başlı
##illi
tamamı
karşın
nö
kendinizi
##ısal
##amam
La
satım
mekaniz
Ulusal
##ral
İbrahim
aksine
seçeneği
##mamak
anlamı
şeye
aralarında
haklı
alması
piyasaya
55
##memesi
masraf
güvenliği
orijinal
##itesi
Azer
Saat
Demok
##likler
şirketin
İd
##cük
çalışmalarını
ris
##diğinden
psikolojik
kullanı
Müdürlüğ
htt
kampan
Fakültesi
kabil
##isindeki
##yaz
##haba
##lanın
##tikçe
kaybı
##okol
açıkça
istif
Hır
sisteminin
masa
oluşturmak
sunduğu
fırsatı
kalıyor
Ömer
büyüme
##iki
çevrim
süreli
##balık
topr
Emniyet
Ana
##ılmak
önümüzdeki
koc
194
Gala
ente
##emeyen
gelmesi
esk
bayram
içinden
komş
eleman
oluşur
Far
farkı
meyve
##menize
Yağ
havuz
##andar
Zira
##isiz
yarg
tavsiy
##öylelikle
ekipman
mülk
Yav
amac
örneğin
##allah
##istin
Kut
##alın
##leket
##lendirme
karbon
sergil
küç
İdar
Ordu
şarj
nem
##osk
eğlenceli
Kaymak
##AB
galib
mağdur
Gazian
Hemen
##likte
le
trend
bilet
çor
##tacak
belirtildi
##ular
anlaşma
gözden
öf
kaydetti
etmeyi
##ülük
mali
kemik
Hes
adresi
Araç
Yunanistan
##oker
oyunun
sonsuz
##indistan
öm
yazık
192
rüzgar
atık
dük
geb
2000
siyasal
makam
TB
##atematik
Siv
tali
38
sevg
Saç
##OL
yolunda
##anızı
##eyerek
ettim
çelik
herkese
##gam
##bilmektedir
##ağını
##ılabilecek
##biy
bağımlı
##ris
##cebook
yönetmen
gördü
##diven
dakikada
##eleriyle
üstü
çağrı
Mu
rehber
Kaf
Aile
hayatın
futbolcu
harf
görülür
##ilerinden
içerir
damar
##lob
içeriği
VE
Ceza
Konya
Kredi
Si
150
##ceği
kons
başken
##barı
etmiştir
##ıbbi
buldu
##IM
zamanında
bizlere
Ef
##EB
uzan
aittir
Asya
Gaziantep
oluşum
oynan
algı
Adam
yeten
Van
beklenen
olmaları
Üzer
##memek
güney
etken
mür
ömür
anlaya
işleme
##ress
bilgisi
Turizm
##eğine
Bür
##zat
keşfet
itiraz
##lığından
Kent
platformu
gözaltına
alanlar
olabilecek
##umuzu
yaptığımız
##elerek
##gul
##laştık
etmeniz
##duğum
saniye
yağı
olmanın
Grup
##tesi
Rum
##imizle
versiyon
kolaylıkla
ani
hediy
Kuş
Hangi
bekleniyor
yapması
hizmetler
##bilmesi
muay
##ükle
yaşat
##şiv
##leyecek
##var
aylarında
##ometre
Özg
mini
düşünür
odaklı
İlet
çatışma
##ayım
plana
som
olmasa
##fik
##mesinden
miktarı
mavi
çocukları
denk
suna
başı
##şten
verileri
##akk
yansıt
farklılık
Bo
Cuma
##doğu
##ko
meyv
yaprak
Hayır
##gari
görüyoruz
derg
yüzlerce
Zir
cami
ahlak
arasına
Ku
iyileş
İlç
Sı
durumun
##unma
##abiliyor
sunucu
yapılıyor
namaz
yapıyoruz
Odası
bayan
yarın
beslen
ederiz
mağaza
##atistik
aralı
diler
Karadeniz
yarışma
mevsim
##zan
bulunması
Bazen
ekmek
duygusal
##ema
sürüm
disip
Kons
TR
kullanılarak
firmalar
pozitif
Olay
##istler
##eyebilirsiniz
Kanunu
yapmayı
sigara
37
prens
##tikten
##ılmaya
kaza
Süley
etkileş
çekim
Birleşik
##lemiş
sevgi
Kaç
Pa
Koç
alana
hekim
kişilere
mm
zincir
2008
##ks
co
gazetec
gayret
Arab
blok
##tifak
şeyleri
Hazır
hatırla
sıklıkla
##yayı
siteleri
##stra
niteliğ
aklı
##acık
Kav
##elif
bitki
Başvur
##diy
Günü
Plan
baktığ
kale
Abd
katkıda
##ideri
varsay
birliği
türk
##abor
Bod
##öly
esnek
Bi
doğur
işlen
önemi
attı
lam
metrek
gidiyor
191
##tiğiniz
Diyar
Ajans
kullanıyor
Doktor
cerrah
##ker
yerler
kararlı
firmaları
##ID
imk
##masın
Paşa
netic
sembol
tipi
Con
çel
##türk
##ograf
Hüseyin
sam
sevgil
Kurt
##EC
maddesi
##rada
Organ
yedi
Telefon
MHP
##melisiniz
Akadem
antik
lek
##pat
bilgilere
evlilik
yaşıyor
onunla
Dar
çekiyor
##işk
##MA
alırken
Firmamız
değişken
zorlu
Kamu
log
195
halkı
kızı
müs
telefonu
link
Karab
yılının
makinesi
Havalim
mobilya
tutan
Gön
tap
##simum
yapın
tazmin
asit
yükümlül
##oto
Borsa
Sak
##eryal
dans
dili
vizyon
başlıklı
keyf
Elbette
Ses
##isa
darb
aşkın
edilerek
##ilmelidir
##SO
Yıldırım
Mel
vası
oynaya
Kes
##şey
Orman
##ümrük
deri
genişlet
Boy
günler
##lamaları
Soy
##out
##uman
Vatan
Çift
He
Twitter
##bı
birine
##enn
ran
toh
Jo
Sözleş
kulüb
##utma
Onu
ihlal
##müştü
sendik
AL
olamaz
kalitesi
kaydı
Gez
gözük
por
Süleyman
teknolojik
##paz
bulama
ihtiyacınız
TO
##ich
hip
gelmiştir
tıklayın
mezar
cesaret
Destek
deneyimi
çocuğu
göstermek
şehrin
hakkını
halen
Bilgi
silin
bulut
büyüy
##ibe
düzenleme
yapıp
makale
##leye
Rüyada
##otik
Temel
tamamlan
darbe
##dün
Temiz
Doğal
inceleme
Çeş
gayet
##ağının
kazandı
verg
##meyin
maçı
pahalı
Şampiyon
##örü
eklem
Art
nakliye
fabrika
numarası
##tre
##bakır
gelişen
Geçtiğimiz
##labilir
##bek
akses
şartları
Mo
ırk
buluştur
başarısız
Covid
tehlikeli
##üks
Şek
istis
Öğretmen
doku
##imini
##tın
geldiğinde
ür
delik
Gençlik
anlayışı
##tah
Tor
eğilim
##ılımı
kimsenin
numaralı
##amaş
şekli
takımı
Yal
taraftan
rüya
Azerbay
yeterince
2023
sesi
seyr
kuy
2009
yapılabilir
albüm
##yiz
Onlar
##kaya
koleksiyon
açtı
Müşter
saatleri
##dış
tarihinden
##umuzun
##larımızda
arız
##ÜN
Hindistan
DE
tarafında
##yaj
Trump
Lond
fık
##adem
getirdiği
işletme
Şim
##demir
şirketleri
İt
Toplantı
Teknoloji
plastik
geril
ambalaj
hiss
zararlı
rengi
##fat
seçimi
mektup
Mad
kaynaklı
ülkelerin
Pet
Paris
İr
anlamak
tüketic
saatlerinde
##araj
Ha
mide
idari
Diyarbakır
teslimat
market
##lerinize
Teş
##emizi
Mat
gördüğü
alakalı
ust
Madde
eşlik
cezası
BM
##eth
demokratik
çözümler
aktivit
Rek
Futbol
imkansız
Değiş
Sch
##jan
Çanak
##bey
kulüp
geride
kodu
##paşa
##ildiğini
sitesinde
altındaki
sanay
Mersin
yorgun
riski
cih
##ansiyon
Tok
Roma
Danış
gelişme
görüşmeler
Güç
doğan
gram
##liğiyle
##ihayet
##lamanın
sahne
##diğin
kazanma
ked
Düzen
tuta
Com
##raz
değerlendirme
##elin
isteyenler
bilgilerin
satıcı
Turk
##ydi
##amıyor
Çevre
Cadde
kutu
yoğ
stres
evlen
##ikal
denir
olmakla
##istiyan
Ege
haberleri
##duktan
canlandır
##ülür
belirgin
kalıp
dönemin
Online
##aborat
İletişim
olmadı
##tığında
##aci
değişen
projeler
zamanla
çıkması
çıkarı
##İS
tutum
Afrika
yoksul
birimi
yapmaktadır
ayda
fiyatlar
kendisinin
##ruk
alkol
etkileri
bulan
dinamik
buy
Tasarım
##andarma
##kusuz
dilek
##ste
açma
tarzı
tıkan
##lete
koronavirüs
ailen
##lobal
kapsamda
cumhur
##orit
##çisi
alanına
##api
##alog
arkadaşı
tüc
##tığınız
sunuyoruz
kopya
Japon
##türü
Resmi
sporcu
42
adamı
##itler
etmez
Sınav
pr
bölün
düğün
arkasında
Kulüb
##medik
çizgi
##abilmek
kilometre
yılları
kişiyi
Enerji
##aseb
kırık
##dıkça
üs
eh
39
iğ
güzellik
##amazan
##azer
Sonr
Ukrayna
kullanıcıların
kendimi
tablet
dez
vize
devreye
sel
döş
izlemek
koşulları
vir
##atın
##laştırma
Malat
You
##ug
##lant
kısmını
Mez
çıkara
bölgeye
emir
gücünü
şahıs
##imum
##ohn
AR
edeceğiz
hakkındaki
oluşturur
yapay
Facebook
uygulamalar
Taraf
çıktığı
Tabi
ayrıntılı
çapında
##ann
##mali
oyunları
konular
unutul
##mekle
Kup
belgesi
evr
uzaktan
Dağ
döndü
##laz
duyurdu
yaşamak
materyal
sorunsuz
daima
başladığı
Türkiyeye
açan
final
makine
##elle
vitamini
Hareket
had
kaşı
fatura
horm
##lamalar
ahşap
unutmayın
bulunmak
##arda
gib
noktasında
##ğına
dünyayı
eme
##ick
##LE
05
Şen
hitap
dışına
redde
##lerj
hatırlat
adıyla
sk
olmasıdır
sordu
##xy
rö
suretiyle
Mim
sürücü
Play
aldım
geçiyor
şair
konus
gelince
##HA
Dışişleri
alımı
Port
tarihsel
almıştır
manevi
ekonomi
##ülasyon
ettikleri
gösterdiği
uzay
Hiçbir
##vekil
bilen
Yaşam
getiriyor
Sez
İtalyan
araz
ikisi
##eğinin
dönemlerde
sön
yıla
bilinc
193
anlatıyor
itibarı
sektörü
ilerle
memleket
##umartesi
HDP
Lim
ayrım
bence
sever
##80
uzaklaş
##FA
yönlü
Elektrik
geriye
Ede
akr
##rip
olunca
##DA
York
tuş
AT
dola
gerekirse
getirir
##otel
karşılıklı
##ebilmektedir
kör
Mesela
protein
kahvaltı
şeyden
yapılandır
eğil
ölü
kısmında
ettiğiniz
##sansör
kalb
##halefet
sağlanması
##ulacak
##üel
##lılar
antren
##iti
Samsung
kullanıcılar
##eğinde
gelerek
99
geliştirme
icra
##des
zamanlı
##amuk
olduğunun
##acağım
topluluk
taksit
##sever
sürüyor
dalga
Sakar
##ebilen
seven
##ie
koruyucu
güz
tüy
tıpkı
##ted
ilişkileri
işletim
evin
##dy
hazırlan
doz
##ica
Sabah
ziyade
biliyoruz
sürdürülebilir
Görün
##lup
merkezinde
Ho
kurmak
İtalya
kral
sömür
etkiler
Tiyatro
##tıkları
hoc
ölçek
Cor
malzemeleri
muhab
göv
##mediğini
##malarını
saatte
##melik
muhtemelen
bacak
sürük
gezeg
ötürü
##şe
traf
##larımızla
##nan
maksimum
özgün
Mühendis
##ecik
niş
anlattı
hast
Özgür
##amızda
hayatına
Diş
satışı
Yür
##IL
olaylar
arayan
##dola
Yab
gülüm
Satış
Şey
01
sayısının
sözcük
pen
eşsiz
Sizin
zirv
##irin
Genellikle
##cilerin
filmin
Üyesi
yalı
taşıyor
Psik
omuz
söyler
John
Siyas
##ışlı
##oper
akademik
prim
Th
CO
çoğunlukla
vatandaşlar
Size
çalışıyoruz
ker
ortasında
Fi
##lon
piyasasında
##ive
yolları
belge
##adet
amaçla
set
Hastanesi
Rapor
Çık
şifr
alanlarında
arzu
Nedir
Tük
ısıt
##kun
göze
olmasının
diplo
çalışmalarına
##ılığı
olmanız
yıkama
far
değişimi
senar
İp
saati
yuvar
yetişkin
aracın
izleme
dolarlık
ettiler
Stan
şirketler
Kılıçdar
Kurumu
konuyu
mensup
USD
İsmail
Bilgisayar
düşündüğ
AN
görünür
##und
öykü
##luğun
##eyebilir
##dınız
sekiz
gerç
sevin
denem
çıkıp
uyandır
bakımı
depolama
yöntemleri
##TT
insana
##linik
protokol
##elerdir
##ağına
Şahin
Min
caz
##ılmıştı
##umun
işyer
onur
büyüt
##laşması
suyun
duyarlı
##yu
##leyip
1000
haftada
Yaklaşık
görüle
yakıt
yakış
liste
gereklidir
alama
bulur
##seri
sürpr
##larımızdan
##yalet
Boğaz
##kur
ikin
Eskişehir
Not
##uğla
sistemini
aşamasında
eşliğinde
maalesef
banyo
perde
##ash
hatt
kurumlar
Dijital
##melerine
özet
kaldığı
yorumlar
arıyor
akla
##ym
anlatı
Otel
Barış
##elisiniz
çekil
Enstit
Rad
##öğretim
efsan
karan
ticareti
Karak
sistemin
yir
özellikler
Nit
olama
##amaşır
köken
çabuk
baştan
bunlara
##enize
seviyede
sahipliği
taraftar
Diz
##alel
Arkadaş
Oto
Herhangi
karşılığında
##po
araçlar
yardımıyla
haberi
Zor
Finans
gösterg
##ijyen
##anet
##masız
görmüş
anket
Bodrum
çak
yah
##gat
direnç
##lann
etkiley
adamın
kalmak
Günlük
salgın
öğrenme
hariç
bedeli
kalabalık
##çilik
Anne
##ınıyor
payı
anay
mit
cüz
Paz
arşiv
##ens
taahh
Polis
sabır
Vol
bastır
hanım
beton
##otos
cenaz
##inizden
Ker
etrafında
düzgün
soruşturma
Azerbaycan
Hollanda
Viven
olduğum
kaybetti
##aklı
komut
somut
onarım
##eveyn
tıbbi
ajans
##duğunda
teker
durumlar
emekli
İnsanlar
TC
##iğin
sunum
kriter
müte
sözü
yolunu
##esidir
FET
çevrimiçi
##lıyoruz
Mağ
aran
bekleyen
büyüklüğ
medyada
##üphan
meclis
atmos
64
ayakta
##iğe
250
##tikleri
rekor
##acağınız
##layabilir
Duy
kontrolü
yılına
süper
##ülüyor
sahipleri
02
gerçekleşti
olanı
taze
geliştirmek
vitamin
kritik
verilecek
##ole
41
evinde
##suzluk
sıradan
##lamada
Ven
Akıl
Mor
Ala
##eyse
##ayıcı
vek
olurdu
fabrik
##ice
600
örneği
ec
Beni
içecek
##liğinden
##luğunu
görülüyor
Pr
Tarihi
tutmak
kombin
Tun
teşkil
kalacak
Kocaeli
fikri
İmparator
##abilmektedir
erk
olayı
09
95
ülkelerde
bildirdi
ısın
irti
sizleri
Çoğu
görünen
hareketli
muk
##cıların
akım
Roman
noktaya
##gini
meden
##mm
işletmeler
koku
##üsünü
kanat
nelerdir
emniyet
hoca
##luğa
##elaket
ceph
##ınan
ediyordu
##cın
dükkan
##enf
açmak
Trabzon
çalıştığı
Sol
Herkes
TBMM
kaçak
Örg
##larımı
##ünür
gördüm
yerleri
irade
##sh
Bölge
istikrar
kaybeden
Ramazan
ortada
##çu
istenen
sof
47
alınacak
##uhaf
Sun
sistemine
burun
##lanmaya
##caya
46
##US
##İD
bizzat
##tılı
sürü
##ilmişti
##usuf
kaynaklanan
FETÖ
##kınma
##ekte
##çın
Tav
Bebek
Sipariş
sorular
kaşığı
Pla
verilmektedir
çalıştık
##mini
##ovy
##uncu
Hayvan
duruyor
Göl
Sivas
bölümde
##ülmüş
vazgeçilmez
Biraz
##ebileceği
raf
festival
Rob
##led
duyduğu
GB
2007
temizliği
Gazi
çekin
odası
##utin
kullanılabil
Doğan
direkt
cinsiyet
Çanakkale
ödey
hızlandır
lüks
peyn
makyaj
mask
Şube
varlığı
##AZ
##ph
anlar
olurken
filmleri
##laşmış
isteme
çıkarmak
##oğlunun
verebilir
vah
66
çekmek
sürüc
##idir
Hey
gözler
Muham
zeka
##artman
duran
##çeği
Pen
##uşturucu
önlemek
karşısına
Grubu
Emek
performansı
ailesi
##larıdır
##çilerin
56
Servis
kullanır
adayı
dör
yaptığını
Çay
bahar
denilen
Ec
Soğ
görülmektedir
dışındaki
Müşteri
klima
bisiklet
##olik
##leştirme
değişiklikler
##uydu
çıkardı
haftalık
08
ettiğimiz
##masıdır
##12
Gerçekten
zehir
##tiğim
oluştu
çıkarak
cinayet
ısrar
lideri
geçerek
paz
Sistemi
##ach
##leniyor
elektrikli
asgari
Bol
Fotoğraf
piyasası
nefret
52
beraberinde
43
##föy
##ümin
Ant
çevresinde
##rosoft
teknolojisi
kurban
hayatında
nez
altyapı
programları
şunu
##esince
sağladığı
yarattığı
koyu
olağanüstü
##tra
##ikola
tamamla
Yusuf
Adı
testi
doy
##soy
Vakfı
olas
utan
günleri
Ona
Proje
##ılacaktır
mutf
kullanmaya
##bank
Motor
##ağında
sürpriz
İçer
vermesi
##itli
ihale
Sitesi
titiz
bölgedeki
vermeden
Vali
gelebilir
girer
ilerleyen
saha
birinc
kurulum
Savaşı
Kira
kombi
Ligi
Ph
oranları
##tığım
radyo
kendileri
tescil
acaba
sıcaklık
oluşturul
##imle
ulaştı
anlamlı
##lit
##ketbol
Aksi
geçmek
##AC
profil
Kir
etiket
##ilerinde
Takım
tavır
görevl
##esto
piyasada
zamana
##adır
şehri
##ilecektir
İkili
üyelik
koz
##hats
##ates
##şet
##ami
şartı
kıyı
olsay
üzeri
##üyü
##ubu
planda
yardımı
yararlı
boşluk
##MS
##ight
ekstra
Galaxy
##rit
yüzü
disiplin
Tut
dudak
##tıktan
matematik
Ermen
##yalı
imalat
yaptığınız
almayı
##ükleer
##öv
randev
başlamıştır
sınırları
Yazar
##tral
##isti
milyonlarca
annesi
##uluğu
dolara
arayış
ederler
referans
Gam
tesisat
Birinci
##AH
##sar
Ruh
ihmal
ülkeye
pir
kutsal
mün
kaya
katk
Kahraman
önemlisi
dahilinde
##AV
Kargo
hikaye
kaynakları
yaşamını
görevini
olgu
hareketi
54
lit
desen
kamyon
devir
##peryal
merkezine
##amın
Ata
markası
Fik
##amak
##kilat
##sis
deneyimli
falan
Türkç
Kış
Ste
Microsoft
görebilirsiniz
seri
katılımı
evrak
sandal
Üret
planı
öğrencileri
mahkum
katıldığı
başını
oldum
gündüz
##ood
Yat
bulma
aşık
talebi
geleceği
elinden
içerisine
kaygı
felaket
boru
KO
bizimle
yazdığı
##lesi
etkileyen
başından
Qu
Gıda
Sem
oluşturduğu
tabak
bilgilerini
Geçmiş
Modern
bunlardan
itibarıyla
Vivense
Ağır
İspan
Uğ
bulunduğunu
ilham
fikr
49
veriyoruz
##danı
uygulamaya
##gn
sığ
kov
##ife
uyarınca
eksiksiz
##eydi
boyun
olmazsa
Ort
Kızıl
Merhaba
vatandaşların
geçirmek
değişikliği
##eten
gerektiğ
paralel
bası
tarafı
yerleşim
Karar
##ebilmesi
Hakkında
06
lastik
mel
edecektir
ağırlık
Saray
istasyon
Böylelikle
verilerin
##emiyor
Kuvvet
örgütü
gev
Hafta
motiv
obj
bilmek
##inizle
sir
Servisi
Erzurum
bağlıdır
nakit
muhalefet
Mis
konuları
Savunma
gümüş
şiddetli
batı
hid
gönüllü
süz
firmaların
Sovy
koordin
olursunuz
##rimenkul
inf
Hakan
periy
tarihine
sektörde
çalıştı
restoran
Ail
Engel
##abilen
hayli
işini
ikna
Hizmetleri
##ezil
SEO
##gıt
misiniz
##ılav
fuar
dostu
hayırlı
kablo
sizlerle
zorundadır
Kayseri
Hanım
Yemek
Adalet
kendinize
konuya
##bileceğini
çocuklara
##ukur
evine
##ence
##cüsü
maçta
derken
nden
bıçak
tetik
##igür
##resyon
organik
##renin
konse
aksesuar
elbis
SS
turn
kurgu
seviyesi
##unları
uydu
Konuş
##maların
##sk
gidecek
inanılmaz
sürdürüyor
##cunun
dünyasında
etmişti
hastanın
şirketlerin
##yeni
Baba
##alet
itha
İnşaat
eğlence
nam
engelli
değerleri
Yakın
##adı
Lütfen
kurulmuş
olabileceğini
İmam
##mara
##ildiğinde
Fu
##izmin
##bası
53
istediğini
Pay
120
açıklandı
bozukluk
anlamında
##iller
yatırımcılar
selam
kaplama
##dığınızda
ikram
öğle
evi
etkisini
##ila
çeşitleri
korunması
Filistin
teminat
##düncü
##ill
Ülkemizde
ibaret
oraya
tutun
yükseldi
edilmelidir
yerinden
lezzetli
Air
haberler
Bunlardan
##oks
##UM
##ang
tay
mahkeme
##has
##TÜ
malzemeler
başa
İade
slog
dernek
##sizin
tohum
sağlayacaktır
ortamında
faaliyetleri
mesafe
müh
yayımlanan
SP
His
Ders
laf
boşan
konaklama
krem
bakalım
no
tarayıcı
##tuğu
organize
Güncel
Nec
##takım
##larınızda
göğüs
çır
MAD
Tür
Mik
kaçınılmaz
giyim
##ilirken
kısaca
merkezli
tuhaf
##ysanız
##işle
##lüğünü
##OT
##IK
karın
Başar
öv
anal
yaptım
##oid
konferans
Emre
##abileceği
Ortak
bulaş
ihtiyaçlarını
hek
tanrı
Kalit
Normal
görünce
ölçüm
And
##dirim
forma
eyalet
##ürr
Naz
Mücadel
Dikkat
Dolar
hijyen
firmanın
bizler
Yapı
dondur
kapak
##layınız
kurtu
yazarı
düzenlediği
##raç
##amayan
yur
mevzuat
bakıldığında
tamiri
Del
alerj
Edebiyat
Pi
dağıtım
buton
muhafaza
gelecekte
kaba
Sekret
çözümü
##ünce
##çileri
lay
##vi
Cil
##abilirler
##lex
sırala
topar
##ech
Kaya
eseri
olgun
bağlan
88
taahhüt
talimat
yürütülen
varlığını
alınmış
yükselen
##IZ
sertifik
suya
masaj
##leyebilirsiniz
ortamı
üreten
##oli
##ull
hemş
İşleri
durumuna
nadir
beklet
bölgenin
abon
vadede
Türkiyedeki
##üce
##eliğin
Yorum
başladım
Orhan
nı
##giz
val
##ılmalıdır
istenilen
bölgesi
tey
Çocu
istatistik
anlık
sahil
##ğının
çıkmak
araştırmalar
bakar
koruy
açar
##lıkların
sorunların
maçında
##faf
##BB
aşamada
##estivali
##leyebilir
Instagram
nitelikli
##amış
dizisi
nereden
geliştirilen
olmuyor
olmasından
Metin
çalışırken
yerlere
gerektiren
pi
stratejik
Şanlı
Lev
85
aldık
geçerlidir
Oper
##italiz
Tra
sektörünün
##slan
miras
##kal
##iyetini
Birkaç
oluşturulan
bildirim
köylü
onlarca
seviyesine
çağdaş
uygulanır
ülkemizin
##şembe
güncellem
komşu
aldığını
hormon
Müzik
editör
yoluna
##ekler
kullanıma
##ektaş
##ısındaki
inti
açıklaması
##üminyum
yapılarak
kayıtlı
denli
izleyic
korkunç
Kılıçdaroğlu
açıldı
laborat
##dikçe
bardak
kamuoy
##şamba
##ua
##bür
ard
##ect
58
oradan
##okulu
tersine
yürürlüğe
koca
öğrencilere
Post
Tim
##yaspor
anlata
neticesinde
ba
haberdar
##olar
yapış
yapılmıştır
dünyasının
Görev
ocak
PC
eline
Hızlı
##leyic
Kaynak
sad
##elal
dekorasyon
##bel
vefat
gününde
Emir
##iliğinden
Bulgar
sürecini
koyun
Kale
##top
Eg
oyunlar
bakın
##iliğin
##iste
dilim
Aşk
Nev
Abdullah
##ünüzü
türleri
##ırda
Yoksa
sağlama
soruları
gerçeği
verdiğimiz
musunuz
##büs
zem
zamandır
kül
cevab
uzanan
dürüst
##dığının
içe
sanırım
Önemli
bugünkü
##istlerin
##lusu
Sim
sizlerin
Mek
işit
yapacağınız
Denizli
Çak
yürüm
mesleki
sözleri
yıldan
dünyadaki
hakaret
sığın
karlı
birinde
haksız
ürünlerini
Des
Dünyada
Platform
##landığını
anlamıyla
2006
Sakarya
denen
##ranı
yurtdış
karışık
çöp
duyulan
##çılık
danışmanlık
Yabancı
Amerikalı
entegre
Ünlü
kep
çıkmaktadır
Sine
çamaşır
Ajansı
ihtiyaçları
Vide
elini
Selçuk
##eminli
işlemlerini
Sınıf
##GB
sayılır
##eygam
##fendi
aldığımız
ceb
yazılmış
kısmen
Dis
##çılar
belirsiz
sahte
bilgilendirme
artırmak
tasarlanmış
##lasman
##lerimi
demokrasi
ilçesi
##ux
anım
birtakım
##üğün
atmosfer
##acağına
ebeveyn
öte
senedi
biçimi
##malıyız
##mosyon
ALI
Programı
okuya
##umuza
müşterilerimize
##ımızdan
yaşamın
biber
##uşu
minimum
maddeler
arkadaşlar
sonradan
##usun
merdiven
##uvalet
gergin
coş
Ücretsiz
hizmete
yu
hazırlanmış
Teknoloj
uyuşturucu
##ebileceğiniz
ayrıl
tecrübe
diğ
Sokak
Fre
çür
haş
gelmez
edilemez
önerir
##lıyorum
nihayet
başvurusu
deneme
şansı
düşünen
##luyor
##alığı
ndan
alabil
##bahar
##stan
toplamda
Kanada
mecbur
Etkin
YouT
72
oturum
Işık
doktora
bununla
pandemi
##stil
ge
başlık
konusundaki
görevlendir
ilişkisi
devamlı
##avan
ihtimali
Uğur
gerçekleştirildi
Hakları
##dağı
gözet
yüklen
yelpaz
format
detayları
yapıştır
filtr
imparator
değilim
hızı
istemez
defter
Ola
kula
öfk
org
##umuzda
##tip
Saf
gönderilen
Tanı
özelliklerini
yolculuğ
Kazan
kedi
biliyorum
artması
Tüket
Tedav
57
##likten
Değer
##gatif
haric
##liyat
51
##delik
işten
taşır
##tap
Cumartesi
sorumluluğ
garip
Det
ST
burj
arkadaşları
Col
inci
##akende
mesleğ
doğrusu
Maç
##ikolata
ülkemiz
yirmi
##madığını
ilti
Da
çözünür
bende
oksi
imzalan
artışı
dua
bilgiyi
tamamladı
##omotiv
asansör
MADDE
epey
olayları
##gelen
##ester
##culuk
##azz
ağrısı
tanık
##sinden
reç
getirilen
Me
bilinçli
skor
doğu
bütçe
##cıları
krizi
stil
keskin
##lemektedir
meşru
yıllarında
Doç
Sık
heykel
çiğ
taşımacılık
yemeği
Örgüt
##ştım
nöbet
uydur
tabir
listesi
Kaymakam
2005
karn
kazanı
budur
verdim
yazma
parçaları
nas
##EY
okuyucu
seviyesinde
Rab
birbirlerine
##tisiz
İçişleri
nereye
karşılığı
ast
dayanan
kuralları
##alif
Gümüş
düşt
iktis
açıklamalarda
kaleme
Fiyatları
bilinir
##ani
Mir
Sektör
parayı
Cami
##asal
Yapılır
Sn
Projesi
Geri
işley
olabileceği
mol
##emem
bilinmektedir
saatlik
değerini
sayısını
seçin
Renk
Evde
##hiş
Uç
bilmiyorum
iktid
yenilikçi
sunulmaktadır
öğrenildi
Sta
##çısı
Temsil
serisi
keşfed
tadını
uygulanması
##diğince
dedik
toplantısında
aracılığı
küf
bizleri
Mimar
yüzyılda
Tesis
Giz
sağlanır
##lerimizde
##diğimi
sus
milletvekil
##uel
sisteme
Geliş
çam
evvel
Nerede
dediğimiz
59
gidiş
##ilmeye
bilmiyor
tırman
uzaklaştır
hakem
girmek
Tep
Dal
##lini
sizden
izleyen
tal
vurguladı
öncü
görüldü
##düğünde
Vatandaş
sakat
##arya
##elerimiz
##eygamber
bağırsak
sitemizde
sağlayıcı
okumak
Şanlıur
##EV
##anların
##landırıcı
sün
Marmara
rahatsızlık
##halde
erkekler
AA
sürecinin
anlatır
kaldıraç
Kadınlar
Ulu
kaybed
Öy
cihazı
koya
##aydı
Boş
uzmanı
ilgilendir
Hesap
tüketici
duyul
##eciler
##brek
sokağa
Star
açığa
boyutu
Vad
##NA
senaryo
yapıya
kararlar
reddet
devre
ABDnin
sağladı
##ayol
nazar
##sü
halkının
gelişmeleri
##lanıp
Yönetimi
etkisiyle
Konu
##iledi
##ınızdan
titr
çil
zihn
81
##RK
##ji
##wn
müşterilerine
düşer
fazlasını
##leyi
hissettir
yanıl
kıyasla
değilse
Kör
Kulübü
kesi
##ette
##outube
çalışmaların
kurucu
göstergesi
Kontrol
projenin
Toplam
##olos
Bürosu
şarap
03
ardı
isyan
Cumhurbaşkanlığı
Çöz
yahut
sorumluluğu
Sorum
etmeden
kullanın
ex
vic
izni
maske
isimler
plaj
kuvvetli
tazminat
Ren
##tek
atıyor
sitede
YouTube
dert
yaşamı
arttı
sürdü
diğeri
Başak
seçenekler
kılı
rady
##alıyor
adımlar
durumunu
con
##ure
sahibinin
##enizin
Marka
Federasyonu
kurma
Meclisi
evrensel
istedim
bağlamda
dosy
tarihinin
kalitesini
##ebi
galibiyet
ailenin
hissede
yoksun
İspanya
yağış
2004
Malatya
gibidir
gerektirir
##bilirler
gövde
##ATO
##onspor
tespiti
göçmen
Gol
çığ
##remi
Çiçek
Siyah
##lerinizin
yüzyılın
kitl
cümle
protesto
atöly
Eğit
Avustral
yılların
uyu
yaratan
denize
##liliğini
##ayolu
yazan
verin
maliyeti
dönük
görevli
döner
bileşen
Çan
##ızı
leh
silahlı
##lenerek
Londra
##operatif
ilişkili
Medi
şok
##ura
layık
kusursuz
mutlak
##luğunda
##ilmek
Bize
vermekteyiz
artıyor
kızar
bölümünü
portföy
##red
##vat
gerçekleştirdi
çif
hayatının
##use
Senin
gazete
olabiliyor
Öğretim
##FT
başarıyla
bizden
Başvuru
zeytinya
Kurumsal
formu
##diğinizde
inç
##asi
adlandırılan
##hai
Pazartesi
Anayasa
##portaj
ismini
##ld
Profesyonel
##emeyecek
sevilen
##ilin
Alev
##ayarak
etmekte
aldıkları
vurgulayan
tarihte
ul
muhtemel
sıkça
sektörün
##sanın
##acası
mıs
##amızı
sergilen
oluşturuyor
Yukarıda
topla
bölgelerde
yargılan
kullanıldığı
##taydı
Kovid
sensör
Nitekim
önemini
yüze
imzala
##burg
oyuncak
Cep
seçilen
semt
müsa
bireyler
##ledik
Belir
girmiş
teklifi
##deme
çanta
hastaneye
kendimizi
Trabzonspor
bakter
çekme
ulaşan
bağışıklık
hamil
Max
sıkış
olanların
tarihten
mineral
ihraç
bireylerin
kanalı
gemi
fazlasıyla
günümüze
günah
iştir
OL
sizinle
limon
##yeri
ötesinde
Üs
Yarış
solun
hepsini
fı
##ATI
##omuz
gösterilen
gelişimi
şük
tecrübeli
Gece
##anları
Fen
##ojistik
verilmiştir
Antik
##espor
##cin
##lanmaz
Aziz
Geb
şimdiden
devrimci
rahmet
bekleme
baktı
##ılacağını
olursak
idare
köprü
Yum
bileti
neş
ves
Fab
Trans
Emin
##layı
800
##gül
hastalıkları
isteği
##lub
##amin
broker
arta
vasıt
##ürriyet
##metik
içerisindeki
yatırımcıların
##aport
projeleri
Kork
IP
oluşmaktadır
donat
oyuncular
emperyal
üretici
yapacağı
##laki
tıklayarak
ALICI
Lisans
kavramı
sta
geçiren
AS
kimin
sebze
alem
kalması
bıraktı
Gal
##eceğinizi
##mates
almadan
mahal
süresince
Nik
yükümlülük
kullanılıyor
##rib
Model
##avuş
İsviç
Kore
##imet
##ometr
uygundur
Köyü
##asın
cerrahi
Def
##ilemez
##çası
ekibimiz
ışığı
##dıköy
negatif
Hedef
07
Ekonomik
Seb
Kem
##yr
bulacak
kek
Tren
olurlar
tabanlı
Elektronik
##İŞ
sınıfı
##kent
##rul
##izde
almanız
açılması
tatmin
koydu
figür
oynayan
NATO
damla
Eb
hükm
Whats
Komutan
şüpheli
diyebiliriz
birikim
buzdola
dediği
cis
Sigorta
insanlık
##lemeyi
benzersiz
yürek
Muğla
sep
verdiğini
sevdik
keyfini
tarafta
67
##mektir
memnuniyeti
hesabından
##uştuk
Erdoğanın
##atür
Bos
döndür
konforlu
ittifak
ediyorlar
Bla
gözleri
meşhur
##izasyon
geldik
genetik
analizi
tüken
lak
getirerek
Festival
kitapları
milletvekili
sade
yoldan
İstanbulun
##incan
bakarak
hamur
##ılırken
alev
Jandarma
##memektedir
gereksiz
olayın
##ıplak
##eyt
neh
makal
yapmadan
görüşme
cevabı
##11
Alı
##diğinizi
Örnek
isterim
kesintisiz
gebelik
cild
çırp
tarifi
##luğunun
basınç
ispat
düzel
oynadığı
Bl
Pap
Reklam
istedikleri
##tına
kuram
pom
dinlen
##leşen
anlatım
Hz
düzenlenecek
Bon
Uygun
bekliyoruz
paylaşmak
hedefi
Ağa
Kırmızı
okula
##ebir
##60
açtığı
##ideki
çeyrek
##nu
başlamak
olacaksınız
##opark
başlamıştı
Kombi
fırın
yaşandı
bildirildi
Silah
Uygu
strateji
Kadıköy
başkenti
paylaştı
odaklan
Keş
##çının
gelmişti
düşünceler
nükleer
Kaliteli
2002
##italist
##dunuz
başlıca
işveren
mesela
evrim
tüp
gözlerini
girip
öncelikli
##YA
semin
alışkanlık
Kayı
disk
##ularak
şimdiye
hakkına
##iyesi
kadını
cihazlar
yürü
hizmetlerini
Seçim
yaptırım
Birbir
##IS
onlarla
##tina
tarihe
##kili
benden
Oyuncu
oluşuyor
Koc
##don
Kü
sürecin
##yn
Değişik
##liydi
##ümüze
şartlar
fe
Nor
rezervasyon
verilmiş
haklarını
şeffaf
yüzüne
Edir
görülebilir
Ob
Lat
##üldüğü
arasındadır
forum
##sav
kullanılacak
randevu
Yazı
##beri
takımın
Dah
sarf
etmem
##ımdan
edildiğini
bölgesel
Kanal
Meslek
Sk
Je
kadına
yağlı
çıl
Akıllı
kitabın
Afgan
çalışanları
aydınlatma
onar
##atik
Suudi
Cihaz
##amayacak
sertifika
sevgili
düzeni
bet
devleti
##mes
ithalat
raporu
sök
##lamen
fiyatlarla
girerek
söyleyebiliriz
Festivali
zafer
##40
türden
İla
seyret
##üsünde
sağlayarak
http
ayrılan
zihinsel
redded
Dek
şekillendir
havalim
Zeytin
bakmak
Ziy
##mıştım
Unut
pilot
yazın
##encere
63
ağı
işlemini
Medya
##üsünün
tavuk
sağlayabilirsiniz
yarısı
belirlemek
##losuz
zira
lev
İsveç
Kapı
topu
tir
##feri
naz
##DV
deyişle
sanık
attığı
ağırlıklı
kültürü
190
yaşamış
##şun
nis
##abilmesi
endişe
pür
2003
eks
durak
tac
##ebileceğini
kurduğu
yıkan
ışın
öyk
gerçekleştirmek
Japonya
##ğday
oynanan
olabilmektedir
istey
varol
İnsanların
atılan
##ortası
##onsor
konuyla
pet
##ilme
Çocuğ
vücudun
taşıy
verdik
diyorum
##lanmasına
şahit
##cinin
mülkiyet
şehirde
modül
Doğum
İspanyol
##ülerek
##iyorsanız
##osunu
##ayıp
##lanırken
Sc
##SY
konularında
##lının
ikiye
Konseyi
sayg
Geliştir
cüml
hattı
sözleşmesi
savaşı
##eleme
doğrul
daire
me
olsaydı
##laşan
reak
stratejisi
Ba
yönetici
hassasiyet
uyuş
zamanın
Gelecek
özenle
müthiş
göreve
araçların
Koruma
kıymetli
artar
aza
balkon
ülkeleri
görmeye
Veri
istifa
##ecilik
okum
sürdüren
Küresel
Hükümet
problemi
haliyle
Soru
boğaz
ikamet
##dilik
##şak
reform
Tuz
##şek
haftanın
modeller
direk
Balıkes
hikayesi
bant
##işli
Ermeni
##dukça
rejim
Avustur
Perşembe
gerekçesiyle
Komisyonu
Eur
olmay
dönen
##itan
temizleme
dönüm
##ache
giderken
##uyorlar
fiyata
##ciğer
##ikler
##izmi
AD
beklem
değiştirmek
##dırma
pap
mahall
medeniyet
poli
04
bulgu
##amanın
Firma
Ta
62
hang
hastalığın
mum
başlayarak
özelliğini
##lenebilir
##A±
##gur
güvenc
##lilerin
molek
röportaj
yazılan
tüccar
açıklamaya
##TV
##cuk
##ts
öp
Mahkemesi
##lamıyor
##üğü
bulunmamaktadır
şö
Elaz
olmaksızın
satılan
demo
toplantısı
pik
öteki
satır
Yüksel
yazımızda
Köp
Çocuklar
##odu
Havalimanı
##obi
##ranın
lif
yöntemler
tezgah
nün
Devrim
##antol
haricinde
kişiden
Çarşamba
sala
karşılamak
milliyet
CEO
eğitime
pu
Uzak
yır
##Kİ
işlemlerin
kılav
Mari
dönüp
dikkati
ilaçlar
##fez
Orada
yaralı
Satın
Char
sayısız
mimari
yavru
Ur
lise
Alış
dokuz
Noter
##ileriyle
örn
başardı
midir
Bayrak
Basın
##vil
kategorisinde
olacağız
yapıldığını
Devam
tef
müzak
Hıristiyan
##dığın
bağlantılı
Bes
artı
değiştirme
Bilin
Brezil
Dol
##ida
Malz
Holding
Bölümü
İster
kullanıcıları
müst
geçirdiği
dördüncü
görmez
##indedir
Terör
AV
filmler
katman
geçtiği
Sendik
bakımdan
Müzesi
##için
temsilcisi
geçirdi
ruhsal
hizmetini
yıp
idrar
##pp
adli
61
kaydeden
girdiği
kanseri
##berg
maz
##tic
##oo
Sürekli
İlişk
salgını
##mad
##th
İhtiy
kütüphan
##and
Aslan
koşullar
viz
##emaat
kalmaz
Yavuz
Fel
Oku
ekleyin
verip
Git
bırakın
etkileyici
deplasman
girecek
hayv
Form
cüzdan
baktığımızda
getirilmesi
dünyası
yanlı
Acil
700
adresine
iyisi
##allı
promosyon
yapılacaktır
Hacı
İlgili
yorumları
Halil
içten
##abileceğiniz
##aylı
##osun
herkesi
yaratmak
##rad
##mik
hatalı
başladık
dönemine
kazanır
misyon
##üyordu
Gelin
kilis
babasının
War
##laşım
Bayan
Muhammed
karşıt
kullanışlı
##ılmasının
##name
Arabistan
Antal
tutarı
lı
şof
hissi
##elli
3D
##omi
Kilis
gereksinim
##adiş
##lanmasını
bayrak
kadros
##idin
Suriy
Caddesi
bakır
oyuna
düşünmek
##ish
düzenlendi
bomba
açıp
noktasına
Belg
atmak
çeşidi
Ul
hücre
endeksi
böcek
Kardeş
Uzmanı
Akşam
##ladım
hareketleri
muc
planlama
kişileri
Red
yaşar
##OM
dır
sars
derhal
Suç
tuvalet
Onların
Dig
gökyüz
tahta
Lisesi
müsab
duygusu
MP
isimleri
##iver
Ateş
hastaların
gençler
##ino
##maktadırlar
kardeşi
tebrik
avantajlı
havada
kucak
Ziraat
kg
üzün
kapitaliz
görünüş
dilediğiniz
içerikleri
duv
PS
Canlı
manzar
77
şan
verilerine
geleceğe
##resel
ert
oturma
keşif
insani
eksikliği
Kayıt
##luğuna
##etli
önder
muayene
kazı
##leşmiş
##işe
harcama
Bizler
hükümeti
seviyeye
yang
##lerimizden
İb
terap
sh
çalışanların
##otosiklet
Hatay
heyet
iOS
Günde
Selim
Yerel
##arın
##mıyorum
tehlike
##duklarını
##idor
##pınar
nitelendir
Bölgesi
komün
Köpr
parçalar
Du
Şehit
tüketimi
##çü
ilgisi
##ındık
hepimiz
Oğuz
arayınız
kapsayan
nik
##sedür
yatan
büyüyen
##stri
üste
yazdı
gölg
List
içme
Site
##urdu
##ith
Onayı
riskli
özelliklere
##mu
##UT
hastane
metr
meme
gerçekleştirilecek
boyutlu
Tanr
Ref
Gr
şeylerin
ailesinin
##üğünü
edebilecek
telif
konsept
bebeğin
İstik
##ald
je
##PG
##yim
##ırıl
Üniversite
##yurt
##rekans
Na
##adal
müşterilerimizin
sıç
Ankarada
Mevcut
gene
İnan
verirken
sözler
gerilim
garantisi
##Lİ
##amadı
kontr
##matı
getirildi
##VID
şidde
Şark
insanlarla
gerçekleştirdiği
yapılmalıdır
duya
cezalandır
kapısı
sürüş
geçmişte
Müşteriler
başlamadan
AP
rolü
toplanan
sosy
##lerimizle
Geniş
klinik
##oksi
yeterlidir
Lin
motoru
liman
##lenin
##lemesine
çatış
tarafa
##tezi
çekirdek
bot
Aşağıdaki
sik
Sup
çıkmaya
mantar
##ason
Olarak
##cağımız
çalışmanın
sef
tamamını
paketi
kavuştur
Mosk
mıdır
ekledi
yazmak
kalıntı
birşey
##aciğer
yapıt
etmenin
Mahmut
##OK
Yeminli
politikası
##ümüzün
katli
görüldüğü
##bas
Kesin
aley
taşına
Amaz
##mec
başlandı
Yahudi
Bakanlığının
işlemlerinin
mekanik
atar
yüzünü
kirala
başrol
katılma
sorusu
limit
##oza
Por
belgeler
ET
işlerini
olmasın
Üçüncü
riskini
fit
fan
##faiye
Kullanım
KK
kendisinden
Fuar
Manisa
çalışmalarının
edenler
sevdiği
bırakıp
Balkan
Eth
onlardan
liraya
Bakanlık
belirtmek
sorgulama
Kupası
küm
Nes
zorla
Üretim
dışarıdan
personeli
##üsüne
##kas
##ekom
Tip
KAR
kader
##ğin
halini
fıkr
üyelerinin
örgü
olanağı
varmış
kitaplar
bürok
bahçe
Ep
çekerek
etmesini
sebz
##epyeni
##mıza
destekleyen
alındığı
Nakliyat
##ikmet
çikolata
##kes
antrenman
Gu
suçlu
Demek
Danışman
Kripto
Süt
Hotel
oranla
kurucusu
Mc
geçmesi
kopar
gümrük
temsilcileri
bam
Yay
sark
açıklanan
Mavi
Maliye
Bayramı
paranın
Elazığ
noktaları
uf
yaşamaya
Salon
AY
tedavisinde
sakın
Wat
Hac
##orld
##cül
vermez
Word
yazılımı
işken
Dört
tela
kuruluşu
Sıcak
Valisi
Giriş
##olan
deh
farkına
##zir
yaşadıkları
##ücel
68
##veni
geliyordu
bakıyor
çadır
hayati
##lüğüne
haberine
çalışmalara
yakında
Teb
aktör
takib
##ergah
geçecek
Çat
kendiliğinden
Büyükel
Bülen
şap
bitcoin
serin
Lir
Duvar
satan
Düşün
##cileri
Kaş
uygar
belgeleri
kendime
fiyatlı
vicdan
##BA
itiraf
##onlar
##liyordu
çoktan
elden
maddeleri
Ele
saçma
intik
özür
süp
##mamaktadır
arayüz
saklı
akraba
##emedi
##bilirim
fırça
Bakım
olacağına
kadrosu
konul
##mamalıdır
kullanabilir
samimi
##uki
##miştim
sağlanan
Onur
etmeleri
##oni
##tiz
kronik
teşkilat
Balıkesir
Reh
Mücadele
gibiydi
dalgalan
##eysel
alay
Sonrasında
##iliğe
TRT
vel
olayların
toplama
kasab
sözcü
istediğimiz
endeks
gösterebilir
##dinde
Tez
meşgul
Kongr
gelmek
şehirler
yönelt
Forum
eman
##ox
kısmına
##ümüzü
kurumların
Ask
Avrupada
ücretleri
ifadesi
Bunları
##izin
##ayn
aydınlat
Ki
Stratej
Hoca
beyn
tavan
Dost
m2
bankalar
Bülent
gezegen
yüklü
rah
ayırt
kuşak
verdikleri
Lib
Cey
tanıma
##eğiyle
OS
##liyorum
ilah
##ilmesinin
Ziyaret
mantıklı
Salı
oturan
kavg
Kolay
lav
zan
Gec
edilecektir
kesint
etkinliği
sayfasında
sorusuna
Abdül
rit
Çetin
katılmak
perakende
180
kokusu
ayağa
bonus
tev
seans
yolun
eti
atarak
terörist
Vek
peynir
gerçekçi
kuruluşları
haftasında
rica
edilmesini
buradaki
alanın
kızın
##eceğinden
##jinal
##EP
mağlup
Turg
taşımaktadır
müd
sınırsız
Kartal
böbrek
##omen
##ling
best
ücretli
ahlaki
başlığı
kullanımına
laboratuvar
cadde
çözümleri
https
oynama
minik
sözlerine
yürüttü
prosedür
##hap
kalmaya
so
bireyin
belirlendi
Cin
kentin
kaplı
depresyon
çoğunluğu
BİR
Toprak
maddenin
Pop
Türkmen
##olojisi
turist
kolaydır
##dere
##press
Bahçeli
işlevsel
pantol
alüminyum
tanınan
##amızın
oyuncusu
duş
Zar
##sün
Alp
gayrimenkul
aksiyon
##balı
katlı
santral
##ğe
çıkabilir
amir
dikkatini
Yık
İŞ
makul
##ağından
##vin
gözle
özn
bulunmayan
Tör
Tal
üzüm
yetki
şaşkın
Ölüm
dü
değerler
##tiş
inanıyorum
##ganda
yayınlandı
yukarıdaki
kurulması
##app
Merkezinde
##mazlık
buhar
Paul
ileride
kılan
görebil
birimleri
Bet
Ekonomi
Mit
oyunda
sürecine
Makin
gerçekleşecek
##lari
ga
1980
sözleşmeler
düşünün
teşhis
by
hesaplama
##adişah
çekilen
gözü
Bro
##ınma
ödün
Çam
güncelleme
simg
##ft
verebilirsiniz
##amıza
hacmi
göstererek
Korun
aksi
kurdu
toplantıda
ekim
Tom
değişir
çarpıcı
bran
Sağlıklı
edemez
##arş
etmey
zul
##work
herhalde
tutk
staj
hafız
sıkıştır
merkezleri
##ediler
delil
öğrencisi
##linin
##GS
edeceğini
sponsor
söyleyerek
koşt
tırnak
Sinan
gençlerin
akademisyen
önlemler
şamp
Dağı
sesle
##atörü
Ekip
Dönem
çıkaran
ilanları
ayrıldı
##gele
kararını
yaralandı
Öztürk
ettiklerini
ölen
solunum
kenara
altından
Pe
Kürd
##mazlar
##lükte
sonlandır
va
Buz
çalışarak
programına
##lığımız
hazırladığı
##inda
baskın
olmayabilir
##düstri
artarak
Öğrenciler
Ortadoğu
barındıran
Kel
güzergah
##udu
AM
kendiniz
##ilebilecek
soyut
kurallar
çub
gerçekleştiren
çıkarma
Endek
mesajı
##ptom
ağac
ürünlerinin
69
Person
Plus
İncel
güvenle
ömrün
izlem
domates
İY
macer
açıklan
reng
kapsa
güçlük
rüy
Sorun
internetten
76
sahada
soya
##dava
##unt
adresinden
##ümde
Televizyon
1990
##ıklığı
##leştirilmiş
ambulan
##eğince
villa
çim
ayının
kapitalist
işg
ifadesini
karışım
##dıran
açabilir
Arn
anlaşılır
Belediyesinin
##alır
öldü
Koronavirüs
çıkmıştır
##ayacak
kanaat
##akal
##LU
menf
Soğuk
yetkilileri
başlattı
oluşturma
##taç
Kanununun
çalışanlar
bebeğ
trav
pis
##fe
yaşadı
yapacağız
Nef
Lak
yollar
dökül
##ington
maddesinin
Blu
##io
detaylar
emr
beklentiler
##GK
##ower
öğrenim
ilgisini
##leyse
yaşadığımız
çalışmaktadır
KDV
Birleşmiş
eli
inceleyebilirsiniz
kimseye
programında
bağlantısı
tarihin
gereğince
Dairesi
niye
yükümlü
cezaev
Katılım
getirecek
Fah
hastanede
##etle
geleceğini
atın
##gazi
Zeyn
Konut
##yolu
sayfada
kredisi
Seni
işle
Fizik
##mesin
şüphesiz
##amızdan
istediğim
daim
##oth
açılır
yaptığım
##rağı
manzara
diliyorum
çeşitliliği
1999
alındığında
Prot
belirlenir
##Tİ
Koş
söylediği
saptan
kib
planlanan
gördüğümüz
sözlü
duyan
Dam
talepleri
garantili
kadınlara
olmayacaktır
##eğinden
Hikay
terim
##cal
küp
Eve
çeker
78
filmde
açıklamasında
geçin
andan
kadem
##ebilirim
##ılışı
Dayan
dolaylı
Enstitüsü
kullanıcının
yeryüz
ilke
üretmek
alıyoruz
##laj
geçip
toplumda
tıklayınız
73
zordur
arayarak
MS
faaliyetlerini
##unuzda
yurttaş
mücadelesi
Geor
elem
2001
##inizdeki
zamandan
saray
elbise
##sus
##cağından
konusudur
fos
sağlığını
miz
yollarını
harc
yepyeni
alacağı
kurut
##iğit
##ersek
savaşın
Kalkınma
veda
##ınıp
döneme
##iyorsa
sisteminde
bilinmeyen
Şanlıurfa
faş
gazeteci
taşıya
Sonunda
yapabilecek
değerlendirmek
Girişim
Direktörü
doğdu
global
kavga
yaşta
Kamp
beklemek
opt
kesme
Ga
yazıda
##emeye
zahmet
başarılar
anlatmak
şaşırtıcı
bardağı
Kimi
Konferans
dolap
Cih
koşullarda
##tab
One
gideceğ
##lenmektedir
bilginin
yatırımı
cay
Ra
Eğitimi
felsefe
Esen
vakti
##işkin
##ingir
Durum
teknolojileri
79
euro
yöneticileri
iv
vermeyi
Hoc
##eliğine
çıplak
##lamadan
Burak
hayvanlar
düşünme
güçleri
##ung
esir
Gre
##cell
grubun
ihtiyacını
yuvarlak
##abileceğini
dayanarak
göreceksiniz
işareti
Kum
hev
saldırgan
Milletler
##irse
problemleri
hükümetin
Belç
çalışacak
nar
fiz
##larm
Cengiz
ülkeden
Evden
adil
Arslan
ithal
vasıtasıyla
##teydi
sesini
Nok
98
farklıdır
##lıyordu
Metal
maka
müddet
Bence
aleyh
kendinden
Kitab
güler
Şeker
kırsal
ülkeyi
Foreks
##bula
74
gitmiş
Video
Yalnızca
üyeler
direktör
günlerinde
Allahın
ABDde
##OP
kayg
pres
kiralık
konumda
Gran
##KS
hesaba
kapasitesi
Ekran
medyum
##larınızla
grev
kablosuz
Afyon
##barat
giys
peşinde
bitkisel
Yaşar
kurtulmak
akciğer
bilme
gerekiyordu
EUR
yaşandığı
##olasyon
dib
borc
katılımıyla
ster
##madım
PD
82
Avustralya
Belgesi
gözy
kalitede
##fli
teknolojinin
gerçeklik
##hid
##emeden
Üskü
Çavuş
düzeyinde
UN
bildiği
kurulmuştur
##adüf
değerlendirmeler
otuz
gittikçe
##II
kurumları
hastalıklar
köklü
fav
bırakmak
topluma
kazanmış
bag
yapmıştır
sorunlarını
pişman
menfaat
Div
92
Ürünler
metab
köşe
Mahallesinde
müdahal
sürecek
kullanıcılara
koymak
söndür
enstr
masal
öbür
Koz
buğday
kurtarma
Çeşitli
##alarda
tasarlanan
çıktığını
acel
durumdan
eserleri
olduktan
fes
intihar
bük
sorunlara
Hazine
##ımlı
destekler
##cha
İstan
Kızı
Edin
oksijen
tv
yolla
Est
Almanca
olanları
tanıyor
DA
alacağınız
adaylar
endüstriyel
buluyor
avantajı
İle
kuşkusuz
toplumu
Gönül
Üniversitesinde
Meydan
çant
aldıktan
vaat
yazısı
bilgisini
algılan
lan
doğrultu
varan
yetmez
giriyor
##lenmiştir
##ültü
tarihlerinde
##ülecek
karakteri
yanınızda
Gelenek
Şef
yüksektir
seviyorum
masaya
##mus
oynat
yatırımlar
Ayak
##rah
azaltmak
durumları
Klasik
kayd
süreçleri
##ehr
sonuçlarını
aldığım
kupon
84
##unuş
sizde
salonu
##ney
kabar
Biy
yazarak
grupları
ulaşabilir
##poz
gruplar
Kahv
sürer
belgesel
talebinde
tencer
Binomo
düşünerek
yapıda
tema
belirle
BI
Feth
semptom
ekrana
Sınır
geçebilirsiniz
Göster
##tasyon
direniş
erkeklerin
koltuğ
edeceği
ertelen
metrekare
tarla
Başsav
başladılar
gençlik
Jam
askı
taraflı
TS
Sanki
We
Görüş
nisp
mült
Tamam
ışığında
DS
Alex
##ance
tabl
##göz
gösterge
Edi
siteler
##ştan
davası
##çinin
Avukat
##ymp
##LAN
çıkarılan
gerektiğine
TH
Bulgaristan
etmeyen
##graf
milletin
Youtube
içerikler
##lamaktadır
mesele
sevinç
soluk
sistemler
ER
işine
konunun
huzurlu
##üzün
muam
biliniyor
tıkla
kazanım
##erg
##alep
arkadaşım
atom
atış
dergi
geliştirilmesi
##mesidir
dezenf
dışarıda
işlemlerinde
Salih
İnce
tutuklu
sesli
Bulut
birebir
alçak
Özer
açıktır
köyü
##azzam
USB
tahsil
evlat
ayın
doğalgaz
bors
Gay
sezonu
ilçesine
##diğinin
boşalt
Gazetesi
kaydedildi
farkındalık
##odik
Pir
##ilde
kuruş
İçeri
##ita
##oterapi
Macar
radikal
ıslak
Benzer
prensip
Bizi
Amazon
Henüz
Sitemiz
hazırlanıyor
EN
keç
##tions
sırasıyla
yapılmasını
Paş
##grama
dinle
lazer
ünit
kole
Ez
yaşına
alınmıştır
yerin
yıllarca
Dönüş
Afganistan
yetkin
niteliği
##acılık
zarf
Usta
emeği
Öğrenci
derinlik
ertesi
biyolojik
unvan
oynamak
Sonuçta
çeviri
imkanları
##leridir
CD
Kadir
muz
kararları
##iyonu
Bolu
hastalar
muhtar
Alk
gündelik
takibi
akışı
mezunu
##desi
muhat
YÖ
##ome
meraklı
hızlıca
patates
900
Beb
taşımak
vergisi
##onim
ilerlem
İndir
Yunus
eskiden
yuv
##calı
nihai
müşterilerin
başlatılan
Kuru
##larsa
##low
Ukrayn
aktaran
##maye
Akın
##read
##meliyiz
kılavuz
geçmeden
ediniz
Vakıf
afet
##örler
dünyasına
standar
enerjisi
şekeri
97
frekans
yazılar
Fet
##ora
buluştu
çektiği
saygın
aşağıya
##mun
üstelik
işsiz
Kağı
konumu
##İH
puanı
devamı
burası
açarak
Black
Sovyet
##sunun
başladığını
##kender
##ürt
baraj
görevleri
pe
İslami
ömrü
tahsis
kurumun
bilmeyen
doları
işçiler
##lerince
refah
yapının
şunları
Rak
gördüğünüz
Bizans
fiziki
okudum
kel
etkinlikler
okuyan
konumunda
vermiştir
83
molekül
gelişmesi
sesleri
bellek
vol
##ladığımız
IŞ
veriliyor
##ont
öğrencinin
up
mevdu
##rid
sınırı
##IT
##anızın
hizmetlerin
ch
belirtileri
Hint
##çuklu
durumdur
boyn
bölgesine
alanındaki
engellemek
Edirne
menü
belirlenmiş
çocukluk
açıl
cemaat
kömür
Aday
tutarak
aşan
geleni
açısı
Üzerine
evli
Gires
oranının
çözmek
##ülten
##main
sayılan
kısmının
Anlaş
Maden
yaratır
##emiyorum
yapmanın
pasta
kaldırılması
arındır
##lıklarını
litre
ucu
bro
sözünü
##biyotik
zihin
astr
gittiği
Albay
yapısını
##urun
##lendiği
##ESİ
arma
İstanbula
bölgelerinde
##avantaj
temelinde
Beyin
Türkler
pamuk
tadı
renkler
fot
##val
imaj
71
Sağlığı
yapılacağı
dakikalık
ortağı
reaksiyon
Taşıma
##deler
##amda
ayına
ipuç
kuruldu
kalmadı
##diğimizde
başlayıp
ürünlere
işçilerin
sanıyor
karaciğer
yayınlan
Arda
etkileşim
liber
muayen
Mün
bizde
##fan
##ebilirler
COVID
İnşallah
kalkış
cumhurbaş
mücadelede
engeller
##lenmesine
mükelle
dersleri
yönü
resmen
muhaseb
oluyordu
Market
otopark
##mayınız
##uştum
kökenli
kilometr
us
edebilmek
özelliklerine
toprağa
##gusu
ısıtma
tasarlanmıştır
iadesi
hizmetin
pasaport
Sevgili
Ermenistan
##diki
sitesinden
##emediği
##mışlar
İsviçre
İYİ
tekniği
uğur
##AĞ
##flix
Selçuklu
müj
hamile
th
Yalçın
Hy
Bakır
Efendi
cevabını
benims
ekipler
açıklamalar
yönünden
Sana
##larımın
İlaç
fotoğraflar
cok
arazi
işsizlik
##ılırsa
Analiz
##ilyon
sözde
yaptıklarını
Standart
Tama
##izme
vas
Gro
sanı
##paganda
##tia
güvence
bazlı
kullanılamaz
İşletme
##ozof
müraca
uzmanlar
tabela
Özdemir
ekme
aradığınız
Test
kurallarına
##masa
olacaktı
##ational
nazaran
birbirini
biriktir
etmeyin
çalışmayı
buçuk
İZ
ettiğim
mevki
##ank
Fransızca
##CO
SATI
Davut
##tara
adında
birç
##uğu
ülkelere
olmadığına
aro
işbu
##tam
##ASI
Örgütü
adamları
##leği
##imizdeki
Daire
##dığımı
teorik
ndeki
belirlenmesi
Arama
aldat
Eşya
##elikop
takvim
demişti
##ekat
edelim
##che
##siyum
Gem
musun
##ünüze
binanın
füz
##elerindeki
kapanış
Kurtul
My
##sından
eğitimini
##leks
satmak
gelmeye
Kahramanmar
açılmış
geçtikçe
konuşul
NAS
##lata
##mayıp
kıt
erdi
Ülke
##piyat
olduğunuzu
karşıtı
gücüne
göstermeye
aldır
düşüyor
bölgeler
##memiştir
kurumu
kolaylık
vakıf
ci
kazanıyor
Evren
hükümleri
##lana
##langıç
96
algorit
memnuniyetini
görüntüler
Acı
Bulun
ibadet
Ödülü
tarihini
oyuncuların
deposu
romantik
arı
##rist
parma
sayfası
Sitemizde
Küt
Bugüne
##dükten
##terin
ertel
Vücu
çıkardığı
komb
Beton
##ase
##yetik
sandaly
cihazları
İçinde
##ciliği
##OĞ
Mahk
kurşun
inşallah
formül
mesai
eserler
Dub
Nelerdir
Buradan
##FF
şüphel
##ilmesinde
taht
zarif
Döv
Buradaki
şeydir
sigortalı
##tiniz
tün
Cilt
86
bozukluğu
Pamuk
##steri
onayı
Çeki
hakikat
koridor
markanın
Takımı
Global
meselesi
yapılırken
ödülü
##acaksınız
örgütün
oluyoruz
Doğa
gelebilecek
yoğurt
KKTC
paralar
unutma
Yazılım
PR
##buki
##doğan
Ayşe
87
##minin
muazzam
##veç
etap
##unuzdan
Türkiyeyi
bulunu
tesadüf
İstiklal
##App
işlerin
Esas
sunuluyor
misin
boşal
iyilik
##falt
##ınızdaki
edilmez
##box
tüf
##fesör
##gon
Ni
İşin
poş
##iliğini
sergi
başlaması
renkleri
etkilerini
##oliz
Üye
ışıl
eğitimin
sitenin
Kuruluş
çekip
zorlan
fotoğrafı
olasılığı
soruların
sahiplerinin
almıştı
yükleme
etkinlikleri
vuruş
şehre
bazında
tamamlayan
89
Polonya
bölümünden
çaresiz
dönüyor
##ınak
Apache
konuşmak
dengeli
emanet
etmelisiniz
David
Rusyanın
muhalif
Tamir
##OB
##TL
çılgın
görevlisi
Nil
anılan
ihtiyacımız
Mutfak
başkalarının
Koordin
gerçekte
ruhsat
Portek
özelliğine
incelemek
doğrultuda
toptan
IM
Sm
kare
motivasyon
çoğal
mutluluğ
yazıyor
hayvanların
çeyr
harita
##ARI
müc
##siyle
yaptıktan
Gelir
Olymp
olabildiğince
kenti
İskender
yalıtım
Kahramanmaraş
güvenliğini
motosiklet
Anayas
Hürriyet
Kiralama
hangisi
##mece
iman
sonuca
turnuv
##lamasına
tasarı
##ifi
solu
##iğini
saatler
fotoğrafları
Çözüm
parası
Kalp
izleyebilirsiniz
Erdem
Yukarıdaki
İhracat
Ayr
Körfez
birisidir
Neyse
düşünüyoruz
Netflix
aniden
ilerleme
##avut
isteriz
önündeki
insanlığın
cazip
benimle
ret
miyim
arkasından
gündür
##dön
yaptırmak
çir
diyalog
hazırlamak
Başkanımız
uygulamayı
uygulanacak
##birliği
burs
ölümü
kapıyı
Wash
gezin
okulda
irtib
##önü
internette
denge
Olim
tedbirleri
başarısı
iskel
dışından
girmesi
##lerinizde
Sil
miydi
Korunması
serp
dolandırıcı
Tunc
Umar
yönetiminin
sağlanmaktadır
korur
inceley
Vit
##yaman
fed
##TA
Çel
çocuğa
kırk
etnik
şeref
Lirası
##ony
örnekleri
##so
verdiğiniz
karara
Birlik
önlemleri
inanc
karıştırın
dizayn
gerektiğinde
otor
istemiş
başarıya
ceviz
yal
Karaman
şehrinde
belirleyen
##malarına
UY
##rey
gerçekleşir
##dig
kişilerde
imar
Ağrı
masum
nitelikte
birlikt
##wa
koruya
Sad
başlangı
Tol
peşin
neye
Kısacası
ilişkilerin
##üğünde
Zafer
Başbakanı
verilere
##ulları
şeklindeki
##sed
karşılaya
Adnan
adımları
korkut
##avüz
kağıdı
Hala
kuran
kocaman
ambulans
malzemesi
##ğunu
enj
çalışmasını
Trafik
Bing
babam
##ınızla
##iyordum
açıyor
propaganda
burç
Bis
gürült
seslendir
Berlin
dikkatle
özlem
adımı
fiyatlarını
Pandemi
teknikleri
kitapta
kullanılmış
Kud
yatay
hukuka
tutarlı
geçirilen
şüphe
kaldırıldı
##esk
##PSS
tahliye
gelecektir
öneriler
Kuran
yazmaya
borçlu
seçerek
diyabet
çalışmalarında
gerekebilir
##lanmak
##uştan
Avrupanın
çocuklarının
ürettiği
yut
sanatı
Tatlı
mesafede
UE
dizinin
BTC
yanından
Yönetmelik
uzaklıkta
çıkarken
Okulu
kalori
finansman
##enlerin
##osta
yurtdışı
Nar
Biden
Yoğun
fas
Şüp
Şer
gönl
soğu
Marx
konulu
faz
yapabilmek
omur
annem
dezavantaj
##rasi
Geleneksel
yararlanmak
##ff
kumanda
##ografi
gri
##vir
##oğl
kullanmayı
##abey
cumhuriyet
çözül
##ılmamış
getirmiş
çıkmaz
arkasına
bırakan
iddialı
kalmadan
İpek
çerçevede
kaldırmak
maçın
İşçi
başkent
TÜRK
aktardı
yapılar
##tas
ömürlü
bildiğimiz
##isar
##laşır
coğrafi
fırsatları
Nas
##lası
şimdilik
vesile
Ofis
piyan
ekleyerek
açın
Wi
##ladığını
suda
sayıları
##atlar
yapısal
Boya
Avusturya
##içeği
##ongul
adap
listelen
yöneticisi
durdu
öğrenebilirsiniz
Hua
partinin
##osistem
vahşi
hepimizin
bitim
işlemin
Hizmeti
elma
gittim
sınıflandır
koyup
Fon
basamak
tank
aileler
hareketle
oluşturmaktadır
lojistik
taksi
Başakşehir
düşündüm
yoğunluk
gecesi
kentinde
##başka
seminer
geçmişi
Garanti
destekli
macera
işlemci
##osunun
bırakır
##ıh
Hele
##onguldak
kolon
TLye
Önümüzdeki
1960
klav
iştah
aynen
sitesine
yerlerden
ferah
kampanyası
##enizde
karşılaşma
fren
başlarında
hırsız
ortamlarda
BB
##SA
Yeter
üretilmiş
Tap
van
##akkak
belirtiliyor
##umda
##ota
çorba
rız
defalarca
##ava
karışımı
metro
##edd
Bö
ikil
kalkın
dinleme
hikayesini
Key
oturup
razı
Türkiyeden
##ersp
aklına
bırakarak
Sizler
yapısına
cenaze
Erken
Muhar
##hen
uygulamasını
oyuncuları
yerlerinde
World
kanama
muhabir
Komut
madal
yayınladı
##das
sözlerini
yaklaşımı
anlatmaya
sendika
yaşından
tedbirler
Turgut
bankacılık
rakib
tekstil
belirtiyor
Şiir
dediler
##cilere
sü
avantajları
düşmüş
yanındaki
koruyan
Adan
İlan
butonuna
##iyse
sütü
Tekrar
çalışmada
Trade
olduğunca
rutin
Eren
93
verildiği
kimliği
yaşıyoruz
fırtına
oldular
Herkesin
seçkin
##tiçi
sağlayabilir
nedenlerle
Otomobil
İsa
Cap
Tekir
sitemizden
Aşağıda
Çukur
sosyalist
Arnavut
GÖ
##ulamaz
Yeniden
kötülük
##bit
SMS
izler
Dernek
mav
termin
Wil
kasa
gücünün
yeğ
tümüyle
süpür
Basketbol
Gü
Kli
Moda
görmesi
gelmiyor
başlayabilirsiniz
tansiyon
tarafın
Zonguldak
sahiplerine
indirmek
benzeyen
##lamasını
##üse
Yayınları
şartlarda
belirtir
sarım
iseniz
fakir
koyan
muhafaz
bulunabilir
sağlığ
94
##gir
benzet
Ten
IŞİD
sendro
düzenlemeler
plak
Devleti
##sten
kuz
Yarat
Anti
tayin
kurtarı
kentsel
fedakar
eğitimler
Kırk
müziği
sundu
imp
etmiyor
malı
ekle
##fendim
##ilmeli
##mis
LED
hadis
belirler
Belli
sistemde
##laşmaya
zorunludur
esin
sürek
##icil
AF
ağacı
stü
kullandığımız
zamanki
uygulamanın
kullanımını
uygulanabilir
DNA
rev
Milyon
seçmek
fazladır
yazarın
Hamil
##DK
frag
##bal
Telekom
bitti
haklarına
programlar
töreni
go
Cevap
Otur
##mine
##alisyon
Ödeme
oturt
çekirde
pirinç
okulu
apartman
fet
##port
Hepsi
Başk
##arn
tercihi
kullanılmıştır
Flor
başkanlık
Sinema
öğretmenler
Güçlü
Dern
Kazak
nedenleri
Sizi
##aktif
çalışın
##rettin
erit
Tas
##ott
tarama
##üsk
##afe
Piyasa
##CA
suyunu
##ılmadan
türüdür
yama
Diler
##oley
bulundukları
dersi
##IA
tüzel
Frank
##ksür
kazandığı
ileriye
yazıyı
Buraya
doğanın
nüfusu
Huawe
Ümit
çalıştığını
##atları
pandem
maddesinde
yönden
Batman
Polit
Hadi
Fazla
dosyaları
özgürlüğü
çıkışı
görüp
diğerleri
##xt
karı
Verilerin
WhatsApp
dayanışma
Beden
faydaları
konuşmada
sağlıyoruz
eşyalar
biten
üncü
##ovasyon
özdeş
görülmesi
Avrupalı
arttırmak
düşündü
##ÜR
yeteneği
alkış
##çin
izolasyon
edine
berek
desteklemek
bulduğu
bini
Tuğ
##diğimde
Gazete
##MB
##oksidan
Ayn
##tıkça
vermişti
Kongre
akşamı
yardımcısı
kongr
Başarılı
Eser
##urlar
istiyordu
Seyahat
kirli
UEFA
kampany
##ski
keyfi
ameliyatı
##tıklarını
##lerse
Halı
tarımsal
ürünlerde
Arapça
##raj
CN
##irim
kabuk
##over
##şa
pürüz
Mete
dersler
mükellef
ayrılır
feder
gözlük
City
Birinc
Kole
duyuru
İkin
##imer
##ehenn
uygulamak
Sw
Marmar
##esif
kavur
Kampanya
##ektüel
param
hedefleyen
Kendisi
##ladık
##DP
yetin
oluşabilecek
Alışveriş
Parkı
Mars
##leştirmek
birbirleriyle
graf
borcu
kestir
verecektir
entel
pantolon
kullanırken
kullanabileceğiniz
oluşturulması
unutulmaz
kurallara
Kuvvetleri
Üsküdar
kadarıyla
##gara
koşulu
bölümüne
zeytinyağı
kurtarmak
içsel
edinmek
Genelde
görüntüsü
##tımı
Umut
korkusu
eliyle
##gue
balon
ekonomisi
görüşü
görüyorum
Ze
azaltır
Turan
uğrat
Giresun
patlama
##itab
odasına
hayali
karşınıza
##usundan
imal
yaşantı
senet
animasyon
arayın
çevresel
salata
atak
çözüme
kıskan
dökü
hesabına
Almanyada
devasa
çıkarır
ihtiyaçlarına
anladım
çalışmalarda
ru
Olağan
kullandığınız
##98
yapabileceğiniz
siteye
olursanız
Havaliman
Premi
değişiklikleri
stratejileri
Kurtuluş
kelimeler
uyk
Ast
bambaşka
adrese
Bitco
şoför
listesinde
İN
Cerrah
okumaya
ötek
##miyorum
üstesinden
Sunu
Mali
düşünüyorsanız
soruyu
hiper
lin
etek
sigortası
Konak
##iğinin
ihbar
varoluş
ressam
850
neyi
##IŞ
faydası
gezi
Şeri
##hassa
SATICI
Opsiyon
icin
örnekler
Vergi
nu
istediklerini
Evrim
Washington
aklıma
sahneye
Zeynep
alanların
teşh
çevreye
irtibata
sitesinin
Uzay
##miyordu
sadık
bulup
İST
Turkcell
Dos
üreticiler
bulunmakta
cihazın
emeklilik
çelişk
kaydıyla
Bart
##lamayacak
izi
Mutlu
tanır
Oldukça
##ozit
neyin
Erol
olduğumuzu
uzmanlık
alanlara
##inler
havaya
düşüncesi
açlık
Esn
##mışlardır
##ivert
meslektaş
Başlangıç
RAM
konsan
hop
##apı
Afrik
##ektro
Başta
kalor
etmekten
Sekreteri
metrekar
kadınları
Tv
şebek
düzenleyen
araştırmaya
tecavüz
görünümü
Cemal
varken
inkar
isabet
Rah
##lidir
Kalite
yapıları
dostluk
acımasız
aylarda
Hip
harcan
şekillerde
sıralarda
Mesl
kullanıcıya
##istal
##tığına
nişan
helikop
kuruluşlar
##tığınızda
Göç
Şüph
Kapalı
istemiyorum
Gökhan
İddi
Diyan
temeli
##anıyla
arsa
ağırlığı
nci
yayılan
koyduğu
##acivert
ız
elveriş
batarya
değiliz
teşekkürler
seçimleri
Sözleşmesi
ailesine
ümit
beğeni
yenileme
yakalaya
yaratıyor
##atlı
aralığında
desteğiyle
##opol
hastalarda
hesapları
ziyaretç
Yargıt
cesur
bürün
ibar
##lamayan
mühendislik
Sir
##egment
otorit
##edikleri
havale
eğitmen
Sy
Bahar
gürültü
fiyatının
söylemiş
siparişi
şarkıcı
taklit
##iyeler
Düzce
Mahkeme
Onları
Temizlik
##erspektif
##abi
katkısı
göstermiştir
Kıy
sınava
tutuyor
uzakta
##UK
çocuklarda
Arıza
işlevi
##dil
girişi
basketbol
Kütah
ÖZ
işyeri
kurulumu
Kürdistan
1970
temp
korumaya
hizmetine
başbak
##memişti
anlamaya
kutusu
kaybeder
nesne
Kişi
pembe
boşanma
yarısında
yürüten
##latan
oranını
İnsanın
ılık
Kans
edilmesine
konuma
SGK
yönetmelik
Mobilya
Nih
siv
diyordu
ca
aramak
seviyesini
olanlara
Demokrat
tutulması
Birden
Kök
Burası
soğutma
görüntüleri
yüzme
##andum
yıpran
pomp
Mardin
Mini
sunmaktayız
tl
gerçekleştirebilirsiniz
entegr
etkisiz
soğut
Peygamber
çalıştım
Portekiz
Şük
##medim
transferi
##vey
Adım
takdim
değerinin
yazıları
müzisyen
saatlerde
##tınız
üreticisi
KPSS
##asus
oyuncunun
Sony
Serdar
koyuyor
elle
cennet
ortaklık
Çor
##hisar
##ily
yerleşik
sevdiğim
hepsinin
Fed
geliştirdiği
İdaresi
Kurban
Pazarlama
azın
nemlendir
Gümrük
Amaç
biliyordu
firmalara
Sivil
olduğumu
istemeyen
indirme
bulmuş
rahatça
##urk
söylenen
rep
##lemez
ürüne
##eliyiz
alınabilir
istenmeyen
siber
sorulara
Kendini
düşmesi
##eto
aralıklarla
Ür
##artma
Ül
##EX
hemde
Log
uzmanları
üretiminde
buldum
aydır
virüsü
sağlamaya
Ameliyat
artışla
kl
##afak
kaldığını
çirkin
kası
sıkıcı
Eskiden
öncül
tercüme
sayısına
vaj
##LA
müş
ilgilendiren
Yur
kef
MÜ
pencere
##LARI
operatör
##ileceği
Soylu
##anılan
videoları
yetenekli
##abiliriz
##dex
gas
iyidir
Hor
##adok
dönemlerinde
sistemlerinin
##jik
ekosistem
Askeri
kozmetik
##amıyorum
Radyo
makineleri
hidro
hususunda
pul
Paket
Sayfa
##ızın
##ço
beklenmedik
##IP
oğlum
komik
##layabil
Intel
taşıt
yöntemlerle
bulunmuş
alınıp
Gelen
girişimi
dilde
Sof
sandık
mevduat
Adıyaman
yapmakta
Tıpkı
ilde
çekiş
sürdürdü
parlamen
kurtuluş
##ame
enstrüman
##eceğin
bine
salgının
inter
değerinde
Fırat
muaf
doğumlu
koyarak
hi
Real
soruya
koşullarına
Arı
döneminin
alanını
düzenledi
Otob
Düğün
sağlaması
filozof
##İB
kuşat
mısır
ordusu
##asıdır
ideolojik
Görüntü
Milliyet
ulaşması
##hidrat
tersi
##dirme
Halbuki
küfür
##tefik
diyoruz
1998
##meme
##üydü
atma
fındık
desteğini
##ımını
##ansal
objektif
müracaat
havaalan
sofra
vatandaşı
bedava
otomotiv
fikirleri
Acaba
başlayın
fiyatlarının
Brezilya
Sistemleri
##EF
kuşku
Yaşa
Felsef
Çorum
Zek
##wood
dinlemek
##osuna
mermer
ceket
belirlem
katliam
##icileri
Çekici
MEB
itfaiye
başlangıc
##ERİ
##füm
email
Türklerin
Büt
ilki
112
sevdiğiniz
TEK
Risk
ruhu
Çevr
dayat
seçmen
Kağıt
##70
İklim
fırsatlar
##gıcı
##leşmesi
uğruna
hafıza
vakt
niteliğinde
sırf
söylenebilir
Lok
sağlığına
Enf
##TR
hareketler
düştüğü
Kadar
##hael
Moskova
##ografik
cezai
Wal
##cik
Master
dereceye
zaf
yaşı
##IC
yorumu
kazandıran
bulunarak
Num
etmekle
##eceğimizi
sezonunda
kalmıştır
##ikar
##üyoruz
Petrol
##ited
geçerken
kararın
miktarını
kre
konusunu
sıcaklığı
##ihazırda
sorumludur
adayların
İleri
öldürül
faktörler
büyüklüğü
##eck
muhakkak
vekil
kadınlarda
Home
arke
boşa
Toplu
##mayacaktır
##mektedirler
Kırık
denildi
giyin
Fatur
##SS
eleştiri
EK
doyur
vurdu
önemine
yazıcı
Vücut
çıkarıp
To
yapılmasına
gerçekleşmesi
göndermek
farklılıklar
telefonla
uzantı
vesil
Ethere
gelmesini
Robert
eksiklik
mevs
niçin
merakla
bulunmuyor
konuşuyor
##16
Asıl
tamamlandı
bakıma
tasarımları
sayısında
##etiği
ülkelerden
terey
göstermiş
##ören
birbiriyle
Resim
olumsuzluk
Hit
tutma
etkile
gönderdi
Mühendisliği
kullanmanız
piyasalarda
yürütül
Amas
Boğaziçi
bilgisay
Uc
##limi
oynanacak
yazmış
zır
kaynaklar
Şirketin
Önceki
Hel
odaları
Um
geliştirilmiş
eğitimleri
trilyon
sürümü
cephe
bekley
klas
##ulabilir
mühim
ödemek
yönetiminde
planları
##ırnak
Ekrem
kamuoyu
yığın
tasarrufu
olmadığından
moral
##cular
##ward
düzenle
sokakta
potansiyeli
ilaçlama
hastalıkların
##verengi
versiyonu
bahsede
nevi
##cımız
ülkesi
İste
Super
oluşturdu
##indan
yılan
##ersen
verilebilir
sabun
Vir
##LERİ
##emiştir
Üz
##layınca
Atak
##tma
##ness
##itasyon
##ble
ilgilidir
dosyası
Çocukların
zinciri
yoğunlaş
yapanlar
öğün
##kif
##ılmalı
yıldızı
şanslı
Rektör
##mıyoruz
seçilmiş
##emişti
##sterol
##masi
Bilişim
kısıtlama
Çatı
danışmanlığı
Derin
İy
eşyaları
vatandaşlara
Sermaye
cildin
edebileceğiniz
Fatma
bulmaya
James
değişiyor
çektir
heves
kıp
##ağan
Hayal
##canın
zorunluluk
rot
vermey
burn
##15
yatırımları
muy
çalışıyorum
##adam
kişilerden
##aması
##raya
##32
önerileri
bekler
sonuçta
elindeki
emri
Yüzyıl
subay
çen
Engin
##ladılar
geçtiğini
harman
geliri
burc
muhtaç
ısır
sunmaya
işçilik
ziyaretçi
İttifak
Seri
şur
İBB
şirketlerinin
benzin
Huawei
eksen
##eld
kızıl
##daa
Sayılı
öylesine
tutmaya
Şid
1997
ekranı
aşkı
fay
sevimli
Alanya
Filmin
ulaşın
sınavı
Kars
Trak
##tası
seçildi
burjuva
tanıyan
bırakma
gezdir
BT
bulunduğumuz
ziyaretçiler
Bağım
##ışık
verdiler
algıla
hele
fena
bron
başvuruları
maddelerin
dönüştü
süreyle
##ruba
yapıyorum
Altı
Ros
heyecanlı
habere
işletmelerin
belirleyici
şiddetle
1995
katma
tet
Hoş
Yönetm
kepenk
değerlendirilmesi
Tedavi
ISO
katılacak
##asyonel
ergen
süreleri
biçiminde
çatlak
Diyanet
Düşük
markalar
temsilciler
gazetesi
nikah
adından
telaş
liralık
ülkelerinde
patent
Basit
##örek
##amadığı
Note
##icisi
dilekç
eşyaların
açılacak
içindir
perspektif
ölçekli
soğan
eklemek
yazdır
AVM
off
##ılmasında
taşıdığı
Değişim
deneyin
ES
lehine
BAŞ
kısıtlı
##EZ
##oga
görebilir
Zirv
##ruklu
sanatsal
Kos
##ızda
##ano
Yılın
deyip
şen
şeytan
basıl
kalmıştı
binası
erkeğin
tehdi
ayna
Willi
taktik
telefonun
duyguları
Kural
##td
öneri
paylaşan
Vic
piyasanın
Xia
##eddüt
haklarının
hafifçe
Yor
yılını
##cra
##pir
savaşa
hammad
reg
hisseder
logo
bitiş
##lalet
yaptılar
yapamaz
Lider
yasağı
##oleybol
Sanay
tedir
canım
tipik
çeliş
##19
##arl
tehlikeye
##ockcha
##ecekler
dağın
İÇ
ederse
bölümleri
olmamız
##biler
amaçlar
Tev
##usa
##değer
tuttur
zeki
konudaki
nemli
##kilatı
tahvil
Hakkı
toplan
Şeyh
öneririz
öneme
savcı
Hatır
tutku
hil
tarafınıza
Yolu
fakült
hatırlatan
evcil
atmış
bıraktığı
kaldım
kişilerle
gemisi
lık
seti
##mıyordu
tücc
##dini
faaliyetler
ayıran
vaziyet
sözleşmenin
##bilim
##ılıyordu
##eyz
kartları
he
direksiyon
branş
yaparlar
##dyo
problemler
Kastam
Esnaf
##osunda
oluruz
Berk
modellerini
Ticari
işleyiş
yollarla
hesabınıza
Hisse
##iyetle
Atatürkün
kelimesi
Trend
tahıl
alıntı
sürün
hurdası
sektöre
kendisiyle
host
zorunluluğu
konuşmaya
zararı
Hen
etmesine
ödemesi
Kullanıcılar
odada
çıkarılması
işleminin
konulardan
ov
döng
etkilenen
almasını
çıkmıştı
Söyle
felsefi
müzaker
PTT
sunarak
Dekor
##lash
sindir
süresini
Sili
##astır
modelini
Tekirdağ
Ir
Fas
sağlamış
müdürü
insanlardan
tarafına
odasında
alanlarına
Döviz
deli
atabilirsiniz
emlak
damg
yansıtan
Il
muhabbet
aktivite
yetkililer
konuşmasında
almakta
Kafkas
##İST
##lıca
markaların
vücutta
aptal
vi
olasılı
aranan
hamilelik
Faruk
senary
içeriyor
kullanacak
riskleri
sezonun
ayrılmış
Rıza
Niş
istisna
üş
harç
değişti
seviyesinin
Norveç
nispeten
##sıyla
IQ
##ımızla
canav
ülkemize
teşeb
iltihap
LG
elimizden
##itleri
annesinin
Müdürlüğüne
car
kullanıcılarına
##fiye
Sün
Merce
Biri
##oban
işleyen
##dükleri
gönderildi
programını
Eh
oynuyor
Sertif
Yangın
önerilir
eğilimi
Plat
lerin
##çelik
oluşu
Lu
gelişimini
Güler
5G
alanının
fikirler
Belediyespor
yaya
avuç
Şubesi
Akş
iyileşme
olabilirler
büyüklüğünde
akın
açıklayan
##iba
düşüncelerini
kaybetmiş
mücadelenin
olana
faaliyetlerine
##nes
ilişkilendir
Hikmet
öksür
kolu
satı
yaşanıyor
suçu
##ebilme
günkü
çı
EM
##tij
##çağ
taşınmaz
Toplumsal
sih
yapıyorlar
içini
##crip
amaçlayan
##kinden
Devletleri
hedefliyor
Yarı
##cağının
##ıdır
süresinin
geldim
Aydınlatma
kenarında
ödemeler
kullanımının
Karabük
bağlayan
ulaşır
durmak
sonuçlarına
tamamlanması
kargoya
yıkım
kararının
##opi
bulabilir
müze
aradan
Silahlı
konulara
YAP
Pal
takı
üzül
vereceği
mutsuz
koyar
yapmaktan
noktadan
##laha
krom
III
Mol
diyorlar
titizlikle
ekleyip
düzeyi
takılan
asfalt
##ike
koşullarında
kurarak
şifre
anayasa
##ücük
hatası
üretimini
öncesine
##lakat
duyuyor
tanımlanan
kapılarını
##orn
emzir
Putin
yoğunluğu
çıkarıyor
Yaşlı
alabilmek
##ilmeyen
Umarım
fiil
Kaymakamı
edilirken
iktidarın
Şart
geçmişe
130
bulaşık
sektörüne
##dında
Diyet
yazının
cins
tutulamaz
indirimli
mesajlar
##alizasyon
okullarda
sebepten
##liliğin
çekildi
##que
bilerek
Hekim
Koltuk
zihniyet
durur
FI
sahasında
tanımı
dışarıya
depr
fiyatlara
iktidarı
beraberlik
müşteriye
kanalları
pist
kalkan
seviyeleri
inat
antioksidan
görkem
arıt
##lenecek
Sanal
patron
Camii
dokunuş
tarzda
##uluğa
abone
politikaları
##dunun
dk
gittik
filan
kutlama
tuttu
öngörülen
taktir
Ted
tümü
##ildikten
##ikleri
Asker
edilip
Ras
##delen
Araba
firmasının
edilmek
##tes
talih
cı
Takip
350
##ininin
Komutanlığı
Lo
Merk
kanlı
metn
ulaşma
Lit
##larınızdan
konusuna
düşünülen
oynar
müşterileri
Konser
Personel
Uçak
Komün
Batılı
sorumlusu
bölgesindeki
teki
Sözleşme
işlemlerde
sıkıntılar
Veli
almaz
sindirim
nazik
kooperatif
Kaldır
Kötü
yapmalı
askerlik
Mesleki
göstermesi
obez
kaptan
mama
Ziya
sınırlandır
Otomatik
##ulma
##mo
##lenmesini
böylesine
koşu
komutan
katil
##lüğün
Pakistan
Bildir
iri
##çıları
olabilmek
yapalım
1994
##ilmesiyle
yıllara
vücuda
laik
##işimi
189
Politik
##ilmeden
şak
püsk
yemekleri
etmenizi
##YK
yapmaz
dönmek
##sy
burcu
ödev
dub
Madrid
iktisadi
hor
##ilikon
özelleştir
çevresindeki
tanınmış
Serbest
monte
Siyasi
şi
delalet
##au
Levent
Şar
##parta
Tamamen
üyeliğ
istiyorsunuz
Yargıtay
İf
teması
kabiliyet
katılarak
hiz
İzmirde
Sahip
ödüllendir
Sizlere
##habil
Aşırı
Michael
periyodik
rekab
Hon
formunu
Rize
alınıyor
ülkedeki
programa
Onlara
bulunacak
dolgu
Değerli
yapacağını
duman
saya
anlaşmalı
Kimse
plakalı
hastalığa
##ifer
tanr
salt
Amerikada
ettikten
kandır
##df
ihla
sunulacak
kısalt
araçlarının
Store
Öner
gizemli
tatb
eminim
böylelikle
SU
olamaya
güneşin
programda
tutulan
turistik
Digit
yazıp
Cas
KV
##ünüzde
##acağımız
oluşması
ilişkilerini
işlerinde
davranışları
stop
görüşlerini
##isten
##LÜ
suçundan
1950
yöne
Adem
eylemi
Tık
panik
##fon
hamle
içerikli
projeye
sonuçlara
Vah
##ılmasıyla
eksi
Piyasası
türüne
altındadır
videolar
##ree
Bilindiği
başlattığı
Anal
##stein
teyit
edersiniz
vermeyen
hedefler
DH
çiğn
yönündeki
##ladığınız
iniş
yapılabilecek
Dede
gördüğüm
padişah
##sev
fiş
Jack
paylaşılan
Komitesi
kayıtları
karg
karbonhidrat
metaf
hane
taşıyıcı
Günün
durumunun
resimler
kendimize
makalem
daral
evler
tesisi
varlığın
##ion
tereddüt
içermektedir
davanın
##giliz
mısınız
##anıp
Şehircilik
Nuri
##malara
Anah
kafe
##ll
Yel
alandaki
Kulüp
Hab
tedirgin
##ozisyon
organizasyonu
bilimin
Dahası
vermekte
kaybede
bulunduğunuz
##eceğinin
##bistan
korona
arıyorsanız
biriydi
hedefleri
##ruz
Çil
geleceğin
sonucuna
sorunlarına
deneyimini
konuşulan
Ucuz
çağrısı
lens
çevresi
çözünürlük
zamanların
yorgunluk
sürdüğü
dog
isteyenlerin
Vekili
coğrafya
pekiştir
geliştirmeye
Yazıcı
İkti
ilgil
özer
düzensiz
betim
gerekecek
Lor
gözyaş
projede
Toto
paraya
WordP
anes
izinsiz
diyal
jür
vücudu
düşünmüyor
yaşadık
söyledim
programın
Mercedes
alak
faturası
istemiyor
##PU
Nazım
platformda
ilkokul
partisi
Mük
Stu
taki
##latıcı
##tum
paylaşımı
çayı
##iğine
tik
dışa
1996
Adli
Politika
##ny
##ciye
turu
you
ustası
Çiz
##lısınız
kitabında
Sanırım
havaliman
kaşık
yaklaşan
kararlaştır
hizmetlerinin
yuk
sunacak
anlamını
bilek
Nüf
William
Pınar
##ristiyan
Yanlış
sorar
##ğini
haykır
##latör
çoklu
sola
ulaştığı
ifadeleri
partner
##eğiniz
programının
##way
cem
sorularını
gı
##avallı
paylaştığı
ÖSY
Bed
çalışanlarının
Özcan
##biye
çare
petek
bankaların
##onomik
tadi
konumlandır
listesine
yüce
##yordu
paydaş
şeylere
köpr
kimdir
kuruluşların
birbirlerini
##çıların
piyasalarında
with
koalisyon
tütün
Çinin
Rabb
merhaba
jandarma
doğası
cir
odaya
##ee
Ford
yapmaları
evleri
gösterecek
çukur
badem
Belçika
gov
kutup
görmezden
##24
Komutanı
müşterilerimiz
img
##tle
##ero
unsuru
Tro
110
işlemlerinizi
meg
akan
deplasmanda
fiyatını
##rut
neyse
ulaşmış
Yılı
##tıp
metaboliz
lambası
##irmen
Angel
kalarak
başlangıçta
dalı
merkeze
gerekmez
başara
##lenmeye
Cinsel
kayak
##DER
##seler
topluluğ
zıt
cildi
şeri
##ğından
testleri
Yerli
Şampiyonlar
gazı
##TS
işkence
sözlük
Sevgil
Hizmetler
##ilebil
Üm
altyaz
şirketinin
sağa
şeylerden
gösteri
istihbarat
sorununu
##aze
sıraya
atıldı
Dilerseniz
gruba
beklentileri
mantığı
taleplerini
ecz
isterse
##lıklara
zorlaştır
Ondan
##tebilirsiniz
düşünmeye
Lüb
oranına
yükü
hüzün
gelirken
benziyor
##ford
##cy
rahim
ekranda
Ertuğ
iPad
belirtiler
özerk
önünü
pişirin
##lacaktır
müşterinin
asistan
yarattı
müsabak
ilanı
prov
##lahat
##iliğine
mg
dünyaca
Düzenli
kalsiyum
mıydı
duyuyoruz
##cim
kıta
BİL
eklenen
hakkının
örtü
adayları
oğl
tümör
Karş
ödü
##ölye
montajı
memuru
Jon
##tılır
izn
tasarımlar
sis
ehliyet
tahmini
Prens
amatör
##lamıştır
çekilmiş
azalma
Aut
tarafsız
TFF
aktarı
Ley
ulaşabil
kuyruk
beklediği
bilgisine
çıkmasına
vatandaşın
fenomen
Gerekli
açmış
Grafik
##laşmanın
Robot
kolaylığı
koç
Lakin
sürülen
büyüsü
yüzlü
motif
George
nolu
dizin
içeriğini
taşınması
gidin
uğram
adresinize
ihanet
##VA
Eyüp
şartlarına
Blog
entelektüel
korsan
konsol
huy
kamusal
##EG
Altay
yetkisi
Öyleyse
görünüyordu
oturdu
yumurt
##çiliği
Sohbet
dayanak
Elif
##lanmamış
köyünde
Fo
##yak
sıkıntısı
baskısı
halkına
okullar
oynadı
egz
Şirketi
Bilimleri
içerdiği
##utu
siste
nesnel
rastgele
Option
Cer
içki
kullanılmak
kavra
##last
hareketin
bölümünün
##sinler
getiri
Yedi
160
##abo
##eleyen
GÜ
iktidara
##ursa
##lamıştı
uzunluğu
seçme
öğüt
tahl
Dışarı
Gazetede
vatandaşları
taşım
yin
kalkınma
artırır
ederseniz
İstih
maça
getirmeye
##had
liberal
##lanmıştı
seferinde
parçacık
Gezi
saklıdır
Yoz
bitkiler
##ostil
edemey
manuel
Ağacı
Sub
İHA
getirmektedir
140
arttığı
şartıyla
1992
##ülin
görünüme
eşitlik
##duğuna
Zengin
kelimeleri
yemekler
üretilmiştir
görecek
kullandıkları
emisyon
iştirak
##imark
söyledik
kullanılmaya
kendilerinin
nice
kazanmaya
HP
Hani
cihazların
okyan
Sec
köl
ellerini
Bırak
çıkarın
##eyiz
dekoratif
##une
çizim
çubuk
##esih
iğne
AŞ
bilgilerinizi
oz
asır
##İAD
##ıldıktan
Denetim
lu
Geliştirme
İlişkiler
duvara
Tüketici
gönderilir
##olojinin
yararlanabilirsiniz
ortama
ilçede
iyisini
##elerdeki
home
sıralarında
operasyonu
kemer
yemin
Bost
bilmeniz
yüzük
düzeltme
açacak
##ew
sorul
büro
gerçekleştirilir
devlete
seferber
##UZ
destan
##ürler
yakalandı
Bekir
##reden
kontrollü
üzüntü
TT
renkte
Devletin
ayağı
duygularını
gönderdiği
parit
gelecekteki
çerçeve
Tercih
azalır
doğaya
doların
liderlik
devamında
tebliğ
hazırlanmıştır
bela
##lamanız
söylemişti
helikopter
imha
Demirtaş
Zeki
arayabilirsiniz
##sünüz
##bolu
kuruma
kategoride
anlamsız
Başarı
çarpış
böylesi
kaybettiği
filminde
filminin
kolesterol
edilmişti
çizen
üretken
geçirildi
King
bilişim
olmamak
mezh
cuma
Sekreter
başlangıcı
İlhan
kolları
1993
suyla
savunan
vermiyor
##eya
indi
kazanabilirsiniz
katına
hain
cor
konuştuk
ili
adımlarla
##ilmekte
Çakır
kıvam
##itin
yaşlarda
peşinden
görevine
##mon
GE
Çalışan
##latır
konuların
niyetli
Mender
hastalıklara
Yağmur
planlıyor
yıldön
Borç
##biliyorsunuz
ikincisi
##yacaktır
hallerde
seramik
duygular
seçeneğini
##pas
tasav
metod
##ico
erdir
lot
##MAN
##ARA
alınız
senetleri
özelliklerinden
değiştirilmesi
oluşturarak
Birlikte
gelişimine
Bakanlar
aygıt
Aşı
kahverengi
##ümün
toplantıya
Ethereum
olmalısınız
##ct
muv
OD
##ockchain
sorusunun
kentte
oluşacak
##stır
istikrarlı
Mesut
seçebilirsiniz
Yetkili
bölgeyi
Coin
Vize
##iliğinin
hukuku
uygulamaların
##by
taç
##lığınca
##zim
Kulak
belirleme
Demokratik
##ml
Ortalama
kaçan
187
hacim
##evler
tutuklandı
hayatlarını
sebebiyet
bakıp
olanın
İzmit
nedenlerden
Sayf
##siyel
üretime
yans
öfke
##deri
ardında
değinen
Fikir
çet
konulan
##pik
performansını
dilerseniz
##ukatı
liradan
kına
başaran
annenin
kutluyor
muciz
##tiğin
derdi
Mikro
Yavaş
Bitk
Olan
seçimlerinde
##fone
edeceğiniz
havası
istismar
Özkan
##ılmaması
hataları
##mayacağını
hırsızlık
SPK
gerekenler
yapama
##iyen
yorul
Deprem
burjuv
Tarafından
beceri
başvuruda
müf
Latin
bomb
fol
##Bİ
##baz
çamur
İstatistik
##yaka
hakik
kıvr
sürat
fiyatların
Finansal
atıp
işçinin
##ope
bölgeleri
ailelerin
metni
olmasıyla
yurtdışında
kahk
firmaya
Ürünleri
##ath
Lav
aksak
##inceye
##abinde
nör
okulun
kalmıyor
kısır
Danimark
##cm
İktis
geçirmiş
sitelerinde
azalta
Group
##lamasının
Polat
Kastamonu
güvende
Saldır
##lass
belirley
##yapı
Katar
şarttır
sordum
bakanlık
bulunmadığı
gönderme
Annem
lamba
icat
işlerde
kısmından
##iyenin
Amir
anahtarı
bilmez
açıklamaları
levha
##endi
Kelim
taciz
Gençler
Kenan
sahası
ÖSYM
İL
pot
apar
lah
Önder
Tİ
değişmektedir
##etice
azami
Şif
ısınma
ellerinde
efsane
##eliğe
karşılıyor
geceleri
1500
grubunda
kapsamına
alanlarının
kurmaya
Adet
degil
kapıda
nü
Wh
##ginin
çalışanı
seyred
karşısındaki
dokusu
spek
##bre
duruyordu
idam
santim
##otek
alabilecek
##ue
ulaşarak
iftar
görüşt
##emeyiz
benimsen
sunuc
##hendisi
değerlerini
elli
İrlanda
bülten
ita
hazin
Yarın
araştırmacı
360
erdem
##18
##akt
yapmaktayız
##je
##dirler
tutanak
taktirde
Hi
kardeşim
şampiyonluk
Ltd
gizlilik
##mayacağı
Tanıtım
##ymış
Olimpiyat
##emedim
düşmanı
Hastalıkları
pürüzsüz
##anıza
irtibat
Sinop
Ertuğrul
##odafone
sulama
diyelim
BIST
Mekan
yayınladığı
Çiğ
tatili
Big
Müst
bulabil
malzemelerin
yatkın
yapımcı
fizy
Makine
##hum
noktalar
lacivert
##oksit
Kütahya
kurutma
Sus
##amm
Kısaca
beşinci
donanımlı
##dine
ekonominin
akıntı
Akr
##cağınızı
kabin
Yıllar
İnc
##dığınızı
baktım
General
yaşayabilirsiniz
yıllardan
Anadol
dayanır
Operasyon
iğn
Isı
temelini
itibari
peki
feth
Full
İsmet
##aklık
elverişli
sitesini
Teklif
gidermek
##king
kasaba
geçim
yöneticiler
kilise
Bors
dikiş
dinsel
Platformu
##BİT
adresini
bilgilerine
yüzleş
fıs
olabilirdi
Hristiyan
Çağrı
yapımında
Ust
saklama
tanıdık
müttefik
##melerinin
sper
##igh
yakalamak
Endüstr
adama
Arist
##lament
kumar
tüccarlar
aldılar
cari
Bireysel
referandum
kırıl
karşılayacak
Meş
senesinde
saldırıya
sınırlarını
partiler
kırmız
Baskı
yapmıştı
rota
nezdinde
##LIK
gelmeden
##olat
çıkmasını
diyecek
##dırıcı
romanı
Bölgesinde
gününe
Ataş
Yıllık
##apur
##epe
gözde
ürünümüz
Yahud
kullanıldı
ilgilenen
ibr
önems
Edinilen
parfüm
kapsamı
Gölü
mola
helal
ilkesi
za
durumdadır
işver
karşılan
gala
Ran
ayıp
satışları
Rüya
Emlak
hayvanları
ihrac
taşımacılığı
arg
Intern
imam
gitmeye
Belirli
bulunmuştur
oluşmuş
piyasasının
resimleri
Rahat
personelin
tamamlanan
Şam
yerlerini
olaylara
##dıma
öğrendim
LC
kadromuz
ilişkiye
Gerçi
##cası
Kitabı
Yönetmen
destekle
Mert
adının
pazarı
Macaristan
##St
düzenlenmesi
##itör
##üsünden
başkalarına
giderilmesi
milyondan
kursu
etmektir
kabl
aklınıza
Ülkemizin
çapraz
WordPress
anlaşması
App
Ayhan
Malzem
belirsizlik
merham
gerçeğe
##ettür
kalka
sormak
Forexte
sadakat
Tokat
tasvir
Gönder
nüfusun
Apostil
şe
gördüğünü
##açlı
bakteri
gerçekleştirilmesi
mam
bilimi
salın
çekmeye
kütle
heyeti
pasif
##YD
evinin
Etk
gi
##lilere
Alınan
##yat
##stanbul
öğretmeni
cidd
abar
vatandaşlarımızın
tekne
mikrop
##alp
markaları
maliyetleri
tetk
Tec
Faz
Xiaomi
minnet
##meyle
ikisinin
giyen
kaybetmeden
okuyun
yakınında
sürül
Federasyon
hastası
sans
karot
havlu
çeşitlilik
yönettiği
belirlediği
karab
atmaya
Libya
akar
Bazıları
kalbi
dönmesi
##ght
derinlemesine
sorusunu
yürüttüğü
müşterilerinin
##BİTAK
uygulamada
üstlendiği
samim
##olosluk
Avcı
bölgelere
aralığı
gülüms
Coş
##win
Haş
yapıların
havanın
veriyorum
veritab
medi
toplayan
yetişen
alabileceğiniz
salonunda
dr
##ille
kin
miy
dünyadan
çıkarmaya
norm
haftalarda
kaçağı
listesini
projesinin
Matematik
ilacı
getirme
esen
sağlamaktır
##Hz
okurken
##ja
İngilterede
kaybına
istekleri
Zih
sepet
oluşumu
yayını
Koy
ajan
kitabını
##tatör
om
verebil
tahrip
heyecanla
Memur
prestij
kurmuş
güçler
ank
##my
Andre
ayından
hoşgör
Ark
işlere
##ısıra
##uval
cisim
##gazin
Ulaştırma
ezber
##muştum
Erkan
sec
evinizde
sıkıntılı
yörün
aşısı
döşem
##ics
bağlamında
taks
buzdolab
kimseyi
##sub
istikamet
parametr
güldür
##eçh
Yücel
Kaza
##anızda
tanımak
seçimler
talimatı
##onomi
##ebe
Birincisi
kalça
maya
Sos
##ydım
Vodafone
rok
aydan
servet
444
leri
Eylem
duymak
sub
nehir
unu
izledi
BU
sahibine
GÜN
Müm
alınmaktadır
görmüyor
mücadeleyi
##üphane
önerilen
orjinal
Alıcı
Ünal
##duğundan
madalya
savunu
Fethiye
İçerik
##tive
##ule
göğs
sevindir
muhafazakar
Muharrem
yayımlandı
Mezar
gelsin
ag
şimdiki
anayas
##iyo
vazif
anlaşmaya
girmeye
Akif
hiçbiri
##rarı
Donald
##mayız
aks
Kok
oluşturabilirsiniz
değerlendiren
cehenn
ilim
seyirci
##iriz
ög
yerlerine
aydınlık
hel
güzelliği
düşündür
dikey
çocuklarını
Jean
ötesine
Söy
Kudüs
##lantının
çilingir
gününü
Meydanı
hücreleri
##içe
efendim
fırında
kötüye
görülmüştür
Mağaz
dengel
listede
girişimci
##hak
atama
Fenerbahç
rez
aralıksız
##işsel
erişimi
Güvenliği
seçimlerde
Mecl
Organize
yüksekliği
çıktığında
Aracı
Musa
Yumurta
müşterilere
cilde
karşılayan
grubunun
toplamak
nefis
IN
Karat
##müşt
coşk
tepkiler
atlat
##urma
zırh
dilin
Evi
olaya
Kurs
sesler
büyüklük
Sib
yerle
parsel
Ayv
ekimi
ekibinin
##ella
kapısını
sınıfının
çalışmış
##aa
gelirse
Muhtar
unsurlar
##ehri
start
##mark
91
HTT
##iğinde
Açıklamada
##formasyon
krit
beklentisi
Sözcüsü
PDF
Gid
yanısıra
ilişkinin
sahaya
üretimin
##vanı
tarafların
dövüş
bedeni
unsurları
Demokrasi
bilinci
ndaki
##TE
##ilmem
##şan
Suriyeli
dinlenme
verimlilik
KOBİ
Fit
şefkat
##eff
aklım
titreş
büyümesi
Pil
Şöyle
anıt
Ersoy
çevren
Oktay
tutulur
AC
##liğindeki
edebi
yalın
özü
İkincisi
arttığını
##lüğünün
faaliyete
üçte
Otobüs
projeyi
Sing
Kül
Kadınların
takıma
civar
grip
yapılabilmektedir
uygulaya
modu
onda
##lemeleri
##naz
okut
##ivayet
##21
köpük
sayfasına
sent
##ılda
##AG
bulacaksınız
bilmem
kullanması
##ayolları
sinyalleri
Fuarı
Yürüy
##mazsa
miyiz
kimya
tom
dönüşü
rehberlik
ların
Rüzgar
Aksar
düzeye
formasyon
ağzı
bunlarla
ambar
sw
düzenlenmiş
şov
kapsamındaki
vereceğiz
##aryak
Plastik
içmek
götürdü
Beyoğlu
herş
Amb
##lülük
Rich
tahr
TÜBİTAK
##lemenin
Güneydoğu
durmadan
kapının
##ware
kalkıp
diyebilirim
##dığımızda
##dını
##icilerin
Akk
döngü
kilogram
Yöntem
Kızılay
##roz
##hoş
##ANB
bolca
Jul
Bağımsız
element
ekonomisine
coşku
yolculuğu
##uzun
tanıklık
##ingin
deyince
düşünceleri
alışverişi
##cher
Anahtar
efend
etmedi
verilecektir
gömlek
menkul
Üyelik
Akar
hedefe
koruması
Dor
Yüce
yöntemle
sahnede
188
Ca
segment
evlerinde
mart
eleştirel
içeriğinde
Kişinin
Sert
tozu
yon
sonsuza
Yapım
##gunu
soruyor
ürünlerden
##PN
##lenmek
vuran
ihtimalle
hızını
arkasındaki
stratejiler
almaları
##icinin
temelde
eskisi
kaydır
gereç
Teh
söylüyorum
tecrübesi
esnada
##pati
biriyle
kalktı
##pon
söyleniyor
mekanı
atıf
Benz
getirmiştir
balı
askıya
Keç
evlerde
adresinde
geliştiren
intikam
kışın
üm
ray
yöneten
##bert
Menderes
düzenlemek
Kapadok
Ertesi
ED
çokça
##amanız
takımları
Villa
meb
alarm
Tatar
##mamıştır
haberlerin
gözüküyor
gönderim
Duygu
İmamoğlu
kaynaklardan
Günümüz
YÖK
##mda
Kooperatif
mahrum
ziyareti
görevden
##ardı
Çer
söyleyebilirim
125
##FE
olunur
bölgesinin
TSK
750
elektro
Vakf
Tik
çabası
sanatın
filtre
Bilimler
etkilidir
çaplı
oluşturmaya
Ahmed
##ustik
IB
derinden
dersiniz
imkanlar
##aların
Etr
açıklaya
gelme
birinden
karşılığını
Mesaj
##mese
hayret
Venedik
isimlerin
Show
All
fıst
Bingöl
adamlar
1991
biliyorsunuz
dor
##guluyor
are
birileri
kültürünün
ölümcül
Babam
Klima
lap
Yozgat
çalın
dikkatleri
sarımsak
##otu
##iyetin
mekanda
Smart
kapağı
bire
çocuklarına
yanda
alınmalıdır
##ıştırma
ölüme
##çekmece
Sıf
ciddiye
dahili
##feder
THY
başvurular
CF
##luğundan
üçlü
##ds
##ansa
yatırımcının
getirip
dişi
kalmasını
almanın
##kurmay
girmeden
kesimi
aileleri
Tho
##ned
vermem
İşbu
kontey
play
artmaktadır
onaylı
##landığında
arayıp
yönerg
##karah
##tiğine
Masa
Kutsal
##yın
gündemde
##ena
##fin
Bakanlığına
yönüyle
izlerken
Çinli
yastık
ekiplerinin
##mişlerdir
etmemiz
koşullarını
sürdürmek
Kariyer
aramaya
sızıntı
Franc
uzlaş
##ento
mahkemeye
yapmasını
teknolojiyi
yatırma
##ction
##afet
Mag
şube
düzene
##laf
gittiğini
serisinin
faaliyetlerinin
zenginlik
şab
##ilmesinden
Snap
zann
kullanıcılarının
yapıcı
##edin
hamam
kamerası
##emde
##general
başladığında
belirlenmiştir
kızgın
##ropol
##bire
##koç
hib
söyleş
şun
izah
##90
birikimi
görevlileri
##jı
komedi
hazırlanması
varyan
sust
seviyor
##orma
##vis
yaratma
Lef
köşesinde
Sefer
İlçesi
piyasaları
mücadeleye
vat
parçasıdır
zarara
Çankaya
olayda
Oscar
inanan
inanıyoruz
etkinlikte
herşey
kapasite
Gülen
##LİK
Özbek
gönderilmesi
kaldık
##yonun
##emeyeceği
telefonlar
koordinasyon
yolunun
İhtiyaç
dilerim
besinler
ipek
Şampiyonası
geçtikten
kırılma
Tunç
sitemizi
piece
parasını
dizisinin
modem
Ülkemiz
veterin
Isparta
mutluluğu
##lemeler
tekrardan
mülakat
Lou
##tiklerini
##taur
sportif
gitme
##aspor
yaralanan
jener
Deney
haritası
filmlerin
##ikli
bağlama
##ato
tutup
hücum
Sovyetler
kurb
##lileri
artmasına
şiddeti
öğrencilerinin
##izler
gelişmekte
planlı
Had
antibiyotik
hastaya
telefonunuzdan
şudur
Yör
dağılım
##dilerde
##fte
görkemli
inceleyerek
fu
piyasalar
##ıklar
ipuçları
prat
##elerce
kurula
##ilmemiş
üyelerine
gençlere
Şehrin
kıdem
sını
sanatçının
Devr
motorlu
Marks
Mid
Maalesef
oluşturulmuş
albümü
müsait
Lam
yaşayacak
cad
##baba
başkanları
gündemine
kurab
Ag
00da
Day
##kanın
manev
Karabağ
##lerinizle
makro
##acan
##35
yaşını
##memizi
çekimi
Hafif
hatalar
##opat
Şiddet
sunduğumuz
oturuyor
Kod
vermedi
sistemlerinde
kayda
izleyerek
eserlerin
üretilmektedir
pırıl
düşkün
Bre
İşe
başkanlığında
##dının
teşebbüs
üretiminin
açıklamak
verilerini
namazı
endüstri
hükümdar
yla
Kurulunun
##viv
##anam
olanakları
İmparatorluğu
TCMB
çıkacaktır
acele
hareketinin
kendim
sag
##habilitasyon
##iret
saate
havuzu
dille
alırlar
##lukta
Sezon
yağışı
##nat
başkası
Bunlara
başlarına
##lenirken
##EŞ
erişilebilir
##rader
itaat
oyunculuk
Ümran
peygamber
kodları
Köpek
özgüven
projelerin
bütünüyle
ruhunu
sapta
harcı
çalışmasına
istiyorlar
askerler
##TI
##dına
komünist
konten
mekanizma
##vas
Valilik
sorulan
tünel
uğrayan
ulaştık
oya
bilhassa
##eceğimi
saatinde
lezz
##ırdı
Alper
yakınları
Yarım
yeteri
ayrılık
Meg
bağımsızlık
tems
Karaca
hesabını
bilgilerinin
Kop
değişkenlik
Fe
telafi
haya
ölümüne
kime
eczan
İde
hedefle
Tatil
kaptır
Metro
Vİ
kılar
yaşadığını
Chris
##cektir
emtia
yelken
binden
eylül
pazarında
ödenmesi
Sarayı
prolet
hükümlerine
ilahi
Uşak
rakibi
##lic
karısı
Erg
##asyona
bulunabilirsiniz
dolardan
alanlarını
##ANBUL
##iyete
edeceğim
galip
sürt
##liliğe
araçlarını
paketleme
Çağdaş
##iel
##unlu
termal
Partinin
Doları
Beh
önünden
azdır
yuva
##ragon
amacına
Yüzde
kimler
etapta
##SI
gelmedi
Bilimsel
2020de
pozisyonu
durup
yapısının
tartışmalar
çatısı
mutab
Fal
konuşmasını
Adil
lanet
harici
##OG
Aman
Maked
oruç
pazarda
etkiye
nakil
##ladıkları
miting
artırılması
##34
sevda
spread
ülkelerinin
128
Belirt
Kabul
mizah
hesaplar
Cre
sıh
kazanarak
##unuzla
görüntüleme
modelinin
kristal
yükümlüdür
güçlerin
Etik
terapi
yiyecekler
pa
Ağaç
##atıyla
bırakıyor
yaygınlaş
stüdyo
şeklini
##koz
Kep
sayın
##ayip
##ceğiz
##ME
varlıklar
yazarlar
##dığımda
uygulanmaktadır
işlenmiş
zarfında
tanışma
##mama
maliyetli
##eron
##ucak
yoldaş
şuan
Açılış
kuruluşlarının
##MK
Niğ
gerekçe
##oluk
uyguladığı
Fri
görevler
cayma
Alb
arkadaşlarım
sistematik
fidan
deg
##ected
CEOsu
##DS
Vik
Nob
okudu
denemek
İktidar
gitmesi
katılıyor
isteğe
Server
kapasiteli
yılbaşı
melek
amaçlarla
dizisinde
yıkıcı
##oma
Bosna
yönetimine
güçsüz
Bilecik
##cript
##sion
Danışmanlık
önleyici
buzdolabı
değişimler
zorundayız
##fab
Lan
kaynat
##mayarak
##aryakıt
masaüstü
Kayser
göreceğiz
Toy
çıkarıldı
##cn
ilkel
sınıfta
içeride
full
kürtaj
sürdürmektedir
getirdik
hizmetlerinden
##antum
kullanılmayan
kullanılabilecek
İhsan
uçağı
halihazırda
1989
yöntemiyle
izleyici
güce
Burs
##pen
Neler
işlenen
evlerine
sembolü
anlatılan
##uyan
1080
Aya
aleyhine
End
normalde
##gane
kaymak
kamuoyuna
##lına
sular
devi
geçersiz
gerçekleri
hükümetinin
Neredeyse
##ünüzün
tamamlamak
##odyum
kazanacak
bağı
gösterin
becerileri
sezonda
ekonomisinin
##feti
Martin
doğmuş
yönünü
tapu
##alin
##pertiz
##melere
deyim
Efend
Linux
istanbul
galiba
Dip
eserin
verimliliği
sorunlarının
170
##ehan
rengini
avukatı
pır
piyasadaki
TOKİ
İdare
yeş
##lanamaz
hakimiyet
duyu
hatları
Dergisi
kurulduğu
##asta
##ys
sunulması
gecenin
taşınma
görmektedir
devletler
Kub
temelli
domain
##abıta
ilerley
##ls
isminin
çarpan
Ülkenin
sürgün
incele
##diyse
But
kurtara
Meden
tehlikesi
Vadeli
Peter
töreninde
yararlanarak
yakınlarında
puanla
gereklilik
sunuldu
işletmenin
sultan
buda
eşyalarınızı
Kırım
İma
nüfuz
hastaları
Sıfır
amaca
Dalı
kurulacak
rakamlar
yarıda
sandalye
HTTP
##lüt
iflas
öğrenmeye
International
OR
##unk
Emine
çalışıyordu
geriledi
Nihayet
Ozan
ölümsüz
devred
##eksika
grupların
ihlali
Kahve
saçları
kaldırdı
yardıma
Fabrik
kurtula
muhasebe
temizlen
##iteratür
Xbox
##arlı
babanın
Aşık
bağlantıları
fasul
firmalarının
##araya
severler
##meliği
Los
yarısını
ödemeleri
olmakta
buluşma
##meyeceğini
Görsel
davranışlar
Endeksi
hizmetinizde
##ex
Meksika
gönderebilirsiniz
tedaviye
##tansiyon
sevgilisi
Adası
opsiyonlar
araştırması
##İYE
Restor
fut
arttıkça
diktatör
tartışmaya
arkadaşlık
İler
Kesinlikle
Depo
hafiflet
##üfer
Genelkurmay
##ronun
edilebilecek
poşet
##ometrik
ilaçların
Otomotiv
##eyecektir
Nihat
Ora
Yalova
Ölç
Muş
##tının
verileriniz
Turn
yapılacağını
ilişkiyi
kade
dileriz
Mich
##UB
erim
konumuna
çip
yalıtımı
müsaade
Ecz
Köş
şiddete
Akademi
##elenen
emperyalist
sonbahar
##ştur
##dinin
çoğunun
hocam
yayına
polisin
gelişmelerin
otelde
##ember
noter
araca
##ekin
seçerken
gerekecektir
##erse
soykır
telefonda
seviyesinden
olunan
Meta
yarışı
##veti
Ke
sıralama
takas
Zen
okulların
dilini
tuttuğu
zed
bık
öğrencilerine
gecikme
##masındaki
üyeliği
Sizde
bulabileceğiniz
ligde
edebiliriz
ifa
##dyum
Tru
Sürdür
partilerin
ömrünü
Maltepe
Fiyatı
ülkesinde
binalar
verilerek
armağan
Şimdiye
Salonunda
maddesine
köle
uygulamasının
##ığı
yıldızlı
kılın
kola
tadilat
Barcel
simgesi
kazanmıştır
harekat
##nda
Alım
cinsinden
severek
##ememiş
Yatak
gıdalar
kub
Detaylı
İcra
arkadaşlarımız
kızım
demeden
Birliğinin
sitenizin
Muhtem
Ahşap
gitar
Riz
TEM
aynıdır
186
kızlar
Hil
oğul
Cop
önlenmesi
arıtma
plaka
Arif
psikolog
Cezay
NASA
Usul
verebilecek
küçüm
duyma
İşlemleri
yüzünde
Kalı
Merak
geldiniz
ulaşılabilir
kapıları
rut
imzalı
##evher
Çavuşoğlu
Parça
##ben
borsada
firmamızın
okuyup
klasör
Iş
damga
Yıllardır
yapıldıktan
dönüşür
ayrılma
trib
Oyunun
etkiliyor
doküman
kısmi
fikrini
SAN
şifa
kişiyle
yanıtı
manip
ph
şirkete
uğramış
Şimşek
##iliş
çalışıyorlar
şartlarını
boyutta
teknolojiler
kaleci
##hu
konsantr
Burun
söylediler
uygulamalı
##elikli
Kemer
##macı
kararına
dönmüş
sop
şerit
##nci
varsayım
##pazarı
##cağın
YPG
görüşleri
hiyer
bankanın
yavaşça
Posta
evrenin
şem
buyur
savaşta
güçlerinin
##lop
ürk
##ous
şikayetçi
##mod
Kayn
Kuv
çöl
medyanın
Çeviri
olmaktır
dilinde
Kendisine
uygulamasına
şekliyle
vermeniz
üründür
##lywood
Başkent
Kala
umudu
kanunun
##layet
çorap
girmiştir
olmamış
dayanmaktadır
direnc
karşılama
Mül
metot
##ms
artıran
##ove
##saspor
bekliyorum
amaçları
tekel
##avir
oysa
hikayeler
yayınlanacak
belgelerin
etmeli
seçiminde
##25
yerlerinden
##renses
Win
basıncı
Süm
sağlamıştır
çoğunu
Buda
indirimi
kazası
##OC
mesajları
gözetim
görevlerini
##peri
değerine
hatıra
evlerin
katled
Step
duydukları
batır
bedensel
salı
öncülük
inancı
Leon
pank
oradaki
Cemil
Ligde
Baraj
Abdul
Rehber
karşılaştık
ucunda
fal
aj
haklar
elinizde
sayısal
ellerinden
Allaha
Spa
bulunuyordu
##IY
Eng
##RA
Uzmanlar
ziyarete
885
şirketlere
1920
açılışı
Prim
duruşu
##mann
değişmez
Çalı
##ıyorsunuz
##ıntılı
Taksim
Pin
madencilik
##KA
iddiaları
kullanmadan
Evlilik
##sadı
yollardan
adlandırılır
diğerine
broş
firmalardan
psikoloj
gücün
Akademisi
hazırlama
oluşturabilir
prof
çıktık
seçeneklerini
çöküş
koyul
##afirler
zik
uzlaşma
pip
başkaları
##acının
çalışacağız
##mişler
sonda
yatırımcılara
hizmetlerine
grubuna
kaynakların
Denet
Nap
##TM
başlanan
korunma
geciktir
öğretmenlerin
ultr
Fahrettin
yakalanan
merkezinin
diken
akı
otomasyon
Serkan
koymuş
##lüğünde
##kay
etkisinin
kireç
Sabit
Sanatlar
öle
anneler
Kütüphan
yöntemdir
mektub
dra
şahsi
işitme
Artvin
ekleyebilirsiniz
evinize
Ram
bilincinde
kılıf
kili
rul
BA
ri
hür
başlatıldı
Yazının
reel
oynamaya
belirtildiği
##miyoruz
kullanıcısı
Yahu
ödülünü
taraflar
kültürünü
Lenin
iddiasıyla
değerlendirmesinde
azalması
sözcüğ
olsalar
geçmiştir
Tekstil
anlaşılması
insanlarda
şehirlerde
GS
##venin
##tığın
akışını
Güvenli
EV
seferde
CV
Albayrak
işlemine
##edisi
##HK
fesh
Performan
##lıların
torba
ettiren
Jose
Sap
Bursaspor
nelere
husu
edildiğinde
Nevşehir
Erzincan
this
ekibin
your
##lanta
##kurt
virüsün
Göğ
faydalanmak
Va
##uluğunu
fiyattan
mektubu
mesleği
kalmayı
kılıç
rivayet
arkaya
##arna
manyetik
Inter
Gürc
Digiturk
but
karşılaşılan
kapsar
izliyor
STK
Valiliği
sokaklarda
olmamasına
derecesi
pilav
##latmak
ortaokul
tahamm
verirler
mağara
paslanmaz
anki
kaynaklarının
döküm
rolünü
törenle
##bih
metrekarelik
dolaşım
Çelebi
isteyenlere
münaseb
üçün
cezasına
##işört
durgun
balığı
müdahalesi
dehşet
zer
##fed
ciğer
Misafir
Nam
alalım
desteklenen
ifadeler
silindir
isimlerinden
##ayıc
##asyonlar
kesici
Power
##SAN
okuyarak
##emezsiniz
##temiz
##zaman
ortalaması
##imdeki
güver
hediyeler
eğitimli
ideoloj
efekt
Organizasyon
##çık
açıklamasını
##mezler
eğitimde
modelin
takviye
faaliyeti
##DI
pazara
##larlar
Meteor
kısımda
##oin
yakının
las
örgütleri
Bakırköy
Yapay
büyümeye
inovasyon
noktalara
Sabancı
alınmasını
edilmeli
##ömer
yaşamına
mağduriyet
Beykoz
##cını
kalmayacak
vizesi
çizdi
yoksulluk
sayfaları
##şu
düşme
paketleri
hayatımıza
takımının
gücüyle
odun
Dönüşüm
##ansı
##yonu
Siliv
##lığındaki
binaların
##hret
##ersem
domuz
##iliyordu
##pol
##salar
##ilince
Zeh
seyirc
araştırmacılar
Federal
dinlendir
doğrudur
bayr
Güvenilir
Ataşehir
##ışıklık
sekret
alınacaktır
Babası
Afyonkarah
##gusal
Tart
tuzak
tanıtımı
derler
TÜİK
anıms
kulaklık
##çilere
işinizi
görünmüyor
psikiyat
##alis
##101
##iyseniz
alındığını
Sahil
gevş
Uyku
sağlanacak
5000
Teşekkür
endişelen
sayfasından
siteniz
##cia
##ranç
kolektif
Teknolojileri
iyim
mecra
toprağı
Ürünün
Aslı
yedir
iddaa
tasarıma
çıkmadan
destekliyor
gerekiyorsa
harflerle
Mery
İhale
##RET
ölçüt
##ceye
Sektörü
Faiz
üretmeye
izlenen
doğrulama
Beylik
çiçeği
nic
##elinin
maaşı
Internet
##ımızdaki
Lise
akabinde
yağlar
yaşadıklarını
gerçekleştiği
Özlem
##rome
şaşırt
##eğen
kolaylaştırmak
hissediyorum
dengesini
telefonları
##ileceğini
getirilir
çıkararak
aman
Kimlik
ifadelerine
görerek
anestezi
##ulmaz
imzalanan
##tük
olmayacağını
Gur
Free
notu
odanın
Siyaset
Milan
tabaka
gelene
Leg
Gizli
etmen
##lr
görüşmek
Tarif
##ook
Nö
yöresel
becerilerini
Öğretmenler
##etooth
##atta
maçları
##ostal
##vekk
Hastanesine
geçme
##alılar
Güngör
değişime
##irdi
portakal
inceleyen
İdari
havayolu
bankaya
Blo
Bisiklet
ekonomiye
Burhan
Yardımcı
Bizde
yorumlanır
azar
erkeklerde
Ces
##ğım
yaşanacak
##mega
Luc
dokuma
eğitimine
ingiliz
Mekt
hizmetlere
alamaz
düşündük
serüven
yad
hücreler
rejimi
minibüs
üretimine
dağıtı
devletlerin
ayırmak
Dilek
Bağdat
kuyu
Thomas
##loud
durumlara
penaltı
Başkanlığına
ödenen
##taurant
algılama
Mers
Reş
ihracatı
peşine
Talep
##keli
##gor
##olf
Tablo
##sche
dinin
çifti
iletişimi
Hurda
Yarışma
##46
açığı
##cılığın
uzunluğunda
ayarları
Niğde
lokal
##onavir
##asyonları
yanıtını
caiz
##aydın
hareketsiz
merkezde
##ılmasından
kılmak
Mühendislik
farket
##abir
##lamıyorum
işlenmesi
Yıkama
Erkekler
##ilasyon
dökün
eşinin
kontrolünü
Hepimiz
##umi
veriyordu
##lov
önyar
yazım
geliştirerek
raporda
görüşler
saniyede
çeyreğinde
##üğe
##lot
##ışın
maçını
##dr
İSTANBUL
bahsetmek
geleceğine
ayakları
Hakkari
önemsiz
##hr
güreş
##liliğinin
EC
Sorumlu
yapılandırma
##umcu
altyapısı
ifadeyle
dayanıyor
İnönü
izlemeye
hazırladık
##leksi
ilişkilerinin
Yaşanan
Temsilcisi
ilerliyor
katında
Çal
çiftlik
saygılı
hibe
##zı
kapatma
ürünlerinde
##ındak
davranışı
ilaçları
belgelen
heyecanı
Akşener
bozuklukları
senden
büyüktür
ilkeleri
##atını
araştırmaları
sitemize
kast
kanıtı
kademeli
basılı
anlaşılan
haksızlık
fiili
CR
girerken
denetimi
stabil
DHA
##nal
riskler
koruyor
bırakıldı
Muz
uğraya
testler
dinley
şansını
gittiğ
gölge
suik
hırs
Özellikleri
gelirler
Muhaf
muhatap
paneli
tadına
düşündüğünüz
Set
elimizde
KUR
Charles
konuşması
üstünlük
KON
incelenmesi
ülkelerine
işçileri
##yarak
Mimarlık
türünün
Len
tüketiciler
engelleyen
iyimser
cansız
hareketlerini
aldıklarını
kazanması
dünyasını
adımda
tesisleri
Volkan
##ecekti
katılımcıların
Kazakistan
##dırlar
dengesiz
protez
tamamının
duyduğunuz
##ded
##lie
sperm
##bilme
##chester
yararına
Şiş
iftir
kullanıyorum
çalışanlarına
şişe
kesiş
Kong
özgeç
yanma
##zen
alacaktır
Şev
##mayalım
Etraf
yanaş
Aksaray
kaça
##ikatür
içgü
##sch
nerde
İS
bagaj
Ayş
oluşturacak
usulü
##cım
işinde
tutkun
pozisyonda
girme
##seydi
##bilecekleri
Krallık
biçimleri
abonelik
olabilmesi
kulübü
DC
istekli
Doğr
gözünde
##andan
##ardan
menz
##alara
yasaktır
kurumlara
##ingen
boyutları
dizüstü
başlıkları
Gi
##mana
##hem
gor
teknolojiye
Bilgiler
seninle
yönetmek
Şırnak
sütun
bahçesinde
Gürcistan
tablos
burayı
periyot
Pendik
##elerinizi
dum
eng
işlerine
##ydu
bazda
türkçe
Kullanılan
malın
##p3
Moğ
##ahit
ediyorsanız
İlah
kavramları
rahatlığı
dosyasını
aşamasına
##şir
dağıtımı
Fr
cevaplar
fiyatlarında
tasarımcı
yazımda
kışkır
##MET
yapmamız
üreticileri
başınıza
geçit
##çılı
Üzerinde
gelenler
##isidir
alık
otomobilin
keyifle
dedikodu
kuralı
Şişli
bittikten
standartları
ateşte
ml
hazırlanır
yönetimini
##ecilerin
##rov
Noel
Erc
kıskanç
##ojen
uygulayan
##zade
öğleden
##eleştir
Bahçe
sunulur
##ozet
öyküsü
kimliğini
yedik
Rod
hapishan
platformlarda
çizgisi
kategori
Ju
kongre
Divan
ağzından
##OD
dalında
tepe
Halkın
derim
sunmuş
Sevgi
çalan
Tech
fl
Lazer
kültürün
bebekler
anormal
akıcı
kavramını
mekanlar
başarıyı
hizmetinde
optimize
yerlerin
Selam
bitmiş
Vet
Özgürlük
geldiler
##lamadı
küs
VER
çekilmesi
##ülemez
cinsi
sistemiyle
##yık
anlayışını
sebeplerden
ded
getirilmiş
##TP
Beslenme
Veya
EL
platformları
slogan
##namesi
öğrendik
##ilebilmesi
Tanrının
Hakim
sabırsız
Detay
Kongresi
sanatçısı
cümleler
##kesi
Zorlu
kaldırma
Sıra
fiyatın
karakterini
otu
ayet
üstünden
almanızı
Halen
arttırır
Havaalan
nedenler
haziran
##pres
ayrımı
etsin
Amasya
bölü
aşın
optik
Tir
##organ
törenine
olasılıkla
yürütülmesi
arzusu
önler
suları
Siir
aramızda
feda
kararıyla
düzlem
Chan
Piş
##oba
görünse
Ergen
##com
Karada
hoparl
##cam
Fabrika
OSB
sorunlu
Nefes
soylu
tamamlamış
hasarlı
ke
miktarlarda
düğüm
##ilmemesi
##000
##sizliği
##fice
kud
##eliler
ısrarla
seçip
Burcu
duydum
mekanlarda
sağanak
eylemleri
hasret
yapıyordu
##ahil
##bileceğimiz
Bina
bedelini
Unutmayın
isteyebilirsiniz
##abilme
malum
##EST
karşılaştığı
Bende
birlikleri
skan
yürüme
##ilebilen
olanaksız
DV
özgeçmiş
Davutoğlu
yapmanızı
hedefliyoruz
##anıma
bölümün
yürütmek
geçirilmesi
Teşkilat
Reg
çıkaracak
##14
sarhoş
##eğimiz
amp
kavramlar
dere
İşler
grupta
Etkinlik
Demirel
devletinin
yayında
listel
##tane
dinam
Olur
Konsey
Okyan
##ramanı
takipçi
getirebilir
Adres
##jantin
450
sayfamızdan
Yürüyüş
pusu
##ülem
Şarkı
##haleye
Celal
parlamento
geçmektedir
Çap
bulantı
açıkladığı
##uşturma
nedenini
##şar
korunmak
ardına
ları
##ting
Philip
sevkiyat
Karşıyaka
##uçuk
oluşmasına
Us
sonlarında
aksesuarları
Zam
bırakmış
değiştiren
sakinleri
Leyla
soruna
##eğim
yenilg
antika
kazançlar
Altun
yönlendirme
arar
##lut
tamamlanmış
Anton
Raporu
sektöründeki
geçirme
bilinmesi
Telif
psikoloji
gerektirdiği
##cer
##emiyoruz
yüzy
başarısını
zavallı
yiye
uzaya
alıyordu
##DİR
Diren
üyelerin
yaramaz
öğrenir
Kesme
##eceklerini
Patent
korum
okuyor
google
bakacak
tahrik
tuzlu
alerjik
##17
manzarası
hd
Cumhuriyetin
Stal
hizmetimiz
faşist
şampuan
##not
Dayanışma
çağın
komplik
##ÜK
##lastik
##layalım
hijyenik
İmar
Moğol
Sky
##Dİ
işaretleri
##lip
diplomatik
ultra
güveni
öğrenin
sitelerinin
sağlarken
yerinin
açmaya
SE
fiyatına
vizyona
Yem
Dİ
neşeli
Gayrimenkul
sayılabilir
Katolik
Kırşehir
Teor
##laştırılmış
amacımız
toprağın
Yaratıcı
##gide
özellikleriyle
##iyede
Gold
UR
Olu
değişmesi
sunumu
faizi
##esiydi
seçenekleriyle
olmalıydı
duru
Transfer
estetiği
Abdülham
Maz
operasyonda
eklenir
##kaz
aslan
yarayan
##liliğine
bölümden
led
oğlan
oranın
##şaf
kampanyaları
##uri
yazdım
##ansta
sunmayı
Satıcı
Popüler
Trakya
Fuat
yasadışı
##osman
verdiğim
ticaretin
kapatmak
##ÖZ
sonuçlarının
len
##ırt
atıl
185
SON
fonksiyonel
2019da
gelişmelere
Vla
makina
değişebilir
Britan
Gündüz
kupa
Final
##koş
bölgeden
sermayenin
boyama
ortasına
coin
Açıklama
bildiğiniz
görmemiş
##danoz
yaşanmış
çevresine
yüzeyi
Harit
literatür
Sep
üzgün
Joe
benzerlik
Sef
ürünlerine
Laborat
başlarken
köyde
sebepler
Lar
Montaj
noktayı
kullanmış
bütünü
aktara
karşınızda
sına
##iyorsun
katarak
imalatı
eldiven
Mul
Ağız
Geçmişte
satımı
yaygınlaştır
Rusça
edilmeye
##unacak
toprakları
##larımda
Atöly
Suriyede
Ray
Nüfus
değerlerin
açılıyor
etkileyecek
anten
departman
birincisi
Berg
motive
eklendi
kurye
önerisi
üretilir
katalog
ölümünden
kente
telefonumuzu
##liğimiz
Pala
infaz
Rom
mul
Sürdürülebilir
Atık
dolduran
##laştı
modellerinde
üzünt
##MP
riske
adapte
bakıcı
##iser
yapacağım
aktarılan
Tuzla
katılımcılar
kapıya
ekleme
Arjantin
##ınacak
Tercüman
mürekk
##irt
iddiası
işinin
almayan
Meral
tüketicilerin
Kilo
##cesi
##abın
edilme
kost
sistemlerini
parasal
##ges
sorununun
Ron
OK
dağılı
##casına
özgürce
çene
sonucunu
bayağı
##stat
##ıltı
kalkar
##oç
Ceb
ölmüş
##kişi
başlayınca
##düksiyon
oteller
internete
İbn
Kerem
yazarları
Ebu
asist
Haydar
müdürlük
Sitede
faydalanabilirsiniz
Kalan
ağzına
yazısında
bahan
zenginleştir
kahkaha
isteyebilir
umutsuz
müsabaka
ce
##leşir
##oss
verilmesini
oyununu
tüfek
##ELER
sürmektedir
geçirerek
KVKK
bakılırsa
aziz
NOT
Game
sentez
Hatip
##taları
##tüel
deterj
##dıklarında
beklentilerini
kazançlı
##üksel
yanıtladı
Mükemmel
bulduk
zulüm
edilmesinin
##nut
kontrolünde
üçgen
istiş
##lannı
topluluğu
Bran
IV
ediyorsunuz
girin
hastalığının
bayrağı
sicil
##obe
şükür
Üstün
güçlendirmek
Dili
çevirdi
profesör
zorluklar
umarım
Link
direnci
Şaş
##isiyat
##ulus
ürünlerle
Cat
##arch
Değerlendirme
yayınlar
sızdır
BMW
Bitlis
lans
indik
##leşmenin
Rüy
Ereğ
oyununda
Sancak
##memize
Gebze
Sonraki
çalışıp
ini
temmuz
##düzü
tamamıyla
sahipti
bahçesi
bilişsel
başıma
aracılık
düzenin
##stem
beslenen
yenilenebilir
##YT
Vur
okuyabilirsiniz
##raft
malzemeden
yetenekleri
fare
Birbirinden
kü
atölye
türde
aşaması
yürüyen
kişide
arkadaşlarının
cihazlarda
Bugünkü
anonim
##36
Bölgede
Ercan
doktorlar
##ague
oturmuş
##ader
İÇİN
kafasını
Rehberi
##lekli
Dosya
gönderen
nasip
##iyorlardı
hedefimiz
İlişkin
sürücüsü
Manchester
##PA
##diğimizi
yönetmeni
bronz
yaşadığınız
MER
sırası
azaltı
3000
Kuma
topladı
çiçekler
İzin
izleri
##oterap
yırt
dest
cumartesi
anımsat
yargılama
Erişim
Akademik
İK
##antastik
##sindeki
uğraşan
şapka
Yayla
dediğim
duyum
sorunlardan
etmekteyiz
Alevi
Sınavı
görüşmeleri
Aktif
bekleyin
Hastanesinde
Faaliyet
kaşıntı
Ceylan
eğr
##ado
hizmetlerden
kapattı
Tıbbi
rahatsızlığı
Binance
yolculuğa
Serisi
yansıyan
elleri
muamel
Hu
Yolları
zirve
Emekli
avantajlar
hizmetlerinde
Java
gelişmesine
öznel
saatten
##TO
Kendine
seçtiğiniz
##ty
Almanyanın
kolaylaştırır
##til
##22
##bilirsin
##lacağı
ucuza
hazırladığımız
sanatçılar
bölüme
favori
sürenin
aileye
izlenim
filme
vermekten
##weet
Hid
yaşanabilir
Richard
edebilirler
sünnet
havayı
araçlara
görünmez
senedir
şarkıları
masrafları
Sendikası
hazırlayan
##vo
verebilmek
bazılarının
##ault
kadrosuna
üreme
##AMA
taşınabilir
TLlik
indirebilirsiniz
Çoğun
bulunmaz
Anıt
istemek
oluşumunu
Lübnan
yegane
##ınç
dist
##burt
bitirdi
altının
sessizce
birincil
şiiri
TLden
Nem
eklent
hukukun
acent
Deri
Up
aylar
kırp
yaparsanız
Kims
oğlunun
rüyada
taşları
topraklarda
sitenizi
bunca
##lenip
üstündeki
##ispor
püf
alıştır
dizide
başkasının
kaynaklanıyor
araştırmada
butik
Yasa
dergisi
Lüt
##MI
yönetilen
makaleler
Komünist
keşfetmek
tarzında
uykuya
Çınar
gördükleri
sigar
olmam
dönüşümü
gerçekleştirdik
etmemek
iplik
leke
nüfusunun
sinek
##ahür
artırarak
Başkanlık
##burnu
gam
fıkra
beynin
çalışmalarla
Salonu
sünger
sayfasını
Hamilelik
oynarken
Ofisi
bırakılan
bağlar
ordusunun
##Station
rüt
kazandırmak
hayatınızda
Keşke
sitelerine
tuzu
##iyeri
silikon
etrafındaki
aksa
sudan
bunda
kurallarını
ica
Muhtemelen
Kaptan
##iksel
1984
gerçekleştirilmektedir
açıklık
Kendinizi
yed
kavramının
edildikten
haftaya
Sahn
ilinde
ekolojik
##garenk
tabur
Amerikanın
##sizce
taşıdı
Club
artmış
göndererek
boylu
uyumu
KAD
birçoğu
Ov
düşüncenin
optimiz
olmalarını
saldırısı
çevrili
##uluyor
##aton
beklerken
##lendirmek
çıkabilecek
mütev
argüman
ettirmek
Ödülleri
##iss
felsefesi
##ömert
analizleri
##amayacağı
Rock
temizlemek
Times
komple
taviz
hapse
mekanizması
gösterdiğini
tahakk
nadiren
Endüstri
##kanlı
fırlat
giydir
başlayanlar
Mür
##ake
Asansör
Hırvat
ortaklığı
Teslim
Hukuku
Gelişim
uygulamalarını
Toplantısı
asil
Bölgesel
tim
Ultra
götürür
kapasitesine
rest
sayfanın
taslak
Buluş
Studi
Pom
Bankasının
oranlarını
Ayakk
öncülüğünde
battan
Yiğit
Grand
düzenlemeleri
etmelidir
dizel
Şuan
statü
HES
denizin
hususlar
İstediğiniz
halindeki
Rem
milletvekilleri
türünde
Şirketimiz
golü
telefondan
##kz
uygulayın
sözleriyle
keb
konuşurken
Uzaktan
Tiyatrosu
tonu
idrak
masası
edenlerin
konudur
bankası
ekranlarında
istediğinizi
tavr
çan
fragman
IC
yörüng
Bern
müjde
yürüyerek
edileceği
##ırsa
kot
şarkılar
polisi
ütü
boşuna
Denizi
merkezlerinde
inceler
ismiyle
Hun
kayıtsız
Sarıyer
Saint
##stro
sertifikası
##bağ
ayları
tutuş
Som
hasat
boyan
tablosu
Siirt
inen
özelliğe
iltih
içeriye
Müslümanlar
giderleri
bütünlük
olmayıp
##lüm
kapitalizmin
yayla
değişikliğe
Eğlen
basarak
favor
Nat
##laştım
bölümler
düşünüp
numarasını
time
##ırız
görülmeye
Victor
Selahat
süreçlerini
##pi
##bor
##meksizin
##EH
hort
buluşacak
şartlara
hükmü
ilişkisini
milleti
Önceden
milyona
siparişler
birdenbire
medy
Elde
bakışta
alfab
incelemelerde
gerisinde
gelse
Out
dı
##adın
doldurarak
biriken
müziğin
Bra
FX
enjeksiyon
Cel
##furt
##lanmamaktadır
arkada
yolsuzluk
kadrosunda
oluştuğu
ateşi
miktarının
Rep
ayrıntıları
hemşir
bakla
kaynaklarını
##izma
gayri
yeterlilik
konuşur
uyruklu
lisanslı
Finland
Bud
ra
Uygur
yapılma
Kuy
başkanlığı
ete
##rn
##ecekleri
Göztepe
İsten
yanlarında
Sırbistan
##dört
##dö
##üret
planlar
Şem
##taraf
Arke
yetiştirmek
##jder
kaldırıp
antrenör
belirlenecek
##old
davada
aletleri
sağlamayı
##emeyeceğini
sömürg
Varlık
çarptır
içerisinden
değerlendirdi
kudret
bezi
duyduğumuz
yerleştirme
programlama
Burdur
Astr
saldırıları
taşıyacak
##ılmakta
vekalet
Şayet
Aktaş
Tekin
likidi
terminal
tahammül
değerlendirmesi
##13
Jac
##ettin
Bitcoinin
hazırda
Müş
partisinin
canavar
##iper
Terim
cumhurbaşkan
modellerinin
iptali
Network
döneminden
beklenti
tezahür
Oyunları
ürünlerimiz
savunuyor
geçmeye
##abilim
hizmetlerimiz
Müdürlük
öneriyoruz
##ivi
1987
##İNİZ
oturduğu
faaliyetlerin
Müdürlüğünün
##esifik
Yalan
bağımlılık
mühür
Nakliye
hayatımızın
bebeği
masanın
karakterler
Çeşme
esrar
günlerin
kuv
cumhurbaşkanı
enerjiyi
Dünyası
hikayeleri
##iyorduk
analizler
katan
Gram
şikay
bitkilerin
Yargı
sessizlik
ufuk
##miştik
Kasımda
markasının
##erya
filmini
anlattığı
Devamını
bakıyordu
karam
Lastik
TAR
6698
yürüdü
Eks
delikanlı
Oyunu
##ping
Melek
By
Kitabın
00de
##laşıyor
yumruk
##cıoğlu
havalimanı
##KP
##nel
Selahattin
##meyecektir
getirin
yurtiçi
Anket
##osh
##lendiğini
Stre
yazımız
##silat
##dis
mukav
##çılığı
evinizin
bahsettiğimiz
yöntemlerini
görünümlü
sıralar
##IV
krizin
Kuşada
geçmişten
##liniğ
Haftası
düşündüğü
that
aktarma
dönüştürmek
sebepleri
##ision
yanan
yürütme
güvencesi
##siness
türkü
şöhret
birbiri
yatırımcıları
casus
Huzur
##gnez
Ci
##mışlardı
Nobel
müzakere
bulması
kurar
Mümkün
##maksızın
büyükel
yaşındayken
##eliyim
##sınlar
##emedik
kapıdan
##ÜZ
##viş
2018de
##leşti
huzursuz
Kırıkkale
SA
monitör
utanç
kullanmaktadır
##ross
##alli
Hollywood
MÖ
seh
olmasaydı
yapıldığında
Bonus
nihayetinde
dram
##lamasıyla
kuzeyinde
tanıya
Vadisi
Geçici
yollara
olacağım
andıran
Banyo
ayarı
kazanmanın
demokrat
edeceksiniz
sonuçlandır
##enni
ikisini
etkinliğe
işlemlere
mutluluğunu
kıyısında
ölür
##kut
##kö
##eller
##omb
##ote
##dığımızı
Arçelik
PlayStation
diğerlerinden
Haberler
niz
çekmektedir
cer
paraları
mağlub
Müsteş
yerdir
Buzdola
##eyip
yaşamının
Bayraktar
savundu
##otal
günümüzün
Tamiri
Derg
nötr
##ESCO
Onay
olunması
Bayburt
satışını
sulu
##8de
destekleri
damak
##ceğim
Coşkun
diledi
FIFA
Malzeme
Teşkilatı
parayla
Gökç
çalışmalarımız
Allahtan
##amazsınız
baharat
yoludur
rekabetçi
Sigara
Surviv
geçişi
sınıfın
fonksiyonu
Erdal
malik
dönme
gözünü
belirtilmiştir
VİOP
sütün
Normalde
veteriner
dolaşan
Yapımı
Endüstriyel
##ememesi
dondurma
zanlı
yapısıyla
görüşünü
##ayiş
asılı
kıyafetler
##tığından
çiftçiler
havacılık
anlıyor
rasyonel
Marmaris
devamını
Gazeteciler
spot
hic
Fikret
görürüz
türev
yaştan
büyüleyici
hedeflerine
Müslümanların
insülin
sağlanıyor
isimlendir
tuttuğ
650
gerçekleştiriyoruz
##ilebilmektedir
sarma
##kala
United
fotoğrafını
karayolu
##fettiş
implant
oranlarının
##sağ
Mr
temalı
tişört
Yo
kapılar
bilan
##iyeleri
bilinmez
sürerken
ağrıları
yakalama
canı
##cılara
##lanmalıdır
sunulmuştur
Nilüfer
kalmamış
Saman
Rey
doğuştan
##ifik
Bı
abi
bulunduran
Istanbul
Bakın
dönerek
free
durumların
Kek
üslup
çözme
hammadde
##manızın
geçirir
tıkanıklığı
ismin
paragraf
mücadelesini
ücretler
şükran
trak
ÖN
iyileştirme
kuyru
##KUR
hobi
##selen
dilimi
tesir
##ikası
Kartı
muvaf
kendilerinden
Christ
AG
politikalar
Kimya
değerlendirilir
Mide
uymayan
##itlerin
Engelli
tanesidir
okulları
Çocuğun
Okan
belde
yönetimin
planlanıyor
varlıkların
yapılmalı
izlerini
atacak
##lıcan
Kurucu
UV
hazırlamış
Arkadaşlar
sorunlarla
Çö
uluslar
güçlerini
##heimer
Coğraf
##mün
şablon
yapmıyor
##ynin
birimlerinin
saatlerce
##ulduğu
çarptı
isimlerini
ihal
ücretin
Konuyla
kaçış
Kapadokya
öneririm
yücel
##ulum
hatırlattı
yöntemidir
içlerinde
orantılı
Green
hoşlan
Zehra
yazarken
Ayı
##vent
zehirli
müfre
tabanı
ayrıştır
İşbirliği
Harry
##liğinizi
tutmuş
##witch
tekerlek
Klinik
çıkarsa
Akç
felç
Bütçe
taşınan
##ledim
fincan
##aklar
koşullarının
YEN
dikkatlice
Havacılık
takma
dahildir
##ilebiliyor
##asyum
##deleri
işlemlerine
istifade
Tespit
##olun
yükselmesi
Kanser
##lığınızı
kütüphane
olalım
tamamına
Karanlık
İH
gecede
bakınca
sac
taşlar
##INI
##lığım
İnternetten
kibar
görüştü
köyün
alındıktan
Lojistik
mayıs
##ilendirme
Aksine
##larıma
Kendisini
kurumlarının
Ekimde
kavray
Şair
susuz
AFAD
ağaçların
Planı
pişirme
lokanta
şal
sistemlerin
açılma
Kazım
unuta
Ebru
çarşı
##kuş
Ty
hile
Bez
demokrasinin
koyma
mevk
Çatal
##uth
Vas
Rady
aksesu
##oları
hareketini
diyorsanız
biriminin
gitmeden
UNESCO
##ramv
takımlar
ikiz
biter
metrelik
doğacak
dengesi
sini
Aylık
##osa
Watch
##ement
##yıp
Alternatif
swap
fiyatlarına
Toz
##latıyor
şekline
üniversiteler
koşullara
gösterisi
ayağ
Sedat
akımı
##tiyi
başbakan
lerde
bildiğim
Sözlü
gübre
vurgulayarak
##kam
ekiplerince
hastalara
yatıyor
gerçektir
gösterme
çocuklarla
Amatör
Öykü
kampanyalar
incelemeye
##lock
##con
numaraları
Devamı
Eleştir
kavan
Gibi
##strük
##riye
SSL
Dük
özelliklerinin
nimet
isterler
tamamlayıcı
sayfalarında
Asgari
Ödem
##TX
out
##ild
mevz
azı
getirilmiştir
##üsüyle
##ulmalıdır
öncesinden
bulamaz
bahseder
Freud
##rosk
fah
habersiz
Yapılacak
alıyorum
Fayda
##gnezyum
oyunların
değiştirdi
##ical
##cağımızı
eşdeğer
seçime
kremi
tavrı
yapabiliriz
bakma
Kedi
Krem
değerlere
Bektaş
ödüllü
kama
ur
düşünüyordu
ekiplerimiz
şikayetler
değiştirerek
kullanılmalıdır
alırsınız
hareketlilik
##asyonun
Meryem
durumla
almıyor
fırsatını
Ece
Raf
lüz
geçirmez
Gelişmiş
Protokol
almasına
şaka
Viet
Köprüsü
Mav
KAY
##luklar
üründe
saldırılar
MİT
sahiptirler
gözüyle
tenis
Kalesi
Yanı
kalmasına
noktalarda
##kestr
oyla
muht
Afyonkarahisar
mahallesi
verdiklerini
malzemenin
Fiziksel
##tory
Ölü
trafiği
polise
tanıtmak
amiral
Karot
ekipmanları
Herkese
Bilir
sözleşmeli
keşfede
sentetik
kahramanı
Zey
##ute
pdf
Ani
kesilmiş
örgütlen
lakin
OP
standartlarına
##donez
hayatımızda
gelmesiyle
1985
değerlendirmeye
kaka
yitirdi
kimseler
nisan
çıkarları
paranızı
dayanış
dublaj
dilekçe
Çinde
1986
kalitesinin
aras
köpekler
dindar
projelere
##eza
Liman
Ayar
puanları
işletmec
Rektörü
mülteci
trafiğe
##laşa
kazanılan
sınırlar
##ümcek
Ligin
oluyorlar
söylenir
Mobile
fosil
düzenlemesi
Cumhuriyetinin
sağlanabilir
seslen
düşüktür
Altyapı
##bileceksiniz
kayıtlara
detaylarını
ihtiyar
Harika
##lib
yararı
##aför
##yuz
prensib
fikirlerini
##cial
##arki
gözenek
Öca
çekmiş
Estetik
Kararı
öğrenen
OH
anlaşılıyor
karton
##ÜL
##iyeye
piksel
geçiriyor
askerlerin
düzenley
instagram
ayrıcalıklı
makineler
dizileri
Öğrencilerin
##yenin
gerginlik
kısımları
hesaplanır
süreyi
yeraltı
etmelerini
##gresif
##leşmeye
sektördeki
##besi
söyleyeyim
şut
yatırımların
ordus
jüri
süreçlerinin
Kadının
isimlerden
Manav
Cezayir
Anonim
aşılama
Trumpın
Vergisi
Menkul
süreçler
hazırladı
1974
##ceğini
yasalar
##eddin
Muhaseb
Endonez
Eylülde
ilçesindeki
enerjinin
içeriğin
anlayışıyla
geçirmeye
çalıştıklarını
##izle
modeline
arayışı
turuncu
##dekiler
reçet
düşünülüyor
##şev
Enver
kilometrelik
Silivri
##ıı
##own
teorisi
dönemini
yapabileceği
getirmesi
opsiyonu
alınmadan
haberlere
görevinden
kırmızılı
donatılmış
çağrısında
yaşamda
magazin
Romanya
şarkısı
lezzeti
past
yapmalısınız
Yönetmeliği
damgasını
Binlerce
IMF
gelinlik
yeteneklerini
Kolları
Hop
kursiy
yaratık
oluşturun
nev
Bilinç
ilçelerinde
bildiren
ortamın
Enflasyon
sıyr
1982
konuşmacı
yazıya
##laşmak
klip
##larınca
Tesla
muhar
tüketicinin
coğrafy
gübr
önü
##abilecekleri
incelemeler
doğruya
Nov
verildiğini
etkileye
##ğinin
Ayrı
sorununa
bilmeden
yetiştiric
##beyli
içeriğe
sabahı
YIL
Danimarka
##ctr
bekliyordu
##ilmediği
Egemen
##zım
##kim
Barcelona
MT
105
sinyali
fırsatta
müslüman
##sor
sonuçların
##opik
akaryakıt
Hüc
sözleşmeleri
VPN
şirin
yükseklik
müteahh
Ök
Hakem
başındaki
vida
başlanmıştır
yapmasına
tutacak
geçmesine
##able
Cy
haml
yönetimindeki
Puan
finan
yaşamında
kullanıldığında
##ezz
yansıdı
ihtiyacının
Efes
##iplin
iktisat
tamamlayarak
üretir
tarikat
şampiyonu
iyiye
havadan
İsterseniz
çoğalt
Şikayet
kutlu
çeşid
mimarlık
tarafıma
ışığın
beğenisine
geleneği
##İNE
çekecek
##amdan
farklılıkları
varlıkları
ibraz
Hastalık
Ümraniye
mekanın
çocuklarımızın
duyuyorum
atılması
siteyi
yansıması
otelleri
halısı
hadi
##üyorum
Fransada
IS
kırılgan
etkiledi
##jet
uygunluk
başvurusunda
tercüman
Alanında
Viy
Projenin
karşılanması
tamamladıktan
desteğine
fotok
karşılaştırma
oynayacak
doğruluk
çekirdeği
Şehirler
ayakkab
iğren
illerde
yaşın
ayrılmaz
##tığımızda
Sarık
tanıştır
Yemen
Enter
##alist
lokasyon
Durumu
pompa
tavsiyeler
yönelim
oluşturulur
kırıklığı
PYD
saçlar
pes
gizem
üniversiteye
Korku
çocuğunuzun
değişimleri
##cinsel
rüş
##itenin
##düğünüz
##ekatı
Müt
184
milletimizin
##100
Virüs
kokulu
olasılık
talepler
kazanın
konteyner
Gra
##OJ
Demet
şirketimiz
saran
istasyonu
Dursun
Hong
##EMEN
yumuşat
httpd
civarı
yakaladı
süreler
tahlil
talebin
atılmış
dezenfekte
yayımladı
##eyzaj
Uf
Kilisesi
belirledi
Bahis
söyleyecek
yararlanma
beta
üf
yükümlülüğü
askerleri
hani
Viz
Meteoroloji
Bartın
deneyimler
Fonu
1983
##efendi
tesettür
sendromu
zıp
Haberin
genişliği
Yaptır
açıklamıştı
ayni
istina
tembel
##unabilir
Gor
##ardo
anlayan
DP
hol
yazarların
Games
uçan
yle
şahsen
çoğunluk
paraz
##pozyum
##alizm
bozulma
izleyiciler
Esenyurt
bira
birçoğ
##batı
Orijinal
kullanıyoruz
arkadan
etkinleştir
tutumu
edinmiş
Kus
asa
olayla
hası
Haluk
çatal
##acaklar
inceleyin
büf
ateşe
##maca
Ayas
envan
arat
rağbet
bürokrat
ağabey
ivme
##eliğini
İlkokul
bugünün
görüntülü
andır
Romalı
broşür
hoşnut
dinleyen
Alanı
dalış
Au
Amacımız
gelmesine
Om
öğrenciye
Hazret
Cha
yılki
suçlama
üniversitede
üretme
mutabakat
##YO
Evin
Organik
temizlenmesi
220
##tere
aşikar
ülkemizi
TEKN
kalacaktır
yün
listeye
Brüksel
bahsedilen
vites
ölçekte
görmeden
düzeyine
olmayacağı
satılıyor
tanımlamak
Saadet
tohumu
buydu
ağaçları
Jim
dinlem
istinaden
##ilmi
##Cİ
##lanmasının
Cihan
istediğinizde
Uludağ
Öde
##çesi
##kadir
zen
çekmeyi
##uhan
yürürlük
dersin
uygulayarak
kanalizasyon
çabaları
depozit
sınıfa
##beli
gösterim
##mith
pud
##ordu
##cen
##rent
piyano
##tabilirsiniz
dosyayı
tanıdığı
yenilikler
katmak
varsayılan
tanımlama
Dör
##ILI
Şükrü
basına
Şans
##uşak
hoşuma
mezhep
azala
##uvarı
özenli
dağınık
borçlanma
##MAK
durdurma
turnuva
Olum
yarıya
Kaplan
##mın
Dinç
##SİAD
sezg
##affer
paylaşarak
kaçınmak
fotoğraflarını
duygusunu
Konuk
Bildiğiniz
AKPnin
pazartesi
döşeme
projesinde
##etz
rahatlık
##bab
##ıldım
atılır
birde
makamında
##tabilir
imkanına
çanak
##nem
Arşiv
##İP
Pers
Kamera
Cal
şartlarında
West
üzerini
##umet
Las
okş
##lemi
##ızlık
Lideri
doğduğu
##DEN
Dizi
yağma
yönetm
çalışırlar
yaşlarında
öğrencilerimiz
sitelerinden
projesini
gençleri
kabuğu
ırkçı
devri
Ters
ligin
başvuran
##oğluna
##uver
##leştirici
NE
doğruluğu
rakamları
VAR
Kırklar
öder
EP
kendimiz
ibarettir
hayvancılık
fail
canını
paran
ötesi
Şunu
yönetmenliğini
##eğinizin
Gebelik
teslimi
konuşmayı
seviyelere
##DR
##ander
seçilir
Steam
##esan
kardeşler
##dip
##cess
Kn
kullanmalısınız
bağırdı
##meyeceği
Komp
başkasına
Renault
gizlice
onca
##işan
göbek
##ologlar
##INDA
girişimcilik
değilseniz
Musk
israf
##barek
ayık
tanısı
reklamlar
değiller
verelim
raporları
##rolik
taşınır
önleme
dakikalar
mensupları
sağlanmış
zamankinden
##ılmayan
atanan
##tayım
##och
Hesab
kuşk
yapılmaz
kana
tuğla
Anı
söylerken
Şti
Ereğli
Vef
Havuz
240
halle
keşke
yaprakları
1930
Ton
gidiyoruz
saldırıda
##gız
modülü
istediğin
##bın
yılındaki
uykusuz
Listesi
hosting
erg
unutmamak
platformlar
##ilerinizi
Keskin
Aren
nüs
Anlat
modelinde
faktörü
aralarındaki
yukarıya
azaldı
katılmış
mümkünse
çalışmalarımızı
##ımına
sahibiz
bayanlar
Lap
gösterilmiştir
çözmeye
bilgisayara
Nehri
kırıklığına
havalarda
kayın
##umuzdan
atlet
uyarısı
lavabo
##get
Takv
kontenjan
iad
elemanları
Lik
etmediği
sosyo
katal
Esra
##BS
Pot
belirttiği
Appleın
Bilm
Hocam
##çer
gran
Anadolunun
gelişir
siyaseti
Neş
konumunu
elmas
okuyu
suikast
bağlayıcı
##ılacağına
##tihat
kararsız
aktiviteler
tuşuna
Yir
Çim
katılımcılara
yapıyı
turları
içindedir
token
köpeği
tabloda
başlıyoruz
kitlesel
##bis
ateşli
pahasına
götüren
geçebilir
yapılabilmesi
incelemesi
##ganın
Afet
deneyime
azaltılması
atılım
rehberi
Tüp
Sami
mekanları
##lamakta
Kullanıcıların
gündemi
kaçırma
Dünyaya
demiryolu
Antren
tüketmek
yaşarken
kabak
Dak
gönderir
istemektedir
mısın
yapacakları
edilmekte
meta
tıkanıklık
bakmaya
kadınla
buluşan
Dom
tüketiciye
elimden
ailesini
##uble
Yakup
##leşt
tasfiye
Nis
Haziranda
vatandaşlarımız
öğrencilerimizin
çiftçi
##İLER
norma
##ALI
mırıl
kaliteyi
edilmemektedir
geçmesini
diliyoruz
araçlarla
yapılıp
Zinc
girişinde
##ustin
Donan
sansür
intikal
aracının
##lanmanın
EFT
sistemli
Yasal
teori
pur
##bad
kalabalı
##ulh
Blok
fiilen
##uyun
deleg
Rol
başarmıştır
pal
sn
sertifikalı
PV
##uda
edebiliyor
konsep
çıkınca
ağacın
yöntemini
hurdacı
değere
uygulamasında
Piyasada
Sağlam
açıkçası
bozulması
Karbon
##kara
##landıran
kaynaklan
galer
Chrome
Ekmek
kolaylaştıran
##77
belirtelim
çalışılan
Başkanvekili
olaydan
Survivor
diyenler
paylaşıyor
dokunun
özelliklerin
duyduğunu
haberleşme
##luluğa
kalitesine
Kaldı
Ankaranın
belirtisi
arkadaşlarıyla
bütünleş
ekranın
çink
onarımı
yürümeye
Yara
toplanması
tarzını
mend
##etiyle
Tesisat
##GO
##ranıyor
kitabının
arkası
##ref
aklın
paylaşabilirsiniz
doğada
işleminde
##mıştık
Profesör
##Ğİ
haberin
rahip
Cla
Bağlantı
birleştiren
yürürken
##dünüz
##gim
açıklanması
yudum
##esses
kalabilir
Kendimi
##lanmayı
mücevher
Kahvaltı
anlaşılacağı
Giy
Milletvekil
eyle
Şekil
edince
##dimir
##AYIN
kontrolleri
üzücü
##ilenin
artacak
eylemler
özver
alç
burjuvaz
başladıktan
çapta
sabaha
kova
içinse
##26
gelirleri
yollarda
Cerrahi
Zer
cenn
düşünmeden
Cid
saz
##icik
resep
beyazlı
nitelikleri
Kuz
kaynağıdır
Lcn
dosyalar
##ırsanız
İzle
hom
Hap
##51
parçaların
otelin
Deli
##9da
Cumhurbaşkanımız
Stok
bıç
uğradığı
Kumaş
çağında
talebini
kararla
istir
##oe
my
##chan
moder
101
belleğ
anlatımı
hoparlör
deneyimleri
Ortod
Toh
entegrasyon
Bec
##mamıza
##elem
qu
Şener
bertaraf
olmalarına
kenarına
güzellikleri
zalim
erişmek
meyveler
Eli
insanlarının
seçimde
##ilse
##lerinizden
malların
##tian
kanallarından
Çukurova
##lığınız
programlarına
adan
hikayenin
afiş
2021de
sizce
takipç
sunma
kompozisyon
##DAN
bebeklerin
Kıymet
yayılması
alacağız
Whatsapp
restorasyon
zararlardan
hayvanın
tabanca
uygulamalarında
dostum
zirveye
Ortaya
general
Kamer
balıkçı
A101
##Ah
dayanıklılık
Teslimat
Haydi
nedense
##lasın
Mehmed
Modelleri
zararları
takımda
bilgili
yasalara
öteye
2017de
Koleji
analitik
Oli
Verilen
##severler
anlaşmaz
Felsefe
gencin
havalandırma
kafası
bilgisayarlar
kıyafetleri
hastalığına
##konusu
Arzu
Fur
Sırp
##varyum
işlerinin
Birey
##gunun
Özetle
dönemden
yiyen
temini
çalışmalarıyla
müvekk
Dünyadaki
matematiksel
bulundurarak
kavuştu
Zamanla
##iymiş
vereceğini
##cınız
TOBB
litr
##mızın
30da
##kinin
cahil
İns
kaybetme
tercüm
insanlığa
Tunceli
atandı
##zem
##ign
##ılamaz
Cay
dokunmatik
Saygı
##dükçe
yapılamaz
##ies
tüz
Bankacılık
bekletin
söylemeye
ulaşmasını
derseniz
##row
alınma
kasım
Salgın
##duğun
boyutlarda
##YON
piyasasına
şansınız
salonda
değişimin
mahrem
##amadım
Toplantıda
kullanılabilen
Elma
İzmirin
Yarışması
##oom
geçmişti
kayıpları
kanunu
servisleri
cenazesi
Born
Bluetooth
değiştirir
evini
Ürünü
hissettim
##yıldız
tapınak
4K
Cry
Üniversitesinin
öğrenmiş
edinen
Kodu
spesifik
bakımını
gösterişli
şiddetin
elbet
farkını
olmadığının
kirliliği
yapılmakta
raporunda
doktorun
##ımlar
ÖTV
duyduğum
##ELİ
##age
kısacası
Vis
arabanın
femin
##ülüğü
dayanık
Obama
Im
çabucak
kaybolan
ilişkilerde
platformunda
indirgen
Yeş
Mevlana
oluşabilir
Toros
Yeri
##eyici
kelimenin
##off
toplar
vaziyette
Sigortası
tereyağı
birliktelik
duvarları
İspanyolca
üyenin
##lemekte
##ıştı
imparatorluk
işarettir
Vladimir
davetiye
öldürmek
ihtiyaçlarınızı
çizgiler
evdeki
Antalyada
Vietnam
Tuna
gönderilecektir
göstergesidir
amin
başarmış
kullanıyorsanız
Nic
uzmanlaşmış
uzaklık
yazdığım
gününden
ebat
kullanılmasını
kapitalizm
inisiyat
##indi
toplamı
formatında
Tecrüb
piknik
arın
Adayı
çalıştığımız
ODTÜ
yurtdışına
alışkanlığı
kalırsa
içecekler
çalışanlara
##ağımız
sayılmaz
yaşandığını
kadim
##ory
duvarı
Sayı
kılıyor
yoga
nakli
muhabirine
dağılımı
##müştüm
bizlerle
sahipliğinde
öldüğü
Pic
sevgisi
##umdan
##ğdır
sınavına
ayrılması
sırrı
hücrelerin
Beylikdüzü
enter
üstünlüğü
##miye
Dic
##UŞ
Henry
gösterecektir
edilirse
##landıktan
kaynağından
hesabında
avcı
şeklindedir
siyasetin
merhamet
belirttiğimiz
Aksu
ücretini
##CE
inek
Direktör
tahrib
kullanıldığını
istisn
varlığına
ikincil
maksadı
görülmemiş
##mazsınız
makarna
köye
gerçekleşiyor
şüphelen
yaratmaya
Hayatı
##öval
fran
belirti
okyanus
şekilleri
##lamaktan
silme
derse
Gas
dinler
server
Fars
İnstagram
data
Kuşkusuz
yanık
##ings
protected
makalemizde
ürünlerinden
kesilen
düştüğünü
elemanı
Kaan
aktarılması
yakınlarına
yakışıklı
çalışmasının
uncu
teras
olmanızı
artmaya
kostüm
eyleme
takımların
Efsan
yerleştirilen
Rön
umud
haram
##ix
neb
tedavinin
##lünün
karantina
Sala
uyumsuz
Kurtar
anlayışının
şölen
sağlandı
sökü
Nij
##celer
paraların
Sanatçı
kitapların
karıştırarak
sağlayın
İnternette
tercihleri
İranın
durma
kaçmak
okumayı
our
deniyor
sanatçıların
tabiat
küçült
temenni
##üste
##kele
##ebilecektir
Ardahan
gezgin
##37
ritüel
Yürüt
##YS
uygulamalara
alınmasına
flor
Koyu
kapatıp
hoşuna
artırma
tazminatı
sitelerin
altıncı
koltuğu
yapısında
Kaymakamlık
yarısından
mürekkep
Alek
çın
uçur
BUR
kararların
öksürük
flaş
gu
ilerledikçe
nesneler
yayılmış
teknolojisini
Haftanın
pansiyon
aradı
muhtelif
desenli
başlayacaktır
piz
bölgelerine
Getir
Mesel
aln
kurmayı
hissetmek
Anadoluda
##ünç
Yunanlı
Yurtdışı
düşündüğüm
##larımla
boşluğu
tencereye
Onunla
Dat
çember
hiyerarş
Johnson
Sözcü
berrak
Tahmin
firmasına
tetkik
merkezlerinden
Adalar
terimi
katkıları
kişidir
##arlık
yatağa
LCD
ağaçlar
##ibu
artırıyor
ekibine
eserlerini
uğradı
Kalın
tüketilen
Hastane
hürriyet
Gönüllü
istila
bağlılık
Media
Tehlik
gun
kasıl
##evin
çifte
edeceklerini
katkılar
##link
engelley
Kaçak
hızıyla
hayattan
Fatura
pazarlık
Rot
kralı
değerin
barındırıyor
##cesine
##ouch
yükseliyor
birbirlerinden
vinç
palet
ayrılarak
yaşamayı
gerçeğini
##tiyat
yükseltmek
ortaklaşa
Yalı
karşılaştırıldığında
Anlam
sorumluluğunu
##linde
Tokyo
mevzuata
yemiş
##kap
sürerek
##ladıktan
oyundan
##liğimizi
Veterin
arabulu
esneklik
dayandır
Bill
yapacağımız
değilsiniz
paylaşımda
fiber
yüzeye
birisinin
asi
varlığının
Life
##mah
hücrelerinin
gelişmeye
kont
Aksoy
##çam
Ulaşım
Bob
egemenlik
tasdik
versin
üstlenen
##açık
düşünüldüğünde
koşulların
kursları
şahsiyet
suyunun
lenf
tarafımıza
davranıyor
Premier
tanıttı
Yasası
sivri
gebe
Başlangıçta
Pratik
traktör
##iner
Voleybol
##kol
bünyesindeki
milyonu
Hediye
durumlarında
##cili
Ülkede
vereceğim
Nus
##ahan
inceleyebilir
##ilerimiz
kesmek
raporlar
danışmanı
[...]
