{
  "version": "1.0",
  "truncation": {
    "direction": "Right",
    "max_length": 128,
    "strategy": "LongestFirst",
    "stride": 0
  },
  "padding": {
    "strategy": {
      "Fixed": 128
    },
    "direction": "Right",
    "pad_to_multiple_of": null,
    "pad_id": 0,
    "pad_type_id": 0,
    "pad_token": "[PAD]"
  },
  "added_tokens": [
    {
      "id": 0,
      "content": "[PAD]",
      "single_word": false,
      "lstrip": false,
      "rstrip": false,
      "normalized": false,
      "special": true
    },
    {
      "id": 1,
      "content": "[UNK]",
      "single_word": false,
      "lstrip": false,
      "rstrip": false,
      "normalized": false,
      "special": true
    },
    {
      "id": 2,
      "content": "[CLS]",
      "single_word": false,
      "lstrip": false,
      "rstrip": false,
      "normalized": false,
      "special": true
    },
    {
      "id": 3,
      "content": "[SEP]",
      "single_word": false,
      "lstrip": false,
      "rstrip": false,
      "normalized": false,
      "special": true
    },
    {
      "id": 4,
      "content": "[MASK]",
      "single_word": false,
      "lstrip": false,
      "rstrip": false,
      "normalized": false,
      "special": true
    }
  ],
  "normalizer": {
    "type": "BertNormalizer",
    "clean_text": true,
    "handle_chinese_chars": true,
    "strip_accents": null,
    "lowercase": false
  },
  "pre_tokenizer": {
    "type": "BertPreTokenizer"
  },
  "post_processor": {
    "type": "TemplateProcessing",
    "single": [
      {
        "SpecialToken": {
          "id": "[CLS]",
          "type_id": 0
        }
      },
      {
        "Sequence": {
          "id": "A",
          "type_id": 0
        }
      },
      {
        "SpecialToken": {
          "id": "[SEP]",
          "type_id": 0
        }
      }
    ],
    "pair": [
      {
        "SpecialToken": {
          "id": "[CLS]",
          "type_id": 0
        }
      },
      {
        "Sequence": {
          "id": "A",
          "type_id": 0
        }
      },
      {
        "SpecialToken": {
          "id": "[SEP]",
          "type_id": 0
        }
      },
      {
        "Sequence": {
          "id": "B",
          "type_id": 1
        }
      },
      {
        "SpecialToken": {
          "id": "[SEP]",
          "type_id": 1
        }
      }
    ],
    "special_tokens": {
      "[CLS]": {
        "id": "[CLS]",
        "ids": [
          2
        ],
        "tokens": [
          "[CLS]"
        ]
      },
      "[SEP]": {
        "id": "[SEP]",
        "ids": [
          3
        ],
        "tokens": [
          "[SEP]"
        ]
      }
    }
  },
  "decoder": {
    "type": "WordPiece",
    "prefix": "##",
    "cleanup": true
  },
  "model": {
    "type": "WordPiece",
    "unk_token": "[UNK]",
    "continuing_subword_prefix": "##",
    "max_input_chars_per_word": 100,
    "vocab": {
      "[PAD]": 0,
      "[UNK]": 1,
      "[CLS]": 2,
      "[SEP]": 3,
      "[MASK]": 4,
      "!": 5,
      "\"": 6,
      "#": 7,
      "$": 8,
      "%": 9,
      "&": 10,
      "'": 11,
      "(": 12,
      ")": 13,
      "*": 14,
      "+": 15,
      ",": 16,
      "-": 17,
      ".": 18,
      "/": 19,
      "0": 20,
      "1": 21,
      "2": 22,
      "3": 23,
      "4": 24,
      "5": 25,
      "6": 26,
      "7": 27,
      "8": 28,
      "9": 29,
      ":": 30,
      ";": 31,
      "<": 32,
      "=": 33,
      ">": 34,
      "?": 35,
      "@": 36,
      "A": 37,
      "B": 38,
      "C": 39,
      "D": 40,
      "E": 41,
      "F": 42,
      "G": 43,
      "H": 44,
      "I": 45,
      "J": 46,
      "K": 47,
      "L": 48,
      "M": 49,
      "N": 50,
      "O": 51,
      "P": 52,
      "Q": 53,
      "R": 54,
      "S": 55,
      "T": 56,
      "U": 57,
      "V": 58,
      "W": 59,
      "X": 60,
      "Y": 61,
      "Z": 62,
      "[": 63,
      "\\": 64,
      "]": 65,
      "^": 66,
      "_": 67,
      "`": 68,
      "a": 69,
      "b": 70,
      "c": 71,
      "d": 72,
      "e": 73,
      "f": 74,
      "g": 75,
      "h": 76,
      "i": 77,
      "j": 78,
      "k": 79,
      "l": 80,
      "m": 81,
      "n": 82,
      "o": 83,
      "p": 84,
      "q": 85,
      "r": 86,
      "s": 87,
      "t": 88,
      "u": 89,
      "v": 90,
      "w": 91,
      "x": 92,
      "y": 93,
      "z": 94,
      "{": 95,
      "|": 96,
      "}": 97,
      "~": 98,
      "¡": 99,
      "¢": 100,
      "£": 101,
      "¤": 102,
      "¥": 103,
      "·": 104,
      "¼": 105,
      "½": 106,
      "¾": 107,
      "Ç": 108,
      "Ö": 109,
      "Ü": 110,
      "ß": 111,
      "ç": 112,
      "ö": 113,
      "÷": 114,
      "ü": 115,
      "Ğ": 116,
      "ğ": 117,
      "İ": 118,
      "ı": 119,
      "Ş": 120,
      "ş": 121,
      "##n": 122,
      "##d": 123,
      "##i": 124,
      "##ş": 125,
      "##e": 126,
      "##l": 127,
      "##m": 128,
      "##k": 129,
      "##t": 130,
      "##r": 131,
      "##a": 132,
      "##s": 133,
      "##c": 134,
      "##ı": 135,
      "##y": 136,
      "##h": 137,
      "##o": 138,
      "##p": 139,
      "##u": 140,
      "##0": 141,
      "##8": 142,
      "##1": 143,
      "##2": 144,
      "##z": 145,
      "##b": 146,
      "##R": 147,
      "##A": 148,
      "##C": 149,
      "##E": 150,
      "##x": 151,
      "##S": 152,
      "##İ": 153,
      "##Z": 154,
      "##ü": 155,
      "##ğ": 156,
      "##L": 157,
      "##K": 158,
      "##I": 159,
      "##f": 160,
      "##g": 161,
      "##4": 162,
      "##V": 163,
      "##v": 164,
      "##N": 165,
      "##ç": 166,
      "##ö": 167,
      "##6": 168,
      "##T": 169,
      "##O": 170,
      "##3": 171,
      "##9": 172,
      "##H": 173,
      "##G": 174,
      "##q": 175,
      "##5": 176,
      "##B": 177,
      "##Ş": 178,
      "##D": 179,
      "##Ö": 180,
      "##Ü": 181,
      "##X": 182,
      "##P": 183,
      "##F": 184,
      "##j": 185,
      "##M": 186,
      "##Ğ": 187,
      "##7": 188,
      "##w": 189,
      "##Y": 190,
      "##U": 191,
      "##W": 192,
      "##Ç": 193,
      "##J": 194,
      "##Q": 195,
      "##¥": 196,
      "##¢": 197,
      "##£": 198,
      "##¼": 199,
      "##½": 200,
      "##ß": 201,
      "##¤": 202,
      "##¾": 203,
      "##÷": 204,
      "##la": 205,
      "##er": 206,
      "##in": 207,
      "##an": 208,
      "##en": 209,
      "##ın": 210,
      "##ir": 211,
      "##ar": 212,
      "##il": 213,
      "##lar": 214,
      "##ma": 215,
      "##ek": 216,
      "##or": 217,
      "##le": 218,
      "##ak": 219,
      "##un": 220,
      "##el": 221,
      "##iy": 222,
      "##da": 223,
      "##de": 224,
      "##im": 225,
      "bir": 226,
      "##lı": 227,
      "##ler": 228,
      "##et": 229,
      "##ay": 230,
      "##on": 231,
      "##at": 232,
      "##es": 233,
      "##iz": 234,
      "ve": 235,
      "##dı": 236,
      "##ik": 237,
      "##ur": 238,
      "de": 239,
      "##ün": 240,
      "ya": 241,
      "##lan": 242,
      "##as": 243,
      "##di": 244,
      "##al": 245,
      "##em": 246,
      "ol": 247,
      "##ey": 248,
      "##ır": 249,
      "da": 250,
      "##ür": 251,
      "##am": 252,
      "##um": 253,
      "##is": 254,
      "##iş": 255,
      "##aş": 256,
      "bu": 257,
      "##ım": 258,
      "##den": 259,
      "##yor": 260,
      "##ız": 261,
      "##iyor": 262,
      "##ok": 263,
      "##ların": 264,
      "ka": 265,
      "##ıl": 266,
      "gö": 267,
      "##st": 268,
      "##it": 269,
      "##ık": 270,
      "##dan": 271,
      "##ya": 272,
      "iç": 273,
      "##du": 274,
      "##ış": 275,
      "##ce": 276,
      "##ini": 277,
      "##li": 278,
      "##ab": 279,
      "##ul": 280,
      "yap": 281,
      "##ağ": 282,
      "##az": 283,
      "##ol": 284,
      "##ları": 285,
      "ar": 286,
      "##ında": 287,
      "##ine": 288,
      "##ah": 289,
      "için": 290,
      "##ti": 291,
      "##üz": 292,
      "##tı": 293,
      "##ük": 294,
      "##ta": 295,
      "in": 296,
      "##ını": 297,
      "##unu": 298,
      "##üm": 299,
      "##mas": 300,
      "gör": 301,
      "an": 302,
      "##inde": 303,
      "##ev": 304,
      "##cak": 305,
      "##uş": 306,
      "##mak": 307,
      "et": 308,
      "##te": 309,
      "##ra": 310,
      "##iler": 311,
      "baş": 312,
      "##me": 313,
      "Bu": 314,
      "##alı": 315,
      "##iye": 316,
      "##oğ": 317,
      "##esi": 318,
      "oldu": 319,
      "değ": 320,
      "##bil": 321,
      "##eler": 322,
      "##eç": 323,
      "al": 324,
      "bil": 325,
      "##ğı": 326,
      "kar": 327,
      "##üş": 328,
      "##leri": 329,
      "##inin": 330,
      "gel": 331,
      "##ği": 332,
      "son": 333,
      "##yle": 334,
      "##ut": 335,
      "ön": 336,
      "ne": 337,
      "##mek": 338,
      "##ına": 339,
      "ver": 340,
      "ger": 341,
      "##ön": 342,
      "##ıyor": 343,
      "##dir": 344,
      "##uk": 345,
      "##us": 346,
      "##ec": 347,
      "##eni": 348,
      "gi": 349,
      "##lik": 350,
      "##uz": 351,
      "il": 352,
      "##dır": 353,
      "kon": 354,
      "##ha": 355,
      "##ıs": 356,
      "##se": 357,
      "##lık": 358,
      "var": 359,
      "##len": 360,
      "##mış": 361,
      "ile": 362,
      "ed": 363,
      "çok": 364,
      "##ki": 365,
      "##tir": 366,
      "##ara": 367,
      "##man": 368,
      "ist": 369,
      "kad": 370,
      "##bi": 371,
      "##miş": 372,
      "en": 373,
      "##tır": 374,
      "##ez": 375,
      "##cı": 376,
      "ay": 377,
      "##larak": 378,
      "sö": 379,
      "yer": 380,
      "iş": 381,
      "##laş": 382,
      "olduğ": 383,
      "##ca": 384,
      "##ül": 385,
      "##av": 386,
      "olarak": 387,
      "##anı": 388,
      "daha": 389,
      "##aki": 390,
      "##ması": 391,
      "çık": 392,
      "##ından": 393,
      "##ro": 394,
      "ola": 395,
      "##eki": 396,
      "##ka": 397,
      "##ap": 398,
      "##lu": 399,
      "aç": 400,
      "##tan": 401,
      "##iniz": 402,
      "yıl": 403,
      "##alış": 404,
      "##eş": 405,
      "##ası": 406,
      "yaş": 407,
      "##ürk": 408,
      "olan": 409,
      "gün": 410,
      "##op": 411,
      "gibi": 412,
      "##eye": 413,
      "bul": 414,
      "on": 415,
      "##imiz": 416,
      "sür": 417,
      "##ama": 418,
      "değil": 419,
      "or": 420,
      "##san": 421,
      "##üy": 422,
      "##ının": 423,
      "##aman": 424,
      "şey": 425,
      "##ip": 426,
      "geç": 427,
      "##lama": 428,
      "çalış": 429,
      "##ör": 430,
      "##ken": 431,
      "An": 432,
      "##aya": 433,
      "##ele": 434,
      "Bir": 435,
      "kadar": 436,
      "##bilir": 437,
      "her": 438,
      "##ed": 439,
      "Türk": 440,
      "20": 441,
      "##om": 442,
      "ken": 443,
      "##lay": 444,
      "##ana": 445,
      "##sa": 446,
      "##uy": 447,
      "ben": 448,
      "##zer": 449,
      "##diğ": 450,
      "##yon": 451,
      "düş": 452,
      "##ece": 453,
      "##ci": 454,
      "##lerin": 455,
      "##yi": 456,
      "yar": 457,
      "##dım": 458,
      "olma": 459,
      "##cağ": 460,
      "##ecek": 461,
      "kur": 462,
      "##ili": 463,
      "##ark": 464,
      "zaman": 465,
      "kul": 466,
      "##sun": 467,
      "##üt": 468,
      "##isi": 469,
      "##ilm": 470,
      "oy": 471,
      "##iç": 472,
      "##iyorum": 473,
      "##ılı": 474,
      "##ru": 475,
      "ama": 476,
      "##dığ": 477,
      "##ımız": 478,
      "kal": 479,
      "sor": 480,
      "##iyle": 481,
      "##lü": 482,
      "gerek": 483,
      "##yla": 484,
      "bel": 485,
      "hay": 486,
      "bö": 487,
      "sa": 488,
      "uy": 489,
      "kullan": 490,
      "##daki": 491,
      "##unda": 492,
      "mi": 493,
      "dön": 494,
      "##let": 495,
      "##larını": 496,
      "##lara": 497,
      "##oy": 498,
      "Ne": 499,
      "dur": 500,
      "##enin": 501,
      "nin": 502,
      "##leş": 503,
      "##maya": 504,
      "##ep": 505,
      "ın": 506,
      "##eri": 507,
      "söyle": 508,
      "##oc": 509,
      "üzer": 510,
      "Ben": 511,
      "öz": 512,
      "##ğr": 513,
      "tek": 514,
      "##af": 515,
      "##os": 516,
      "##şı": 517,
      "##eh": 518,
      "##ih": 519,
      "##üyük": 520,
      "##uyor": 521,
      "##dığı": 522,
      "##ada": 523,
      "yan": 524,
      "yön": 525,
      "kay": 526,
      "##ede": 527,
      "ev": 528,
      "yok": 529,
      "##ilen": 530,
      "##inden": 531,
      "##art": 532,
      "den": 533,
      "##unun": 534,
      "##ad": 535,
      "sah": 536,
      "yaz": 537,
      "yüz": 538,
      "##ers": 539,
      "##tur": 540,
      "##ist": 541,
      "##eli": 542,
      "##lam": 543,
      "Ev": 544,
      "##lem": 545,
      "##asında": 546,
      "bak": 547,
      "sonra": 548,
      "ak": 549,
      "##ten": 550,
      "Baş": 551,
      "doğ": 552,
      "dev": 553,
      "yak": 554,
      "##çek": 555,
      "##arı": 556,
      "ise": 557,
      "Türkiye": 558,
      "##abil": 559,
      "yeni": 560,
      "##dim": 561,
      "gü": 562,
      "iyi": 563,
      "ki": 564,
      "mı": 565,
      "##ınız": 566,
      "top": 567,
      "##ran": 568,
      "sağ": 569,
      "##iyet": 570,
      "##diği": 571,
      "##ter": 572,
      "##men": 573,
      "##ğer": 574,
      "##una": 575,
      "sev": 576,
      "##gi": 577,
      "##deki": 578,
      "##üyor": 579,
      "biz": 580,
      "kat": 581,
      "insan": 582,
      "##ılan": 583,
      "##gu": 584,
      "el": 585,
      "##tık": 586,
      "##cu": 587,
      "##ot": 588,
      "##lat": 589,
      "bulun": 590,
      "büyük": 591,
      "olduğunu": 592,
      "##der": 593,
      "##sel": 594,
      "##araf": 595,
      "düşün": 596,
      "san": 597,
      "kap": 598,
      "##if": 599,
      "hak": 600,
      "açık": 601,
      "##dece": 602,
      "##est": 603,
      "##imi": 604,
      "##lerini": 605,
      "##larda": 606,
      "##dü": 607,
      "taraf": 608,
      "##yı": 609,
      "##ic": 610,
      "ek": 611,
      "say": 612,
      "##lk": 613,
      "uz": 614,
      "##eb": 615,
      "##dür": 616,
      "yol": 617,
      "##si": 618,
      "##muş": 619,
      "karşı": 620,
      "##ğini": 621,
      "bur": 622,
      "##ret": 623,
      "önem": 624,
      "##ster": 625,
      "gir": 626,
      "##kan": 627,
      "un": 628,
      "On": 629,
      "öl": 630,
      "kiş": 631,
      "neden": 632,
      "Ar": 633,
      "belir": 634,
      "nın": 635,
      "Hay": 636,
      "gerçek": 637,
      "şek": 638,
      "gen": 639,
      "##yan": 640,
      "ilg": 641,
      "ilk": 642,
      "pro": 643,
      "##ısı": 644,
      "hal": 645,
      "##ley": 646,
      "##larının": 647,
      "ada": 648,
      "do": 649,
      "tar": 650,
      "##kin": 651,
      "##aç": 652,
      "göre": 653,
      "mil": 654,
      "fark": 655,
      "##dık": 656,
      "##arak": 657,
      "alan": 658,
      "öğr": 659,
      "##id": 660,
      "##bir": 661,
      "konuş": 662,
      "##tü": 663,
      "Al": 664,
      "böl": 665,
      "çek": 666,
      "Er": 667,
      "##re": 668,
      "mu": 669,
      "##oş": 670,
      "özel": 671,
      "##ala": 672,
      "19": 673,
      "Evet": 674,
      "hiç": 675,
      "çoc": 676,
      "ort": 677,
      "##sin": 678,
      "##eyi": 679,
      "hem": 680,
      "Ama": 681,
      "tan": 682,
      "önce": 683,
      "kö": 684,
      "##asıl": 685,
      "as": 686,
      "dün": 687,
      "göster": 688,
      "bağ": 689,
      "##dik": 690,
      "##bul": 691,
      "olduğu": 692,
      "##etir": 693,
      "iz": 694,
      "sen": 695,
      "##ğu": 696,
      "##amam": 697,
      "##tu": 698,
      "duy": 699,
      "hayat": 700,
      "##ans": 701,
      "düz": 702,
      "##lıyor": 703,
      "##uç": 704,
      "getir": 705,
      "##tr": 706,
      "##larına": 707,
      "##ıp": 708,
      "ok": 709,
      "##lığı": 710,
      "Ay": 711,
      "##meye": 712,
      "##gün": 713,
      "kendi": 714,
      "göz": 715,
      "##ika": 716,
      "##ac": 717,
      "##met": 718,
      "##aber": 719,
      "##00": 720,
      "diye": 721,
      "git": 722,
      "##kü": 723,
      "##ram": 724,
      "durum": 725,
      "har": 726,
      "##rı": 727,
      "es": 728,
      "değiş": 729,
      "##esinde": 730,
      "mü": 731,
      "##elik": 732,
      "seç": 733,
      "##cek": 734,
      "edil": 735,
      "##iyat": 736,
      "par": 737,
      "bek": 738,
      "##lığ": 739,
      "zor": 740,
      "##erek": 741,
      "##mesi": 742,
      "kim": 743,
      "##iv": 744,
      "##sız": 745,
      "siz": 746,
      "##maz": 747,
      "##erk": 748,
      "kor": 749,
      "iki": 750,
      "der": 751,
      "##lere": 752,
      "sır": 753,
      "bin": 754,
      "##unuz": 755,
      "yet": 756,
      "tut": 757,
      "##acak": 758,
      "##tür": 759,
      "er": 760,
      "##daş": 761,
      "etti": 762,
      "##üzel": 763,
      "at": 764,
      "##eğ": 765,
      "yaptı": 766,
      "İn": 767,
      "oyun": 768,
      "##sın": 769,
      "##azla": 770,
      "yük": 771,
      "##oz": 772,
      "##eleri": 773,
      "##tik": 774,
      "ih": 775,
      "önemli": 776,
      "##raf": 777,
      "aş": 778,
      "##nı": 779,
      "başla": 780,
      "##larında": 781,
      "##mem": 782,
      "olur": 783,
      "ser": 784,
      "tak": 785,
      "##sı": 786,
      "alt": 787,
      "devam": 788,
      "oluş": 789,
      "şekil": 790,
      "##ayı": 791,
      "##aba": 792,
      "fazla": 793,
      "##fa": 794,
      "etk": 795,
      "söz": 796,
      "##leştir": 797,
      "kaz": 798,
      "##ven": 799,
      "te": 800,
      "yay": 801,
      "has": 802,
      "##han": 803,
      "##tar": 804,
      "olacak": 805,
      "ülk": 806,
      "##kanı": 807,
      "##ındaki": 808,
      "##lardan": 809,
      "##dığını": 810,
      "çocuk": 811,
      "##ımı": 812,
      "##dur": 813,
      "Bak": 814,
      "201": 815,
      "az": 816,
      "nasıl": 817,
      "İst": 818,
      "tarafından": 819,
      "sahip": 820,
      "##üs": 821,
      "hat": 822,
      "Bur": 823,
      "##azı": 824,
      "##ırak": 825,
      "##od": 826,
      "##mes": 827,
      "öğren": 828,
      "##öz": 829,
      "ede": 830,
      "di": 831,
      "##ünü": 832,
      "##ça": 833,
      "ad": 834,
      "##ileri": 835,
      "birlik": 836,
      "is": 837,
      "##imdi": 838,
      "tarih": 839,
      "##olo": 840,
      "##aret": 841,
      "Öz": 842,
      "##abilir": 843,
      "##dum": 844,
      "##siniz": 845,
      "##siz": 846,
      "dış": 847,
      "bile": 848,
      "İş": 849,
      "ilgili": 850,
      "dönem": 851,
      "##usu": 852,
      "##ale": 853,
      "arasında": 854,
      "Hayır": 855,
      "##eceğ": 856,
      "##liği": 857,
      "geliş": 858,
      "film": 859,
      "şekilde": 860,
      "tüm": 861,
      "Son": 862,
      "##lah": 863,
      "##ile": 864,
      "##ünde": 865,
      "ko": 866,
      "çalışma": 867,
      "##ayan": 868,
      "##ef": 869,
      "##lerinin": 870,
      "Biz": 871,
      "içinde": 872,
      "##azır": 873,
      "tem": 874,
      "##likle": 875,
      "benim": 876,
      "##lerde": 877,
      "eğ": 878,
      "güzel": 879,
      "##larla": 880,
      "bırak": 881,
      "##asyon": 882,
      "kız": 883,
      "##esin": 884,
      "çıkar": 885,
      "iliş": 886,
      "değer": 887,
      "kend": 888,
      "görün": 889,
      "sadece": 890,
      "##mıştır": 891,
      "##ünkü": 892,
      "##iyoruz": 893,
      "##makta": 894,
      "ter": 895,
      "biri": 896,
      "ye": 897,
      "##ıla": 898,
      "saat": 899,
      "yönet": 900,
      "birlikte": 901,
      "##üp": 902,
      "aynı": 903,
      "##ıyorum": 904,
      "##ne": 905,
      "##çe": 906,
      "farklı": 907,
      "gelen": 908,
      "hakk": 909,
      "##ilik": 910,
      "##diğini": 911,
      "kıs": 912,
      "ağ": 913,
      "arka": 914,
      "##lerine": 915,
      "##oloj": 916,
      "En": 917,
      "##rup": 918,
      "##lendir": 919,
      "alın": 920,
      "##up": 921,
      "##ıldı": 922,
      "Sen": 923,
      "##bet": 924,
      "##ıcı": 925,
      "konu": 926,
      "veya": 927,
      "Her": 928,
      "böyle": 929,
      "taş": 930,
      "uygu": 931,
      "mes": 932,
      "##mez": 933,
      "haf": 934,
      "10": 935,
      "boy": 936,
      "##din": 937,
      "##öyle": 938,
      "sat": 939,
      "kaç": 940,
      "dav": 941,
      "##aştır": 942,
      "##min": 943,
      "##anbul": 944,
      "sav": 945,
      "Ve": 946,
      "doğru": 947,
      "##ütün": 948,
      "##ket": 949,
      "ün": 950,
      "ör": 951,
      "bas": 952,
      "adam": 953,
      "##sek": 954,
      "hazır": 955,
      "##acağ": 956,
      "İstanbul": 957,
      "##ebilir": 958,
      "##ig": 959,
      "bunu": 960,
      "eş": 961,
      "Ak": 962,
      "##mekte": 963,
      "##liğ": 964,
      "dik": 965,
      "şu": 966,
      "##düğ": 967,
      "üst": 968,
      "##iyas": 969,
      "bana": 970,
      "##estek": 971,
      "diğer": 972,
      "##hur": 973,
      "düzen": 974,
      "olmak": 975,
      "ik": 976,
      "alı": 977,
      "Gen": 978,
      "##isin": 979,
      "##kat": 980,
      "##ulu": 981,
      "dan": 982,
      "##elen": 983,
      "tele": 984,
      "##tığ": 985,
      "##miştir": 986,
      "##ağı": 987,
      "yardım": 988,
      "kadın": 989,
      "başka": 990,
      "##laya": 991,
      "karar": 992,
      "sık": 993,
      "bun": 994,
      "##por": 995,
      "##istem": 996,
      "Bil": 997,
      "kit": 998,
      "##anın": 999,
      "##ilerin": 1000,
      "ediyor": 1001,
      "##manın": 1002,
      "##masını": 1003,
      "##erkez": 1004,
      "kam": 1005,
      "onu": 1006,
      "##he": 1007,
      "##üç": 1008,
      "sal": 1009,
      "##elim": 1010,
      "güven": 1011,
      "##oğlu": 1012,
      "##fon": 1013,
      "##eyen": 1014,
      "##fen": 1015,
      "##mayı": 1016,
      "kazan": 1017,
      "destek": 1018,
      "##dem": 1019,
      "bit": 1020,
      "Çok": 1021,
      "##üne": 1022,
      "##larından": 1023,
      "ortaya": 1024,
      "##ri": 1025,
      "Av": 1026,
      "Kar": 1027,
      "yem": 1028,
      "##tör": 1029,
      "##malı": 1030,
      "##tım": 1031,
      "##ehir": 1032,
      "bilg": 1033,
      "##lak": 1034,
      "##dar": 1035,
      "görev": 1036,
      "##layan": 1037,
      "hep": 1038,
      "##ani": 1039,
      "İs": 1040,
      "##lanan": 1041,
      "eden": 1042,
      "##osy": 1043,
      "güç": 1044,
      "##mam": 1045,
      "eder": 1046,
      "içer": 1047,
      "##dın": 1048,
      "im": 1049,
      "##larımız": 1050,
      "##tiy": 1051,
      "bölg": 1052,
      "tür": 1053,
      "oyn": 1054,
      "tab": 1055,
      "San": 1056,
      "##ildi": 1057,
      "Kur": 1058,
      "##masına": 1059,
      "##cü": 1060,
      "gele": 1061,
      "##umhur": 1062,
      "pol": 1063,
      "##uv": 1064,
      "mut": 1065,
      "yat": 1066,
      "su": 1067,
      "##ali": 1068,
      "dedi": 1069,
      "##luk": 1070,
      "anlam": 1071,
      "tes": 1072,
      "##tin": 1073,
      "yapılan": 1074,
      "##mal": 1075,
      "Or": 1076,
      "burada": 1077,
      "##lerinde": 1078,
      "As": 1079,
      "beni": 1080,
      "görüş": 1081,
      "istem": 1082,
      "ara": 1083,
      "ulaş": 1084,
      "##ırım": 1085,
      "##maktadır": 1086,
      "üç": 1087,
      "##tim": 1088,
      "##ahat": 1089,
      "##esine": 1090,
      "hav": 1091,
      "yüzde": 1092,
      "##eket": 1093,
      "##leme": 1094,
      "Ancak": 1095,
      "olabilir": 1096,
      "üret": 1097,
      "ner": 1098,
      "##ob": 1099,
      "El": 1100,
      "##iyon": 1101,
      "##eniz": 1102,
      "kan": 1103,
      "##baş": 1104,
      "##det": 1105,
      "##iyorsun": 1106,
      "din": 1107,
      "çev": 1108,
      "geçir": 1109,
      "bazı": 1110,
      "Sa": 1111,
      "söy": 1112,
      "ot": 1113,
      "haber": 1114,
      "##olu": 1115,
      "sistem": 1116,
      "Gün": 1117,
      "Ken": 1118,
      "##eden": 1119,
      "##esini": 1120,
      "##ov": 1121,
      "sorun": 1122,
      "dikkat": 1123,
      "bölüm": 1124,
      "his": 1125,
      "##lerden": 1126,
      "Par": 1127,
      "geri": 1128,
      "ihtiy": 1129,
      "olduk": 1130,
      "##sunuz": 1131,
      "AB": 1132,
      "Tamam": 1133,
      "##ebil": 1134,
      "sı": 1135,
      "##rar": 1136,
      "##gil": 1137,
      "##ikay": 1138,
      "##lum": 1139,
      "biraz": 1140,
      "##ümüz": 1141,
      "##adi": 1142,
      "##gı": 1143,
      "##alan": 1144,
      "##itim": 1145,
      "anla": 1146,
      "##lerle": 1147,
      "##tığı": 1148,
      "##sal": 1149,
      "202": 1150,
      "tekn": 1151,
      "olması": 1152,
      "##ekk": 1153,
      "can": 1154,
      "onun": 1155,
      "arkadaş": 1156,
      "##aha": 1157,
      "Dün": 1158,
      "##üçük": 1159,
      "Kon": 1160,
      "##duğ": 1161,
      "Cumhur": 1162,
      "##tal": 1163,
      "Başkanı": 1164,
      "inan": 1165,
      "##kı": 1166,
      "koy": 1167,
      "##rıca": 1168,
      "üzerine": 1169,
      "uzun": 1170,
      "Dev": 1171,
      "##lerinden": 1172,
      "##tiğ": 1173,
      "önc": 1174,
      "hız": 1175,
      "artık": 1176,
      "##duğu": 1177,
      "##mektedir": 1178,
      "##ing": 1179,
      "öyle": 1180,
      "milyon": 1181,
      "iste": 1182,
      "200": 1183,
      "##osyal": 1184,
      "##izi": 1185,
      "yür": 1186,
      "nun": 1187,
      "##arım": 1188,
      "##for": 1189,
      "yapıl": 1190,
      "##dından": 1191,
      "telefon": 1192,
      "##çı": 1193,
      "hakkında": 1194,
      "araştır": 1195,
      "sanat": 1196,
      "##gram": 1197,
      "##gan": 1198,
      "Bay": 1199,
      "##okt": 1200,
      "art": 1201,
      "pay": 1202,
      "tamam": 1203,
      "##oğan": 1204,
      "##umuz": 1205,
      "15": 1206,
      "##mer": 1207,
      "belirt": 1208,
      "##uh": 1209,
      "kişi": 1210,
      "##mel": 1211,
      "##lus": 1212,
      "yüksek": 1213,
      "##bol": 1214,
      "yaklaş": 1215,
      "##eled": 1216,
      "##ge": 1217,
      "tam": 1218,
      "##bar": 1219,
      "##mi": 1220,
      "Çünkü": 1221,
      "vur": 1222,
      "##sam": 1223,
      "##usunda": 1224,
      "gön": 1225,
      "plan": 1226,
      "##ladı": 1227,
      "yakın": 1228,
      "üzerinde": 1229,
      "bah": 1230,
      "ala": 1231,
      "12": 1232,
      "kez": 1233,
      "##onom": 1234,
      "orta": 1235,
      "##rak": 1236,
      "##uma": 1237,
      "hiçbir": 1238,
      "##gun": 1239,
      "##müş": 1240,
      "bugün": 1241,
      "olay": 1242,
      "yarat": 1243,
      "Mar": 1244,
      "Pro": 1245,
      "dünya": 1246,
      "##lük": 1247,
      "##eşekk": 1248,
      "mus": 1249,
      "müz": 1250,
      "##akat": 1251,
      "oluyor": 1252,
      "genel": 1253,
      "##suz": 1254,
      "##asına": 1255,
      "yapıyor": 1256,
      "##eşekkür": 1257,
      "##alık": 1258,
      "Mil": 1259,
      "Bunu": 1260,
      "##van": 1261,
      "Yar": 1262,
      "##meler": 1263,
      "##pr": 1264,
      "##irket": 1265,
      "hafta": 1266,
      "oluştur": 1267,
      "senin": 1268,
      "dak": 1269,
      "karş": 1270,
      "##ivers": 1271,
      "##gin": 1272,
      "##miyor": 1273,
      "##las": 1274,
      "bütün": 1275,
      "kır": 1276,
      "kayn": 1277,
      "öldür": 1278,
      "ta": 1279,
      "söyledi": 1280,
      "yılında": 1281,
      "başar": 1282,
      "hasta": 1283,
      "kav": 1284,
      "##iversit": 1285,
      "sonu": 1286,
      "##lüğ": 1287,
      "##tem": 1288,
      "suç": 1289,
      "kı": 1290,
      "met": 1291,
      "##çok": 1292,
      "yayın": 1293,
      "##ub": 1294,
      "##isinde": 1295,
      "Bel": 1296,
      "kr": 1297,
      "kes": 1298,
      "hareket": 1299,
      "##ültür": 1300,
      "ifa": 1301,
      "geldi": 1302,
      "uç": 1303,
      "çöz": 1304,
      "##mıştı": 1305,
      "sonr": 1306,
      "Tan": 1307,
      "ilişk": 1308,
      "Daha": 1309,
      "##oğraf": 1310,
      "##ızı": 1311,
      "Tek": 1312,
      "ardından": 1313,
      "ür": 1314,
      "##unca": 1315,
      "##ber": 1316,
      "etmek": 1317,
      "para": 1318,
      "isim": 1319,
      "tat": 1320,
      "süre": 1321,
      "##lenen": 1322,
      "##izmet": 1323,
      "ayr": 1324,
      "dil": 1325,
      "##lantı": 1326,
      "pek": 1327,
      "Mü": 1328,
      "yanı": 1329,
      "##og": 1330,
      "ifade": 1331,
      "ses": 1332,
      "tas": 1333,
      "söyley": 1334,
      "##azet": 1335,
      "##diğim": 1336,
      "##ren": 1337,
      "##eti": 1338,
      "Şimdi": 1339,
      "üzere": 1340,
      "İyi": 1341,
      "##ii": 1342,
      "açıklama": 1343,
      "##eme": 1344,
      "yaşa": 1345,
      "##ba": 1346,
      "mah": 1347,
      "paylaş": 1348,
      "gid": 1349,
      "##lında": 1350,
      "nde": 1351,
      "##ch": 1352,
      "##atı": 1353,
      "##kek": 1354,
      "sek": 1355,
      "seb": 1356,
      "##ize": 1357,
      "sonuç": 1358,
      "iy": 1359,
      "tanı": 1360,
      "##indeki": 1361,
      "kabul": 1362,
      "##ime": 1363,
      "olsun": 1364,
      "anlat": 1365,
      "Benim": 1366,
      "merkez": 1367,
      "mod": 1368,
      "genç": 1369,
      "şimdi": 1370,
      "tur": 1371,
      "##mir": 1372,
      "yaşam": 1373,
      "##ddi": 1374,
      "##atan": 1375,
      "Bunun": 1376,
      "##undan": 1377,
      "##aten": 1378,
      "Genel": 1379,
      "##imizi": 1380,
      "yaptığı": 1381,
      "##ide": 1382,
      "##mişti": 1383,
      "##çi": 1384,
      "##ilmesi": 1385,
      "Mer": 1386,
      "mer": 1387,
      "##esinin": 1388,
      "yine": 1389,
      "tah": 1390,
      "bulunan": 1391,
      "Yani": 1392,
      "ancak": 1393,
      "Eğer": 1394,
      "##larıyla": 1395,
      "##kinci": 1396,
      "##asını": 1397,
      "Ön": 1398,
      "Avrup": 1399,
      "küçük": 1400,
      "seni": 1401,
      "##duk": 1402,
      "##landı": 1403,
      "Peki": 1404,
      "gece": 1405,
      "gelir": 1406,
      "yaşan": 1407,
      "kork": 1408,
      "##deş": 1409,
      "ABD": 1410,
      "##may": 1411,
      "yerine": 1412,
      "herk": 1413,
      "##meyi": 1414,
      "bar": 1415,
      "##net": 1416,
      "##tiv": 1417,
      "res": 1418,
      "Ün": 1419,
      "geliyor": 1420,
      "##lım": 1421,
      "sun": 1422,
      "eski": 1423,
      "##bak": 1424,
      "şirket": 1425,
      "##doğan": 1426,
      "bey": 1427,
      "Yap": 1428,
      "##iyim": 1429,
      "##inizi": 1430,
      "Neden": 1431,
      "sıra": 1432,
      "bilin": 1433,
      "30": 1434,
      "İşte": 1435,
      "##eg": 1436,
      "##sak": 1437,
      "hizmet": 1438,
      "##işim": 1439,
      "##sınız": 1440,
      "geçen": 1441,
      "##AR": 1442,
      "seçim": 1443,
      "sosyal": 1444,
      "##etim": 1445,
      "##aj": 1446,
      "muh": 1447,
      "birçok": 1448,
      "##trol": 1449,
      "##tiği": 1450,
      "bizim": 1451,
      "olmuş": 1452,
      "Kim": 1453,
      "ail": 1454,
      "bunun": 1455,
      "dönüş": 1456,
      "Doğ": 1457,
      "##HP": 1458,
      "##ceğ": 1459,
      "man": 1460,
      "ber": 1461,
      "##ban": 1462,
      "rahat": 1463,
      "misin": 1464,
      "##alım": 1465,
      "##ök": 1466,
      "##ünün": 1467,
      "kötü": 1468,
      "##iyi": 1469,
      "##ılması": 1470,
      "##eyim": 1471,
      "##umu": 1472,
      "eğitim": 1473,
      "##rada": 1474,
      "savaş": 1475,
      "Avrupa": 1476,
      "siyas": 1477,
      "##ılıyor": 1478,
      "Büyük": 1479,
      "eki": 1480,
      "##per": 1481,
      "otur": 1482,
      "##AN": 1483,
      "##ğa": 1484,
      "sana": 1485,
      "hatır": 1486,
      "##ıyoruz": 1487,
      "##öl": 1488,
      "##ver": 1489,
      "büy": 1490,
      "##ışma": 1491,
      "##set": 1492,
      "##tif": 1493,
      "##meden": 1494,
      "diy": 1495,
      "yor": 1496,
      "edilen": 1497,
      "si": 1498,
      "##landır": 1499,
      "istiyorum": 1500,
      "##uyu": 1501,
      "Ek": 1502,
      "sak": 1503,
      "##lo": 1504,
      "##ıt": 1505,
      "Ger": 1506,
      "İl": 1507,
      "düşünüyor": 1508,
      "##üc": 1509,
      "konusunda": 1510,
      "##mey": 1511,
      "##ince": 1512,
      "maç": 1513,
      "yapan": 1514,
      "##ira": 1515,
      "Erdoğan": 1516,
      "##ınır": 1517,
      "proj": 1518,
      "##uluk": 1519,
      "mak": 1520,
      "Dem": 1521,
      "mal": 1522,
      "##gel": 1523,
      "##na": 1524,
      "gönder": 1525,
      "##edef": 1526,
      "##isini": 1527,
      "##rim": 1528,
      "##otoğraf": 1529,
      "##siyon": 1530,
      "Ch": 1531,
      "11": 1532,
      "fiyat": 1533,
      "uzak": 1534,
      "Ank": 1535,
      "Yeni": 1536,
      "gerekiyor": 1537,
      "##teş": 1538,
      "Har": 1539,
      "##azar": 1540,
      "değerlendir": 1541,
      "mo": 1542,
      "iddi": 1543,
      "##ılmış": 1544,
      "##madan": 1545,
      "anlaş": 1546,
      "##elerin": 1547,
      "ekonom": 1548,
      "##cağını": 1549,
      "sey": 1550,
      "Ayrıca": 1551,
      "mek": 1552,
      "han": 1553,
      "Yıl": 1554,
      "istiyor": 1555,
      "kom": 1556,
      "per": 1557,
      "##cağı": 1558,
      "dah": 1559,
      "yani": 1560,
      "##kün": 1561,
      "bab": 1562,
      "taki": 1563,
      "Gör": 1564,
      "##laştır": 1565,
      "Es": 1566,
      "##oğun": 1567,
      "ona": 1568,
      "kurul": 1569,
      "program": 1570,
      "Sadece": 1571,
      "demek": 1572,
      "kontrol": 1573,
      "bilim": 1574,
      "ziy": 1575,
      "kolay": 1576,
      "##üküm": 1577,
      "18": 1578,
      "At": 1579,
      "##ciler": 1580,
      "hes": 1581,
      "musun": 1582,
      "##gın": 1583,
      "toplum": 1584,
      "##sik": 1585,
      "kil": 1586,
      "Beled": 1587,
      "fır": 1588,
      "alıyor": 1589,
      "ister": 1590,
      "Ankara": 1591,
      "##amaz": 1592,
      "nerede": 1593,
      "gerçekleştir": 1594,
      "##kaç": 1595,
      "Fran": 1596,
      "##lüyor": 1597,
      "Bana": 1598,
      "Bakan": 1599,
      "##sanız": 1600,
      "üy": 1601,
      "##ıntı": 1602,
      "mas": 1603,
      "hemen": 1604,
      "fa": 1605,
      "##nız": 1606,
      "##urt": 1607,
      "##dül": 1608,
      "kendis": 1609,
      "##eceği": 1610,
      "düny": 1611,
      "işlem": 1612,
      "##ela": 1613,
      "vardı": 1614,
      "AK": 1615,
      "##lamak": 1616,
      "li": 1617,
      "çağ": 1618,
      "kitap": 1619,
      "##eşit": 1620,
      "##uyla": 1621,
      "##eceğini": 1622,
      "daki": 1623,
      "Başkan": 1624,
      "taşı": 1625,
      "soru": 1626,
      "##ER": 1627,
      "zorunda": 1628,
      "##tiğini": 1629,
      "erkek": 1630,
      "tekrar": 1631,
      "gez": 1632,
      "##ütfen": 1633,
      "Onu": 1634,
      "altında": 1635,
      "##emiz": 1636,
      "##ılır": 1637,
      "diyor": 1638,
      "##leyen": 1639,
      "sok": 1640,
      "##unuyor": 1641,
      "Oy": 1642,
      "##ünden": 1643,
      "saldır": 1644,
      "##masının": 1645,
      "ince": 1646,
      "##yacak": 1647,
      "hikay": 1648,
      "sab": 1649,
      "sağlık": 1650,
      "hedef": 1651,
      "##şam": 1652,
      "yi": 1653,
      "günü": 1654,
      "Hiç": 1655,
      "anda": 1656,
      "##ekli": 1657,
      "yeniden": 1658,
      "##oh": 1659,
      "cez": 1660,
      "##be": 1661,
      "Seni": 1662,
      "İz": 1663,
      "şeyi": 1664,
      "oyuncu": 1665,
      "başladı": 1666,
      "nedeniyle": 1667,
      "ann": 1668,
      "##ıda": 1669,
      "##ga": 1670,
      "yağ": 1671,
      "yüzden": 1672,
      "yen": 1673,
      "##fet": 1674,
      "gider": 1675,
      "##ust": 1676,
      "çıkan": 1677,
      "##ümkün": 1678,
      "zamanda": 1679,
      "birbir": 1680,
      "şeyler": 1681,
      "ele": 1682,
      "çalışan": 1683,
      "##yanın": 1684,
      "cin": 1685,
      "fotoğraf": 1686,
      "Dünya": 1687,
      "yapmak": 1688,
      "Amer": 1689,
      "##nek": 1690,
      "biliyor": 1691,
      "##ılacak": 1692,
      "kültür": 1693,
      "Ada": 1694,
      "Siz": 1695,
      "##lış": 1696,
      "##dak": 1697,
      "yemek": 1698,
      "##arası": 1699,
      "kah": 1700,
      "dakika": 1701,
      "Ok": 1702,
      "Burada": 1703,
      "bize": 1704,
      "##iydi": 1705,
      "değiştir": 1706,
      "hala": 1707,
      "kısa": 1708,
      "##ola": 1709,
      "gazet": 1710,
      "##uştur": 1711,
      "sınır": 1712,
      "Ara": 1713,
      "Böyle": 1714,
      "Dr": 1715,
      "İlk": 1716,
      "##ydı": 1717,
      "##madı": 1718,
      "14": 1719,
      "##istan": 1720,
      "##enk": 1721,
      "şark": 1722,
      "İç": 1723,
      "##uğ": 1724,
      "Hal": 1725,
      "boyunca": 1726,
      "unut": 1727,
      "kaynak": 1728,
      "##dele": 1729,
      "geliştir": 1730,
      "na": 1731,
      "Geç": 1732,
      "tart": 1733,
      "teh": 1734,
      "Mah": 1735,
      "##isinin": 1736,
      "mey": 1737,
      "Tab": 1738,
      "Hadi": 1739,
      "çeşit": 1740,
      "ask": 1741,
      "Ah": 1742,
      "iti": 1743,
      "uygulama": 1744,
      "boş": 1745,
      "nda": 1746,
      "##leriyle": 1747,
      "##yız": 1748,
      "kol": 1749,
      "##liyor": 1750,
      "vatan": 1751,
      "##azım": 1752,
      "cev": 1753,
      "##alt": 1754,
      "mümkün": 1755,
      "##kın": 1756,
      "ağır": 1757,
      "Bun": 1758,
      "takım": 1759,
      "mev": 1760,
      "##asının": 1761,
      "aldı": 1762,
      "kas": 1763,
      "görül": 1764,
      "16": 1765,
      "davran": 1766,
      "##umlu": 1767,
      "##lemek": 1768,
      "devlet": 1769,
      "of": 1770,
      "Bey": 1771,
      "millet": 1772,
      "tav": 1773,
      "##cağım": 1774,
      "um": 1775,
      "gereken": 1776,
      "Hak": 1777,
      "olsa": 1778,
      "Has": 1779,
      "ziyaret": 1780,
      "Beni": 1781,
      "ürün": 1782,
      "model": 1783,
      "##yım": 1784,
      "##medi": 1785,
      "##ört": 1786,
      "çiz": 1787,
      "Özel": 1788,
      "mem": 1789,
      "fik": 1790,
      "##ost": 1791,
      "yal": 1792,
      "oldukça": 1793,
      "##asındaki": 1794,
      "mad": 1795,
      "İngil": 1796,
      "çar": 1797,
      "med": 1798,
      "tük": 1799,
      "beraber": 1800,
      "rağ": 1801,
      "##diğimiz": 1802,
      "Kor": 1803,
      "##abı": 1804,
      "Şu": 1805,
      "özellik": 1806,
      "Rus": 1807,
      "bağlı": 1808,
      "Hat": 1809,
      "##imizin": 1810,
      "uygun": 1811,
      "##cih": 1812,
      "##amp": 1813,
      "sürec": 1814,
      "rek": 1815,
      "çünkü": 1816,
      "##ülen": 1817,
      "müca": 1818,
      "kut": 1819,
      "Di": 1820,
      "kardeş": 1821,
      "13": 1822,
      "##ilmiş": 1823,
      "Ma": 1824,
      "koş": 1825,
      "gelecek": 1826,
      "rağmen": 1827,
      "25": 1828,
      "hey": 1829,
      "çevr": 1830,
      "diz": 1831,
      "##ere": 1832,
      "araştırma": 1833,
      "##mıyor": 1834,
      "##vek": 1835,
      "tep": 1836,
      "Çoc": 1837,
      "gerçekten": 1838,
      "##ici": 1839,
      "bay": 1840,
      "konusu": 1841,
      "Üniversit": 1842,
      "##oman": 1843,
      "götür": 1844,
      "kaybet": 1845,
      "##ümü": 1846,
      "söylüyor": 1847,
      "çıktı": 1848,
      "##tın": 1849,
      "##tıyor": 1850,
      "##yar": 1851,
      "ikinci": 1852,
      "##ilere": 1853,
      "tercih": 1854,
      "yaptığ": 1855,
      "dair": 1856,
      "##ayet": 1857,
      "karış": 1858,
      "İnsan": 1859,
      "pat": 1860,
      "hoş": 1861,
      "##of": 1862,
      "boz": 1863,
      "dolar": 1864,
      "kesin": 1865,
      "Senin": 1866,
      "##diler": 1867,
      "özellikle": 1868,
      "##düm": 1869,
      "##taş": 1870,
      "dir": 1871,
      "##larım": 1872,
      "araç": 1873,
      "dolay": 1874,
      "kapsam": 1875,
      "teknoloj": 1876,
      "oku": 1877,
      "ait": 1878,
      "Cumhurbaş": 1879,
      "CHP": 1880,
      "deki": 1881,
      "beklen": 1882,
      "##ow": 1883,
      "dost": 1884,
      "izin": 1885,
      "ma": 1886,
      "##adan": 1887,
      "##dav": 1888,
      "##ener": 1889,
      "olabil": 1890,
      "yönelik": 1891,
      "sar": 1892,
      "##ıyla": 1893,
      "av": 1894,
      "##elerini": 1895,
      "Bugün": 1896,
      "verdi": 1897,
      "##iyatro": 1898,
      "##mesini": 1899,
      "ban": 1900,
      "##fer": 1901,
      "##okr": 1902,
      "adım": 1903,
      "yeter": 1904,
      "grup": 1905,
      "Hem": 1906,
      "Öyle": 1907,
      "Ser": 1908,
      "Se": 1909,
      "##lacak": 1910,
      "##ısında": 1911,
      "Top": 1912,
      "Kan": 1913,
      "Gel": 1914,
      "olmaz": 1915,
      "kaldır": 1916,
      "Uz": 1917,
      "sürdür": 1918,
      "vak": 1919,
      "17": 1920,
      "##dun": 1921,
      "ders": 1922,
      "hüküm": 1923,
      "TL": 1924,
      "temel": 1925,
      "silah": 1926,
      "örg": 1927,
      "##dip": 1928,
      "şöyle": 1929,
      "elde": 1930,
      "olmalı": 1931,
      "vardır": 1932,
      "zar": 1933,
      "Pek": 1934,
      "##ısından": 1935,
      "##ve": 1936,
      "##sen": 1937,
      "##utbol": 1938,
      "yapar": 1939,
      "karak": 1940,
      "##can": 1941,
      "##dığım": 1942,
      "oda": 1943,
      "##uru": 1944,
      "üz": 1945,
      "okul": 1946,
      "Sana": 1947,
      "##ate": 1948,
      "##lim": 1949,
      "##vet": 1950,
      "##ayın": 1951,
      "birkaç": 1952,
      "engel": 1953,
      "zaten": 1954,
      "##oğu": 1955,
      "nok": 1956,
      "part": 1957,
      "oran": 1958,
      "ayrı": 1959,
      "##dığımız": 1960,
      "des": 1961,
      "##eği": 1962,
      "##efer": 1963,
      "la": 1964,
      "Em": 1965,
      "##oktor": 1966,
      "Sav": 1967,
      "Han": 1968,
      "Parti": 1969,
      "sahi": 1970,
      "##imde": 1971,
      "Onun": 1972,
      "##ort": 1973,
      "cid": 1974,
      "##cel": 1975,
      "if": 1976,
      "##fes": 1977,
      "oğ": 1978,
      "yalnız": 1979,
      "takip": 1980,
      "##imize": 1981,
      "Kö": 1982,
      "polit": 1983,
      "ac": 1984,
      "polis": 1985,
      "üzerinden": 1986,
      "dok": 1987,
      "gec": 1988,
      "yı": 1989,
      "öğret": 1990,
      "##üle": 1991,
      "##ift": 1992,
      "Gerçek": 1993,
      "yüksel": 1994,
      "00": 1995,
      "Bar": 1996,
      "Hep": 1997,
      "Belki": 1998,
      "##erj": 1999,
      "nokta": 2000,
      "şeh": 2001,
      "yöntem": 2002,
      "##miyorum": 2003,
      "100": 2004,
      "Sur": 2005,
      "içerisinde": 2006,
      "etkin": 2007,
      "edecek": 2008,
      "##şık": 2009,
      "yapı": 2010,
      "bilgi": 2011,
      "ku": 2012,
      "Ner": 2013,
      "##ezon": 2014,
      "##esel": 2015,
      "lazım": 2016,
      "mar": 2017,
      "##ılım": 2018,
      "##rub": 2019,
      "mücadele": 2020,
      "##ly": 2021,
      "##isyon": 2022,
      "##eğin": 2023,
      "veril": 2024,
      "##ışı": 2025,
      "##za": 2026,
      "##ilerini": 2027,
      "hayır": 2028,
      "##cret": 2029,
      "Ko": 2030,
      "Sağ": 2031,
      "aday": 2032,
      "Af": 2033,
      "for": 2034,
      "##yse": 2035,
      "herkes": 2036,
      "yazar": 2037,
      "adı": 2038,
      "orada": 2039,
      "konuştu": 2040,
      "Ali": 2041,
      "Müdür": 2042,
      "##hangi": 2043,
      "Os": 2044,
      "akıl": 2045,
      "değişik": 2046,
      "##ast": 2047,
      "Tur": 2048,
      "etkil": 2049,
      "itibar": 2050,
      "Dur": 2051,
      "##ari": 2052,
      "##ent": 2053,
      "Tom": 2054,
      "vatandaş": 2055,
      "##bakan": 2056,
      "Nasıl": 2057,
      "geniş": 2058,
      "size": 2059,
      "##luslar": 2060,
      "##ternet": 2061,
      "olmayan": 2062,
      "merak": 2063,
      "##menin": 2064,
      "Alman": 2065,
      "dışında": 2066,
      "##hale": 2067,
      "##izm": 2068,
      "insanlar": 2069,
      "##amı": 2070,
      "akşam": 2071,
      "##cısı": 2072,
      "Sor": 2073,
      "hava": 2074,
      "kaf": 2075,
      "bor": 2076,
      "şehir": 2077,
      "##sed": 2078,
      "görüntü": 2079,
      "durumda": 2080,
      "##lek": 2081,
      "Kap": 2082,
      "sektör": 2083,
      "Çocuk": 2084,
      "Ab": 2085,
      "öde": 2086,
      "Kay": 2087,
      "##iğ": 2088,
      "##eceğim": 2089,
      "öner": 2090,
      "##laması": 2091,
      "teşekkür": 2092,
      "ölüm": 2093,
      "inc": 2094,
      "ilç": 2095,
      "ortak": 2096,
      "Kad": 2097,
      "##pit": 2098,
      "aslında": 2099,
      "ederim": 2100,
      "Tem": 2101,
      "##ton": 2102,
      "veren": 2103,
      "kalan": 2104,
      "Meh": 2105,
      "##gür": 2106,
      "##enüz": 2107,
      "edin": 2108,
      "terör": 2109,
      "199": 2110,
      "##luslararası": 2111,
      "ayak": 2112,
      "Hey": 2113,
      "##cağız": 2114,
      "uğr": 2115,
      "##ant": 2116,
      "sit": 2117,
      "ihtiyac": 2118,
      "Der": 2119,
      "şans": 2120,
      "geçmiş": 2121,
      "amacı": 2122,
      "eser": 2123,
      "##dıkları": 2124,
      "##era": 2125,
      "yara": 2126,
      "ücret": 2127,
      "##masında": 2128,
      "##ia": 2129,
      "##lin": 2130,
      "##bilirsiniz": 2131,
      "rol": 2132,
      "##üler": 2133,
      "##dük": 2134,
      "Sam": 2135,
      "belki": 2136,
      "kayb": 2137,
      "##ron": 2138,
      "##dün": 2139,
      "##sil": 2140,
      "ana": 2141,
      "The": 2142,
      "yaklaşık": 2143,
      "50": 2144,
      "yoğun": 2145,
      "##mesine": 2146,
      "gerçekleş": 2147,
      "örnek": 2148,
      "tale": 2149,
      "##ulan": 2150,
      "işte": 2151,
      "Do": 2152,
      "sezon": 2153,
      "##lardır": 2154,
      "##rım": 2155,
      "##elere": 2156,
      "##lanıyor": 2157,
      "##üğ": 2158,
      "##pan": 2159,
      "kurum": 2160,
      "##meyen": 2161,
      "##forman": 2162,
      "yapma": 2163,
      "yere": 2164,
      "ila": 2165,
      "##isine": 2166,
      "beri": 2167,
      "##br": 2168,
      "Cumhuriyet": 2169,
      "Teşekkür": 2170,
      "##edi": 2171,
      "##isk": 2172,
      "hızlı": 2173,
      "kendini": 2174,
      "Yaş": 2175,
      "##yl": 2176,
      "yanında": 2177,
      "biç": 2178,
      "##üst": 2179,
      "Can": 2180,
      "##elerde": 2181,
      "benzer": 2182,
      "yanlış": 2183,
      "spor": 2184,
      "hale": 2185,
      "##son": 2186,
      "##dana": 2187,
      "ilişkin": 2188,
      "##üb": 2189,
      "##ınca": 2190,
      "Ol": 2191,
      "##üf": 2192,
      "mik": 2193,
      "ettiği": 2194,
      "arasındaki": 2195,
      "iddia": 2196,
      "em": 2197,
      "ten": 2198,
      "medya": 2199,
      "müzik": 2200,
      "Hav": 2201,
      "alış": 2202,
      "In": 2203,
      "Kal": 2204,
      "##izyon": 2205,
      "ekip": 2206,
      "##lanmış": 2207,
      "##manı": 2208,
      "yapacağ": 2209,
      "Sev": 2210,
      "yorum": 2211,
      "tedav": 2212,
      "katıl": 2213,
      "karşılaş": 2214,
      "bildir": 2215,
      "Fakat": 2216,
      "milyar": 2217,
      "Merkez": 2218,
      "tespit": 2219,
      "kapat": 2220,
      "Üniversitesi": 2221,
      "sizin": 2222,
      "dayan": 2223,
      "sin": 2224,
      "başv": 2225,
      "the": 2226,
      "derece": 2227,
      "güçlü": 2228,
      "dol": 2229,
      "##yo": 2230,
      "giz": 2231,
      "##diş": 2232,
      "Mehmet": 2233,
      "##diğiniz": 2234,
      "çalışıyor": 2235,
      "##estiv": 2236,
      "##inci": 2237,
      "##esinden": 2238,
      "##ukuk": 2239,
      "##etin": 2240,
      "yönetim": 2241,
      "ark": 2242,
      "dahil": 2243,
      "##ektr": 2244,
      "##deceğ": 2245,
      "##düğü": 2246,
      "##ıza": 2247,
      "Sonra": 2248,
      "Kom": 2249,
      "##maları": 2250,
      "##ayda": 2251,
      "##lüğü": 2252,
      "yerde": 2253,
      "Yön": 2254,
      "##ısıyla": 2255,
      "herhangi": 2256,
      "ilet": 2257,
      "açısından": 2258,
      "amaç": 2259,
      "belli": 2260,
      "mutlu": 2261,
      "##haba": 2262,
      "sahn": 2263,
      "##ayım": 2264,
      "kısm": 2265,
      "##emez": 2266,
      "##muyor": 2267,
      "performan": 2268,
      "biliyorum": 2269,
      "giriş": 2270,
      "##muz": 2271,
      "ölç": 2272,
      "Man": 2273,
      "St": 2274,
      "karakter": 2275,
      "##ınıf": 2276,
      "##ard": 2277,
      "##tiğimiz": 2278,
      "beb": 2279,
      "dört": 2280,
      "buraya": 2281,
      "piyas": 2282,
      "bizi": 2283,
      "##sat": 2284,
      "Çalış": 2285,
      "başına": 2286,
      "##şa": 2287,
      "adlı": 2288,
      "fin": 2289,
      "##ımda": 2290,
      "##aliyet": 2291,
      "süreç": 2292,
      "##lerce": 2293,
      "##iyesi": 2294,
      "Kız": 2295,
      "tarihi": 2296,
      "Tüm": 2297,
      "Ban": 2298,
      "hisset": 2299,
      "nokt": 2300,
      "##ser": 2301,
      "##sine": 2302,
      "Bab": 2303,
      "##üsü": 2304,
      "konuda": 2305,
      "##kem": 2306,
      "##lis": 2307,
      "24": 2308,
      "Devlet": 2309,
      "Yaz": 2310,
      "gerekir": 2311,
      "mesaj": 2312,
      "##ucu": 2313,
      "Muh": 2314,
      "sonunda": 2315,
      "işi": 2316,
      "ünlü": 2317,
      "yaptık": 2318,
      "ediyorum": 2319,
      "almak": 2320,
      "##apor": 2321,
      "eleştir": 2322,
      "yatırım": 2323,
      "indir": 2324,
      "21": 2325,
      "cih": 2326,
      "##ırı": 2327,
      "enerj": 2328,
      "futbol": 2329,
      "kuş": 2330,
      "##bah": 2331,
      "İzmir": 2332,
      "başkan": 2333,
      "Ya": 2334,
      "görüyor": 2335,
      "##ilir": 2336,
      "sıcak": 2337,
      "##lamaya": 2338,
      "##fi": 2339,
      "mıs": 2340,
      "Kara": 2341,
      "buna": 2342,
      "Film": 2343,
      "toplantı": 2344,
      "yardımcı": 2345,
      "##amamen": 2346,
      "##leyi": 2347,
      "anal": 2348,
      "dem": 2349,
      "##ısını": 2350,
      "pazar": 2351,
      "##emi": 2352,
      "##bette": 2353,
      "giy": 2354,
      "hayal": 2355,
      "artır": 2356,
      "det": 2357,
      "##acı": 2358,
      "nedenle": 2359,
      "Böl": 2360,
      "##mayan": 2361,
      "Kas": 2362,
      "saç": 2363,
      "örgüt": 2364,
      "##inç": 2365,
      "##lilik": 2366,
      "Haz": 2367,
      "olmadığını": 2368,
      "etme": 2369,
      "##ormal": 2370,
      "##ılmıştır": 2371,
      "olup": 2372,
      "kent": 2373,
      "Araştır": 2374,
      "##olojik": 2375,
      "##aşı": 2376,
      "düzey": 2377,
      "Bizim": 2378,
      "##luluk": 2379,
      "##su": 2380,
      "satış": 2381,
      "aldığı": 2382,
      "değildir": 2383,
      "##tığını": 2384,
      "Ann": 2385,
      "##memiş": 2386,
      "##luğ": 2387,
      "cevap": 2388,
      "##aray": 2389,
      "##vekili": 2390,
      "Başbakan": 2391,
      "emin": 2392,
      "şekl": 2393,
      "dar": 2394,
      "İki": 2395,
      "##fendim": 2396,
      "Tr": 2397,
      "##azi": 2398,
      "##iliyor": 2399,
      "Beş": 2400,
      "##ati": 2401,
      "Dav": 2402,
      "##taj": 2403,
      "aktar": 2404,
      "yık": 2405,
      "roman": 2406,
      "bes": 2407,
      "zarar": 2408,
      "ruh": 2409,
      "##sini": 2410,
      "ekran": 2411,
      "dönemde": 2412,
      "görmek": 2413,
      "Mes": 2414,
      "kişinin": 2415,
      "##larca": 2416,
      "Aç": 2417,
      "hastan": 2418,
      "ciddi": 2419,
      "yav": 2420,
      "savun": 2421,
      "Cumhurbaşkanı": 2422,
      "ödül": 2423,
      "beş": 2424,
      "Yak": 2425,
      "##lığını": 2426,
      "##ade": 2427,
      "edildi": 2428,
      "Yardım": 2429,
      "sebep": 2430,
      "kalı": 2431,
      "##ladığı": 2432,
      "çeşitli": 2433,
      "##enek": 2434,
      "oper": 2435,
      "Bakanı": 2436,
      "halk": 2437,
      "depr": 2438,
      "##edik": 2439,
      "renk": 2440,
      "Pol": 2441,
      "mis": 2442,
      "hangi": 2443,
      "mekan": 2444,
      "isteyen": 2445,
      "buluş": 2446,
      "##talya": 2447,
      "sahibi": 2448,
      "doğr": 2449,
      "Millet": 2450,
      "##iyorlar": 2451,
      "kullanıcı": 2452,
      "Artık": 2453,
      "işlet": 2454,
      "Merhaba": 2455,
      "ateş": 2456,
      "bulunuyor": 2457,
      "sefer": 2458,
      "dünyanın": 2459,
      "##dığında": 2460,
      "şarkı": 2461,
      "##imin": 2462,
      "Tabii": 2463,
      "sürekli": 2464,
      "hesap": 2465,
      "toplam": 2466,
      "##AM": 2467,
      "dal": 2468,
      "##afa": 2469,
      "çözüm": 2470,
      "nit": 2471,
      "Deniz": 2472,
      "Güzel": 2473,
      "sınıf": 2474,
      "##ou": 2475,
      "yapacak": 2476,
      "##emin": 2477,
      "##iliğ": 2478,
      "##edim": 2479,
      "asla": 2480,
      "yetiş": 2481,
      "##layacak": 2482,
      "##liğini": 2483,
      "alır": 2484,
      "zen": 2485,
      "yaban": 2486,
      "##inc": 2487,
      "haline": 2488,
      "tanım": 2489,
      "temiz": 2490,
      "insanların": 2491,
      "##bilecek": 2492,
      "işaret": 2493,
      "Mart": 2494,
      "it": 2495,
      "##anet": 2496,
      "pu": 2497,
      "##ilerine": 2498,
      "Eğ": 2499,
      "onları": 2500,
      "##mayacak": 2501,
      "sayesinde": 2502,
      "internet": 2503,
      "yaşayan": 2504,
      "kurtar": 2505,
      "Osman": 2506,
      "sırasında": 2507,
      "kamu": 2508,
      "22": 2509,
      "başarılı": 2510,
      "##mada": 2511,
      "yaşında": 2512,
      "arada": 2513,
      "fir": 2514,
      "grub": 2515,
      "açı": 2516,
      "40": 2517,
      "kab": 2518,
      "##eceğiz": 2519,
      "##lanması": 2520,
      "organ": 2521,
      "##lığın": 2522,
      "##ry": 2523,
      "##mayın": 2524,
      "doğal": 2525,
      "##ılmaz": 2526,
      "##diğinde": 2527,
      "vide": 2528,
      "acı": 2529,
      "verdiği": 2530,
      "##pek": 2531,
      "Tar": 2532,
      "##esiyle": 2533,
      "Ap": 2534,
      "##EN": 2535,
      "##uc": 2536,
      "Haber": 2537,
      "num": 2538,
      "##dikleri": 2539,
      "fayda": 2540,
      "##ylül": 2541,
      "Ör": 2542,
      "##azen": 2543,
      "##ırken": 2544,
      "Ke": 2545,
      "araya": 2546,
      "##mamız": 2547,
      "keş": 2548,
      "##ye": 2549,
      "neler": 2550,
      "hap": 2551,
      "##iyiz": 2552,
      "Ber": 2553,
      "eğlen": 2554,
      "##üph": 2555,
      "##ilerinin": 2556,
      "tartış": 2557,
      "##alle": 2558,
      "canlı": 2559,
      "Belediye": 2560,
      "Hayat": 2561,
      "verir": 2562,
      "##tay": 2563,
      "##alar": 2564,
      "hatta": 2565,
      "##ımıza": 2566,
      "çift": 2567,
      "May": 2568,
      "yazı": 2569,
      "parç": 2570,
      "ihtiyaç": 2571,
      "mez": 2572,
      "Gül": 2573,
      "sine": 2574,
      "pop": 2575,
      "ülke": 2576,
      "Allah": 2577,
      "kala": 2578,
      "##ET": 2579,
      "##eyin": 2580,
      "men": 2581,
      "yana": 2582,
      "Kür": 2583,
      "faaliyet": 2584,
      "kimse": 2585,
      "str": 2586,
      "yandan": 2587,
      "Su": 2588,
      "##ke": 2589,
      "##meleri": 2590,
      "Kendi": 2591,
      "deste": 2592,
      "henüz": 2593,
      "Gü": 2594,
      "kalk": 2595,
      "yetk": 2596,
      "##cut": 2597,
      "sizi": 2598,
      "ekonomik": 2599,
      "tamamen": 2600,
      "##lanma": 2601,
      "##lerimiz": 2602,
      "2023": 2603,
      "Buna": 2604,
      "yum": 2605,
      "test": 2606,
      "tasar": 2607,
      "işe": 2608,
      "##bo": 2609,
      "Yok": 2610,
      "Aynı": 2611,
      "##anlı": 2612,
      "asker": 2613,
      "siyasi": 2614,
      "kavram": 2615,
      "##iir": 2616,
      "lis": 2617,
      "kaldı": 2618,
      "dolayı": 2619,
      "mağ": 2620,
      "sabah": 2621,
      "koru": 2622,
      "detay": 2623,
      "##İN": 2624,
      "##gar": 2625,
      "##eder": 2626,
      "benz": 2627,
      "Müz": 2628,
      "##dız": 2629,
      "##ulmuş": 2630,
      "##iran": 2631,
      "çarp": 2632,
      "##lendi": 2633,
      "##rik": 2634,
      "yarar": 2635,
      "olmaya": 2636,
      "kurt": 2637,
      "uyar": 2638,
      "Pekala": 2639,
      "Sh": 2640,
      "deniz": 2641,
      "Kah": 2642,
      "boyut": 2643,
      "##elerinin": 2644,
      "tehlik": 2645,
      "##mat": 2646,
      "##matik": 2647,
      "##eyn": 2648,
      "yabancı": 2649,
      "dö": 2650,
      "hayvan": 2651,
      "Rusya": 2652,
      "##dek": 2653,
      "sonrası": 2654,
      "##say": 2655,
      "dışarı": 2656,
      "##sta": 2657,
      "teş": 2658,
      "##isay": 2659,
      "Ter": 2660,
      "bulundu": 2661,
      "Tanrım": 2662,
      "net": 2663,
      "hukuk": 2664,
      "##one": 2665,
      "##lasyon": 2666,
      "##ıyorsun": 2667,
      "##etik": 2668,
      "güvenlik": 2669,
      "##amız": 2670,
      "Tay": 2671,
      "##luğu": 2672,
      "Aslında": 2673,
      "başarı": 2674,
      "tabii": 2675,
      "list": 2676,
      "##asa": 2677,
      "öğrenc": 2678,
      "dile": 2679,
      "##mar": 2680,
      "##lıkla": 2681,
      "eğer": 2682,
      "yoksa": 2683,
      "##ite": 2684,
      "özgür": 2685,
      "##ısına": 2686,
      "görünüyor": 2687,
      "ortam": 2688,
      "elektr": 2689,
      "##AL": 2690,
      "aşk": 2691,
      "temsil": 2692,
      "iler": 2693,
      "##ie": 2694,
      "çevir": 2695,
      "Herk": 2696,
      "yıldız": 2697,
      "ip": 2698,
      "günde": 2699,
      "köy": 2700,
      "çat": 2701,
      "Özellikle": 2702,
      "bağım": 2703,
      "değilim": 2704,
      "Ga": 2705,
      "Söz": 2706,
      "teknik": 2707,
      "##abilirsiniz": 2708,
      "cihaz": 2709,
      "##şehir": 2710,
      "İk": 2711,
      "yıllık": 2712,
      "Demir": 2713,
      "Kr": 2714,
      "yansı": 2715,
      "gerektiğini": 2716,
      "##AK": 2717,
      "##uzey": 2718,
      "olmas": 2719,
      "kıy": 2720,
      "##dığınız": 2721,
      "##ağa": 2722,
      "Bütün": 2723,
      "içeri": 2724,
      "ifad": 2725,
      "##ene": 2726,
      "ayında": 2727,
      "emek": 2728,
      "incelen": 2729,
      "##ımızı": 2730,
      "##rafik": 2731,
      "##manız": 2732,
      "##ğın": 2733,
      "doktor": 2734,
      "st": 2735,
      "Öl": 2736,
      "Sal": 2737,
      "Lütfen": 2738,
      "çal": 2739,
      "##meli": 2740,
      "ham": 2741,
      "##inize": 2742,
      "bulunduğu": 2743,
      "##duğunu": 2744,
      "##AT": 2745,
      "sonuc": 2746,
      "##iliği": 2747,
      "Çin": 2748,
      "tanış": 2749,
      "##iksel": 2750,
      "adet": 2751,
      "kims": 2752,
      "adına": 2753,
      "##ılma": 2754,
      "##form": 2755,
      "durumu": 2756,
      "kayıt": 2757,
      "gide": 2758,
      "ıs": 2759,
      "Uy": 2760,
      "Li": 2761,
      "##uvar": 2762,
      "Eylül": 2763,
      "Yan": 2764,
      "parça": 2765,
      "23": 2766,
      "Bek": 2767,
      "tane": 2768,
      "##blem": 2769,
      "lira": 2770,
      "Gerçekten": 2771,
      "zam": 2772,
      "olun": 2773,
      "yürüt": 2774,
      "##lığa": 2775,
      "katkı": 2776,
      "anne": 2777,
      "şaş": 2778,
      "İngiliz": 2779,
      "hayatını": 2780,
      "rapor": 2781,
      "##geç": 2782,
      "duyur": 2783,
      "Bakanlığı": 2784,
      "Biraz": 2785,
      "kapsamında": 2786,
      "şid": 2787,
      "##asından": 2788,
      "baba": 2789,
      "ah": 2790,
      "##ina": 2791,
      "ler": 2792,
      "zengin": 2793,
      "Orta": 2794,
      "Ot": 2795,
      "##meni": 2796,
      "du": 2797,
      "şart": 2798,
      "inşa": 2799,
      "ayrıca": 2800,
      "Bah": 2801,
      "Suriye": 2802,
      "Kadın": 2803,
      "sene": 2804,
      "Yüz": 2805,
      "veriyor": 2806,
      "##sef": 2807,
      "bitir": 2808,
      "vaz": 2809,
      "içine": 2810,
      "Dış": 2811,
      "ilgilen": 2812,
      "Tak": 2813,
      "198": 2814,
      "##ıldığı": 2815,
      "Aş": 2816,
      "Oyun": 2817,
      "başında": 2818,
      "sol": 2819,
      "Ro": 2820,
      "##ampiyon": 2821,
      "fikir": 2822,
      "çocuğ": 2823,
      "##diğin": 2824,
      "kir": 2825,
      "Ad": 2826,
      "yaşanan": 2827,
      "##ılıç": 2828,
      "Kat": 2829,
      "##günüm": 2830,
      "tutuk": 2831,
      "aşağı": 2832,
      "risk": 2833,
      "##ınav": 2834,
      "derin": 2835,
      "Ahmet": 2836,
      "##osu": 2837,
      "belg": 2838,
      "sonucu": 2839,
      "le": 2840,
      "##latform": 2841,
      "önceki": 2842,
      "operasyon": 2843,
      "müş": 2844,
      "deneyim": 2845,
      "##vizyon": 2846,
      "itibaren": 2847,
      "##IN": 2848,
      "Amerika": 2849,
      "oyna": 2850,
      "lütfen": 2851,
      "##evi": 2852,
      "##omo": 2853,
      "##ünüz": 2854,
      "fak": 2855,
      "yapılacak": 2856,
      "Ona": 2857,
      "##tep": 2858,
      "dolu": 2859,
      "türlü": 2860,
      "şah": 2861,
      "akıllı": 2862,
      "##atif": 2863,
      "##atik": 2864,
      "Must": 2865,
      "saldırı": 2866,
      "tüket": 2867,
      "mevcut": 2868,
      "üniversit": 2869,
      "Milli": 2870,
      "varsa": 2871,
      "dağı": 2872,
      "kendim": 2873,
      "Üç": 2874,
      "##hal": 2875,
      "önünde": 2876,
      "kapı": 2877,
      "heyec": 2878,
      "Mo": 2879,
      "kararı": 2880,
      "##eğen": 2881,
      "aile": 2882,
      "halde": 2883,
      "Temmuz": 2884,
      "De": 2885,
      "Sanırım": 2886,
      "##ücü": 2887,
      "##lif": 2888,
      "##ileş": 2889,
      "##oloji": 2890,
      "##eşil": 2891,
      "Amerik": 2892,
      "Yine": 2893,
      "don": 2894,
      "aracı": 2895,
      "tiyatro": 2896,
      "##eyle": 2897,
      "yurt": 2898,
      "##lardı": 2899,
      "And": 2900,
      "yolu": 2901,
      "ap": 2902,
      "oluşan": 2903,
      "düşük": 2904,
      "yapmaya": 2905,
      "fakat": 2906,
      "vurgu": 2907,
      "çıkıyor": 2908,
      "Sak": 2909,
      "##fak": 2910,
      "seviy": 2911,
      "Ka": 2912,
      "##enler": 2913,
      "geçer": 2914,
      "##altı": 2915,
      "Fener": 2916,
      "##uvvet": 2917,
      "Br": 2918,
      "Anad": 2919,
      "Mec": 2920,
      "sig": 2921,
      "##lıklı": 2922,
      "verilen": 2923,
      "##isayar": 2924,
      "düşünc": 2925,
      "ettik": 2926,
      "##ıma": 2927,
      "ettiğ": 2928,
      "yanıt": 2929,
      "##teki": 2930,
      "Yor": 2931,
      "yaptır": 2932,
      "nedir": 2933,
      "gol": 2934,
      "##sem": 2935,
      "bat": 2936,
      "##rol": 2937,
      "Le": 2938,
      "pan": 2939,
      "##uyorum": 2940,
      "ces": 2941,
      "lider": 2942,
      "şüph": 2943,
      "Mustafa": 2944,
      "demokr": 2945,
      "etmeye": 2946,
      "Sah": 2947,
      "##biliyor": 2948,
      "##yıl": 2949,
      "Şub": 2950,
      "alacak": 2951,
      "etmiş": 2952,
      "##ilecek": 2953,
      "altına": 2954,
      "yaşındaki": 2955,
      "ederek": 2956,
      "Gö": 2957,
      "Kemal": 2958,
      "##üme": 2959,
      "##üncü": 2960,
      "olmadığı": 2961,
      "öne": 2962,
      "##abilecek": 2963,
      "problem": 2964,
      "duygu": 2965,
      "bağlantı": 2966,
      "yıldır": 2967,
      "##ayla": 2968,
      "##anlar": 2969,
      "kelim": 2970,
      "eyle": 2971,
      "##biyat": 2972,
      "gidiyor": 2973,
      "anlay": 2974,
      "şeklinde": 2975,
      "gül": 2976,
      "sokak": 2977,
      "kaçır": 2978,
      "##cılar": 2979,
      "ayır": 2980,
      "çocuklar": 2981,
      "##abet": 2982,
      "üretim": 2983,
      "Göz": 2984,
      "##diniz": 2985,
      "başlayan": 2986,
      "am": 2987,
      "##po": 2988,
      "##res": 2989,
      "Bazı": 2990,
      "##isel": 2991,
      "##dern": 2992,
      "poz": 2993,
      "Anadolu": 2994,
      "Sab": 2995,
      "##isan": 2996,
      "Mic": 2997,
      "normal": 2998,
      "nes": 2999,
      "tasarım": 3000,
      "##meyecek": 3001,
      "##öy": 3002,
      "tic": 3003,
      "yılı": 3004,
      "tahmin": 3005,
      "talep": 3006,
      "kanı": 3007,
      "performans": 3008,
      "Tam": 3009,
      "sorum": 3010,
      "bekle": 3011,
      "resmi": 3012,
      "##raman": 3013,
      "New": 3014,
      "harika": 3015,
      "bakım": 3016,
      "gördüğ": 3017,
      "##unan": 3018,
      "imkan": 3019,
      "##ital": 3020,
      "Hol": 3021,
      "##elerinde": 3022,
      "halinde": 3023,
      "defa": 3024,
      "##elerine": 3025,
      "##layarak": 3026,
      "##ukarı": 3027,
      "Gök": 3028,
      "yavaş": 3029,
      "bundan": 3030,
      "Güven": 3031,
      "##ku": 3032,
      "key": 3033,
      "yalan": 3034,
      "##lulu": 3035,
      "re": 3036,
      "Üst": 3037,
      "Mayıs": 3038,
      "vermek": 3039,
      "Diğer": 3040,
      "ab": 3041,
      "Et": 3042,
      "##tere": 3043,
      "##mızı": 3044,
      "peş": 3045,
      "##air": 3046,
      "##asıyla": 3047,
      "##nun": 3048,
      "##çiler": 3049,
      "artış": 3050,
      "Bul": 3051,
      "##lığına": 3052,
      "Başka": 3053,
      "##İR": 3054,
      "##AS": 3055,
      "Genç": 3056,
      "efendim": 3057,
      "tip": 3058,
      "video": 3059,
      "gar": 3060,
      "##bahçe": 3061,
      "##lıkları": 3062,
      "##ınızı": 3063,
      "##ham": 3064,
      "birey": 3065,
      "ceza": 3066,
      "filmi": 3067,
      "Part": 3068,
      "sanatçı": 3069,
      "kok": 3070,
      "##rail": 3071,
      "alma": 3072,
      "öğretmen": 3073,
      "Ac": 3074,
      "yarış": 3075,
      "##haf": 3076,
      "Haziran": 3077,
      "##lanacak": 3078,
      "sırada": 3079,
      "sayısı": 3080,
      "banka": 3081,
      "Git": 3082,
      "beled": 3083,
      "##laka": 3084,
      "##lıklar": 3085,
      "##işleri": 3086,
      "yapım": 3087,
      "##ceğim": 3088,
      "be": 3089,
      "yolc": 3090,
      "güncel": 3091,
      "bilmiyorum": 3092,
      "edeceğ": 3093,
      "##rans": 3094,
      "Ver": 3095,
      "##rin": 3096,
      "fırsat": 3097,
      "gerekli": 3098,
      "##ova": 3099,
      "evet": 3100,
      "Ağ": 3101,
      "olursa": 3102,
      "##ersin": 3103,
      "sap": 3104,
      "##lamış": 3105,
      "uluslararası": 3106,
      "##kenin": 3107,
      "##enn": 3108,
      "##çak": 3109,
      "kalit": 3110,
      "odak": 3111,
      "##bay": 3112,
      "tarz": 3113,
      "meydana": 3114,
      "Yer": 3115,
      "Kır": 3116,
      "kendine": 3117,
      "Kılıç": 3118,
      "##gen": 3119,
      "Öğr": 3120,
      "##ledi": 3121,
      "Almanya": 3122,
      "platform": 3123,
      "##sü": 3124,
      "##larınız": 3125,
      "##üper": 3126,
      "Adam": 3127,
      "Eski": 3128,
      "köş": 3129,
      "##lerim": 3130,
      "rahatsız": 3131,
      "##ons": 3132,
      "kuruluş": 3133,
      "##taki": 3134,
      "##bur": 3135,
      "##eter": 3136,
      "basın": 3137,
      "##dit": 3138,
      "tör": 3139,
      "puan": 3140,
      "satın": 3141,
      "aylık": 3142,
      "Bayan": 3143,
      "Kı": 3144,
      "Sanat": 3145,
      "##ever": 3146,
      "beyaz": 3147,
      "bilir": 3148,
      "lar": 3149,
      "arab": 3150,
      "##amaya": 3151,
      "##larımızı": 3152,
      "Bilm": 3153,
      "gitti": 3154,
      "##ete": 3155,
      "piş": 3156,
      "Um": 3157,
      "##medim": 3158,
      "Kurulu": 3159,
      "##ES": 3160,
      "onlar": 3161,
      "ileri": 3162,
      "mesele": 3163,
      "##gus": 3164,
      "##lev": 3165,
      "bi": 3166,
      "kür": 3167,
      "psik": 3168,
      "madde": 3169,
      "bula": 3170,
      "erken": 3171,
      "##yip": 3172,
      "##teri": 3173,
      "28": 3174,
      "yapmış": 3175,
      "bunlar": 3176,
      "Prof": 3177,
      "##yum": 3178,
      "Yük": 3179,
      "meş": 3180,
      "##go": 3181,
      "Jo": 3182,
      "Sür": 3183,
      "##imleri": 3184,
      "##eydi": 3185,
      "##ikayet": 3186,
      "ikti": 3187,
      "##ısının": 3188,
      "günümüz": 3189,
      "şiir": 3190,
      "Kit": 3191,
      "Ekim": 3192,
      "olduğuna": 3193,
      "Yal": 3194,
      "##endi": 3195,
      "edilm": 3196,
      "##niyet": 3197,
      "##cılık": 3198,
      "##lıyorum": 3199,
      "##dıktan": 3200,
      "çer": 3201,
      "bakalım": 3202,
      "müda": 3203,
      "##vis": 3204,
      "soy": 3205,
      "soğ": 3206,
      "##tığımız": 3207,
      "Selam": 3208,
      "##ilerek": 3209,
      "cam": 3210,
      "##siy": 3211,
      "koşul": 3212,
      "##çev": 3213,
      "##KK": 3214,
      "##müyor": 3215,
      "##neğin": 3216,
      "##yen": 3217,
      "endiş": 3218,
      "Fenerbahçe": 3219,
      "##layın": 3220,
      "Oh": 3221,
      "##deniz": 3222,
      "katılım": 3223,
      "alb": 3224,
      "Az": 3225,
      "##50": 3226,
      "analiz": 3227,
      "İsrail": 3228,
      "sistemi": 3229,
      "Teşekkürler": 3230,
      "Kasım": 3231,
      "yayım": 3232,
      "dakik": 3233,
      "##dıklarını": 3234,
      "etkili": 3235,
      "Un": 3236,
      "Eğitim": 3237,
      "başlat": 3238,
      "düzenlenen": 3239,
      "alınan": 3240,
      "##malar": 3241,
      "##leşme": 3242,
      "##İL": 3243,
      "##imizde": 3244,
      "##ura": 3245,
      "##her": 3246,
      "27": 3247,
      "otel": 3248,
      "oyunu": 3249,
      "##umsuz": 3250,
      "onların": 3251,
      "##aka": 3252,
      "##maktan": 3253,
      "##tiler": 3254,
      "öğrenciler": 3255,
      "##rek": 3256,
      "##luyor": 3257,
      "Re": 3258,
      "Kul": 3259,
      "##erson": 3260,
      "yeri": 3261,
      "davet": 3262,
      "uçak": 3263,
      "iletişim": 3264,
      "gazetec": 3265,
      "politika": 3266,
      "ihti": 3267,
      "##lkenin": 3268,
      "kamera": 3269,
      "##lamaz": 3270,
      "falan": 3271,
      "kop": 3272,
      "dünyada": 3273,
      "##AY": 3274,
      "tarihinde": 3275,
      "deprem": 3276,
      "davranış": 3277,
      "Hiçbir": 3278,
      "sıkıntı": 3279,
      "neredeyse": 3280,
      "sayıda": 3281,
      "eksik": 3282,
      "kişiler": 3283,
      "çerçev": 3284,
      "##gisi": 3285,
      "dedim": 3286,
      "Din": 3287,
      "malz": 3288,
      "amacıyla": 3289,
      "İslam": 3290,
      "belirlen": 3291,
      "60": 3292,
      "kullandı": 3293,
      "##mıyorum": 3294,
      "Mur": 3295,
      "Tele": 3296,
      "günlük": 3297,
      "##ohn": 3298,
      "##rem": 3299,
      "000": 3300,
      "Si": 3301,
      "Go": 3302,
      "nef": 3303,
      "##emek": 3304,
      "##gü": 3305,
      "İngiltere": 3306,
      "oyunc": 3307,
      "##ond": 3308,
      "evlen": 3309,
      "düşünüyorum": 3310,
      "enf": 3311,
      "Sar": 3312,
      "mısın": 3313,
      "geçti": 3314,
      "eve": 3315,
      "fiz": 3316,
      "diler": 3317,
      "yeterli": 3318,
      "parti": 3319,
      "Nisan": 3320,
      "kullanılan": 3321,
      "Kam": 3322,
      "##seniz": 3323,
      "değildi": 3324,
      "televizyon": 3325,
      "##eksiyon": 3326,
      "döv": 3327,
      "Belediyesi": 3328,
      "güc": 3329,
      "kart": 3330,
      "##iyordu": 3331,
      "##ple": 3332,
      "söylen": 3333,
      "dışı": 3334,
      "önüne": 3335,
      "uzman": 3336,
      "##ektör": 3337,
      "Diy": 3338,
      "##atürk": 3339,
      "bilgisayar": 3340,
      "##leti": 3341,
      "başvur": 3342,
      "belirten": 3343,
      "##ımın": 3344,
      "tatil": 3345,
      "ışık": 3346,
      "##şey": 3347,
      "sonrasında": 3348,
      "şunu": 3349,
      "##ack": 3350,
      "altı": 3351,
      "##dam": 3352,
      "sınav": 3353,
      "etraf": 3354,
      "Üz": 3355,
      "No": 3356,
      "min": 3357,
      "##wit": 3358,
      "197": 3359,
      "çıkış": 3360,
      "Galat": 3361,
      "AKP": 3362,
      "beğen": 3363,
      "500": 3364,
      "##anlık": 3365,
      "gelmiş": 3366,
      "##daşı": 3367,
      "başlıyor": 3368,
      "##asaray": 3369,
      "imza": 3370,
      "Dan": 3371,
      "##uldu": 3372,
      "Hatta": 3373,
      "soruştur": 3374,
      "##tesi": 3375,
      "##ğust": 3376,
      "Bağ": 3377,
      "Am": 3378,
      "Kültür": 3379,
      "vazgeç": 3380,
      "insanın": 3381,
      "PKK": 3382,
      "##lisi": 3383,
      "Beşik": 3384,
      "Per": 3385,
      "Ülk": 3386,
      "Bence": 3387,
      "popüler": 3388,
      "Car": 3389,
      "##iyeti": 3390,
      "##üya": 3391,
      "kendisine": 3392,
      "bahset": 3393,
      "Galatasaray": 3394,
      "yıllarda": 3395,
      "düşür": 3396,
      "HD": 3397,
      "açıklamada": 3398,
      "yüzyıl": 3399,
      "John": 3400,
      "Mal": 3401,
      "Herkes": 3402,
      "Atatürk": 3403,
      "Tekn": 3404,
      "ni": 3405,
      "##edeki": 3406,
      "Kend": 3407,
      "##lanmıştır": 3408,
      "almış": 3409,
      "yüzünden": 3410,
      "tık": 3411,
      "##imler": 3412,
      "##gör": 3413,
      "##tuk": 3414,
      "##tuğ": 3415,
      "tez": 3416,
      "##iyer": 3417,
      "##asyonu": 3418,
      "##abiliyor": 3419,
      "##laşma": 3420,
      "şiddet": 3421,
      "##ilmiştir": 3422,
      "ilgi": 3423,
      "##irken": 3424,
      "devr": 3425,
      "seyir": 3426,
      "not": 3427,
      "##arken": 3428,
      "##uğu": 3429,
      "reklam": 3430,
      "deney": 3431,
      "##ick": 3432,
      "giden": 3433,
      "günlerde": 3434,
      "uyan": 3435,
      "##ros": 3436,
      "Seç": 3437,
      "##hat": 3438,
      "memnun": 3439,
      "değişiklik": 3440,
      "##estor": 3441,
      "26": 3442,
      "Açık": 3443,
      "##ceği": 3444,
      "Küçük": 3445,
      "##onu": 3446,
      "##imd": 3447,
      "##EL": 3448,
      "tu": 3449,
      "durdur": 3450,
      "Beşiktaş": 3451,
      "onlara": 3452,
      "uğ": 3453,
      "kural": 3454,
      "Festiv": 3455,
      "zek": 3456,
      "bunları": 3457,
      "şaşır": 3458,
      "öğ": 3459,
      "Geçen": 3460,
      "ayar": 3461,
      "sem": 3462,
      "enerji": 3463,
      "##ni": 3464,
      "buradan": 3465,
      "Fat": 3466,
      "##liğin": 3467,
      "Tanrı": 3468,
      "hüc": 3469,
      "##ğustos": 3470,
      "Doğru": 3471,
      "##ündeki": 3472,
      "istemiyorum": 3473,
      "etkinlik": 3474,
      "##redi": 3475,
      "tec": 3476,
      "hükümet": 3477,
      "karşısında": 3478,
      "kitab": 3479,
      "hissed": 3480,
      "##omet": 3481,
      "##tacak": 3482,
      "##lediği": 3483,
      "politik": 3484,
      "Kürt": 3485,
      "olacaktır": 3486,
      "##layıp": 3487,
      "Val": 3488,
      "##yim": 3489,
      "Devam": 3490,
      "Güney": 3491,
      "alıp": 3492,
      "##best": 3493,
      "çab": 3494,
      "##eliğ": 3495,
      "##ane": 3496,
      "##esiz": 3497,
      "miyim": 3498,
      "işin": 3499,
      "##dat": 3500,
      "çoğu": 3501,
      "##ıyorlar": 3502,
      "com": 3503,
      "Düş": 3504,
      "##bat": 3505,
      "##cisi": 3506,
      "Samsun": 3507,
      "trans": 3508,
      "bom": 3509,
      "yürüy": 3510,
      "Antalya": 3511,
      "##düğünü": 3512,
      "yola": 3513,
      "Arka": 3514,
      "yakala": 3515,
      "ediliyor": 3516,
      "mutlaka": 3517,
      "Yunan": 3518,
      "toprak": 3519,
      "yerel": 3520,
      "olacağını": 3521,
      "insanları": 3522,
      "Spor": 3523,
      "konuşma": 3524,
      "##ud": 3525,
      "Yılmaz": 3526,
      "birini": 3527,
      "ilan": 3528,
      "Irak": 3529,
      "##lemeye": 3530,
      "##orm": 3531,
      "##ula": 3532,
      "yerleş": 3533,
      "atı": 3534,
      "ilaç": 3535,
      "##les": 3536,
      "Oğ": 3537,
      "gem": 3538,
      "##imar": 3539,
      "döneminde": 3540,
      "miktar": 3541,
      "rak": 3542,
      "başta": 3543,
      "##masından": 3544,
      "Sosyal": 3545,
      "yoktur": 3546,
      "dek": 3547,
      "birisi": 3548,
      "girişim": 3549,
      "olumsuz": 3550,
      "##undaki": 3551,
      "##ho": 3552,
      "##ceğini": 3553,
      "Nerede": 3554,
      "bilgiler": 3555,
      "borç": 3556,
      "sonucunda": 3557,
      "Sp": 3558,
      "Baba": 3559,
      "ilginç": 3560,
      "edebil": 3561,
      "##terek": 3562,
      "Ocak": 3563,
      "Bat": 3564,
      "##ykü": 3565,
      "##diklerini": 3566,
      "ülkenin": 3567,
      "marka": 3568,
      "Bunlar": 3569,
      "gösteriyor": 3570,
      "ettim": 3571,
      "##başı": 3572,
      "##mamış": 3573,
      "Tiyatro": 3574,
      "##emiş": 3575,
      "##eyecek": 3576,
      "yönetmen": 3577,
      "Eş": 3578,
      "##lanır": 3579,
      "Sır": 3580,
      "##ıştır": 3581,
      "##ris": 3582,
      "##uluyor": 3583,
      "Ha": 3584,
      "Kıs": 3585,
      "##leyin": 3586,
      "Onlar": 3587,
      "kullanım": 3588,
      "##sizlik": 3589,
      "yerinde": 3590,
      "bekliyor": 3591,
      "hayata": 3592,
      "Bas": 3593,
      "terk": 3594,
      "hepsi": 3595,
      "##unları": 3596,
      "##iyah": 3597,
      "Birliği": 3598,
      "##atej": 3599,
      "##ell": 3600,
      "gidip": 3601,
      "evde": 3602,
      "##lenme": 3603,
      "kadro": 3604,
      "##kası": 3605,
      "kendisi": 3606,
      "##ebilirsiniz": 3607,
      "##EK": 3608,
      "Yol": 3609,
      "##urken": 3610,
      "aray": 3611,
      "kendisini": 3612,
      "cep": 3613,
      "tatlı": 3614,
      "##istik": 3615,
      "##tüğ": 3616,
      "##iri": 3617,
      "po": 3618,
      "iP": 3619,
      "##ivil": 3620,
      "verecek": 3621,
      "##lusal": 3622,
      "##yken": 3623,
      "##UR": 3624,
      "##OR": 3625,
      "##larındaki": 3626,
      "day": 3627,
      "##memiz": 3628,
      "tartışma": 3629,
      "2015": 3630,
      "Anne": 3631,
      "##zu": 3632,
      "##ock": 3633,
      "sonraki": 3634,
      "askeri": 3635,
      "nden": 3636,
      "açıkladı": 3637,
      "##oya": 3638,
      "##urum": 3639,
      "bakış": 3640,
      "Kaz": 3641,
      "Uzun": 3642,
      "##enc": 3643,
      "arama": 3644,
      "yoktu": 3645,
      "belirtti": 3646,
      "müdahale": 3647,
      "##biliriz": 3648,
      "siyaset": 3649,
      "Büyükşehir": 3650,
      "İkinci": 3651,
      "##acağım": 3652,
      "Gazet": 3653,
      "İran": 3654,
      "bazen": 3655,
      "##omobil": 3656,
      "çeken": 3657,
      "imz": 3658,
      "##ükem": 3659,
      "##ray": 3660,
      "farkında": 3661,
      "##ag": 3662,
      "##isiyle": 3663,
      "istiyorsun": 3664,
      "güneş": 3665,
      "Bal": 3666,
      "##liğe": 3667,
      "##ze": 3668,
      "##tern": 3669,
      "Gir": 3670,
      "Fransa": 3671,
      "##masıyla": 3672,
      "yalnızca": 3673,
      "##uzur": 3674,
      "kriz": 3675,
      "Ge": 3676,
      "##ımızın": 3677,
      "karıştır": 3678,
      "and": 3679,
      "gizli": 3680,
      "cinsel": 3681,
      "yerini": 3682,
      "bağımsız": 3683,
      "Aralık": 3684,
      "##neği": 3685,
      "ilişki": 3686,
      "bebek": 3687,
      "tedavi": 3688,
      "##ck": 3689,
      "dizi": 3690,
      "##par": 3691,
      "##işi": 3692,
      "ülkemiz": 3693,
      "yapıyorsun": 3694,
      "etkisi": 3695,
      "Pat": 3696,
      "##üstü": 3697,
      "##ınıza": 3698,
      "2018": 3699,
      "##artesi": 3700,
      "eylem": 3701,
      "teslim": 3702,
      "yasak": 3703,
      "29": 3704,
      "başlan": 3705,
      "bilinen": 3706,
      "Sin": 3707,
      "##otor": 3708,
      "anlamına": 3709,
      "Merkezi": 3710,
      "Şah": 3711,
      "seviyorum": 3712,
      "edebiyat": 3713,
      "##daroğlu": 3714,
      "Söyle": 3715,
      "sert": 3716,
      "##duğumuz": 3717,
      "##dy": 3718,
      "dilerim": 3719,
      "##meniz": 3720,
      "ez": 3721,
      "##ücu": 3722,
      "##hone": 3723,
      "##ükemmel": 3724,
      "kilo": 3725,
      "teklif": 3726,
      "olduğumuz": 3727,
      "isimli": 3728,
      "##ise": 3729,
      "uğraş": 3730,
      "Wil": 3731,
      "Böylece": 3732,
      "Araştırma": 3733,
      "##eceğiniz": 3734,
      "yukarı": 3735,
      "balık": 3736,
      "kayde": 3737,
      "sorunu": 3738,
      "##anan": 3739,
      "gören": 3740,
      "Ağustos": 3741,
      "##ümüzdeki": 3742,
      "##erim": 3743,
      "gündem": 3744,
      "şikayet": 3745,
      "##elt": 3746,
      "##AD": 3747,
      "yasa": 3748,
      "se": 3749,
      "Osmanlı": 3750,
      "Bor": 3751,
      "kanıt": 3752,
      "yılın": 3753,
      "yılda": 3754,
      "##aşa": 3755,
      "##adde": 3756,
      "hadi": 3757,
      "Fa": 3758,
      "Fil": 3759,
      "Şubat": 3760,
      "##iter": 3761,
      "ettir": 3762,
      "dolaş": 3763,
      "haklı": 3764,
      "altın": 3765,
      "##elerden": 3766,
      "af": 3767,
      "göç": 3768,
      "##uro": 3769,
      "alanda": 3770,
      "sakin": 3771,
      "taz": 3772,
      "ihtiyacı": 3773,
      "itir": 3774,
      "basit": 3775,
      "anlamda": 3776,
      "196": 3777,
      "dokun": 3778,
      "iyileş": 3779,
      "##hi": 3780,
      "##to": 3781,
      "kalp": 3782,
      "Tat": 3783,
      "##dikten": 3784,
      "##ezz": 3785,
      "2022": 3786,
      "anlama": 3787,
      "yapabilir": 3788,
      "Tayyip": 3789,
      "sağlıklı": 3790,
      "Kılıçdaroğlu": 3791,
      "##liğinde": 3792,
      "##ire": 3793,
      "sunu": 3794,
      "##gili": 3795,
      "##esindeki": 3796,
      "tehdit": 3797,
      "Elbette": 3798,
      "Hemen": 3799,
      "aya": 3800,
      "Yönet": 3801,
      "heyecan": 3802,
      "tuz": 3803,
      "olumlu": 3804,
      "dostum": 3805,
      "##str": 3806,
      "açıkla": 3807,
      "gördüm": 3808,
      "Mas": 3809,
      "şeyin": 3810,
      "Res": 3811,
      "##dınız": 3812,
      "yiye": 3813,
      "bal": 3814,
      "##witter": 3815,
      "sona": 3816,
      "beden": 3817,
      "##larımızın": 3818,
      "##imli": 3819,
      "##AŞ": 3820,
      "kans": 3821,
      "Ham": 3822,
      "Şey": 3823,
      "pas": 3824,
      "Tarih": 3825,
      "bol": 3826,
      "çağır": 3827,
      "yönetic": 3828,
      "##tum": 3829,
      "adını": 3830,
      "##ukat": 3831,
      "La": 3832,
      "##gesi": 3833,
      "Dön": 3834,
      "yıllar": 3835,
      "onunla": 3836,
      "Sorun": 3837,
      "elektrik": 3838,
      "##sas": 3839,
      "modern": 3840,
      "bölümde": 3841,
      "##onya": 3842,
      "hastalık": 3843,
      "##meyin": 3844,
      "şar": 3845,
      "seyahat": 3846,
      "Fransız": 3847,
      "sayı": 3848,
      "##fed": 3849,
      "##kadem": 3850,
      "gösteren": 3851,
      "raki": 3852,
      "çeki": 3853,
      "##muştur": 3854,
      "asıl": 3855,
      "##alim": 3856,
      "##gıç": 3857,
      "Sayın": 3858,
      "müt": 3859,
      "Park": 3860,
      "##üman": 3861,
      "Hastan": 3862,
      "mahk": 3863,
      "##lerdir": 3864,
      "tepki": 3865,
      "Mut": 3866,
      "##rum": 3867,
      "konum": 3868,
      "bec": 3869,
      "ettiğini": 3870,
      "##ısız": 3871,
      "##asi": 3872,
      "konser": 3873,
      "Ağa": 3874,
      "bunların": 3875,
      "31": 3876,
      "##co": 3877,
      "restor": 3878,
      "yas": 3879,
      "serbest": 3880,
      "##eyse": 3881,
      "##mesinin": 3882,
      "eg": 3883,
      "doldur": 3884,
      "hesab": 3885,
      "##ore": 3886,
      "##atör": 3887,
      "misiniz": 3888,
      "##mur": 3889,
      "90": 3890,
      "azından": 3891,
      "Var": 3892,
      "aşırı": 3893,
      "Zaten": 3894,
      "Gala": 3895,
      "binlerce": 3896,
      "##veriş": 3897,
      "##elç": 3898,
      "diyerek": 3899,
      "##iği": 3900,
      "##miştim": 3901,
      "kara": 3902,
      "80": 3903,
      "red": 3904,
      "üçüncü": 3905,
      "Ödül": 3906,
      "hed": 3907,
      "Zaman": 3908,
      "parçası": 3909,
      "lik": 3910,
      "hafif": 3911,
      "olmadan": 3912,
      "form": 3913,
      "##rika": 3914,
      "##ıyordu": 3915,
      "ha": 3916,
      "mec": 3917,
      "alanı": 3918,
      "Apple": 3919,
      "mark": 3920,
      "##ong": 3921,
      "dök": 3922,
      "Güneş": 3923,
      "##elikle": 3924,
      "stan": 3925,
      "eğit": 3926,
      "Orada": 3927,
      "2020": 3928,
      "##imden": 3929,
      "azal": 3930,
      "kuvvet": 3931,
      "gitmek": 3932,
      "başlar": 3933,
      "##rac": 3934,
      "##ınızda": 3935,
      "yerleştir": 3936,
      "##ulması": 3937,
      "##temelen": 3938,
      "Cam": 3939,
      "söylemek": 3940,
      "##adaki": 3941,
      "Değ": 3942,
      "##sim": 3943,
      "##ner": 3944,
      "##LAR": 3945,
      "##har": 3946,
      "üzerindeki": 3947,
      "musunuz": 3948,
      "çay": 3949,
      "##eza": 3950,
      "etkilen": 3951,
      "kem": 3952,
      "cen": 3953,
      "##ED": 3954,
      "söyleyen": 3955,
      "ir": 3956,
      "##sul": 3957,
      "Kaç": 3958,
      "##ğında": 3959,
      "bahsed": 3960,
      "gözlem": 3961,
      "Müdürlüğü": 3962,
      "ters": 3963,
      "##ger": 3964,
      "del": 3965,
      "hayatı": 3966,
      "##düz": 3967,
      "iktidar": 3968,
      "Doğu": 3969,
      "##tarı": 3970,
      "35": 3971,
      "##landa": 3972,
      "##kar": 3973,
      "alg": 3974,
      "MHP": 3975,
      "##lığıyla": 3976,
      "##ind": 3977,
      "belirterek": 3978,
      "##madım": 3979,
      "ndan": 3980,
      "Haydi": 3981,
      "yaşadığı": 3982,
      "olmuştur": 3983,
      "çıkacak": 3984,
      "merkezi": 3985,
      "ediyoruz": 3986,
      "herkesin": 3987,
      "istiyoruz": 3988,
      "kaydet": 3989,
      "stratej": 3990,
      "pak": 3991,
      "dans": 3992,
      "##rag": 3993,
      "##ena": 3994,
      "ağr": 3995,
      "sanırım": 3996,
      "45": 3997,
      "Aman": 3998,
      "yetkil": 3999,
      "TV": 4000,
      "##acağız": 4001,
      "kesinlikle": 4002,
      "gaz": 4003,
      "kulak": 4004,
      "eşi": 4005,
      "İm": 4006,
      "##ht": 4007,
      "hapis": 4008,
      "eriş": 4009,
      "##ülü": 4010,
      "işler": 4011,
      "##ON": 4012,
      "biliyorsun": 4013,
      "##landığı": 4014,
      "zih": 4015,
      "süt": 4016,
      "meslek": 4017,
      "##jital": 4018,
      "##sur": 4019,
      "olmasına": 4020,
      "doğum": 4021,
      "##ori": 4022,
      "fil": 4023,
      "gelenek": 4024,
      "fon": 4025,
      "##med": 4026,
      "Batı": 4027,
      "Bin": 4028,
      "##elerinden": 4029,
      "##ebilecek": 4030,
      "servis": 4031,
      "otomobil": 4032,
      "isten": 4033,
      "nedeni": 4034,
      "##ışık": 4035,
      "##eytin": 4036,
      "2019": 4037,
      "##amıyorum": 4038,
      "Örneğin": 4039,
      "Yüksek": 4040,
      "olmayacak": 4041,
      "dünyaya": 4042,
      "##we": 4043,
      "süreci": 4044,
      "Sonuç": 4045,
      "##mür": 4046,
      "yaptım": 4047,
      "öykü": 4048,
      "Emin": 4049,
      "uc": 4050,
      "yu": 4051,
      "hata": 4052,
      "##ildiği": 4053,
      "yapıldı": 4054,
      "ticaret": 4055,
      "Kuzey": 4056,
      "Bayram": 4057,
      "huzur": 4058,
      "##EM": 4059,
      "düğ": 4060,
      "gelip": 4061,
      "aldım": 4062,
      "izle": 4063,
      "Bundan": 4064,
      "gur": 4065,
      "##üyle": 4066,
      "Evrim": 4067,
      "Aydın": 4068,
      "sunuyor": 4069,
      "##oyu": 4070,
      "Buraya": 4071,
      "cüm": 4072,
      "##ğan": 4073,
      "##emli": 4074,
      "##ürüz": 4075,
      "##ahim": 4076,
      "birinci": 4077,
      "##ebi": 4078,
      "##ona": 4079,
      "zamanı": 4080,
      "Lig": 4081,
      "##ult": 4082,
      "##inizin": 4083,
      "diyen": 4084,
      "##arında": 4085,
      "York": 4086,
      "rad": 4087,
      "edilmiş": 4088,
      "dava": 4089,
      "##ayi": 4090,
      "serg": 4091,
      "ora": 4092,
      "milli": 4093,
      "##dığına": 4094,
      "taşın": 4095,
      "istedi": 4096,
      "##ülebilir": 4097,
      "##yas": 4098,
      "getiren": 4099,
      "ins": 4100,
      "ülkede": 4101,
      "##eng": 4102,
      "nüf": 4103,
      "##sinin": 4104,
      "umut": 4105,
      "##land": 4106,
      "olmasını": 4107,
      "malzem": 4108,
      "keyif": 4109,
      "senar": 4110,
      "##elerle": 4111,
      "geçtiğimiz": 4112,
      "edip": 4113,
      "yarın": 4114,
      "bilmiyor": 4115,
      "ayrıl": 4116,
      "toplumsal": 4117,
      "Haf": 4118,
      "Sağlık": 4119,
      "Milletvekili": 4120,
      "festiv": 4121,
      "finans": 4122,
      "park": 4123,
      "##ilebilir": 4124,
      "##lenmiş": 4125,
      "##ladım": 4126,
      "nefret": 4127,
      "hayatta": 4128,
      "anlayış": 4129,
      "gib": 4130,
      "##mediği": 4131,
      "Çev": 4132,
      "baskı": 4133,
      "mektu": 4134,
      "kızı": 4135,
      "rast": 4136,
      "##İY": 4137,
      "Harika": 4138,
      "##süz": 4139,
      "Meclis": 4140,
      "kanal": 4141,
      "alanında": 4142,
      "Bilmiyorum": 4143,
      "yakalan": 4144,
      "kitabı": 4145,
      "ilişkiler": 4146,
      "##ılabilir": 4147,
      "birinin": 4148,
      "2016": 4149,
      "edilmiştir": 4150,
      "şeker": 4151,
      "deng": 4152,
      "faiz": 4153,
      "##liğine": 4154,
      "Gür": 4155,
      "adamı": 4156,
      "##avi": 4157,
      "almaya": 4158,
      "##dağ": 4159,
      "ata": 4160,
      "def": 4161,
      "kırmızı": 4162,
      "çalışmaları": 4163,
      "Yardımcısı": 4164,
      "çap": 4165,
      "hakim": 4166,
      "Biliyorum": 4167,
      "faktör": 4168,
      "esn": 4169,
      "albüm": 4170,
      "kişilik": 4171,
      "Müs": 4172,
      "##panya": 4173,
      "##ecep": 4174,
      "anlamlı": 4175,
      "##lal": 4176,
      "edilmesi": 4177,
      "##unç": 4178,
      "şampiyon": 4179,
      "köpek": 4180,
      "##dılar": 4181,
      "##usunu": 4182,
      "Gi": 4183,
      "Önce": 4184,
      "##ılarak": 4185,
      "##ıldız": 4186,
      "Dolay": 4187,
      "##sever": 4188,
      "##teşem": 4189,
      "##mit": 4190,
      "##diğine": 4191,
      "alk": 4192,
      "saygı": 4193,
      "##irüs": 4194,
      "civ": 4195,
      "otob": 4196,
      "sorgu": 4197,
      "Lis": 4198,
      "yaşlı": 4199,
      "Rob": 4200,
      "70": 4201,
      "Hala": 4202,
      "olası": 4203,
      "Co": 4204,
      "##dal": 4205,
      "bence": 4206,
      "##larınızı": 4207,
      "içi": 4208,
      "Ho": 4209,
      "##jan": 4210,
      "sorumlu": 4211,
      "Mus": 4212,
      "##ayıf": 4213,
      "Uluslararası": 4214,
      "dağ": 4215,
      "Recep": 4216,
      "Doktor": 4217,
      "getirdi": 4218,
      "oranı": 4219,
      "Amerikan": 4220,
      "##tak": 4221,
      "yaygın": 4222,
      "tören": 4223,
      "##va": 4224,
      "##siye": 4225,
      "büt": 4226,
      "##lığının": 4227,
      "pr": 4228,
      "kişisel": 4229,
      "soğuk": 4230,
      "kere": 4231,
      "Murat": 4232,
      "ondan": 4233,
      "##çeği": 4234,
      "gücü": 4235,
      "Üzgünüm": 4236,
      "ted": 4237,
      "##madığı": 4238,
      "pla": 4239,
      "Nur": 4240,
      "sinema": 4241,
      "##ij": 4242,
      "##ersiz": 4243,
      "Polis": 4244,
      "##are": 4245,
      "elbette": 4246,
      "##ğını": 4247,
      "sivil": 4248,
      "dahi": 4249,
      "Mac": 4250,
      "kurtul": 4251,
      "oldum": 4252,
      "araba": 4253,
      "##onik": 4254,
      "başvuru": 4255,
      "kıl": 4256,
      "Çağ": 4257,
      "olmadı": 4258,
      "sebeb": 4259,
      "##içek": 4260,
      "şiş": 4261,
      "fi": 4262,
      "##nen": 4263,
      "2017": 4264,
      "Dik": 4265,
      "aşı": 4266,
      "ef": 4267,
      "kahraman": 4268,
      "Say": 4269,
      "##ecektir": 4270,
      "hır": 4271,
      "çocukların": 4272,
      "yapabil": 4273,
      "öncesi": 4274,
      "##kiler": 4275,
      "Bo": 4276,
      "harca": 4277,
      "arası": 4278,
      "##abz": 4279,
      "eşit": 4280,
      "yarı": 4281,
      "gelin": 4282,
      "##bin": 4283,
      "hisse": 4284,
      "lim": 4285,
      "atan": 4286,
      "##elek": 4287,
      "özür": 4288,
      "Olay": 4289,
      "yargı": 4290,
      "Bi": 4291,
      "idar": 4292,
      "iPhone": 4293,
      "##meliyat": 4294,
      "becer": 4295,
      "Mahalle": 4296,
      "Oku": 4297,
      "alarak": 4298,
      "edebilir": 4299,
      "söyler": 4300,
      "##xy": 4301,
      "##cık": 4302,
      "çocuğu": 4303,
      "gay": 4304,
      "gelişmeler": 4305,
      "belediye": 4306,
      "2021": 4307,
      "##lenmesi": 4308,
      "lir": 4309,
      "Dolayısıyla": 4310,
      "##İM": 4311,
      "arkadaşı": 4312,
      "korun": 4313,
      "duygus": 4314,
      "tır": 4315,
      "sanki": 4316,
      "kilomet": 4317,
      "yapılması": 4318,
      "##diğimi": 4319,
      "benimle": 4320,
      "giren": 4321,
      "Müdürü": 4322,
      "person": 4323,
      "Mahkem": 4324,
      "to": 4325,
      "##erken": 4326,
      "kadının": 4327,
      "aydın": 4328,
      "Jap": 4329,
      "Haberin": 4330,
      "ortalama": 4331,
      "##don": 4332,
      "##liler": 4333,
      "giderek": 4334,
      "##iyan": 4335,
      "##ohbet": 4336,
      "cinayet": 4337,
      "önlem": 4338,
      "32": 4339,
      "Vak": 4340,
      "Fer": 4341,
      "ic": 4342,
      "Don": 4343,
      "##SK": 4344,
      "koc": 4345,
      "##do": 4346,
      "biçimde": 4347,
      "ışı": 4348,
      "sinir": 4349,
      "arttır": 4350,
      "Ağacı": 4351,
      "##ındır": 4352,
      "##stan": 4353,
      "kredi": 4354,
      "seçenek": 4355,
      "duruyor": 4356,
      "##ersiniz": 4357,
      "babası": 4358,
      "Pa": 4359,
      "##ess": 4360,
      "sur": 4361,
      "yapılmış": 4362,
      "##ation": 4363,
      "diş": 4364,
      "##ayasa": 4365,
      "##ilim": 4366,
      "çalışmalar": 4367,
      "boğ": 4368,
      "özellikleri": 4369,
      "yaşama": 4370,
      "ide": 4371,
      "Hava": 4372,
      "##red": 4373,
      "üyesi": 4374,
      "vücu": 4375,
      "geçiş": 4376,
      "bayram": 4377,
      "çaba": 4378,
      "ifadelerini": 4379,
      "takdir": 4380,
      "Altın": 4381,
      "sevgil": 4382,
      "##acağı": 4383,
      "hatırla": 4384,
      "verildi": 4385,
      "##lardaki": 4386,
      "##alesef": 4387,
      "açıdan": 4388,
      "##celi": 4389,
      "##ılış": 4390,
      "teknoloji": 4391,
      "kalır": 4392,
      "ordu": 4393,
      "Partisi": 4394,
      "yaptığını": 4395,
      "rakam": 4396,
      "##car": 4397,
      "##udi": 4398,
      "tarif": 4399,
      "Char": 4400,
      "##qu": 4401,
      "Den": 4402,
      "konut": 4403,
      "##layıcı": 4404,
      "##malıdır": 4405,
      "##ich": 4406,
      "kullanarak": 4407,
      "müh": 4408,
      "##cilik": 4409,
      "2014": 4410,
      "Konuş": 4411,
      "lezz": 4412,
      "kalma": 4413,
      "Kaf": 4414,
      "içerik": 4415,
      "saniye": 4416,
      "nı": 4417,
      "Mon": 4418,
      "salon": 4419,
      "çoğun": 4420,
      "birden": 4421,
      "##emem": 4422,
      "##ogle": 4423,
      "##lasik": 4424,
      "vergi": 4425,
      "##utan": 4426,
      "kaşı": 4427,
      "##itik": 4428,
      "beklent": 4429,
      "gündeme": 4430,
      "profes": 4431,
      "değerli": 4432,
      "barış": 4433,
      "oğlu": 4434,
      "muy": 4435,
      "mahkem": 4436,
      "kullanıl": 4437,
      "mesaf": 4438,
      "filmin": 4439,
      "2010": 4440,
      "etmesi": 4441,
      "##altına": 4442,
      "##tıcı": 4443,
      "##mız": 4444,
      "##dırım": 4445,
      "Gazi": 4446,
      "öldü": 4447,
      "kapalı": 4448,
      "cil": 4449,
      "gönül": 4450,
      "##pany": 4451,
      "anlatıyor": 4452,
      "vakit": 4453,
      "zayıf": 4454,
      "yeşil": 4455,
      "bakan": 4456,
      "ism": 4457,
      "şeye": 4458,
      "Arab": 4459,
      "##leyici": 4460,
      "duruş": 4461,
      "sağlayan": 4462,
      "kültürel": 4463,
      "##ug": 4464,
      "##yal": 4465,
      "Te": 4466,
      "Be": 4467,
      "prot": 4468,
      "ortadan": 4469,
      "şunları": 4470,
      "##duğum": 4471,
      "So": 4472,
      "verme": 4473,
      "Kork": 4474,
      "36": 4475,
      "Size": 4476,
      "Kral": 4477,
      "Önc": 4478,
      "##müştür": 4479,
      "##eci": 4480,
      "vermiş": 4481,
      "Çık": 4482,
      "girdi": 4483,
      "Müsl": 4484,
      "şef": 4485,
      "kahv": 4486,
      "sp": 4487,
      "alındı": 4488,
      "##iya": 4489,
      "okur": 4490,
      "##ydi": 4491,
      "##uar": 4492,
      "bölümünde": 4493,
      "süren": 4494,
      "##sında": 4495,
      "##ağın": 4496,
      "noktada": 4497,
      "Ail": 4498,
      "##anak": 4499,
      "Halk": 4500,
      "benden": 4501,
      "Tah": 4502,
      "kuru": 4503,
      "GB": 4504,
      "##mesiyle": 4505,
      "dönüştür": 4506,
      "##dunuz": 4507,
      "küresel": 4508,
      "yaklaşım": 4509,
      "Mi": 4510,
      "hab": 4511,
      "genellikle": 4512,
      "##isinden": 4513,
      "##masın": 4514,
      "durumunda": 4515,
      "kış": 4516,
      "Sizin": 4517,
      "süredir": 4518,
      "yaparak": 4519,
      "Sul": 4520,
      "Kab": 4521,
      "##siyet": 4522,
      "##vekil": 4523,
      "çoğ": 4524,
      "olamaz": 4525,
      "siyah": 4526,
      "##ımızda": 4527,
      "##mı": 4528,
      "kalmış": 4529,
      "milletvekili": 4530,
      "İnan": 4531,
      "sevin": 4532,
      "##leniyor": 4533,
      "tr": 4534,
      "turizm": 4535,
      "taşıyan": 4536,
      "dinle": 4537,
      "##emeye": 4538,
      "##nak": 4539,
      "değişim": 4540,
      "##ücut": 4541,
      "zamanlarda": 4542,
      "##lerimizi": 4543,
      "##izasyon": 4544,
      "Cem": 4545,
      "içindeki": 4546,
      "kapas": 4547,
      "müdür": 4548,
      "Kesin": 4549,
      "metre": 4550,
      "Paris": 4551,
      "koca": 4552,
      "##ST": 4553,
      "##ator": 4554,
      "işbir": 4555,
      "ayı": 4556,
      "##üldü": 4557,
      "##ann": 4558,
      "mükemmel": 4559,
      "Fin": 4560,
      "tabi": 4561,
      "##eğe": 4562,
      "katıldı": 4563,
      "düşman": 4564,
      "yazık": 4565,
      "##ky": 4566,
      "Alan": 4567,
      "yerden": 4568,
      "##rah": 4569,
      "enflasyon": 4570,
      "Fak": 4571,
      "##acağını": 4572,
      "Bit": 4573,
      "kum": 4574,
      "##IR": 4575,
      "Ku": 4576,
      "Gar": 4577,
      "##arlı": 4578,
      "Uk": 4579,
      "Geri": 4580,
      "oraya": 4581,
      "sonuçları": 4582,
      "ihtimal": 4583,
      "kısmı": 4584,
      "kayıp": 4585,
      "insanı": 4586,
      "##larımı": 4587,
      "öt": 4588,
      "olsay": 4589,
      "##malıyız": 4590,
      "uçuş": 4591,
      "Süper": 4592,
      "tıp": 4593,
      "istedim": 4594,
      "Yıldırım": 4595,
      "TÜ": 4596,
      "ade": 4597,
      "Hoş": 4598,
      "##dul": 4599,
      "Festivali": 4600,
      "Türkçe": 4601,
      "özelliği": 4602,
      "Bırak": 4603,
      "Mek": 4604,
      "Erkek": 4605,
      "hızla": 4606,
      "Trabz": 4607,
      "orman": 4608,
      "Twitter": 4609,
      "yaşıyor": 4610,
      "kazandır": 4611,
      "##amazan": 4612,
      "onay": 4613,
      "oyunun": 4614,
      "Çek": 4615,
      "Savaş": 4616,
      "HDP": 4617,
      "##gr": 4618,
      "istih": 4619,
      "##lie": 4620,
      "sürede": 4621,
      "sonuna": 4622,
      "##cağına": 4623,
      "Duy": 4624,
      "ismi": 4625,
      "sayf": 4626,
      "Burası": 4627,
      "makin": 4628,
      "kaybol": 4629,
      "ufak": 4630,
      "Google": 4631,
      "##AZ": 4632,
      "Fatih": 4633,
      "yetiştir": 4634,
      "desteği": 4635,
      "##ısır": 4636,
      "ağaç": 4637,
      "bağır": 4638,
      "Bankası": 4639,
      "Ukray": 4640,
      "ayrıntı": 4641,
      "futbolcu": 4642,
      "Yıldız": 4643,
      "doğrudan": 4644,
      "ölçü": 4645,
      "sağlıyor": 4646,
      "Arkadaş": 4647,
      "sohbet": 4648,
      "##sızlık": 4649,
      "Yas": 4650,
      "##indi": 4651,
      "Met": 4652,
      "##rav": 4653,
      "kaşığı": 4654,
      "yarg": 4655,
      "görevi": 4656,
      "bölgede": 4657,
      "ilçesinde": 4658,
      "akl": 4659,
      "tren": 4660,
      "##ysa": 4661,
      "çıkart": 4662,
      "düzenlem": 4663,
      "şeyleri": 4664,
      "##ert": 4665,
      "yolunda": 4666,
      "unsur": 4667,
      "##memek": 4668,
      "kapan": 4669,
      "##medik": 4670,
      "Yav": 4671,
      "alışveriş": 4672,
      "öğrenci": 4673,
      "bahç": 4674,
      "ref": 4675,
      "##ity": 4676,
      "karşılık": 4677,
      "sız": 4678,
      "Samsung": 4679,
      "arasına": 4680,
      "birik": 4681,
      "istediğim": 4682,
      "Th": 4683,
      "desteğ": 4684,
      "##AP": 4685,
      "istediği": 4686,
      "sebebi": 4687,
      "nün": 4688,
      "uygula": 4689,
      "##hane": 4690,
      "gali": 4691,
      "##mekten": 4692,
      "tanıt": 4693,
      "numar": 4694,
      "çalışıyoruz": 4695,
      "anlatan": 4696,
      "bekl": 4697,
      "aptal": 4698,
      "ağz": 4699,
      "##usuna": 4700,
      "nak": 4701,
      "gördük": 4702,
      "buz": 4703,
      "Şehir": 4704,
      "##dart": 4705,
      "sahne": 4706,
      "olanlar": 4707,
      "üstüne": 4708,
      "##İT": 4709,
      "##orta": 4710,
      "çekil": 4711,
      "kağı": 4712,
      "Galaxy": 4713,
      "##leyecek": 4714,
      "sağlamak": 4715,
      "kendimi": 4716,
      "bugüne": 4717,
      "transfer": 4718,
      "##istin": 4719,
      "Tıp": 4720,
      "##ko": 4721,
      "geldiği": 4722,
      "Cumhurbaşkan": 4723,
      "TB": 4724,
      "çö": 4725,
      "sim": 4726,
      "##liye": 4727,
      "suyu": 4728,
      "Demek": 4729,
      "azalt": 4730,
      "300": 4731,
      "ton": 4732,
      "##İK": 4733,
      "İh": 4734,
      "##makla": 4735,
      "##gal": 4736,
      "karşılı": 4737,
      "Telefon": 4738,
      "##urta": 4739,
      "Hüs": 4740,
      "##yap": 4741,
      "festival": 4742,
      "hayran": 4743,
      "Bursa": 4744,
      "##mıştım": 4745,
      "namaz": 4746,
      "Onları": 4747,
      "##atür": 4748,
      "##İD": 4749,
      "olduğundan": 4750,
      "##hiş": 4751,
      "Yazının": 4752,
      "katılan": 4753,
      "##pt": 4754,
      "hücr": 4755,
      "Pr": 4756,
      "niyet": 4757,
      "Van": 4758,
      "duvar": 4759,
      "Görün": 4760,
      "müşter": 4761,
      "pil": 4762,
      "Öte": 4763,
      "seninle": 4764,
      "sağlaya": 4765,
      "Gele": 4766,
      "bed": 4767,
      "maddi": 4768,
      "çalışmaya": 4769,
      "##ker": 4770,
      "kus": 4771,
      "Mor": 4772,
      "bina": 4773,
      "kamer": 4774,
      "vermeye": 4775,
      "##ood": 4776,
      "kadınlar": 4777,
      "motor": 4778,
      "##sey": 4779,
      "okuy": 4780,
      "büyüm": 4781,
      "lezzet": 4782,
      "ır": 4783,
      "geleceğ": 4784,
      "Yayın": 4785,
      "##inizde": 4786,
      "bölge": 4787,
      "##uva": 4788,
      "yaparken": 4789,
      "Dep": 4790,
      "Şeh": 4791,
      "kalıyor": 4792,
      "Sey": 4793,
      "küt": 4794,
      "##ılıp": 4795,
      "##rens": 4796,
      "babam": 4797,
      "##eyiz": 4798,
      "bekleniyor": 4799,
      "##amıyor": 4800,
      "##ülüyor": 4801,
      "geçiyor": 4802,
      "Hazır": 4803,
      "dijital": 4804,
      "kıya": 4805,
      "çalışmada": 4806,
      "avukat": 4807,
      "istik": 4808,
      "geldiğini": 4809,
      "##allah": 4810,
      "demiş": 4811,
      "yanına": 4812,
      "##ny": 4813,
      "Yönetim": 4814,
      "Taş": 4815,
      "fiziksel": 4816,
      "kamp": 4817,
      "arz": 4818,
      "sürü": 4819,
      "göl": 4820,
      "##kaya": 4821,
      "nesil": 4822,
      "##ığ": 4823,
      "bölümü": 4824,
      "##ternatif": 4825,
      "##dığın": 4826,
      "##tılar": 4827,
      "sil": 4828,
      "proje": 4829,
      "##sını": 4830,
      "cumhur": 4831,
      "öngör": 4832,
      "gerekç": 4833,
      "firma": 4834,
      "fel": 4835,
      "##roid": 4836,
      "gözaltına": 4837,
      "##ılmasına": 4838,
      "pişir": 4839,
      "yolcu": 4840,
      "nereden": 4841,
      "##emiyorum": 4842,
      "ameliyat": 4843,
      "##uyoruz": 4844,
      "##OS": 4845,
      "Yoksa": 4846,
      "şimd": 4847,
      "##ebiliyor": 4848,
      "istedik": 4849,
      "biliyoruz": 4850,
      "teor": 4851,
      "##sün": 4852,
      "##ınar": 4853,
      "paket": 4854,
      "##leyerek": 4855,
      "çekti": 4856,
      "Kol": 4857,
      "Mat": 4858,
      "biy": 4859,
      "iyisi": 4860,
      "Arap": 4861,
      "##pe": 4862,
      "##liğinin": 4863,
      "yönetimi": 4864,
      "##ruk": 4865,
      "Mak": 4866,
      "haz": 4867,
      "resim": 4868,
      "biçim": 4869,
      "kadınların": 4870,
      "Sok": 4871,
      "##şi": 4872,
      "Bize": 4873,
      "Dir": 4874,
      "edeceğiz": 4875,
      "##ilendir": 4876,
      "oldukları": 4877,
      "Ju": 4878,
      "esas": 4879,
      "##emen": 4880,
      "Devamını": 4881,
      "bür": 4882,
      "nefes": 4883,
      "görsel": 4884,
      "kafa": 4885,
      "bakın": 4886,
      "ederken": 4887,
      "sorunun": 4888,
      "##IK": 4889,
      "adamın": 4890,
      "Mem": 4891,
      "önümüzdeki": 4892,
      "bı": 4893,
      "şehit": 4894,
      "Kil": 4895,
      "olayı": 4896,
      "korku": 4897,
      "anı": 4898,
      "gözük": 4899,
      "##alıyor": 4900,
      "arkadaşım": 4901,
      "hakkı": 4902,
      "yiyecek": 4903,
      "iptal": 4904,
      "##ülük": 4905,
      "karşılaştır": 4906,
      "söyleyebilir": 4907,
      "dam": 4908,
      "yayınlanan": 4909,
      "kişilerin": 4910,
      "##anacak": 4911,
      "gezeg": 4912,
      "çıkmış": 4913,
      "Ukrayna": 4914,
      "Pazar": 4915,
      "teşekkürler": 4916,
      "##amet": 4917,
      "cümle": 4918,
      "konuşan": 4919,
      "Devamı": 4920,
      "##spor": 4921,
      "vit": 4922,
      "##mos": 4923,
      "niye": 4924,
      "##cıların": 4925,
      "Jack": 4926,
      "olacağı": 4927,
      "avan": 4928,
      "reh": 4929,
      "zev": 4930,
      "Lond": 4931,
      "##elin": 4932,
      "##tanın": 4933,
      "##ekim": 4934,
      "##lerdi": 4935,
      "isters": 4936,
      "gıda": 4937,
      "##anız": 4938,
      "Kurt": 4939,
      "##cil": 4940,
      "##iklet": 4941,
      "Abdul": 4942,
      "aşık": 4943,
      "Hepsi": 4944,
      "Ed": 4945,
      "koruma": 4946,
      "Sarı": 4947,
      "öden": 4948,
      "sessiz": 4949,
      "gurur": 4950,
      "Oysa": 4951,
      "##tıkları": 4952,
      "##muştu": 4953,
      "çocukları": 4954,
      "gösterdi": 4955,
      "zamanlar": 4956,
      "ho": 4957,
      "Birleş": 4958,
      "Gez": 4959,
      "Proj": 4960,
      "ihtiyacım": 4961,
      "Ceza": 4962,
      "Güvenlik": 4963,
      "hikaye": 4964,
      "olmayı": 4965,
      "uzat": 4966,
      "##arlar": 4967,
      "pozisyon": 4968,
      "##MM": 4969,
      "##rom": 4970,
      "birşey": 4971,
      "Dışişleri": 4972,
      "##ph": 4973,
      "başkanı": 4974,
      "aktif": 4975,
      "gür": 4976,
      "tecr": 4977,
      "##ames": 4978,
      "##IL": 4979,
      "Yalnız": 4980,
      "zorun": 4981,
      "Diyar": 4982,
      "##leğ": 4983,
      "##yonel": 4984,
      "uğra": 4985,
      "##insel": 4986,
      "kalın": 4987,
      "depo": 4988,
      "anket": 4989,
      "Babam": 4990,
      "Hüküm": 4991,
      "##isiz": 4992,
      "aşama": 4993,
      "içeren": 4994,
      "##UL": 4995,
      "kaydetti": 4996,
      "çalışması": 4997,
      "Kes": 4998,
      "yapıla": 4999
    }
  }
}