[PAD]
[UNK]
[CLS]
[SEP]
[MASK]
!
"
#
$
%
&
'
(
)
*
+
,
-
.
/
0
1
2
3
4
5
6
7
8
9
:
;
<
=
>
?
@
A
B
C
D
E
F
G
H
I
J
K
L
M
N
O
P
Q
R
S
T
U
V
W
X
Y
Z
[
\
]
^
_
`
a
b
c
d
e
f
g
h
i
j
k
l
m
n
o
p
q
r
s
t
u
v
w
x
y
z
{
|
}
~
¡
¢
£
¤
¥
¦
¨
°
±
²
³
µ
¶
·
¸
¹
»
¼
½
¾
¿
À
Á
Â
Ã
Å
Æ
Ç
È
É
Ê
Ë
Ì
Í
Ï
Ð
Ñ
Ò
Ó
Ô
Õ
Ö
Ø
Ù
Ú
Ü
Ý
Þ
ß
à
á
â
ã
ä
å
æ
ç
è
é
ê
ë
ì
í
î
ð
ñ
ò
ó
ô
õ
ö
÷
ø
ù
ú
û
ü
ý
ÿ
Ā
ā
Ă
ă
Ą
ą
Ć
ć
Ĉ
ĉ
Ċ
ċ
Č
č
Ď
ď
Đ
đ
Ē
ē
Ĕ
ĕ
Ė
ė
Ę
ę
Ě
ě
Ĝ
ĝ
Ğ
ğ
ģ
Ĥ
ĥ
Ħ
ħ
Ĩ
ĩ
Ī
ī
Ĭ
ĭ
Į
į
İ
ı
Ĳ
ĳ
Ĵ
ĵ
Ķ
ķ
ĸ
Ĺ
ĺ
Ļ
ļ
Ľ
ľ
Ŀ
ŀ
Ł
Ń
ń
Ņ
ņ
Ň
ň
ŉ
Ŋ
ŋ
Ō
ō
Ŏ
ŏ
Ő
ő
Œ
Ŕ
ŕ
Ŗ
ŗ
Ř
ř
Ś
ś
Ŝ
ŝ
Ş
ş
Ţ
ţ
Ť
ť
Ŧ
ŧ
Ũ
ũ
Ū
ū
Ŭ
ŭ
Ů
ů
Ű
ű
Ų
ų
Ŵ
ŵ
Ŷ
ŷ
Ÿ
Ź
ź
Ż
ż
Ž
ž
ſ
ƀ
Ɓ
Ƃ
ƃ
Ƅ
ƅ
Ɔ
Ƈ
ƈ
Ɖ
Ɗ
Ƌ
ƌ
ƍ
Ǝ
Ɛ
Ƒ
ƒ
Ɠ
Ɣ
ƕ
Ɩ
Ɨ
Ƙ
ƙ
ƚ
ƛ
Ɯ
Ɲ
ƞ
Ɵ
Ơ
ơ
Ƣ
ƣ
Ƥ
ƥ
Ʀ
Ƨ
ƨ
Ʃ
ƪ
ƫ
Ƭ
ƭ
Ʈ
Ư
ư
Ʊ
Ʋ
Ƴ
ƴ
Ƶ
ƶ
Ʒ
Ƹ
ƹ
ƺ
ƻ
Ƽ
ƽ
ƾ
ƿ
ǀ
ǁ
ǂ
ǃ
Ǆ
ǅ
ǆ
Ǉ
ǈ
ǉ
Ǌ
ǋ
ǌ
Ǎ
ǎ
Ǐ
ǐ
Ǒ
ǒ
Ǔ
ǔ
Ǖ
ǖ
Ǘ
ǘ
Ǚ
ǚ
Ǜ
ǜ
ǝ
Ǟ
ǟ
Ǡ
ǡ
Ǣ
ǣ
Ǥ
ǥ
Ǧ
ǧ
Ǩ
ǩ
Ǫ
ǫ
Ǭ
ǭ
Ǯ
ǯ
ǰ
Ǳ
ǲ
ǳ
Ǵ
ǵ
Ƕ
Ƿ
Ǹ
ǹ
Ǻ
ǻ
Ǽ
ǽ
Ǿ
ǿ
Ȁ
ȁ
Ȃ
ȃ
Ȅ
ȅ
Ȇ
ȇ
Ȉ
ȉ
Ȋ
ȋ
Ȍ
ȍ
Ȏ
ȏ
Ȑ
ȑ
Ȓ
ȓ
Ȕ
ȕ
Ȗ
ȗ
Ș
ș
Ț
ț
Ȝ
ȝ
Ȟ
ȟ
Ƞ
ȡ
Ȣ
ȣ
Ȥ
ȥ
Ȧ
ȧ
Ȩ
ȩ
Ȫ
ȫ
Ȭ
ȭ
Ȯ
ȯ
Ȱ
ȱ
Ȳ
ȳ
ȴ
ȵ
ȶ
ȷ
ȸ
ȹ
Ⱥ
Ȼ
ȼ
Ƚ
Ⱦ
ȿ
ɀ
Ɂ
ɂ
Ƀ
Ʉ
Ʌ
Ɇ
ɇ
Ɉ
ɉ
Ɋ
ɋ
Ɍ
ɍ
Ɏ
ɏ
ɐ
ɑ
ɒ
ɓ
ɔ
ɕ
ɖ
ɗ
ɘ
ə
ɚ
ɛ
ɜ
ɝ
ɞ
ɟ
ɠ
ɡ
ɢ
ɣ
ɤ
ɥ
ɦ
ɧ
ɨ
ɩ
ɪ
ɫ
ɬ
ɭ
ɮ
ɯ
ɰ
ɱ
ɲ
ɳ
ɴ
ɵ
ɶ
ɷ
ɸ
ɹ
ɺ
ɻ
ɼ
ɽ
ɾ
ɿ
ʀ
ʁ
ʂ
ʃ
ʄ
ʅ
ʆ
ʇ
ʈ
ʉ
ʊ
ʋ
ʌ
ʍ
ʎ
ʏ
ʐ
ʑ
ʒ
ʓ
ʔ
ʕ
ʖ
ʗ
ʘ
ʙ
ʚ
ʛ
ʜ
ʝ
ʞ
ʟ
ʠ
ʡ
ʢ
ʣ
ʤ
ʥ
ʦ
ʧ
ʨ
ʩ
ʪ
ʫ
ʬ
ʭ
ʮ
ʯ
ʰ
ʱ
ʲ
ʳ
ʴ
ʵ
ʶ
ʷ
ʸ
ʹ
ʺ
ʼ
ʽ
ʾ
ʿ
ˀ
ˁ
˂
˃
˄
˅
ˆ
ˈ
ˉ
ˊ
ˋ
ˌ
ˍ
ˎ
ˏ
ː
ˑ
˒
˓
˔
˕
˗
˙
˚
˛
˜
˝
˞
˟
ˠ
ˡ
ˢ
ˣ
ˤ
˥
˦
˧
˨
˩
˪
˫
ˬ
˭
ˮ
˯
˰
˱
˲
˳
˴
˵
˷
˸
˹
˺
˻
˼
˽
˾
˿
̀
́
̂
̃
̄
̅
̇
̈
̉
̊
̋
̍
̎
̏
̐
̑
̒
̓
̔
̕
̖
̗
̘
̙
̚
̛
̜
̝
̞
̟
̠
̡
̢
̣
̤
̥
̦
̧
̨
̩
̪
̬
̭
̯
̰
̱
̲
̳
̴
̵
̶
̷
̸
̹
̺
̻
̼
̽
̾
̿
̀
́
͂
̓
̈́
ͅ
͆
͇
͉
͊
͋
͌
͍
͎
͏
͐
͑
͒
͓
͔
͕
͖
͗
͘
͙
͚
͛
͜
͝
͞
͟
͠
͢
ͣ
ͤ
ͥ
ͦ
ͧ
ͨ
ͩ
ͪ
ͫ
ͬ
ͭ
ͮ
ͯ
Ͱ
ͱ
Ͳ
ͳ
ʹ
͵
Ͷ
ͷ
͸
͹
ͺ
ͻ
ͼ
ͽ
;
Ϳ
΀
΁
΂
΃
΄
΅
Ά
·
Έ
Ή
Ί
΋
Ό
΍
Ύ
Ώ
ΐ
Α
Β
Γ
Δ
Ε
Ζ
Η
Θ
Ι
Κ
Λ
Μ
Ν
Ξ
Ο
Π
Ρ
΢
Σ
Τ
Υ
Φ
Χ
Ψ
Ω
Ϊ
Ϋ
ά
έ
ή
ί
ΰ
α
β
γ
δ
ε
ζ
η
θ
ι
κ
λ
μ
ν
ξ
ο
π
ρ
ς
σ
τ
υ
φ
χ
ψ
ϊ
ϋ
ό
ύ
ώ
Ϗ
ϐ
ϑ
ϒ
ϓ
ϔ
ϕ
ϖ
ϗ
Ϙ
ϙ
Ϛ
ϛ
Ϝ
ϝ
Ϟ
ϟ
Ϡ
ϡ
Ϣ
ϣ
Ϥ
ϥ
Ϧ
ϧ
Ϩ
ϩ
Ϫ
ϫ
Ϭ
ϭ
Ϯ
ϯ
ϰ
ϱ
ϲ
ϳ
ϴ
ϵ
϶
Ϸ
ϸ
Ϲ
Ϻ
ϻ
ϼ
Ͻ
Ͼ
Ͽ
Ѐ
Ё
Ђ
Ѓ
Є
Ѕ
І
Ї
Ј
Љ
Њ
Ћ
Ќ
Ѝ
Ў
Џ
Ж
Ф
Ц
Ч
Ш
Щ
Ъ
Ы
Ь
Э
Ю
ъ
ѐ
ђ
ѓ
є
ѕ
ї
ј
љ
њ
ћ
ќ
ѝ
џ
Ѡ
ѡ
Ѣ
ѣ
Ѥ
ѥ
Ѧ
ѧ
Ѩ
ѩ
Ѫ
ѫ
Ѭ
ѭ
Ѯ
ѯ
Ѱ
ѱ
Ѳ
Ѵ
ѵ
Ѷ
ѷ
Ѹ
ѹ
Ѻ
ѻ
Ѽ
ѽ
Ѿ
ѿ
Ҁ
ҁ
҂
҃
҄
҅
҆
҇
҈
҉
Ҋ
ҋ
Ҍ
ҍ
Ҏ
ҏ
Ґ
ґ
Ғ
Ҕ
ҕ
Җ
җ
Ҙ
ҙ
Қ
Ҝ
ҝ
Ҟ
ҟ
Ҡ
ҡ
Ң
ң
Ҥ
ҥ
Ҧ
ҧ
Ҩ
ҩ
Ҫ
ҫ
Ҭ
ҭ
Ү
Ұ
ұ
Ҳ
Ҵ
ҵ
Ҷ
ҷ
Ҹ
ҹ
Һ
һ
Ҽ
ҽ
Ҿ
ҿ
Ӏ
Ӂ
ӂ
Ӄ
ӄ
Ӆ
ӆ
Ӈ
ӈ
Ӊ
ӊ
Ӌ
ӌ
Ӎ
ӎ
ӏ
Ӑ
ӑ
Ӓ
ӓ
Ӕ
ӕ
Ӗ
ӗ
Ә
Ӛ
ӛ
Ӝ
ӝ
Ӟ
ӟ
Ӡ
ӡ
Ӣ
ӣ
Ӥ
ӥ
Ӧ
ӧ
Ө
Ӫ
ӫ
Ӭ
ӭ
Ӯ
ӯ
Ӱ
ӱ
Ӳ
ӳ
Ӵ
ӵ
Ӷ
ӷ
Ӹ
ӹ
Ӻ
ӻ
Ӽ
ӽ
Ӿ
ӿ
Ԁ
ԁ
Ԃ
ԃ
Ԅ
ԅ
Ԇ
ԇ
Ԉ
ԉ
Ԋ
ԋ
Ԍ
ԍ
Ԏ
ԏ
Ԑ
ԑ
Ԓ
ԓ
Ԕ
ԕ
Ԗ
ԗ
Ԙ
ԙ
Ԛ
ԛ
Ԝ
ԝ
Ԟ
ԟ
Ԡ
ԡ
Ԣ
ԣ
Ԥ
ԥ
Ԧ
ԧ
Ԩ
ԩ
Ԫ
Ԭ
ԭ
Ԯ
ԯ
԰
Ա
Բ
Գ
Դ
Ե
Զ
Է
Ը
Թ
Ժ
Ի
Լ
Խ
Ծ
Կ
Հ
Ձ
Ղ
Ճ
Մ
Յ
Ն
Շ
Ո
Չ
Պ
Ջ
Ռ
Ս
Վ
Տ
Ր
Ց
Ւ
Փ
Ք
Օ
Ֆ
՗
՘
ՙ
՚
՛
՜
՝
՞
՟
ՠ
ա
բ
գ
դ
ե
զ
է
ը
թ
ի
լ
խ
ծ
կ
հ
ձ
ղ
ճ
մ
յ
ն
շ
ո
պ
ջ
ռ
ս
վ
տ
ր
ց
ւ
փ
ք
օ
ֆ
և
ֈ
։
֊
֋
֌
֍
֎
֏
֐
֑
֒
֓
֔
֕
֖
֗
֘
֙
֚
֛
֜
֝
֞
֟
֠
֡
֢
֣
֤
֥
֦
֧
֨
֩
֪
֫
֬
֭
֮
֯
ְ
ֱ
ֲ
ֳ
ִ
ֵ
ֶ
ַ
ָ
ֹ
ֺ
ֻ
ּ
ֽ
־
ֿ
׀
ׁ
ׂ
׃
ׄ
ׅ
׆
ׇ
׈
׉
׊
׋
׌
׍
׎
׏
א
ב
ג
ד
ה
ו
ז
ח
ט
י
ך
כ
ל
ם
מ
ן
נ
ס
ע
ף
ץ
צ
ק
ת
׫
׬
׭
׮
ׯ
װ
ױ
ײ
׳
״
׵
׶
׷
׸
׹
׺
׻
׼
׽
׾
׿
؆
؇
؈
؉
؊
؋
؍
؎
؏
ؐ
ؑ
ؒ
ؓ
ؔ
ؕ
ؖ
ؗ
ؘ
ؙ
ؚ
؛
؝
؞
ؠ
ٌ
ٍ
َ
ُ
ِ
ْ
ٓ
ٔ
ٕ
ٖ
ٗ
٘
ٙ
ٚ
ٛ
ٜ
ٝ
ٞ
ٟ
١
٢
٤
٥
٦
٧
٨
٩
٪
٫
٬
٭
ٮ
ٯ
ٰ
ٱ
ٲ
ٳ
ٴ
ٵ
ٶ
ٷ
ٸ
ٹ
ٺ
ٻ
ټ
ٽ
ٿ
ڀ
ځ
ڂ
ڃ
ڄ
څ
ڇ
ڈ
ډ
ڊ
ڋ
ڌ
ڍ
ڎ
ڏ
ڐ
ڑ
ڒ
ړ
ڔ
ڕ
ږ
ڗ
ژ
ڙ
ښ
ڛ
ڜ
ڝ
ڞ
ڟ
ڠ
ڡ
ڢ
ڣ
ڤ
ڥ
ڦ
ڧ
ڨ
ڪ
ګ
ڬ
ڭ
ڮ
ڰ
ڱ
ڲ
ڳ
ڴ
ڵ
ڶ
ڷ
ڸ
ڹ
ں
ڻ
ڼ
ڽ
ھ
ڿ
ۀ
ہ
ۂ
ۃ
ۄ
ۅ
ۆ
ۇ
ۈ
ۉ
ۊ
ۋ
ۍ
ێ
ۏ
ې
ۑ
ے
ۓ
۔
ە
ۖ
ۗ
ۘ
ۙ
ۚ
ۛ
ۜ
۞
۟
۠
ۡ
ۢ
ۣ
ۥ
ۦ
ۧ
ۨ
۩
۪
۫
۬
ۭ
ۮ
ۯ
۱
۲
۳
۴
۵
۶
۷
۸
۹
ۺ
ۻ
ۼ
۽
۾
ۿ
܀
܁
܂
܃
܄
܆
܇
܈
܉
܊
܋
܌
܍
܎
ܐ
ܑ
ܒ
ܓ
ܕ
ܖ
ܗ
ܘ
ܙ
ܚ
ܛ
ܜ
ܝ
ܞ
ܟ
ܠ
ܡ
ܢ
ܣ
ܤ
ܦ
ܧ
ܨ
ܩ
ܪ
ܫ
ܬ
ܭ
ܮ
ܯ
ܰ
ܱ
ܲ
ܳ
ܴ
ܵ
ܶ
ܷ
ܸ
ܹ
ܺ
ܻ
ܼ
ܽ
ܾ
ܿ
݀
݁
݂
݃
݄
݅
݆
݇
݈
݉
݋
݌
ݍ
ݎ
ݏ
ݐ
ݑ
ݒ
ݓ
ݔ
ݕ
ݖ
ݗ
ݘ
ݚ
ݛ
ݜ
ݝ
ݞ
ݟ
ݠ
ݡ
ݢ
ݣ
ݤ
ݥ
ݦ
ݧ
ݨ
ݩ
ݪ
ݫ
ݬ
ݭ
ݮ
ݯ
ݰ
ݱ
ݲ
ݳ
ݴ
ݵ
ݶ
ݷ
ݸ
ݹ
ݺ
ݻ
ݼ
ݽ
ݾ
ݿ
ހ
ށ
ނ
ރ
ބ
ޅ
ކ
އ
ވ
މ
ފ
ދ
ތ
ލ
ގ
ޏ
ސ
ޑ
ޒ
ޓ
ޔ
ޕ
ޖ
ޗ
ޘ
ޙ
ޚ
ޛ
ޜ
ޝ
ޞ
ޟ
ޠ
ޡ
ޢ
ޣ
ާ
ި
ީ
ު
ޫ
ެ
ޭ
ޮ
ޯ
ް
ޱ
޳
޴
޵
޶
޷
޸
޹
޺
޻
޼
޽
޾
޿
߁
߂
߃
߄
߅
߈
߉
ߊ
ߋ
ߍ
ߎ
ߏ
ߐ
ߑ
ߒ
ߓ
ߔ
ߕ
ߖ
ߗ
ߘ
ߙ
ߚ
ߛ
ߜ
ߝ
ߞ
ߟ
ߠ
ߡ
ߢ
ߣ
ߤ
ߥ
ߦ
ߧ
ߨ
ߩ
ߪ
߫
߬
߭
߮
߯
߰
߱
߲
߳
ߴ
ߵ
߶
߷
߸
߹
ߺ
߻
߼
߽
߾
߿
ࠀ
ࠁ
ࠂ
ࠃ
ࠄ
ࠅ
ࠈ
ࠊ
ࠋ
ࠌ
ࠍ
ࠎ
ࠏ
ࠐ
ࠑ
ࠒ
ࠓ
ࠔ
ࠕ
ࠖ
ࠗ
࠘
࠙
ࠚ
ࠛ
ࠜ
ࠝ
ࠞ
ࠟ
ࠠ
ࠡ
ࠢ
ࠣ
ࠤ
ࠥ
ࠦ
ࠧ
ࠨ
ࠩ
ࠪ
ࠫ
ࠬ
࠭
࠮
࠯
࠰
࠱
࠲
࠳
࠴
࠵
࠶
࠷
࠸
࠹
࠺
࠼
࠽
࠾
࠿
ࡀ
ࡁ
ࡂ
ࡃ
ࡄ
ࡅ
ࡆ
ࡇ
ࡈ
ࡉ
ࡊ
ࡋ
ࡌ
ࡍ
ࡎ
ࡏ
ࡐ
ࡑ
ࡒ
ࡓ
ࡔ
ࡕ
ࡖ
ࡗ
ࡘ
࡙
࡚
࡛
࡜
࡝
࡞
࡟
ࡠ
ࡡ
ࡢ
ࡣ
ࡤ
ࡥ
ࡦ
ࡧ
ࡨ
ࡩ
ࡪ
࡬
࡭
࡮
࡯
ࡰ
ࡱ
ࡲ
ࡳ
ࡴ
ࡵ
ࡶ
ࡷ
ࡸ
ࡹ
ࡺ
ࡻ
ࡼ
ࡽ
ࡾ
ࡿ
ࢀ
ࢁ
ࢃ
ࢄ
ࢅ
ࢆ
ࢇ
࢈
ࢉ
ࢊ
ࢋ
ࢌ
ࢍ
ࢎ
࢏
࢐
࢑
࢒
࢓
࢔
࢕
࢖
ࢗ
࢘
࢙
࢚
࢛
࢜
࢝
࢞
࢟
ࢠ
ࢡ
ࢢ
ࢣ
ࢤ
ࢦ
ࢧ
ࢨ
ࢩ
ࢪ
ࢫ
ࢬ
ࢭ
ࢮ
ࢯ
ࢵ
ࢷ
ࢸ
ࢹ
ࢻ
ࢼ
ࢽ
ࢾ
ࢿ
ࣀ
ࣁ
ࣂ
ࣃ
ࣄ
ࣅ
ࣆ
ࣇ
ࣈ
ࣉ
࣋
࣌
࣍
࣎
࣏
࣐
࣒
࣓
ࣔ
ࣕ
ࣖ
ࣗ
ࣘ
ࣙ
ࣚ
ࣛ
ࣜ
ࣝ
ࣞ
ࣟ
࣠
࣡
࣢
ࣣ
ࣤ
ࣥ
ࣦ
ࣧ
ࣩ
࣪
࣫
࣬
࣭
࣮
࣯
ࣰ
ࣱ
ࣳ
ࣴ
ࣵ
ࣶ
ࣷ
ࣸ
ࣹ
ࣺ
ࣻ
ࣼ
ࣽ
ࣾ
ࣿ
ऀ
ँ
ं
ः
ऄ
अ
आ
इ
ई
उ
ऊ
ऋ
ऌ
ऍ
ऎ
ए
ऐ
ऑ
ऒ
ओ
औ
क
ख
ग
घ
ङ
च
छ
ज
झ
ञ
ट
ठ
ड
ढ
ण
त
थ
द
ध
न
ऩ
प
फ
ब
भ
म
य
र
ऱ
ल
ळ
ऴ
व
श
ष
स
ह
ऺ
ऻ
़
ऽ
ा
ि
ु
ृ
ॄ
ॅ
ॆ
े
ै
ॉ
ॊ
ो
ौ
्
ॎ
ॏ
॑
॒
॓
॔
ॕ
ॖ
ॗ
क़
ख़
ग़
ज़
ड़
ढ़
फ़
य़
ॠ
ॡ
ॢ
ॣ
।
॥
०
१
२
४
५
६
८
९
॰
ॱ
ॲ
ॳ
ॵ
ॶ
ॷ
ॸ
ॹ
ॺ
ॻ
ॼ
ॽ
ॾ
ॿ
ঀ
ঁ
ং
ঃ
঄
অ
আ
ই
ঈ
উ
ঊ
ঋ
ঌ
঍
঎
এ
ঐ
঑
঒
ও
ঔ
ক
খ
গ
ঘ
চ
ছ
জ
ঝ
ঞ
ট
ঠ
ঢ
ণ
ত
থ
দ
ধ
ন
঩
প
ফ
ব
ভ
ম
য
র
঱
঳
঴
শ
ষ
হ
঻
়
ঽ
া
ি
ী
ু
ৃ
ে
ৈ
ো
্
৏
৑
৒
৓
৔
৕
৖
ৗ
৘
৙
৚
৛
ড়
৞
য়
ৠ
ৢ
ৣ
৤
৥
০
১
২
৩
৪
৫
৬
৭
৮
৯
ৰ
ৱ
৲
৳
৴
৵
৶
৷
৸
৹
৺
৻
ৼ
৽
৾
৿
਀
ਁ
ਂ
਄
ਅ
ਆ
ਇ
ਊ
਌
਑
਒
ਕ
ਘ
ਙ
ਜ
ਝ
ਟ
ਠ
ਡ
ਤ
ਥ
ਧ
਩
ਪ
ਫ
ਯ
ਰ
ਲ
ਸ਼
ਸ
ਹ
਻
਼
ਾ
ੀ
ੁ
ੂ
੃
੄
੅
੆
ੇ
ੈ
੉
੊
ੌ
੎
੏
੐
੒
੓
੔
੕
੖
੗
੘
ਖ਼
ਗ਼
ਜ਼
ੜ
ਫ਼
੟
੠
੡
੢
੣
੤
੥
੧
੨
੩
੪
੫
੬
੭
੮
੯
ੰ
ੱ
ੲ
ੳ
ੴ
ੵ
੶
੷
੸
੹
੺
੻
੼
੽
੾
੿
઀
ઁ
ં
ઃ
઄
આ
ઇ
ઈ
ઉ
ઊ
ઋ
ઌ
ઍ
એ
ઑ
ઔ
ખ
ગ
ઘ
ઙ
ચ
જ
ઞ
ટ
ડ
ઢ
ણ
ત
થ
દ
ધ
ન
ભ
઱
ળ
હ
઺
ઽ
ુ
ૃ
ૄ
ૅ
૆
૊
ો
ૌ
૏
ૐ
૑
૒
૓
૔
૕
૖
૗
૘
૙
૚
૛
૜
૝
૞
૟
ૠ
ૡ
ૢ
ૣ
૤
૥
૧
૩
૪
૫
૬
૯
૰
૱
૲
૳
૴
૵
૶
૷
૸
ૹ
ૺ
ૻ
ૼ
૽
૾
૿
଀
ଁ
ଂ
ଃ
଄
ଅ
ଆ
ଇ
ଈ
ଊ
ଋ
ଌ
଍
଎
଑
଒
ଔ
କ
ଖ
ଗ
ଜ
ଞ
ଠ
ଡ
ଣ
ଥ
ଦ
ଧ
ନ
ପ
ଫ
ର
଱
ଵ
ଶ
ହ
ା
ୂ
୆
େ
ୈ
୉
୊
ୋ
ୌ
୍
୎
୏
୑
ୗ
୘
ୠ
୤
୥
୬
୭
୮
ୱ
୳
୷
୸
୹
୺
୻
୼
୽
୾
୿
஀
஁
ஂ
ஃ
஄
அ
ஆ
இ
ஈ
உ
ஊ
஋
஌
஍
எ
ஏ
஑
ஒ
ஓ
ஔ
஖
஘
ங
ச
஛
ஜ
஝
ஞ
ட
஠
஡
஢
ண
த
஥
஦
஧
ந
ன
ப
஫
஬
஭
ம
ய
ர
ற
ல
ழ
வ
ஶ
ஸ
ஹ
஺
஻
஼
஽
ா
ி
ீ
ு
ூ
௃
௄
௅
ெ
ே
ை
௉
ொ
ோ
்
௎
௏
ௐ
௒
௓
௕
௖
௝
௞
௟
௡
௢
௣
௤
௥
௦
௧
௨
௩
௪
௫
௭
௮
௯
௰
௱
௵
௶
௷
௸
௹
௺
௻
௼
௽
௾
௿
ఀ
ఁ
ం
ః
ఄ
అ
ఆ
ఇ
ఈ
ఉ
ఊ
ఋ
ఌ
఍
ఎ
ఏ
ఐ
఑
ఒ
ఓ
ఔ
క
ఖ
గ
ఙ
చ
ఛ
జ
ఝ
ఞ
ట
ఠ
డ
ఢ
ణ
ద
ధ
న
఩
ప
బ
భ
మ
య
ర
ఱ
ల
ళ
ఴ
వ
శ
ష
స
హ
఺
఻
఼
ఽ
ా
ీ
ు
ూ
ృ
ౄ
౅
ె
ే
ై
౉
ొ
ో
ౌ
్
౎
౏
౐
౑
౒
౓
౔
ౕ
ౘ
ౙ
ౚ
౛
౜
ౝ
౞
ౠ
ౡ
ౢ
ౣ
౤
౥
౧
౨
౩
౪
౫
౬
౭
౮
౯
౰
౲
౳
౴
౵
౶
౸
౹
౺
౻
౼
౽
౾
౿
ಀ
ಁ
ಂ
ಃ
಄
ಅ
ಆ
ಇ
ಈ
ಉ
ಋ
ಌ
಍
ಎ
ಐ
಑
ಒ
ಓ
ಔ
ಕ
ಖ
ಗ
ಘ
ಙ
ಚ
ಛ
ಜ
ಝ
ಞ
ಟ
ಡ
ಢ
ಣ
ನ
ಫ
ಬ
ಮ
ಯ
ರ
ಱ
ಲ
ಳ
಴
ವ
ಶ
ಸ
ಹ
಺
಻
ು
ೂ
ೃ
ೄ
೅
ೇ
ೈ
ೋ
್
೎
೏
೑
೒
೓
ೕ
ೖ
೗
೘
೜
ೝ
೟
ೠ
ೡ
ೢ
೧
೩
೪
೫
೬
೯
೰
ೱ
ೲ
೴
೵
೶
೷
೸
೹
೺
೻
೼
೽
೾
೿
ഀ
ഁ
ം
ഃ
ഄ
അ
ആ
ഇ
ഈ
ഊ
ഋ
ഌ
഍
എ
ഏ
ഐ
഑
ഒ
ഔ
ക
ഖ
ഗ
ഘ
ങ
ജ
ഝ
ഡ
ഢ
ണ
ധ
പ
ബ
മ
ര
റ
ഴ
വ
ശ
ഷ
സ
ഹ
ഺ
഻
഼
ഽ
ാ
ി
ീ
ു
ൂ
ൃ
ൄ
ൈ
ൊ
ോ
ൌ
്
ൎ
൏
൐
൑
൒
൓
ൔ
ൖ
ൗ
൚
൛
൝
ൢ
ൣ
൤
൥
൦
൧
൨
൩
൫
൬
൱
൴
൵
൷
൸
൹
ൻ
ർ
ൿ
ං
ආ
ඈ
ඌ
ඒ
ඔ
඗
඘
඙
ක
ඝ
ඟ
ච
ඡ
ජ
ඣ
ඥ
ඦ
ට
ඨ
ඩ
ඪ
ණ
ඬ
ත
ථ
ද
ධ
න
඲
ඳ
ප
ඵ
බ
ඹ
඿
ව
ශ
ෂ
හ
෉
්
෌
෍
ැ
ී
෕
ූ
ෙ
ේ
ෛ
ො
ෝ
ෞ
ෟ
෠
෥
෦
෨
෩
෪
෫
෬
෭
෮
෯
෰
෱
ෲ
ෳ
෴
෵
෶
෷
෸
෹
෼
෽
෾
෿
฀
ก
ข
ฃ
ค
ฆ
ง
จ
ฉ
ช
ซ
ฌ
ญ
ฑ
ณ
ต
ถ
ท
ธ
บ
ผ
ฟ
ม
ย
ล
ฦ
ว
ศ
ษ
ส
ห
ฬ
อ
ฮ
ฯ
ะ
ำ
ิ
ี
ื
ุ
฻
฾
เ
ใ
็
้
๎
๏
๐
๔
๖
๗
๘
๚
๛
๜
๝
๠
๢
๣
๤
๥
๦
๧
๨
๩
๪
๫
๬
๭
๯
๰
๱
๲
๳
๶
๷
๸
๹
๺
๻
๼
๽
๾
๿
຀
຃
ຄ
຅
ຆ
ງ
ຈ
ຊ
຋
ຌ
ຍ
ຏ
ຐ
ຑ
ຒ
ຓ
ດ
ຘ
ນ
ບ
ປ
ຜ
ຝ
ພ
ຟ
ຠ
ຢ
຤
ລ
຦
ວ
ຨ
ຩ
ສ
ຫ
ຬ
ະ
ັ
ີ
ູ
຺
ຽ
຾
ເ
ໂ
໅
໊
໋
໌
໎
໒
໖
໗
໙
໚
ໝ
ໞ
ໟ
໠
໡
໢
໣
໤
໨
໩
໭
໮
໰
໱
໲
໳
໴
໶
໷
໹
໺
໼
༁
༂
༄
༅
༇
༈
༉
༏
༕
༖
༗
༘
༙
༛
༜
༞
༟
༠
༡
༢
༣
༤
༥
༦
༧
༬
༭
༮
༯
༰
༱
༲
༳
༴
༵
༶
༷
༸
༺
༼
༽
༾
༿
ཁ
ཉ
ཏ
ད
ན
པ
ཕ
བ
མ
ཙ
ཛ
ཞ
ཟ
ས
ཨ
ཪ
ཬ
཭
཮
཯
ཱ
ི
ྲྀ
ཷ
ཹ
ེ
ོ
ཽ
ཾ
ྀ
ཱྀ
ྂ
ྃ
྄
྆
྇
ྈ
ྋ
ྌ
ྍ
ྎ
ྑ
ྒ
ྕ
ྖ
ྗ
྘
ྙ
ྚ
ྛ
ྜྷ
ྞ
ྟ
ྠ
ྡ
ྡྷ
ྣ
ྤ
ྥ
ྦ
ྨ
ྩ
ྪ
ྫ
ྫྷ
ྭ
ྮ
ྯ
ྱ
ྲ
ླ
ྴ
ྵ
ྶ
ྷ
ྸ
ྐྵ
ྺ
ྻ
྽
྿
࿁
࿂
࿃
࿅
࿇
࿈
࿋
࿍
࿎
࿏
࿐
࿑
࿔
࿖
࿗
࿙
࿚
࿛
࿝
࿞
࿟
࿠
࿡
࿢
࿣
࿤
࿦
࿨
࿩
࿪
࿫
࿬
࿭
࿮
࿯
࿰
࿱
࿲
࿳
࿴
࿵
࿸
࿹
࿺
࿻
࿼
࿽
࿾
࿿
က
ခ
ဃ
င
ဇ
ဈ
ည
ဋ
ဌ
ဍ
ဎ
ဏ
တ
ထ
ဒ
ဓ
န
ပ
ဖ
ဗ
ဘ
မ
ယ
ရ
ဝ
သ
ဟ
ဠ
အ
ဢ
ဣ
ဤ
ဥ
ဦ
ဧ
ဨ
ဩ
ဪ
ါ
ိ
ီ
ု
ူ
ေ
ဲ
ဳ
ဴ
ဵ
ံ
့
း
္
ျ
ြ
ွ
ှ
ဿ
၀
၁
၂
၃
၄
၅
၆
၇
၈
၉
၊
၌
၍
၎
၏
ၐ
ၑ
ၒ
ၓ
ၔ
ၕ
ၖ
ၗ
ၙ
ၛ
ၜ
ၝ
ၞ
ၟ
ၠ
ၡ
ၢ
ၣ
ၤ
ၥ
ၦ
ၨ
ၩ
ၪ
ၫ
ၬ
ၮ
ၯ
ၰ
ၱ
ၲ
ၳ
ၴ
ၵ
ၶ
ၷ
ၸ
ၹ
ၻ
ၼ
ၽ
ၾ
ၿ
ႀ
ႁ
ႂ
ႃ
ႄ
ႅ
ႆ
ႈ
ႉ
ႊ
ႋ
ႎ
႑
႒
႓
႕
႖
႗
႙
ႚ
ႛ
ႜ
႞
Ⴀ
Ⴂ
Ⴃ
Ⴄ
Ⴇ
Ⴊ
Ⴋ
Ⴍ
Ⴑ
Ⴒ
Ⴓ
Ⴔ
Ⴕ
Ⴗ
Ⴘ
Ⴙ
Ⴚ
Ⴛ
Ⴜ
Ⴝ
Ⴟ
Ⴠ
Ⴡ
Ⴢ
Ⴣ
Ⴤ
Ⴥ
჆
Ⴧ
჈
჊
჋
჌
჏
ჳ
ჸ
჻
ჼ
ሀ
ሁ
ሂ
ሃ
ሄ
ላ
ሌ
ሎ
ሑ
ሔ
ሕ
ሖ
ሗ
ማ
ሜ
ሠ
ሡ
ሥ
ሪ
ራ
ሬ
ር
ሮ
ሯ
ሱ
ሲ
ሳ
ሴ
ሶ
ሷ
ሸ
ሹ
ሺ
ሼ
ሽ
ቀ
ቂ
ቃ
ቄ
ቅ
ቆ
ቈ
቉
ቊ
ቋ
ቌ
ቍ
቎
቏
ቐ
ቒ
ቓ
ቔ
ቕ
ቖ
ቘ
቙
ቚ
ቜ
቟
በ
ቡ
ቢ
ቤ
ብ
ቦ
ቧ
ቨ
ቩ
ቪ
ቫ
ቭ
ቮ
ቯ
ተ
ቱ
ቲ
ታ
ቴ
ት
ቶ
ቷ
ቸ
ቹ
ቺ
ቻ
ቼ
ች
ቾ
ቿ
ኀ
ኁ
ኂ
ኃ
ኄ
ኅ
ኇ
ኈ
኉
ኊ
ኋ
ኌ
ኍ
኎
኏
ነ
ኑ
ኒ
ና
ኔ
ን
ኗ
ኘ
ኙ
ኚ
ኛ
ኜ
ኞ
ኟ
አ
ኡ
ኢ
ኣ
ኤ
እ
ኦ
ኧ
ከ
ኩ
ካ
ኬ
ክ
ኮ
ኯ
ኰ
኱
ኳ
ኴ
ኵ
኶
኷
ኺ
ኻ
ኼ
ኽ
ኾ
኿
ዀ
ዄ
዆
ወ
ዊ
ዋ
ዌ
዗
ዘ
ዙ
ዚ
ዠ
ዩ
ዪ
ያ
ዬ
ይ
ዮ
ዯ
ደ
ዱ
ዲ
ዳ
ዴ
ድ
ዷ
ዸ
ዺ
ዻ
ዼ
ዾ
ዿ
ጀ
ጁ
ጂ
ጃ
ጄ
ጆ
ጉ
ጊ
ጋ
ጌ
ግ
ጏ
ጕ
጖
጗
ጘ
ጙ
ጚ
ጛ
ጜ
ጝ
ጞ
ጟ
ጠ
ጢ
ጤ
ጥ
ጦ
ጧ
ጩ
ጪ
ጬ
ጭ
ጮ
ጯ
ጰ
ጱ
ጳ
ጴ
ጶ
ጷ
ጸ
ጹ
ጻ
ጼ
ጽ
ጾ
ጿ
ፀ
ፁ
ፂ
ፃ
ፄ
ፈ
ፉ
ፊ
ፍ
ፔ
ፘ
ፙ
፥
፫
፮
፰
፵
፼
፽
፾
፿
ᎂ
ᎃ
ᎄ
ᎆ
ᎈ
᎑
᎓
᎕
᎖
᎗
᎙
᎛
᎜
᎝
᎞
᎟
Ꭰ
Ꭱ
Ꭲ
Ꭴ
Ꭵ
Ꭶ
Ꭸ
Ꭹ
Ꭺ
Ꭻ
Ꭼ
Ꭽ
Ꭾ
Ꭿ
Ꮀ
Ꮁ
Ꮂ
Ꮃ
Ꮄ
Ꮆ
Ꮈ
Ꮉ
Ꮊ
Ꮋ
Ꮌ
Ꮍ
Ꮎ
Ꮏ
Ꮐ
Ꮒ
Ꮓ
Ꮔ
Ꮖ
Ꮗ
Ꮘ
Ꮚ
Ꮛ
Ꮜ
Ꮝ
Ꮞ
Ꮠ
Ꮡ
Ꮤ
Ꮥ
Ꮩ
Ꮫ
Ꮬ
Ꮰ
Ꮲ
Ꮳ
Ꮴ
Ꮵ
Ꮶ
Ꮷ
Ꮺ
Ꮽ
Ᏽ
᏷
ᏻ
ᏼ
᏿
ᐂ
ᐈ
ᐊ
ᐍ
ᐏ
ᐐ
ᐑ
ᐒ
ᐕ
ᐖ
ᐙ
ᐛ
ᐜ
ᐣ
ᐥ
ᐧ
ᐪ
ᐭ
ᐮ
ᐰ
ᐱ
ᐳ
ᐴ
ᐵ
ᐶ
ᐷ
ᐻ
ᐽ
ᐾ
ᐿ
ᑀ
ᑄ
ᑈ
ᑋ
ᑑ
ᑔ
ᑕ
ᑖ
ᑗ
ᑘ
ᑙ
ᑚ
ᑛ
ᑝ
ᑟ
ᑠ
ᑢ
ᑣ
ᑥ
ᑦ
ᑧ
ᑨ
ᑩ
ᑫ
ᑱ
ᑺ
ᑼ
ᑿ
ᒆ
ᒍ
ᒎ
ᒏ
ᒑ
ᒒ
ᒗ
ᒛ
ᒟ
ᒨ
ᒩ
ᒪ
ᒮ
ᒯ
ᒰ
ᒱ
ᒳ
ᒴ
ᒶ
ᒷ
ᒸ
ᒹ
ᒻ
ᒼ
ᒽ
ᒾ
ᓁ
ᓄ
ᓆ
ᓈ
ᓉ
ᓊ
ᓎ
ᓏ
ᓒ
ᓓ
ᓔ
ᓕ
ᓗ
ᓘ
ᓙ
ᓛ
ᓜ
ᓝ
ᓡ
ᓢ
ᓣ
ᓤ
ᓦ
ᓪ
ᓭ
ᓮ
ᓯ
ᓰ
ᓳ
ᓴ
ᓵ
ᓶ
ᓸ
ᓹ
ᓺ
ᓼ
ᓿ
ᔀ
ᔁ
ᔂ
ᔃ
ᔄ
ᔅ
ᔆ
ᔉ
ᔊ
ᔋ
ᔌ
ᔎ
ᔐ
ᔑ
ᔔ
ᔕ
ᔖ
ᔗ
ᔚ
ᔟ
ᔠ
ᔣ
ᔤ
ᔥ
ᔦ
ᔧ
ᔪ
ᔬ
ᔭ
ᔯ
ᔰ
ᔱ
ᔳ
ᔴ
ᔵ
ᔶ
ᔷ
ᔸ
ᔺ
ᔻ
ᔽ
ᔾ
ᕀ
ᕁ
ᕃ
ᕅ
ᕆ
ᕈ
ᕉ
ᕊ
ᕋ
ᕍ
ᕎ
ᕐ
ᕓ
ᕔ
ᕖ
ᕘ
ᕞ
ᕟ
ᕠ
ᕡ
ᕢ
ᕤ
ᕥ
ᕦ
ᕧ
ᕨ
ᕪ
ᕫ
ᕬ
ᕮ
ᕯ
ᕱ
ᕲ
ᕷ
ᕸ
ᕻ
ᕼ
ᕽ
ᖁ
ᖂ
ᖆ
ᖈ
ᖊ
ᖌ
ᖍ
ᖎ
ᖏ
ᖒ
ᖓ
ᖔ
ᖗ
ᖘ
ᖠ
ᖡ
ᖦ
ᖧ
ᖨ
ᖩ
ᖪ
ᖫ
ᖬ
ᖮ
ᖱ
ᖴ
ᖵ
ᖺ
ᖽ
ᗀ
ᗁ
ᗂ
ᗌ
ᗍ
ᗎ
ᗏ
ᗒ
ᗓ
ᗙ
ᗚ
ᗝ
ᗞ
ᗠ
ᗡ
ᗢ
ᗣ
ᗪ
ᗮ
ᗯ
ᗱ
ᗲ
ᗵ
ᗸ
ᗹ
ᗼ
ᗾ
ᗿ
ᘀ
ᘁ
ᘃ
ᘄ
ᘇ
ᘈ
ᘉ
ᘊ
ᘌ
ᘍ
ᘎ
ᘑ
ᘒ
ᘓ
ᘚ
ᘜ
ᘝ
ᘟ
ᘥ
ᘦ
ᘧ
ᘪ
ᘫ
ᘬ
ᘭ
ᘮ
ᘱ
ᘴ
ᘵ
ᘶ
ᘻ
ᘼ
ᘽ
ᘾ
ᘿ
ᙀ
ᙁ
ᙄ
ᙆ
ᙇ
ᙈ
ᙌ
ᙎ
ᙐ
ᙓ
ᙔ
ᙕ
ᙖ
ᙗ
ᙜ
ᙢ
ᙧ
ᙨ
ᙩ
᙭
ᙰ
ᙱ
ᙲ
ᙳ
ᙵ
ᙷ
ᙹ
ᙺ
ᙻ
ᙼ
ᙾ
ᚃ
ᚄ
ᚉ
ᚌ
ᚑ
ᚒ
ᚓ
ᚕ
ᚖ
ᚗ
ᚙ
᚞
᚟
ᚡ
ᚣ
ᚧ
ᚨ
ᚩ
ᚫ
ᚭ
ᚮ
ᚰ
ᚱ
ᚲ
ᚳ
ᚴ
ᚶ
ᚷ
ᚸ
ᚹ
ᚻ
ᚼ
ᚽ
ᚾ
ᚿ
ᛀ
ᛁ
ᛃ
ᛄ
ᛆ
ᛇ
ᛈ
ᛉ
ᛊ
ᛋ
ᛌ
ᛎ
ᛏ
ᛐ
ᛑ
ᛒ
ᛓ
ᛔ
ᛕ
ᛖ
ᛗ
ᛘ
ᛙ
ᛚ
ᛝ
ᛞ
ᛠ
ᛣ
ᛤ
ᛥ
ᛦ
ᛨ
ᛩ
᛫
᛬
᛭
ᛮ
ᛯ
ᛲ
ᛳ
ᛴ
ᛵ
ᛶ
ᛷ
ᛸ
᛺
᛾
᛿
ᜀ
ᜂ
ᜃ
ᜄ
ᜅ
ᜇ
ᜉ
ᜋ
ᜐ
ᜑ
ᜒ
ᜓ
᜔
᜕
᜖
᜗
᜙
᜝
᜞
ᜡ
ᜣ
ᜪ
ᜬ
ᜲ
᜸
᜹
᜻
᜿
ᝀ
ᝂ
ᝅ
ᝆ
ᝇ
ᝉ
ᝊ
ᝍ
ᝏ
ᝑ
ᝒ
ᝓ
᝔
᝕
᝗
᝘
᝚
ᝤ
ᝥ
ᝦ
ᝩ
ᝮ
᝼
᝽
᝾
᝿
ឃ
ឆ
ញ
ឋ
ណ
ត
ន
ម
ឝ
ឞ
ហ
ឮ
ឯ
ឲ
ឳ
឴
ា
ឹ
ឺ
ែ
ៃ
ោ
ៅ
ំ
ះ
ៈ
៉
៊
់
៌
៍
៏
័
៑
្
។
៕
៖
ៗ
៘
៚
ៜ
៞
៟
០
១
៣
៥
៦
៩
៪
៫
៭
៰
៹
៺
᠀
᠁
᠂
᠃
᠄
᠅
᠇
᠈
᠉
᠊
᠋
᠌
᠒
᠓
᠖
᠗
᠘
᠚
᠛
᠜
᠝
᠞
᠟
ᠠ
ᠡ
ᠢ
ᠣ
ᠤ
ᠥ
ᠦ
ᠨ
ᠩ
ᠫ
ᠬ
ᠭ
ᠮ
ᠱ
ᠲ
ᠳ
ᡀ
ᡁ
ᡂ
ᡃ
ᡄ
ᡅ
ᡆ
ᡉ
ᡋ
ᡌ
ᡍ
ᡎ
ᡏ
ᡐ
ᡒ
ᡓ
ᡔ
ᡛ
ᡢ
ᡫ
ᡭ
ᡱ
ᡴ
ᢂ
ᢃ
ᢄ
ᢅ
ᢉ
ᢔ
ᢖ
ᢘ
ᢙ
ᢠ
ᢡ
ᢢ
ᢣ
ᢤ
ᢥ
ᢦ
ᢧ
ᢨ
᢫
᢬
᢭
᢯
ᢰ
ᢲ
ᢳ
ᢵ
ᢶ
ᢺ
ᢻ
ᢼ
ᢾ
ᣀ
ᣁ
ᣃ
ᣅ
ᣆ
ᣉ
ᣊ
ᣎ
ᣐ
ᣓ
ᣔ
ᣕ
ᣖ
ᣗ
ᣙ
ᣚ
ᣜ
ᣝ
ᣞ
ᣟ
ᣡ
ᣢ
ᣦ
ᣧ
ᣳ
᣽
ᤁ
ᤃ
ᤆ
ᤓ
ᤖ
ᤗ
ᤜ
ᤝ
ᤞ
ᤦ
ᤧ
ᤪ
ᤳ
᥀
᥁
ᥓ
ᥛ
ᥨ
ᥩ
ᥭ
᥵
ᦃ
ᦄ
ᦋ
ᦍ
ᦎ
ᦐ
ᦒ
ᦴ
ᦵ
᧑
᧔
᧕
᧖
᧘
᧙
᧚
᧛
᧜
᧞
᧟
᧥
᧩
᧪
᧫
᧬
᧭
᧮
᧯
᧰
᧲
᧳
᧶
᧷
᧸
᧹
᧺
᧻
ᨋ
ᨠ
ᨡ
ᨼ
᪖
᪗
᪘
᪙
᪞
᪟
᪠
᪡
᪦
᪨
᪮
᪻
᪽
ᪿ
᫂
᫃
ᫍ
᫏
᫐
᫑
᫓
᫖
᫘
᫙
ᬀ
ᬄ
ᬇ
ᭇ
ᭈ
ᭉ
ᭊ
ᭌ
᭍
᭎
᭏
᭐
᭑
᭒
᭕
᭘
᭚
᭝
᭞
᭠
᭣
᭤
᭥
᭦
᭧
᭨
᭩
᭪
᭫
᭬
᭭
᭮
᭯
᭰
᭱
᭲
᭳
᭴
᭵
᭶
᭷
᭸
᭺
ᮭ
ᮮ
ᮯ
᮲
᮳
᮴
᮵
᮶
᮷
᮹
ᮺ
ᮻ
ᮼ
ᮽ
ᮾ
ᮿ
ᯆ
ᯇ
ᯉ
ᯍ
ᯒ
ᯓ
ᯔ
ᯕ
ᯖ
ᯗ
ᯘ
ᯙ
ᯚ
ᯛ
ᯞ
ᯟ
ᯠ
ᯥ
ᯧ
ᯨ
ᯩ
ᯪ
ᯫ
ᯬ
ᯭ
ᯮ
ᯯ
ᯰ
ᯱ
᯲
᯳
᯴
᯵
᯶
᯷
᯸
᯹
᯺
᯽
᯾
᯿
ᰀ
ᰁ
ᰂ
ᰃ
ᰅ
ᰇ
ᰈ
ᰉ
ᰊ
ᰋ
ᰌ
ᰍ
ᰎ
ᰏ
ᰐ
ᰑ
ᰒ
ᰓ
ᰕ
ᰖ
ᰘ
ᰙ
ᰚ
ᰟ
ᰡ
ᰢ
ᰣ
ᰤ
ᰥ
ᰦ
ᰧ
ᰨ
ᰩ
ᰪ
ᰶ
᰸
᱅
᱈
᱉
᱑
᱗
ᱢ
ᱨ
ᱩ
ᱪ
ᱰ
ᱹ
ᱻ
᱿
ᲄ
ᲈ
᲋
Გ
Რ
Ტ
Ც
Ჭ
Ხ
Ჷ
Ჹ
Ჿ
᳀
᳁
᳃
᳆
᳇
᳈
᳉
᳊
᳋
᳏
᳑
᳒
᳓
᳔
᳖
᳘
᳙
᳚
᳛
᳠
ᳪ
ᳫ
ᳲ
ᳳ
᳴
᳸
᳹
᳻
᳼
᳽
᳾
ᴂ
ᴈ
ᴌ
ᴔ
ᴖ
ᴡ
ᴪ
ᴮ
ᴶ
ᴻ
ᵅ
ᵋ
ᵎ
ᵏ
ᵗ
ᵛ
ᵝ
ᵡ
ᵣ
ᵨ
ᵩ
ᵬ
ᵳ
ᵵ
ᵹ
ᵻ
ᵼ
ᵽ
ᵾ
ᵿ
ᶀ
ᶂ
ᶃ
ᶄ
ᶅ
ᶆ
ᶈ
ᶉ
ᶊ
ᶋ
ᶌ
ᶍ
ᶎ
ᶏ
ᶐ
ᶒ
ᶔ
ᶕ
ᶖ
ᶗ
ᶘ
ᶙ
ᶚ
ᶛ
ᶜ
ᶞ
ᶟ
ᶠ
ᶣ
ᶭ
ᶮ
ᶯ
ᶳ
ᶵ
ᶷ
ᶺ
ᶻ
ᶼ
ᶾ
᷁
᷂
᷃
᷄
᷅
᷉
᷋
᷍
ᷗ
ᷚ
ᷜ
ᷧ
ᷩ
ᷫ
ᷬ
ᷯ
ᷰ
᷷
᷸
᷺
᷻
᷾
Ḁ
ḃ
Ḅ
ḅ
ḉ
ḋ
Ḍ
Ḏ
ḏ
ḓ
Ḕ
ḕ
ḙ
Ḛ
ḛ
ḝ
Ḡ
Ḣ
Ḥ
ḥ
Ḧ
ḫ
Ḭ
ḭ
ḯ
Ḱ
ḱ
Ḳ
ḳ
Ḵ
ḵ
Ḷ
Ḹ
ḹ
Ḻ
ḽ
Ḿ
ḿ
Ṁ
ṁ
ṃ
Ṅ
ṇ
ṋ
ṍ
Ṏ
ṏ
Ṑ
ṑ
Ṓ
ṓ
Ṙ
ṙ
ṛ
Ṝ
Ṟ
ṟ
Ṡ
ṡ
Ṫ
ṫ
Ṭ
Ṱ
ṱ
Ṵ
Ṹ
ṹ
ṿ
Ẁ
ẁ
Ẃ
ẃ
Ẅ
ẅ
ẉ
Ẋ
ẋ
ẏ
Ẑ
Ẓ
ẓ
Ẕ
ẕ
ẗ
ẘ
ẚ
ẛ
ẝ
ẞ
ẟ
Ạ
ạ
Ả
ả
Ầ
Ẩ
ẩ
Ẫ
ậ
Ằ
Ẳ
ẳ
Ặ
ặ
Ẹ
ẻ
Ẽ
ẽ
ế
Ề
ễ
Ệ
ệ
Ỉ
ỉ
Ồ
ồ
ỗ
Ớ
ở
Ợ
ợ
Ụ
ứ
ừ
ử
Ữ
Ự
ự
ỳ
Ỵ
ỵ
Ỷ
Ỹ
Ỻ
ỻ
ỽ
ἀ
ἃ
ἅ
ἆ
Ἀ
Ἅ
Ἆ
ἐ
ἑ
ἒ
ἓ
ἔ
἗
Ἐ
Ἑ
Ἒ
἟
ἡ
ἢ
ἣ
ἤ
ἧ
Ἢ
Ἤ
Ἦ
Ἧ
ἲ
ἳ
ἴ
ἶ
Ἱ
Ἳ
Ἶ
Ἷ
ὀ
ὂ
ὄ
ὅ
Ὂ
Ὅ
ὐ
ὑ
὚
Ὓ
Ὕ
Ὗ
ὡ
ὢ
Ὠ
Ὣ
Ὤ
Ὧ
ὰ
έ
ὴ
ί
ὸ
ό
ὺ
ύ
ὼ
὾
὿
ᾀ
ᾁ
ᾂ
ᾃ
ᾅ
ᾆ
ᾇ
ᾊ
ᾋ
ᾌ
ᾍ
ᾎ
ᾏ
ᾐ
ᾑ
ᾒ
ᾓ
ᾕ
ᾗ
ᾙ
ᾚ
ᾛ
ᾝ
ᾟ
ᾠ
ᾢ
ᾣ
ᾥ
ᾧ
ᾩ
ᾪ
ᾬ
ᾭ
ᾯ
ᾰ
ᾳ
ᾴ
᾵
ᾷ
Ᾰ
Ᾱ
Ά
᾽
᾿
῀
ῃ
ῄ
ῇ
Ὲ
ῌ
῎
῏
ΐ
῔
Ῐ
Ὶ
Ί
῜
῝
῞
ῡ
ῢ
ΰ
ῤ
ῥ
ῦ
ῧ
Ῠ
Ῡ
Ύ
῭
΅
ῲ
ῳ
ῴ
῵
ῶ
ῷ
Ὸ
Ό
Ὼ
Ώ
ῼ
´
῿
‒
―
‖
‗
‛
‟
‡
‣
․
‥
‱
′
″
‴
‹
›
※
‽
⁀
⁁
⁃
⁄
⁅
⁆
⁇
⁈
⁊
⁋
⁌
⁎
⁏
⁓
⁛
⁜
⁼
⁾
₃
₆
₈
₉
₍
₎
ₑ
ₒ
ₓ
ₔ
ₚ
ₛ
ₜ
₝
₟
₠
₢
₣
₤
₫
₰
₱
₲
₳
₶
₷
₻
₽
₿
⃀
⃁
⃄
⃆
⃒
⃕
⃖
⃘
⃙
⃚
⃛
⃜
⃝
⃠
⃡
⃢
⃥
⃦
⃧
⃨
⃩
⃪
⃫
⃭
⃮
⃰
⃳
⃴
⃷
⃹
⃺
⃼
⃽
⃾
℀
℁
℃
℄
ℇ
℈
℉
ℋ
ℌ
ℍ
ℐ
ℕ
№
ℙ
ℚ
ℛ
℞
℟
ℤ
℥
℧
ℨ
℩
K
Å
ℬ
ℭ
℮
ℰ
ℱ
Ⅎ
ℳ
ℶ
ℸ
ℹ
℺
ℼ
ℽ
⅄
ⅅ
⅖
⅗
⅟
Ⅸ
Ⅿ
ⅲ
ⅳ
ⅷ
↊
↋
↍
↎
←
↑
↓
↔
↕
↘
↜
↝
↞
↟
↠
↢
↤
↦
↭
↯
↰
↱
↷
↸
↽
⇊
⇋
⇐
⇓
⇔
⇖
⇗
⇘
⇛
⇝
⇧
⇩
⇫
⇵
⇼
⇽
∇
∊
∏
−
∔
∤
∥
∩
∪
∭
∮
∲
∳
∵
∷
∸
∺
∽
∿
≂
≅
≆
≊
≋
≌
≍
≏
≒
≓
≔
≖
≘
≙
≚
≝
≞
≠
≡
≨
≩
≫
≬
≰
≱
≲
≳
≴
≵
≶
≸
≹
≺
≽
≾
≿
⊄
⊅
⊆
⊇
⊈
⊉
⊊
⊋
⊍
⊎
⊐
⊑
⊒
⊓
⊔
⊕
⊖
⊗
⊙
⊚
⊛
⊝
⊞
⊟
⊤
⊥
⊦
⊧
⊨
⊩
⊪
⊬
⊭
⊮
⊯
⊰
⊱
⊲
⊳
⊴
⊷
⊸
⊹
⊺
⊼
⊽
⊿
⋁
⋂
⋃
⋅
⋇
⋈
⋊
⋋
⋌
⋍
⋎
⋏
⋐
⋖
⋗
⋘
⋙
⋚
⋛
⋜
⋝
⋞
⋢
⋤
⋦
⋧
⋩
⋫
⋬
⋭
⋮
⋯
⋰
⋳
⋵
⋸
⋺
⋿
⌀
⌂
⌇
⌈
⌉
⌊
⌋
⌏
⌐
⌒
⌔
⌕
⌖
⌗
⌘
⌙
⌛
⌜
⌦
⌨
〈
〉
⌫
⌬
⌭
⌮
⌱
⌲
⌳
⌴
⌵
⌷
⌸
⌹
⌻
⌽
⌾
⍂
⍇
⍈
⍋
⍌
⍍
⍒
⍓
⍙
⍚
⍜
⍞
⍟
⍡
⍢
⍧
⍫
⍬
⍲
⍸
⍹
⍼
⍾
⍿
⎀
⎃
⎄
⎇
⎈
⎌
⎐
⎑
⎒
⎘
⎚
⎛
⎢
⎣
⎤
⎥
⎦
⎧
⎪
⎬
⎰
⎱
⎲
⎴
⎽
⏃
⏆
⏇
⏉
⏔
⏜
⏝
⏪
⏲
⏳
⏴
␈
␒
␓
␔
␖
␠
␡
␢
␥
␦
␨
␩
␪
␫
␬
␵
␶
␷
␾
␿
⑃
⑇
⑌
⑍
⑎
⑐
⑑
⑖
⑛
⑜
⑝
②
⑥
⑫
⑬
⑯
⑰
⑱
⑳
⑶
⑿
⒀
⒔
⒕
⒨
⒱
Ⓑ
Ⓔ
Ⓕ
Ⓖ
Ⓗ
Ⓘ
Ⓙ
Ⓚ
Ⓝ
Ⓞ
Ⓢ
Ⓣ
Ⓤ
Ⓧ
Ⓩ
ⓑ
ⓓ
ⓔ
ⓕ
ⓖ
ⓗ
ⓘ
ⓙ
ⓚ
ⓛ
ⓝ
ⓞ
ⓡ
ⓢ
ⓩ
⓪
⓳
⓷
⓸
⓽
┅
┆
┉
┎
┐
┑
┘
┚
├
┝
┞
┟
┠
┤
┦
┨
┪
┮
┰
┷
┸
┹
┼
╁
╂
╄
╈
╡
╤
╪
■
□
►
▼
◄
◦
★
☆
♦
✓
❾
⟟
⟨
⠥
⠻
⣭
⣽
⤁
⤄
⤉
⤓
⤔
⤛
⤲
⥈
⥚
⥟
⥤
⥿
⦅
⧊
⧋
⧌
⧍
⧫
⧬
⩏
⩙
⩚
⩡
⩨
⩯
⪂
⪅
⪋
⪍
⪎
⪏
⪒
⪛
⪦
⪭
⪰
⪱
⪸
⪹
⫈
⫉
⫔
⮟
⮫
⮶
⯁
⯄
⯅
⯓
⯙
⯡
⯭
Ⰼ
Ⱅ
Ⱗ
ⳉ
Ⳍ
ⳏ
Ⳑ
ⳑ
Ⳓ
ⳓ
Ⳕ
ⳗ
Ⳙ
ⳙ
Ⳛ
ⳛ
Ⳝ
ⳝ
ⳟ
Ⳡ
ⳡ
Ⳣ
ⳤ
⳥
⳨
⳩
⳪
Ⳬ
ⳬ
Ⳮ
ⳮ
⳯
⳱
Ⳳ
ⳳ
ⷌ
⸀
⸬
⸭
⸮
ⸯ
⸺
⸾
⸿
⹏
⹑
⹕
⹡
⹥
⹩
⹶
⹺
⹼
⺇
⺎
⺑
⺒
⺓
⺘
⺙
⺛
⾗
⾠
⾤
⾲
⿇
⿞
⿥
⿲
⿿
〄
〈
」
【
〒
〓
〗
〘
〚
〜
〝
〞
〲
〴
〷
あ
セ
ナ
ニ
ブ
ホ
ボ
ポ
ヹ
ヾ
㄀
ㄅ
ㄊ
ㄎ
ㄖ
ㄘ
㉠
㉢
㉤
㉧
㉨
㉪
㉭
㉱
㉵
㉶
㉷
㉺
㉻
㉼
㉿
㊀
㊅
㊔
㊕
㊖
㊜
㊠
㊣
㊤
㊦
㊧
㊨
㊩
㊪
㊬
㊭
㊱
㋂
㋇
㋉
㋊
㋐
㋑
㋒
㋓
㋔
㋕
㋗
㋘
㋙
㋛
㋩
㋪
㋮
㋳
㋶
㋷
㋾
㋿
㌄
㌆
㌋
㌍
㌓
㌔
㌟
㌡
㌢
㌧
㌭
㌰
㌱
㌸
㌽
㍇
㓇
㓌
㓍
㓢
㓣
㓤
㓧
㓫
㓬
㓮
㓲
㓷
㓸
㓹
㓺
㓻
㔉
㔖
㔗
㔢
㔤
㔯
㔻
㕂
㕃
㕍
㕎
㕐
㕑
㕒
㕓
㕔
㕕
㕖
㕘
㕛
㕝
㕞
㕟
㕢
㕥
㕧
㕨
㕩
㕪
㕫
㕭
㕮
㕰
㕱
㕴
㕵
㕷
㕼
㕿
㖀
㖂
㖇
㖉
㖏
㖓
㖟
㖤
㖥
㖦
㖨
㖩
㖪
㖬
㖮
㖰
㖱
㖳
㖷
㖸
㗇
㗈
㗉
㗊
㗋
㗍
㗎
㗕
㟶
㟻
㟽
㟾
㟿
㠄
㠈
㠍
㠎
㠐
㠔
㠕
㠘
㠚
㠛
㠪
㠭
㠯
㠳
㠴
㡂
㡅
㡆
㡏
㡘
㡛
㡞
㡭
㡯
㡰
㡶
㢍
㢓
㢗
㢘
㢜
㢟
㢠
㢡
㢣
㢵
㢸
㢹
㣅
㣋
㣌
㣎
㣓
㣜
㣞
㣟
㣢
㣣
㣮
㣰
㣵
㣶
㣷
㣾
㤂
㤇
㤉
㤓
㤡
㤥
㤧
㤮
㥈
㥗
㥜
㥞
㥡
㥧
㥲
㥿
㦅
㦆
㦈
㦉
㦏
㦑
㦗
㦚
㦜
㦝
㦟
㦤
㦨
㦫
㦬
㦯
㦲
㦳
㦵
㴤
㵄
㵅
㵆
㵇
㵉
㵊
㵋
㵍
㵏
㵔
㵕
㵖
㵘
㵙
㵛
㵞
㵟
㵠
㵢
㵣
㵦
㵨
㵩
㵪
㵫
㵬
㵭
㵮
㵱
㵴
㵻
㵽
㵾
㶁
㶇
㶏
㶕
㶙
㶡
㶢
㶣
㶮
㶯
㶱
㶳
㶴
㶵
㶶
㶻
㶾
㶿
㷀
㷁
㷂
㷅
㷇
㷈
㷉
㷋
㷎
㷏
㷐
㷕
㷚
㷞
㷟
㷬
㷮
㷱
㷹
㷺
㷽
㷾
㷿
㸀
㸅
㸆
㸇
㸉
㸊
㸋
㸌
㸍
㸑
㸓
㸔
㸞
㸡
㸣
㸦
㸧
㸪
㸬
㸯
㸱
㸲
㸳
㸸
㸹
㸻
㸽
㹁
㹂
㹅
㹆
㹇
㹉
㹊
㹋
㹏
㹐
㹑
㹒
㹖
㹟
㹡
㹢
㹤
㹥
㹦
㹧
㹨
㹫
㹬
㹭
㹱
㹶
䃿
䄏
䄩
䄪
䄫
䄭
䄱
䄻
䄽
䅅
䒣
䛥
䛧
䛩
䛬
䛭
䛱
䛲
䛳
䛸
䛿
䜉
䜊
䜋
䜐
䜓
䜕
䜧
䜨
䜰
䜳
䜸
䝁
䝂
䝅
䝌
䝍
䝎
䝐
䝒
䝘
䝧
䝩
䝭
䝿
䞂
䞊
䞓
䞔
䞖
䞚
䞝
䞞
䞟
䞠
䞢
䞣
䞯
䞳
䞶
䞷
䞺
䞻
䟂
䟄
䟅
䟈
䟉
䟗
䥢
䦾
䧆
䧑
䧓
䧕
䧝
䧠
䧪
䧳
䧻
䧼
䨅
䨗
䨪
䨲
䩀
䩂
䩇
䩍
䭯
一
咣
咥
咨
咩
咬
咭
咯
咱
咲
咴
咵
咶
咹
咺
咼
咿
哀
哂
哄
哅
哆
哈
哊
哋
响
哐
哓
哙
哜
哩
哫
哯
哵
哹
哺
哼
哾
哿
唀
唁
唇
唐
唒
唓
唘
唙
唚
唞
唢
唣
唥
唭
唯
唰
唴
唵
唼
唽
啀
啁
啂
啃
啋
啍
啛
啜
啝
啞
啟
啢
啦
啯
啸
喂
喃
善
喅
喇
喉
喒
喓
喝
喫
單
喱
嗇
嗏
嗑
嗕
嗖
嗗
嗛
嗜
嗡
嗤
嗧
嗨
嗩
嗭
嗳
嘉
嘑
懧
懨
懩
懪
懫
懬
懭
懱
懲
懳
懴
懵
懶
懷
懼
懾
戀
戁
戂
戃
戇
戏
成
我
戛
戟
戠
戦
戰
戱
戳
户
戹
戺
戻
戾
扊
手
扜
扝
扞
扡
扢
扣
扪
扫
扭
扮
扯
扰
扱
扵
扶
扷
扸
批
扽
找
抁
抈
抋
抌
抓
抠
抡
抢
护
抧
抨
披
抬
抭
抯
抱
抷
抸
抺
拀
拈
拊
拏
拓
拔
拕
拖
拗
拱
拴
拶
拸
拻
挃
挅
指
挊
挋
挒
挖
挚
挬
捁
捋
捎
捗
捝
捠
捧
捨
捳
捹
捺
掀
掄
掅
掆
掇
掌
掎
掐
掩
掭
掱
淔
淘
淙
淚
淜
淝
淠
淡
淢
淤
淫
淬
淳
淴
淸
淽
淾
淿
済
渏
渓
渕
渗
渘
渚
渜
渝
渥
渧
温
渪
渫
渭
渮
渵
渶
渾
湀
湁
湅
湈
湉
湋
湍
湎
湑
湒
湔
湙
湛
湜
湞
湠
湢
湣
湥
湪
湫
湮
湰
湴
湸
湹
湻
湼
湽
溈
溉
源
溑
溔
溙
溠
溡
溢
溥
溦
溩
溫
溰
溹
溽
滃
滅
滉
滍
滎
滗
滙
滚
滠
滣
滦
滪
滫
滮
滳
滵
滸
滻
滼
滽
滿
漁
漃
漄
漈
漍
漎
漑
漓
漕
漘
漞
漟
漡
漦
漧
漨
漩
漪
漮
漰
漱
漲
漷
漽
漾
漿
潄
潅
潈
潊
潌
潎
潙
潟
潠
潪
潲
潶
潹
潽
澁
澃
澈
澐
澓
澟
澡
澢
澣
綴
綷
綸
綹
綺
綻
綼
綾
緀
緂
緃
緅
緆
緇
緈
緊
緋
緌
緒
緓
緔
緖
緗
緘
線
緜
緡
緢
緥
緦
緪
緲
緳
緶
緹
緿
縁
縂
縃
縒
縓
縣
縨
縬
縭
縯
縳
縶
縷
縺
縻
繀
繌
繍
繎
繐
繚
繝
繞
繟
繡
繫
繶
繸
繹
繼
纇
纈
纋
續
纍
纎
纐
纑
纒
纗
纜
纟
红
纬
纭
纵
纶
纻
线
绁
织
绉
绋
绑
绔
绞
绠
绦
绩
绫
绮
绯
绲
绳
维
绶
绸
缁
缃
缄
缆
缇
缋
缌
缐
缗
缘
缝
缢
缣
缤
缥
缦
缩
缪
缬
缮
缸
缺
缻
缼
罓
罔
罝
罞
罥
罫
罭
署
罶
罽
羈
羌
羓
羙
羚
羛
羜
群
羥
羧
羪
羬
羮
羯
羰
羴
羷
羹
羾
羿
翁
翅
翆
翉
肄
肑
肕
肘
肙
肜
肠
股
肦
肬
肱
肵
肻
ﬀ
ﬁ
ﬂ
ﱠ
ﲔ
ﳜ
ﺎ
ﺐ
ﺑ
ﺒ
ﺔ
ﺜ
ﺠ
ﺮ
ﺴ
ﺸ
ﻋ
ﻐ
ﻓ
ﻔ
ﻘ
ﻛ
ﻞ
ﻟ
ﻠ
ﻣ
ﻧ
ﻨ
ﻪ
ﻬ
ﻮ
ﻳ
ﻴ
🀄
🃏
🆎
🆑
🆒
🆓
🆔
🆕
🆖
🆗
🆘
🆙
🆚
🌀
🌁
🌂
🌃
🌄
🌅
🌆
🌇
🌈
🌉
🌊
🌋
🌌
🌍
🌎
🌏
🌑
🌒
🌓
🌔
🌕
🌖
🌗
🌘
🌙
🌚
🌛
🌜
🌝
🌞
🌟
🌠
🌡
🌤
🌦
🌧
🌨
🌪
🌫
🌬
🌭
🌮
🌯
🌰
🌱
🌲
🌳
🌴
🌵
🌶
🌷
🌸
🌹
🌺
🌻
🌼
🌽
🌾
🌿
🍀
🍁
🍂
🍃
🍄
🍅
🍆
🍇
🍈
🍉
🍊
🍋
🍌
🍍
🍎
🍏
🍑
🍒
🍓
🍔
🍕
🍖
🍗
🍘
🍙
🍚
🍛
🍜
🍝
🍞
🍟
🍡
🍢
🍣
🍤
🍥
🍦
🍧
🍨
🍩
🍪
🍫
🍬
🍭
🍮
🍯
🍰
🍱
🍲
🍳
🍴
🍵
🍶
🍷
🍸
🍹
🍺
🍻
🍼
🍽
🍾
🍿
🎀
🎁
🎂
🎃
🎄
🎅
🎆
🎇
🎈
🎉
🎊
🎋
🎌
🎍
🎎
🎏
🎐
🎑
🎒
🎓
🎙
🎛
🎞
🎟
🎠
🎣
🎤
🎥
🎦
🎧
🎨
🎩
🎪
🎫
🎬
🎭
🎮
🎯
🎰
🎱
🎲
🎳
🎴
🎵
🎶
🎷
🎸
🎹
🎺
🎻
🎼
🎾
🎿
🏀
🏁
🏂
🏃
🏄
🏅
🏆
🏇
🏈
🏉
🏊
🏋
🏌
🏍
🏎
🏐
🏕
🏖
🏘
🏛
🏜
🏝
🏞
🏠
🏡
🏢
🏣
🏥
🏦
🏧
🏨
🏩
🏪
🏫
🏭
🏯
🏰
🏳
🏴
🏵
🏹
🏺
🏻
🏼
🏽
🏾
🏿
🐄
🐅
🐆
🐇
🐈
🐉
🐊
🐋
🐌
🐍
🐎
🐏
🐐
🐑
🐒
🐔
🐕
🐗
🐘
🐙
🐚
🐛
🐜
🐝
🐞
🐟
🐠
🐡
🐢
🐣
🐤
🐥
🐦
🐧
🐨
🐩
🐫
🐬
🐭
🐮
🐯
🐰
🐱
🐲
🐳
🐴
🐵
🐶
🐷
🐸
🐹
🐺
🐻
🐼
🐽
🐾
🐿
👀
👁
👂
👃
👄
👅
👆
👇
👈
👉
👊
👋
👌
👍
👎
👏
👐
👑
👒
👔
👗
👙
👚
👛
👜
👟
👠
👡
👣
👤
👥
👦
👧
👨
👩
👪
👫
👬
👭
👮
👯
👰
👱
👲
👳
👴
👵
👶
👷
👸
👹
👺
👻
👼
👽
👾
👿
💀
💁
💂
💃
💄
💅
💆
💇
💈
💉
💊
💋
💌
💍
💎
💏
💐
💑
💒
💓
💔
💕
💖
💗
💘
💙
💚
💛
💜
💝
💞
💟
💠
💡
💢
💣
💤
💥
💦
💧
💨
💩
💪
💫
💭
💯
💰
💱
💲
💳
💴
💵
💶
💷
💸
💹
💺
💻
💼
💽
💾
💿
📀
📄
📅
📈
📉
📊
📋
📌
📍
📎
📕
📖
📙
📚
📛
📜
📝
📞
📟
📠
📡
📢
📣
📤
📥
📦
📧
📩
📱
📲
📳
📴
📵
📶
📷
📸
📹
📺
📻
📼
📽
🔀
🔁
🔂
🔃
🔄
🔆
🔇
🔈
🔉
🔊
🔋
🔌
🔍
🔎
🔏
🔐
🔑
🔒
🔓
🔔
🔕
🔗
🔘
🔙
🔚
🔛
🔜
🔝
🔞
🔟
🔠
🔡
🔢
🔣
🔤
🔥
🔦
🔧
🔨
🔩
🔪
🔫
🔬
🔭
🔮
🔯
🔰
🔱
🔴
🔶
🔸
🔹
🔻
🔼
🔽
🕉
🕊
🕌
🕎
🕐
🕑
🕒
🕓
🕔
🕕
🕖
🕗
🕘
🕙
🕚
🕛
🕞
🕤
🕯
🕳
🕴
🕵
🕷
🕸
🕺
🖋
🖍
🖐
🖕
🖖
🖤
🖥
🖲
🖼
🗑
🗒
🗓
🗝
🗣
🗨
🗪
🗮
🗯
🗳
🗺
🗻
🗼
🗽
🗾
🗿
😀
😁
😂
😃
😄
😅
😆
😇
😈
😉
😊
😋
😌
😍
😎
😏
😐
😑
😒
😓
😔
😕
😖
😗
😘
😙
😚
😛
😜
😝
😞
😟
😠
😡
😢
😣
😤
😥
😦
😧
😨
😩
😪
😫
😬
😭
😮
😯
😰
😱
😲
😳
😴
😵
😶
😷
😸
😹
😺
😻
😼
😽
😾
😿
🙀
🙁
🙂
🙃
🙄
🙅
🙆
🙇
🙈
🙉
🙊
🙋
🙌
🙍
🙎
🙏
🚀
🚁
🚂
🚃
🚅
🚆
🚈
🚋
🚌
🚍
🚎
🚐
🚑
🚒
🚕
🚗
🚘
🚙
🚚
🚜
🚝
🚢
🚣
🚤
🚥
🚧
🚨
🚫
🚬
🚭
🚮
🚯
🚰
🚱
🚲
🚳
🚴
🚵
🚶
🚷
🚸
🚹
🚺
🚻
🚼
🚾
🛀
🛁
🛂
🛃
🛄
🛅
🛌
🛍
🛏
🛐
🛑
🛒
🛕
🛠
🛤
🛰
🛳
🛴
🛵
🛸
🛺
🝓
🟠
🟡
🟢
🟦
🟨
🤌
🤍
🤎
🤏
🤐
🤑
🤒
🤓
🤔
🤕
🤖
🤗
🤘
🤙
🤚
🤛
🤜
🤝
🤞
🤟
🤠
🤡
🤢
🤣
🤤
🤥
🤦
🤧
🤨
🤩
🤪
🤫
🤬
🤭
🤮
🤯
🤰
🤱
🤲
🤳
🤴
🤵
🤶
🤷
🤸
🤹
🤺
🤼
🤽
🤾
🤿
🥀
🥁
🥂
🥇
🥈
🥉
🥊
🥐
🥑
🥒
🥓
🥔
🥕
🥖
🥗
🥘
🥚
🥛
🥜
🥞
🥟
🥤
🥥
🥦
🥧
🥨
🥩
🥪
🥬
🥭
🥰
🥱
🥲
🥳
🥴
🥵
🥶
🥸
🥹
🥺
🥾
🦁
🦄
🦅
🦆
🦈
🦋
🦎
🦔
🦕
🦚
🦠
🦢
🦥
🦦
🦧
🦩
🦯
🦰
🦱
🦲
🦳
🦴
🦵
🦶
🦷
🦸
🦹
🦺
🦻
🦼
🦽
🦾
🦿
🧀
🧁
🧂
🧅
🧇
🧍
🧎
🧏
🧐
🧑
🧒
🧓
🧔
🧕
🧖
🧗
🧘
🧙
🧚
🧛
🧜
🧝
🧞
🧟
🧠
🧡
🧢
🧣
🧤
🧥
🧦
🧭
🧯
🧳
🧵
🧸
🧺
🧻
🧾
🧿
🩵
🩷
🩸
🩹
🩺
🪁
🪂
🪄
🪐
🪙
🪜
🪦
🪨
🪬
🪱
🪴
🪼
🫀
🫐
##o
##g
##e
##n
##t
##ç
##m
##i
##ş
##b
##l
##a
##d
##k
##r
##f
##y
##ģ
##u
##z
##ü
##s
##ı
##T
##J
##I
##h
##1
##5
##8
##U
##V
##A
##L
##E
##R
##p
##j
##v
##c
##ğ
##4
##w
##x
##6
##q
##ö
##G
##N
##3
##H
##O
##C
##D
##Z
##ĝ
##X
##İ
##ý
##K
##M
##0
##Ş
##🍆
##Ǎ
##Ü
##S
##Q
##9
##Ğ
##7
##B
##Ŗ
##¦
##Ç
##Đ
##2
##Ή
##F
##ɢ
##Ƿ
##P
##Y
##Ã
##ä
##ʘ
##ð
##Ö
##Ɲ
##W
##ά
##ø
##ő
##µ
##ņ
##Ń
##Õ
##Ý
##Ǔ
##ì
##È
##ʍ
##á
##Ķ
##Ϗ
##β
##ɼ
##ϧ
##΀
##Ō
##í
##õ
##Ƥ
##ɍ
##ȳ
##Ȏ
##Ɵ
##Ơ
##ã
##Ŷ
##Ţ
##Ľ
##ș
##ĕ
##ɔ
##Ó
##Ϋ
##à
##Ǩ
##Ɖ
##͋
##â
##è
##Ȋ
##ú
##α
##ξ
##ơ
##ǃ
##Ž
##͞
##ƈ
##ƒ
##Č
##̥
##ť
##č
##َ
##ĭ
##ْ
##ِ
##Ę
##ų
##ƍ
##ĩ
##͗
##Ɛ
##ĥ
##ϋ
##ž
##Ƈ
##μ
##ɦ
##˸
##ƃ
##̓
##ቘ
##ȿ
##ͥ
##ū
##Ț
##Í
##Ŧ
##Ĩ
##Ư
##͎
##̨
##ƙ
##ʒ
##˄
##Ɯ
##ƞ
##ŧ
##ܲ
##ɇ
##Œ
##ȣ
##ë
##ě
##ō
##ʽ
##ē
##÷
##ʀ
##Ė
##ɟ
##Ʀ
##ű
##Ψ
##é
##ɘ
##Π
##Ƀ
##ʦ
##ܯ
##Ð
##ʺ
##ڤ
##ÿ
##Ζ
##̖
##ĉ
##Ξ
##Ƞ
##ǣ
##ɣ
##π
##Æ
##̴
##ό
##ʊ
##ǔ
##࠘
##ࣅ
##˴
##Ȍ
##Ù
##Λ
##🌿
##̝
##Į
##ß
##ż
##ŗ
##Ĉ
##Ŵ
##ʪ
##ļ
##ʟ
##̟
##Ź
##͇
##Ą
##τ
##ȓ
##Ť
##ƅ
##ƺ
##±
##Á
##ȏ
##ķ
##Ũ
##ċ
##ǡ
##Β
##Ø
##ɬ
##Ĝ
##ƣ
##ī
##Ļ
##Ĥ
##א
##Ņ
##ƻ
##ɓ
##ȋ
##Ɣ
##Ȇ
##Ε
##ė
##ǀ
##ŝ
##ó
##ι
##Ǯ
##Ǡ
##Ƅ
##Ŕ
##̽
##ύ
##À
##ˉ
##Å
##ǚ
##̳
##ʾ
##̺
##Ј
##Ǖ
##¢
##ǻ
##ř
##͆
##Ϳ
##Ʒ
##Ë
##Ă
##҉
##ś
##˞
##̜
##🧿
##ƥ
##Ɩ
##˷
##Σ
##ŷ
##˰
##ǎ
##Ο
##ď
##̀
##ȹ
##ͪ
##Ĕ
##ʠ
##Ǫ
##˓
##ϩ
##͊
##ʗ
##ŋ
##˩
##ܕ
##̬
##👏
##Ɋ
##Ʃ
##ɪ
##ə
##˃
##Ƌ
##ڋ
##ڽ
##ᯕ
##ò
##̘
##ƴ
##ę
##ɏ
##ɚ
##đ
##ĺ
##ϝ
##ˆ
##ƭ
##ʼ
##Ƹ
##æ
##ͬ
##ɿ
##̵
##ȩ
##Ē
##Χ
##ɂ
##˟
##ɲ
##Ǚ
##ǧ
##ƕ
##ñ
##̭
##Ć
##̤
##Ȓ
##¼
##Ⱦ
##˫
##ţ
##̲
##ľ
##͒
##ϡ
##ŭ
##ƨ
##ć
##ُ
##ɵ
##ࡴ
##å
##ā
##Þ
##Ǣ
##̦
##͓
##ʳ
##̅
##Ɍ
##Ᾰ
##ɹ
##Ȗ
##Ŏ
##Ő
##ˑ
##ʚ
##ǒ
##ɉ
##˵
##ʿ
##˧
##ˏ
##ƶ
##Ų
##ʥ
##Ν
##Ï
##³
##Ì
##ς
##ɤ
##˼
##Ɗ
##ǫ
##Ƭ
##ȵ
##į
##ɸ
##Ș
##ț
##͕
##ù
##Θ
##ƀ
##δ
##Ǹ
##᾽
##Ƚ
##͚
##ȇ
##ɮ
##Ό
##ň
##ͨ
##ɻ
##ħ
##ᔚ
##Ǝ
##ɋ
##Ĭ
##̙
##୍
##ͳ
##ǂ
##ʎ
##ɴ
##Ώ
##̩
##Ǒ
##ɽ
##̱
##ψ
##Ƃ
##̞
##̯
##ą
##ă
##ȟ
##̓
##Ȕ
##ɰ
##Ȳ
##ʁ
##ɷ
##̐
##Ī
##Ф
##Τ
##ȝ
##Ò
##૿
##Ř
##ޝ
##͉
##Ȯ
##Ⓙ
##Ȃ
##ɞ
##ȼ
##Ā
##ń
##ƽ
##Ű
##ȴ
##Ɓ
##ϯ
##ʔ
##ȧ
##😅
##Ǥ
##ν
##Ū
##ʡ
##Ł
##ε
##͔
##ĸ
##̏
##Ȼ
##Ň
##ʋ
##ǥ
##ǐ
##Ċ
##ǁ
##̎
##ʝ
##ɩ
##σ
##Ϥ
##ʮ
##͑
##ǟ
##ȗ
##Ǜ
##ʧ
##¥
##ǆ
##χ
##ɳ
##ȕ
##ˊ
##⑝
##υ
##ʹ
##৤
##ϳ
##Ƕ
##ˋ
##Ě
##ο
##λ
##έ
##£
##ǭ
##ˮ
##Ñ
##Ŋ
##ʄ
##ɨ
##ۉ
##؆
##Ȣ
##Ɇ
##̋
##Ǐ
##ŕ
##˾
##Ȥ
##ȡ
##Ś
##ɕ
##ʯ
##Έ
##φ
##ϻ
##Υ
##Ů
##Ŭ
##Ŝ
##Ȧ
##˹
##Ʈ
##Ȉ
##ͩ
##ͷ
##ɾ
##ɧ
##ƚ
##͠
##Ɠ
##🎬
##🏼
##Ż
##ǘ
##ʣ
##Η
##Ⓕ
##ƌ
##ȃ
##ǝ
##Ɨ
##̉
##ː
##ρ
##ǹ
##ĵ
##ǩ
##Ĺ
##ɗ
##Ȭ
##͢
##̻
##Ʊ
##ͼ
##ܱ
##̒
##ȍ
##ŏ
##Ú
##̢
##Ǟ
##Ƨ
##࡮
##Ά
##˒
##ƾ
##κ
##Ғ
##ʫ
##ή
##ʞ
##👆
##Ƴ
##ǵ
##ɶ
##Ί
##ǯ
##ȑ
##͝
##̰
##ů
##Ω
##˗
##ȱ
##Ɔ
##Ȅ
##ʐ
##߃
##Ǘ
##Γ
##ΰ
##Ȁ
##ɠ
##ͮ
##Ȑ
##̔
##ϊ
##ʨ
##ƿ
##Ƶ
##θ
##ͦ
##כ
##Ϙ
##Ƙ
##ʉ
##˪
##½
##ί
##Ȝ
##ɀ
##ϭ
##ϟ
##ȅ
##î
##Ɉ
##ƛ
##ˬ
##Ƣ
##΃
##ŵ
##̚
##̠
##ɒ
##ũ
##ϣ
##Ά
##϶
##🌻
##🐾
##͛
##Ӯ
##ɺ
##¾
##😋
##🎉
##Ϯ
##̶
##˯
##Ʋ
##ƫ
##ʓ
##Ʉ
##ɐ
##ˌ
##ँ
##ϛ
##ҵ
##୿
##ʙ
##ǖ
##ҫ
##ϸ
##Ǭ
##γ
##᧩
##᧪
##ʑ
##ᯒ
##ݦ
##Ϭ
##ޢ
##ȯ
##Խ
##͜
##ȉ
##ု
##ʈ
##ͣ
##ɭ
##Ԅ
##͵
##Ͽ
##̾
##̃
##🔥
##ಯ
##᠖
##ጰ
##Ĵ
##Ȟ
##ˍ
##Ǿ
##˦
##΋
##ᦋ
##ʬ
##˔
##Ⱥ
##ɖ
##͙
##ޓ
##Ϧ
##Ʌ
##͹
##Ǽ
##Ρ
##ʜ
##͂
##΁
##Ϡ
##˕
##ȫ
##ƪ
##😂
##̗
##ˎ
##ʕ
##Ÿ
##΢
##ȶ
##ʖ
##Ǵ
##Ὧ
##ᯉ
##Ǻ
##Ǧ
##Ɂ
##Ħ
##࡭
##ʇ
##ͤ
##ź
##ǽ
##🐝
##੬
##̼
##Ҟ
##˭
##ɯ
##͸
##Ͳ
##Ȫ
##Ď
##ͽ
##ǰ
##͍
##ζ
##ʆ
##̸
##̹
##ʛ
##̛
##מ
##ͱ
##˥
##᭲
##ۼ
##ۻ
##ष
##Ϛ
##Ι
##Ϣ
##η
##ই
##͖
##͌
##֮
##˨
##ϫ
##Ϸ
##ȥ
##በ
##🎆
##Φ
##ΐ
##ɝ
##̑
##̍
##˲
##এ
##㉢
##Ѵ
##Ϻ
##ˢ
##ɑ
##ڴ
##֚
##ư
##ኧ
##ᶀ
##ܻ
##ʤ
##Ϫ
##ϗ
##ȁ
##ڼ
##ࢫ
##ʃ
##˅
##ͅ
##Ƒ
##ɥ
##²
##́
##͐
##ʏ
##ȸ
##ኔ
##ˀ
##̪
##Ϩ
##🎥
##🤲
##😃
##😬
##ϥ
##͏
##ѹ
##ʩ
##ଠ
##ॆ
##Ȱ
##ɫ
##˻
##̣
##΂
##Շ
##˱
##Ƽ
##Ϝ
##Ϟ
##̷
##ड
##ͯ
##ſ
##ͻ
##Μ
##ѝ
##ڻ
##ቌ
##ȷ
##̂
##ᾃ
##঍
##👇
##ա
##˳
##ʂ
##̿
##ץ
##ᗁ
##ǌ
##˺
##࿝
##Ӈ
##˽
##ɛ
##🐟
##🚙
##😔
##˿
##΍
##ˈ
##ࡱ
##̊
##ɡ
##ཽ
##ͫ
##̡
##Ͱ
##ਠ
##ῃ
##ǜ
##Ɏ
##Ϊ
##԰
##Δ
##Α
##Ђ
##😀
##ɜ
##ࢤ
##ʅ
##⃩
##≚
##ᯰ
##͟
##ʌ
##ॗ
##ϼ
##ࣺ
##ዄ
##љ
##😌
##ࠄ
##⋗
##᠛
##ಅ
##ƹ
##ѽ
##ȭ
##ͧ
##Ͼ
##٦
##ǿ
##˂
##🤔
##̄
##Ͻ
##💪
##👎
##ˁ
##ಹ
##ञ
##ट
##ᛃ
##໭
##Ҏ
##ነ
##ӹ
##இ
##Ҳ
##ڜ
##ቂ
##ɱ
##Ώ
##኶
##ெ
##🚗
##ဌ
##ࣼ
##ŉ
##Ȩ
##ӽ
##ᕡ
##ͭ
##Ҙ
##ঐ
##ԍ
##ḥ
##̈
##ᠤ
##ފ
##ѧ
##ޭ
##ဳ
##๔
##ݥ
##ҭ
##Ͷ
##຦
##ڮ
##ʶ
##ಈ
##̕
##⊨
##😊
##ݡ
##ĳ
##Ш
##ብ
##ώ
##৸
##़
##ۙ
##°
##ᔽ
##ዀ
##Ĳ
##Җ
##ੇ
##Ύ
##⁄
##ʭ
##⏪
##📈
##ᝮ
##ల
##ኾ
##त
##ٴ
##ࡌ
##௓
##᳑
##┑
##ʢ
##Ԥ
##ए
##ㄅ
##😎
##ۘ
##ඬ
##Ղ
##ʹ
##🤣
##ซ
##ѡ
##փ
##Ԧ
##ࡸ
##ⓙ
##୮
##💰
##ҹ
##Ҥ
##ٷ
##ಉ
##ʷ
##჏
##ҝ
##¹
##Ӻ
##੼
##ֶ
##⍂
##Ձ
##ማ
##౬
##ࠡ
##ᚫ
##క
##🥹
##Ԇ
##ଣ
##௕
##ៜ
##হ
##📌
##ࠂ
##׻
##͘
##ϙ
##ҧ
##🖼
##ၐ
##ࠌ
##ࣕ
##቏
##ᒳ
##😁
##🤭
##ࠜ
##ব
##ᡄ
##ܪ
##౺
##ණ
##Κ
##Ό
##֜
##🏃
##႖
##ٶ
##Ҕ
##࿺
##ˣ
##Ь
##ݛ
##৲
##ઉ
##👀
##ቢ
##↸
##ऀ
##🚀
##ऻ
##׉
##ቄ
##💕
##💝
##Ї
##ࣥ
##ڧ
##ࢄ
##ᑺ
##ѫ
##အ
##🔫
##🐈
##ଧ
##📚
##ܢ
##ऍ
##ⳤ
##እ
##৺
##஑
##៉
##᜕
##Ѿ
##Ք
##ݭ
##ዱ
##խ
##඙
##٧
##ǳ
##٥
##څ
##ࣟ
##छ
##ခ
##۷
##ԩ
##ϐ
##ဧ
##Ỷ
##ᣖ
##ҙ
##Ӗ
##ԕ
##¤
##💓
##Ⓝ
##ౠ
##⋖
##ิ
##տ
##Ԕ
##ᯪ
##ﲔ
##ﻛ
##ﺮ
##ﺸ
##ﻣ
##ஸ
##Э
##ߡ
##ٗ
##Ԯ
##ࠖ
##߬
##ை
##߶
##ҽ
##ᢘ
##ԁ
##Ֆ
##ކ
##🦋
##ඒ
##ֆ
##ૹ
##🥜
##Ҵ
##֠
##ః
##Զ
##ں
##ᔑ
##ྺ
##ဏ
##Ю
##ԉ
##ὂ
##ᰖ
##ྣ
##ᛒ
##ၑ
##઀
##ဎ
##ڬ
##ݻ
##💛
##💃
##ћ
##ᢵ
##ᾴ
##ڦ
##ካ
##Թ
##∷
##⊑
##ߠ
##ג
##໚
##ත
##౶
##च
##ࣛ
##ဩ
##👍
##ሲ
##⊥
##հ
##১
##័
##ࠞ
##Њ
##ࠚ
##ஓ
##😡
##ᠩ
##😱
##ࡽ
##ⳮ
##ᾣ
##⺒
##Ὤ
##թ
##๜
##⧫
##૟
##ࡓ
##Ԗ
##ՠ
##¸
##🥶
##௪
##ӑ
##💜
##㊬
##Ⓗ
##ᒻ
##⃦
##Ḿ
##Ꮗ
##ሼ
##🍎
##ኗ
##ڟ
##ऴ
##ᎈ
##Ժ
##࿭
##኏
##պ
##🍁
##ใ
##Ợ
##🤩
##🤧
##🥲
##ఒ
##ࢻ
##💙
##৔
##ࣀ
##ǈ
##ъ
##ா
##۴
##ԡ
##🌱
##㋓
##߱
##׾
##🙊
##ൗ
##ࡳ
##ࠩ
##്
##࣠
##🕊
##🍳
##ֵ
##Ճ
##🧚
##🤘
##༠
##🧠
##🎶
##🎂
##҇
##އ
##ˠ
##≵
##ے
##޸
##ఀ
##৩
##ᰀ
##ԭ
##૶
##🏻
##ၿ
##ϲ
##ࡰ
##௽
##ຐ
##≡
##🏽
##Ի
##Ⳕ
##Փ
##Ц
##ހ
##ⓞ
##ኟ
##ধ
##┟
##ࠐ
##᧖
##᧭
##ၪ
##ས
##ผ
##ڶ
##Ⴃ
##ಋ
##ऑ
##ʲ
##༴
##ݺ
##৳
##৓
##ұ
##ԛ
##ပ
##🤗
##ࠝ
##ܼ
##ܸ
##ᦒ
##ګ
##৷
##ᵼ
##ွ
##੶
##ᵛ
##ݓ
##ʰ
##ң
##Ӌ
##ލ
##ܾ
##ድ
##ᱪ
##֖
##Ұ
##᮳
##֪
##ࣵ
##ቜ
##Ḏ
##෥
##🐠
##🐊
##༟
##ᐳ
##৒
##಍
##㊦
##ೝ
##ݱ
##಑
##👠
##👒
##ڿ
##৵
##ڣ
##Ե
##ԗ
##🚁
##޻
##ࡕ
##ἣ
##ဓ
##ᚷ
##੧
##ᯘ
##๘
##ౙ
##ᣕ
##ယ
##ײ
##ݷ
##ᶍ
##ᵵ
##ŀ
##ݰ
##ഄ
##۠
##Ќ
##ळ
##🧡
##ৢ
##۸
##ڠ
##ྩ
##ܗ
##ܘ
##ԥ
##Ǳ
##ᜐ
##℞
##Ⴒ
##😍
##ᕻ
##🌞
##🌟
##׭
##΄
##ᓙ
##🤍
##׵
##ल
##ݶ
##ຝ
##ክ
##ቯ
##∥
##ោ
##Ⳳ
##ד
##Ӏ
##ᰨ
##🥰
##ཟ
##్
##ဝ
##ຆ
##ˤ
##य़
##գ
##ӱ
##ᢦ
##🔻
##ݤ
##ϔ
##๢
##ܷ
##ۯ
##Է
##ԋ
##ܬ
##Բ
##ӳ
##់
##इ
##㉷
##ন
##ዩ
##ኵ
##ᰏ
##Ҍ
##ॢ
##Ն
##੩
##ৃ
##૳
##ܡ
##੄
##Լ
##ֲ
##ᒱ
##௭
##ᗵ
##ि
##ఎ
##೵
##ᖺ
##ⓩ
##ᛤ
##ा
##फ़
##ঠ
##ٵ
##৮
##࣎
##ܶ
##🥳
##😘
##࿮
##ﬂ
##ᾀ
##ᣃ
##Ӓ
##🔬
##ኮ
##֋
##⎚
##೑
##̈́
##ܺ
##ி
##ஈ
##Қ
##ኚ
##ԑ
##ࠀ
##ߦ
##ᒒ
##ప
##🙏
##😲
##ࡄ
##ס
##஬
##ᚙ
##ܜ
##Ԃ
##॒
##🦁
##Ө
##ᓳ
##ϒ
##🌹
##Ҷ
##ԟ
##Ꭹ
##૾
##ҋ
##ߎ
##׏
##ॺ
##ޮ
##ݘ
##኿
##ᙰ
##ን
##ὸ
##ۭ
##ဨ
##ᔀ
##ݧ
##ӥ
##౎
##Ё
##ဴ
##ܹ
##🗿
##፵
##ࢮ
##ࢯ
##ઇ
##ڢ
##ജ
##࢏
##😙
##😠
##ࡗ
##յ
##᾵
##߽
##¨
##Ԉ
##᭳
##ߍ
##ߪ
##ᒸ
##⌹
##🍌
##🍓
##௶
##⍟
##҂
##ण
##຋
##ړ
##ʵ
##㋔
##৶
##ఙ
##👟
##ۧ
##҈
##ं
##᝔
##௄
##ᶚ
##ҥ
##ݕ
##᷅
##ख
##޼
##ގ
##ࣆ
##҃
##ಞ
##ᘁ
##੗
##💋
##ങ
##೽
##њ
##І
##࡚
##🏿
##⓽
##ℚ
##😉
##֍
##ۍ
##ဠ
##̀
##Ѐ
##૧
##ᐕ
##🙈
##ब
##ૡ
##💗
##຅
##੣
##Ꮠ
##ಳ
##□
##ጿ
##ῤ
##۳
##ᪿ
##׿
##ⅅ
##ê
##ℌ
##ߔ
##ၮ
##ޱ
##ٓ
##֌
##ᓤ
##💥
##Ӣ
##ࡉ
##ࡦ
##ᰤ
##ޣ
##Ѯ
##ך
##થ
##᜖
##㉭
##ۣ
##🍕
##㉶
##ࡤ
##ǅ
##௵
##Ѣ
##ڳ
##࿰
##੮
##🙂
##ຢ
##Ӽ
##ڲ
##֗
##੓
##֑
##👩
##👧
##👦
##ૅ
##஺
##🪁
##ॼ
##ᠫ
##ݣ
##Ӎ
##໢
##ᡴ
##ڰ
##ᡛ
##🎄
##ြ
##ࢵ
##⋵
##᳋
##ॳ
##🎵
##ր
##ಚ
##৏
##ѥ
##ݳ
##ׁ
##ӄ
##૴
##न
##🙉
##⊹
##۱
##ݑ
##⌬
##ը
##ޖ
##ߚ
##ၯ
##ﻧ
##ﻮ
##ﻘ
##ﺒ
##ﺴ
##ﻳ
##౐
##ഢ
##൷
##൸
##🥺
##🌷
##😜
##ߩ
##㌧
##প
##⊎
##٨
##ࡪ
##᯶
##ښ
##૖
##၁
##🍀
##Ŀ
##㉠
##ஏ
##ᵋ
##᾿
##ܫ
##ඳ
##🥂
##🌈
##💖
##Ѽ
##ઃ
##૘
##ޗ
##🤪
##ճ
##≱
##௨
##௦
##ࣶ
##Ң
##׌
##ݯ
##ו
##᎑
##׹
##௃
##🐙
##ԓ
##࢘
##૚
##ၰ
##ံ
##ۺ
##۵
##Ԑ
##ᮮ
##◦
##⓸
##ज
##Ἅ
##ਖ਼
##Ꭸ
##ࠏ
##྘
##׷
##׸
##ׄ
##Ԫ
##💯
##−
##૆
##᭥
##Ⓘ
##🌓
##🌔
##໷
##ἆ
##ࣹ
##ࡖ
##ᕽ
##Ǉ
##ह
##؝
##㊩
##দ
##ڎ
##ߥ
##஽
##ᢣ
##ဪ
##अ
##😴
##■
##፫
##㌸
##∭
##Ҹ
##ኈ
##ց
##ྦ
##ථ
##᪘
##۹
##ί
##ܰ
##Մ
##🍰
##ם
##🍟
##࿈
##ۋ
##Ѓ
##ਥ
##ጠ
##ށ
##᧯
##💫
##ୱ
##ᰥ
##Պ
##व
##ґ
##Ա
##ኯ
##߮
##༧
##޺
##ऌ
##ݝ
##ݽ
##ѐ
##଄
##😒
##Ⳬ
##ݎ
##ষ
##ԯ
##օ
##݁
##ࢷ
##ތ
##😞
##⳩
##༖
##ե
##ৼ
##᥁
##ࡍ
##ࡩ
##🎤
##㌱
##ֈ
##ٖ
##೧
##ᏼ
##ϱ
##⃢
##෶
##Յ
##ੈ
##㊀
##ࣩ
##ྱ
##ᰑ
##Ϲ
##ᖦ
##ܩ
##র
##ڌ
##🌫
##ാ
##🌌
##ኁ
##ೕ
##ܙ
##≲
##ൖ
##ஂ
##҅
##߾
##є
##ࡀ
##ࢀ
##῵
##႒
##௯
##ߞ
##⊓
##ؐ
##Ԟ
##੯
##ۊ
##╪
##ѩ
##Ǌ
##߯
##᭸
##޶
##౉
##Ⴗ
##╈
##Ѱ
##൨
##Ռ
##ڷ
##😟
##ଜ
##ॣ
##ᶟ
##ಙ
##ִ
##ႃ
##๐
##ߵ
##Ԡ
##ޕ
##Ҭ
##ூ
##😄
##🌺
##🌸
##ᕐ
##ᚓ
##᭎
##؎
##ٹ
##ӂ
##࢒
##ᾆ
##อ
##ٝ
##ᣟ
##😳
##ࢅ
##ส
##ׂ
##〲
##Ъ
##㊔
##ࠓ
##ர
##ኢ
##ႅ
##🐺
##ܿ
##०
##ﬁ
##੿
##ೖ
##ണ
##ࣣ
##۲
##ಗ
##ʸ
##ঊ
##Տ
##ؑ
##ᐧ
##ࠧ
##Ꭵ
##Ԁ
##Ӂ
##↕
##એ
##ݗ
##ᕍ
##Џ
##֤
##⹼
##჋
##ᯔ
##ෝ
##🎾
##ં
##😭
##࿯
##஖
##ত
##ቊ
##ম
##ݔ
##ᶙ
##Ⴑ
##ᡀ
##៦
##ࡹ
##ੴ
##🎅
##੽
##ї
##Ԭ
##ߒ
##᯵
##ۥ
##℺
##ࡔ
##҆
##৴
##ᝒ
##᎗
##ॷ
##ቈ
##ѻ
##ඌ
##↎
##↍
##⍙
##୏
##֬
##ᾥ
##װ
##ᰙ
##๪
##ᶷ
##࠙
##޾
##Ԏ
##ࡅ
##ᰌ
##׎
##🎈
##ऽ
##ܐ
##Ҝ
##ڛ
##֒
##຾
##ዘ
##ध
##ᰁ
##ḉ
##ֹ
##ॠ
##ठ
##෍
##ô
##৾
##ῦ
##⳨
##ᗞ
##ߗ
##ᚹ
##ԙ
##ܧ
##ᗎ
##ዯ
##੥
##ੱ
##ൔ
##բ
##ℬ
##ᔸ
##ഇ
##ᔬ
##॑
##ҩ
##ᘌ
##஥
##ॿ
##ⓕ
##⍫
##ಘ
##ഊ
##Ӧ
##⊟
##᠞
##஄
##׽
##🤝
##ห
##෩
##঑
##ከ
##၈
##🌾
##🧺
##👨
##⎴
##🙄
##֛
##ք
##ࡊ
##ӣ
##Ὅ
##ᚄ
##᳴
##ࢇ
##᧘
##ՙ
##ਟ
##Ꭿ
##ᾍ
##ڑ
##ӎ
##⿥
##׍
##࢙
##ܒ
##੡
##੢
##ណ
##҄
##ٰ
##Օ
##ໞ
##ീ
##ᘈ
##ܤ
##ࡨ
##ྈ
##উ
##গ
##🍗
##ٮ
##ત
##᳙
##ၸ
##⍾
##ڡ
##⋬
##ᾏ
##ǋ
##🍹
##ࢃ
##ෳ
##׺
##᮷
##౜
##ం
##ࣿ
##ѓ
##ӌ
##ࢿ
##ᮽ
##ٯ
##ᚃ
##హ
##၇
##ؠ
##ᎆ
##Ծ
##Ч
##ࢌ
##Ը
##ް
##ᘫ
##న
##🏫
##ܝ
##Ւ
##ᣆ
##⋦
##🥤
##ೲ
##ؚ
##੎
##💨
##⍿
##ഽ
##җ
##झ
##ၖ
##ל
##Ў
##݌
##ᛞ
##Щ
##֥
##ᣢ
##Ӱ
##ဦ
##㋕
##ኊ
##Ⳡ
##ٍ
##ັ
##࢔
##੟
##ጘ
##ॉ
##୼
##୷
##ϑ
##৕
##ு
##🤮
##ࣰ
##ኳ
##👌
##ࣦ
##ᗢ
##ˡ
##⇗
##Չ
##೹
##ת
##ఏ
##ߛ
##⮶
##ܨ
##֐
##࿠
##ወ
##߁
##Ꭰ
##ࣈ
##ٱ
##Ⴝ
##ฯ
##΅
##ᮻ
##Ӭ
##᎞
##౔
##֞
##נ
##ၡ
##ᐿ
##᭷
##ձ
##⃺
##ٸ
##ಀ
##൓
##Ӷ
##🤞
##ͺ
##ಮ
##ੳ
##ӏ
##🍫
##આ
##ॻ
##ူ
##ጳ
##ࣽ
##🛐
##ᰡ
##ђ
##⊅
##֏
##ቚ
##ʱ
##᪖
##ጹ
##ﬀ
##੤
##ܮ
##಴
##૞
##Ո
##◄
##ਂ
##޽
##ڇ
##💚
##਼
##֦
##ࡒ
##├
##᧜
##մ
##๦
##ॶ
##ឹ
##ݏ
##ේ
##߭
##᮹
##֭
##᜞
##݀
##ᰘ
##🍬
##ኺ
##ࠟ
##්
##Ӄ
##┐
##ါ
##ܵ
##ഷ
##ઑ
##֙
##῏
##ઈ
##ಓ
##๬
##ጚ
##ڝ
##ૃ
##ሗ
##ԏ
##ఝ
##௹
##ቆ
##Ⓣ
##🙃
##ֱ
##😺
##ಐ
##Ѫ
##໅
##ᓹ
##෮
##ӭ
##ୋ
##ᒽ
##Ԓ
##ྫ
##Ḳ
##ן
##ܑ
##߻
##ׇ
##ഡ
##स
##ᾷ
##ᨠ
##ೱ
##ဒ
##ᙈ
##ֻ
##🏍
##း
##੺
##Ẁ
##ע
##ṓ
##🍊
##🍇
##🍒
##🍑
##ণ
##ᾛ
##ࡥ
##ట
##ỗ
##ᰈ
##ೡ
##ࠁ
##ӛ
##ݒ
##🍍
##ٔ
##४
##ૠ
##ᔁ
##့
##ऊ
##ྃ
##᯹
##എ
##⇐
##஘
##ࠔ
##ӷ
##ﺜ
##ళ
##࣓
##୬
##࡜
##௅
##ޫ
##഼
##ﻔ
##ﻠ
##ﳜ
##ጤ
##ῼ
##👽
##ʴ
##࿁
##ᚾ
##۪
##ڈ
##🍜
##🍙
##😶
##ᱨ
##ஒ
##ৗ
##ච
##٤
##ϵ
##Ѩ
##݇
##૷
##Ằ
##℄
##ଖ
##ຘ
##៏
##௾
##ઙ
##ᚕ
##׬
##ၤ
##߫
##ࢊ
##๠
##≰
##ോ
##ḳ
##ԃ
##ᢺ
##⪰
##ୈ
##ӊ
##ኴ
##ஃ
##ڸ
##๹
##Ӟ
##⑛
##ׅ
##ဵ
##෫
##Ѝ
##ᾊ
##ಆ
##ѯ
##௷
##Ѻ
##ႄ
##␵
##Ⴧ
##ט
##ܭ
##📲
##🕯
##ҁ
##Ԝ
##ᠣ
##᭤
##Ҡ
##👯
##உ
##🤹
##ݬ
##😼
##⺑
##🎁
##ܣ
##ڍ
##💻
##ࡂ
##ဣ
##ర
##߲
##ౝ
##㉪
##घ
##ٲ
##Ⴛ
##኎
##ߤ
##ભ
##֕
##😆
##🌅
##༰
##໹
##ོ
##ᵬ
##ߏ
##ѿ
##ቅ
##ት
##🔱
##ᚸ
##ᘊ
##ڞ
##Ꮖ
##ڙ
##ᓗ
##Ԙ
##֩
##ϓ
##༯
##⇘
##ێ
##ൻ
##᭘
##௤
##🕺
##Ә
##आ
##౓
##଑
##ဃ
##ࠤ
##ኙ
##Ꮁ
##㋷
##᏿
##ጮ
##㌡
##ࠣ
##կ
##˝
##💘
##఩
##ও
##ஹ
##Ⴜ
##Ὂ
##🛴
##வ
##ഌ
##സ
##🦄
##💐
##द
##≅
##ᠲ
##ٞ
##ۈ
##ࡷ
##ᖠ
##┦
##ጭ
##ᯆ
##ޔ
##ٳ
##᳔
##🏳
##࢈
##🖥
##୭
##ኅ
##ૌ
##⋁
##⓷
##ϕ
##ќ
##ታ
##೘
##ኑ
##ቖ
##ক
##య
##ର
##ጕ
##ڃ
##έ
##ᥛ
##ਾ
##ؗ
##ጯ
##ఽ
##᷻
##ࣗ
##👈
##Ἧ
##࢑
##ڔ
##ḕ
##⃫
##Ꮫ
##ؘ
##ԇ
##்
##޳
##💵
##ᭊ
##Ж
##ӆ
##હ
##዆
##ڥ
##߅
##ᶗ
##ႀ
##ኜ
##੫
##Ꮴ
##ፄ
##ޜ
##ۏ
##᪙
##⎛
##ᡃ
##ᡅ
##ಖ
##ᶌ
##໋
##ԧ
##Ὠ
##ټ
##಺
##૛
##ྒ
##݅
##⪹
##ᔺ
##চ
##ᶔ
##֓
##ₜ
##෬
##ᚨ
##߼
##༗
##⅄
##🎷
##Ց
##ῧ
##ᮾ
##🍖
##🥚
##န
##ⳗ
##ᦄ
##ј
##჈
##💴
##💲
##ު
##ቶ
##˚
##๖
##ቃ
##⩯
##෿
##դ
##ߣ
##Ԩ
##Ⓑ
##ۅ
##౸
##஠
##📍
##ᯭ
##ᔰ
##ޘ
##ᚽ
##ၟ
##਄
##๰
##Љ
##౴
##େ
##ဢ
##ี
##🙌
##஁
##ڱ
##ቸ
##ۇ
##Ҋ
##ᶜ
##🏹
##݃
##🍼
##⋿
##🤡
##ὅ
##ℍ
##ѱ
##ᖓ
##൹
##ੲ
##׈
##ഁ
##ծ
##ᡍ
##ۿ
##ഘ
##ݾ
##ਁ
##Ḛ
##୥
##ᛎ
##ᒷ
##ᗣ
##🍸
##ۃ
##ۆ
##૒
##Գ
##ӡ
##౿
##ᵏ
##ԣ
##ḛ
##ᴮ
##᱑
##ڊ
##ࢭ
##ѵ
##Ǆ
##ਅ
##⯙
##ค
##ඡ
##Ύ
##࡯
##ߘ
##ఆ
##ැ
##⎌
##቙
##≬
##⒔
##😢
##ྴ
##ᜃ
##׶
##ᢰ
##᭦
##Ⓞ
##ધ
##լ
##௧
##௖
##ଈ
##👴
##📱
##᛿
##࠭
##ྖ
##ࢽ
##૲
##ױ
##੉
##⌖
##℧
##ஜ
##ᑿ
##ᙲ
##૔
##డ
##ࠎ
##ᢶ
##ີ
##ւ
##🗽
##🗼
##🎠
##🗻
##🌄
##࣋
##Ҫ
##ጴ
##ᦐ
##┨
##Ṹ
##௞
##঒
##ᕷ
##ứ
##ּ
##Ꮔ
##ڭ
##౒
##ᕞ
##ྐྵ
##י
##๼
##ঈ
##න
##২
##ङ
##՘
##┼
##ொ
##ঃ
##⃴
##ഴ
##޹
##🍾
##Ꮛ
##Ꮜ
##ࡲ
##ሳ
##🤿
##ٚ
##؇
##ܽ
##Ꭾ
##ࡣ
##዗
##ሷ
##٩
##ಃ
##ࠃ
##ૣ
##ǉ
##࠯
##Å
##ᢠ
##᛺
##ຌ
##ᚉ
##᎝
##᧛
##޵
##Ḥ
##࣬
##Հ
##㋇
##Ⴢ
##஦
##֢
##ၷ
##ޞ
##೿
##ᘵ
##ద
##৚
##ਪ
##ᔪ
##߉
##ބ
##୸
##ݲ
##൴
##඘
##ᯱ
##ঢ
##݂
##ࣱ
##⎇
##ྤ
##ௐ
##࡟
##᪻
##🤦
##ޅ
##ߴ
##ڵ
##୆
##࿛
##᫖
##û
##ࡃ
##Վ
##ࠒ
##ừ
##🟡
##޴
##ง
##ઔ
##ੵ
##ې
##㉼
##೷
##ᬀ
##߰
##Ү
##र
##Ҁ
##ࠗ
##ᢲ
##៥
##ࠛ
##ચ
##঄
##😻
##ፍ
##࢚
##౅
##঎
##ݐ
##൐
##Һ
##ἀ
##᭏
##௺
##Ӿ
##ѣ
##ะ
##࣪
##Ѭ
##ᚴ
##ᘚ
##ވ
##ῷ
##ቦ
##எ
##џ
##⃷
##ߖ
##੻
##᪽
##ና
##ף
##அ
##አ
##ᢨ
##ḵ
##ၲ
##ၳ
##↊
##⊒
##ᾑ
##ழ
##ٺ
##ݠ
##࢝
##ԝ
##۾
##ᯖ
##ҏ
##ᡏ
##🐣
##௼
##৖
##ֳ
##ಇ
##֣
##📹
##ḙ
##ᚡ
##ጛ
##ﺐ
##ﻋ
##ﺎ
##߿
##ٿ
##♦
##Ջ
##ὴ
##᭵
##ૢ
##ӈ
##೻
##᧮
##஀
##౫
##ᰊ
##މ
##ߝ
##൩
##🤓
##ٜ
##ࡺ
##ࠋ
##ۖ
##؈
##💊
##🔔
##ᣔ
##చ
##ే
##ຍ
##ຜ
##ၙ
##ܦ
##ᚩ
##🏾
##᠋
##㉿
##ᛯ
##೏
##ࠊ
##ӿ
##ࡻ
##೟
##ڗ
##ࠥ
##۫
##և
##ᕁ
##߈
##⃚
##ᘉ
##ຏ
##ᶈ
##ݪ
##ᰍ
##ኘ
##🐬
##🐳
##🐋
##🐡
##ᐐ
##ѭ
##👊
##😥
##ἒ
##૸
##ۓ
##՗
##Ս
##ጙ
##ᔧ
##ᾋ
##☆
##᠘
##ᐥ
##࣌
##ެ
##ࡘ
##ଋ
##🧸
##ܚ
##୾
##┷
##༥
##ᓁ
##🏇
##˛
##֎
##੪
##ఉ
##ᜣ
##≞
##ニ
##Ṅ
##Կ
##֨
##᭶
##ऄ
##ᔾ
##ग़
##उ
##౰
##ᢾ
##ឮ
##ዌ
##Ӹ
##ំ
##Ꮉ
##ၥ
##੷
##ߨ
##൬
##ᚲ
##🏆
##😪
##💤
##ǲ
##ᛙ
##ݹ
##ྥ
##໙
##࠮
##ഃ
##ֺ
##ഐ
##ቲ
##ӫ
##௎
##Ⴤ
##൧
##∪
##Ы
##఺
##৑
##Ḧ
##ח
##Ꮄ
##ᐛ
##ֽ
##ড়
##ࢹ
##ᔥ
##݄
##ᝑ
##ḱ
##🛍
##᪞
##👁
##ጆ
##ᢢ
##ṹ
##ⓗ
##ࠍ
##😤
##ᣅ
##⃮
##Ⳍ
##অ
##த
##ၫ
##👅
##ޡ
##😰
##ు
##⑫
##ֿ
##ன
##Դ
##৻
##ߓ
##ව
##😇
##🏐
##🏎
##৬
##জ
##ජ
##㉨
##ो
##֧
##🐛
##ऩ
##ਙ
##଍
##ਰ
##८
##ሕ
##ؔ
##🤙
##ᚳ
##Ꮺ
##🎓
##ූ
##प
##ާ
##য়
##ࡿ
##ొ
##ඪ
##ተ
##ຄ
##៍
##෼
##💩
##۟
##ၞ
##ᘟ
##ޒ
##ޑ
##⌗
##ᘑ
##๫
##ၕ
##ኛ
##ਹ
##੹
##ٙ
##ׯ
##ऋ
##👉
##ℰ
##┤
##⊕
##ᘀ
##ϖ
##ఐ
##ᘼ
##ݸ
##ᔯ
##ޟ
##ߧ
##᭮
##ፂ
##ஊ
##㌢
##ࢧ
##ӻ
##⊦
##⎲
##⌙
##ੂ
##🍺
##्
##ᰶ
##৹
##ਘ
##⊭
##್
##ᛊ
##ߐ
##ҿ
##ྜྷ
##ᒼ
##຃
##݆
##ቤ
##ݚ
##ࡐ
##ࡑ
##ⳝ
##↢
##๥
##ⅷ
##👑
##ࢉ
##Ӆ
##भ
##🌃
##⃙
##Ⓧ
##൤
##ਝ
##🐞
##🤫
##ॅ
##Ꭶ
##ﺠ
##ೠ
##😑
##ം
##ঝ
##🩸
##🥀
##ፀ
##૩
##ᖆ
##㌰
##ᣦ
##ָ
##֫
##Ѳ
##ᣁ
##Ḕ
##ቐ
##೯
##০
##ࡶ
##࡝
##ࡵ
##ࡡ
##⑬
##ጉ
##ᶞ
##౞
##௥
##⪸
##⪏
##⋩
##੨
##ӕ
##૪
##⌮
##ು
##ఢ
##ఴ
##֡
##ի
##ࠠ
##ఄ
##శ
##ٻ
##৙
##🐶
##́
##ᠭ
##ీ
##ଥ
##࿢
##ঘ
##ᦴ
##ॱ
##🐽
##ች
##࢟
##ᮺ
##׊
##ኻ
##ᓄ
##🔪
##ս
##🔧
##Ṁ
##᪟
##ኄ
##ኌ
##ཾ
##ർ
##💧
##ݜ
##Ⱗ
##ᯗ
##🎦
##ீ
##🙋
##ᶊ
##ଫ
##ᛖ
##ᯥ
##ܖ
##ඵ
##ॊ
##↜
##ᖫ
##ဿ
##🩷
##ΐ
##ထ
##ᔅ
##ḃ
##ᐶ
##ᘥ
##Ӕ
##ࢼ
##഻
##੭
##ᝅ
##∳
##ே
##Ⓢ
##׮
##ڪ
##ẗ
##⫈
##ڨ
##Ր
##෹
##🧜
##ળ
##ҕ
##һ
##෕
##ྭ
##🍃
##Ụ
##ಲ
##ඨ
##ࢣ
##ཁ
##य
##ရ
##᧟
##ₓ
##ࡈ
##॓
##࢐
##݉
##ቺ
##🩵
##Ԛ
##ঋ
##ࢾ
##௩
##࡙
##ⓓ
##ᔶ
##ૻ
##᎖
##👋
##ᰐ
##ট
##ৣ
##Ⴋ
##෽
##Ṙ
##ܴ
##ᤓ
##Ћ
##ݍ
##ጜ
##ኤ
##ச
##ղ
##म
##ፃ
##⤲
##ྷ
##ὑ
##ࠢ
##ޙ
##స
##᛾
##ߺ
##ᣝ
##॔
##ࣾ
##ᗙ
##᧷
##ٽ
##૽
##💭
##ᓝ
##ᘿ
##ڂ
##ᔆ
##࿸
##ھ
##ஆ
##ٟ
##ໂ
##ϰ
##ߢ
##ݨ
##޷
##ᯛ
##ϴ
##🎊
##≓
##ኋ
##৪
##Ⴠ
##ᵨ
##֔
##ఇ
##ష
##ᓸ
##⏆
##ေ
##਻
##ౡ
##ಬ
##ࡎ
##ൈ
##⊋
##ⸯ
##ဖ
##ጂ
##ᕆ
##ႉ
##ᕖ
##ៃ
##ࣻ
##᠟
##㋘
##ੰ
##ߕ
##🌙
##஭
##ܠ
##Ⴀ
##␩
##࣭
##Ⴕ
##↠
##ߊ
##᧻
##᫃
##ᶒ
##ਫ
##ቧ
##Ṏ
##૬
##ݖ
##🍪
##⎒
##ἳ
##۶
##Ⴘ
##আ
##ၗ
##ᢡ
##཮
##௢
##ᑋ
##🍘
##ࢩ
##Ӊ
##ᛔ
##ℹ
##Ặ
##Ẹ
##շ
##ᓆ
##ര
##ޯ
##Ӛ
##ॎ
##֟
##ఌ
##ऺ
##ऱ
##᧞
##Რ
##े
##៊
##ဥ
##ᾢ
##ྡ
##🖤
##ﻬ
##ﻓ
##ज़
##⥿
##ᒹ
##ጀ
##ഹ
##֝
##᎛
##ጦ
##೼
##⹏
##ᛋ
##ᶅ
##ቀ
##᧹
##⪭
##ק
##၃
##ᕊ
##඲
##≝
##๸
##᭧
##ૺ
##ҟ
##൏
##ၠ
##ژ
##࣐
##ᒨ
##⑳
##Ԋ
##ޠ
##ⳟ
##઄
##श
##ై
##᫘
##🍲
##཯
##᫑
##Є
##ছ
##ঞ
##׼
##ۑ
##⇵
##ᱹ
##🎼
##ᐾ
##ቮ
##ݮ
##ḓ
##ฬ
##௏
##ٌ
##ட
##ᰋ
##౵
##ӓ
##ᛀ
##🌀
##৯
##⃄
##Ⓚ
##᯷
##࿫
##૫
##Ⱅ
##ۂ
##஋
##≽
##≾
##㌆
##🎸
##Ꮰ
##Ӑ
##ۀ
##ဋ
##🍭
##🔮
##ம
##Ꭱ
##ሁ
##ඥ
##బ
##ז
##⤁
##Ტ
##⌷
##ቱ
##ᯚ
##ᎂ
##ᰉ
##┝
##⑥
##ℳ
##ᵎ
##ዸ
##ບ
##ဇ
##⩏
##፽
##ጝ
##པ
##ၵ
##ኣ
##៩
##߳
##᧺
##࿾
##᭯
##೾
##᮵
##ཨ
##ᷗ
##ऒ
##ঽ
##ਇ
##ྞ
##஢
##ᛳ
##ౘ
##ೂ
##ౚ
##ߟ
##Ѥ
##ጷ
##ጸ
##Ґ
##௡
##᭑
##╁
##ߙ
##ⓛ
##ॏ
##ᰃ
##٢
##۽
##ၱ
##ᘜ
##ቷ
##஝
##ٕ
##঻
##ဍ
##ၨ
##ࢬ
##ᶖ
##Ѡ
##ఓ
##໰
##ᝇ
##ྵ
##ᚣ
##቉
##ᕟ
##ջ
##औ
##⌜
##ເ
##଱
##ඦ
##⤉
##ྙ
##😏
##ᓦ
##Ӫ
##⯄
##࣒
##᭨
##ⓝ
##💿
##📀
##📖
##ኃ
##౳
##۬
##᧶
##ࠨ
##📷
##⊄
##᮶
##ᣡ
##ᘄ
##௻
##🌭
##🍨
##🍩
##ᚱ
##ᖩ
##ᯯ
##ᓢ
##ۄ
##௫
##਒
##ᑣ
##ગ
##Ꮂ
##ટ
##थ
##🐱
##ΰ
##ಝ
##΅
##🫀
##⎀
##١
##੔
##؋
##૵
##࠿
##ᘎ
##ᶄ
##ࣝ
##ؕ
##㋩
##೅
##ା
##㉻
##ࣴ
##৘
##Ӳ
##🐦
##়
##😣
##⍓
##ᯨ
##଎
##૤
##१
##᳚
##ु
##ە
##֘
##ṑ
##┉
##጗
##ᚌ
##ځ
##ၢ
##ᠥ
##጖
##🔃
##ᛚ
##ງ
##ၔ
##🏈
##କ
##ঔ
##಄
##ډ
##ौ
##ጌ
##⤛
##👶
##ㄊ
##🌤
##਌
##ቻ
##ⓖ
##ḹ
##ॲ
##ሹ
##้
##🌼
##ഝ
##ಛ
##ଶ
##Ჿ
##⳪
##😈
##ႜ
##ᢻ
##🏺
##🪬
##🐆
##क
##ࠈ
##Ӥ
##ᚧ
##೰
##ౄ
##ቹ
##ה
##⋎
##ᔖ
##ᔠ
##ঁ
##ৰ
##׫
##Ꮀ
##ங
##਩
##ᜡ
##ూ
##๳
##ⓑ
##ී
##ၾ
##💸
##᠌
##ܞ
##ፘ
##┪
##⿇
##℉
##঱
##ෛ
##ࢎ
##༱
##గ
##ृ
##၄
##ၜ
##🗨
##ڕ
##೓
##ᖔ
##㉵
##ᕼ
##ḫ
##ഀ
##ପ
##ᛩ
##💱
##࣯
##᱅
##ᗼ
##ᓿ
##ۗ
##ோ
##⊆
##Ἱ
##⊛
##👐
##Ⳣ
##௟
##⍋
##ઁ
##🦳
##ॕ
##ࡇ
##ቭ
##ᔤ
##Ⴔ
##Ṟ
##Ѕ
##᮴
##ᛐ
##⎦
##⎧
##Ⴡ
##ආ
##൫
##👿
##ᝥ
##㊕
##᯲
##ౣ
##ധ
##ⳑ
##๺
##૑
##👰
##ࢆ
##ఱ
##ଊ
##ፁ
##९
##Ꮈ
##ڹ
##ቾ
##ࢋ
##ു
##🤠
##≍
##ධ
##ૼ
##ພ
##צ
##ො
##ड़
##ᢤ
##ࠪ
##ὰ
##Ꭼ
##ይ
##༙
##⩨
##╂
##Ꮵ
##ਧ
##∲
##ቴ
##🐑
##ࣳ
##Ꮝ
##ၓ
##ࡏ
##फ
##Ꮆ
##ሶ
##₲
##௮
##ն
##஼
##≶
##ভ
##ږ
##≫
##ข
##੘
##˙
##ࡋ
##ὄ
##ຠ
##౛
##🍂
##ଃ
##ᓎ
##ᔊ
##ᛗ
##⓪
##ᨋ
##㋪
##࣢
##ॄ
##ㄖ
##🌁
##ᔴ
##ဟ
##݋
##఼
##ᾧ
##🔊
##ጾ
##Ꮞ
##ཙ
##ռ
##ଁ
##ᔋ
##ઘ
##ߑ
##ᯬ
##Ꮡ
##😵
##Ҽ
##৿
##߂
##ဲ
##㋾
##ဈ
##஧
##Ⓩ
##ঀ
##Ⳑ
##ຽ
##༭
##ﻴ
##ﻐ
##ﻟ
##ﺑ
##๾
##ٛ
##ᨡ
##ྲ
##ൃ
##ݩ
##၀
##🌚
##౹
##Ꮐ
##ߜ
##࢓
##౧
##㌋
##⃛
##ڄ
##అ
##ढ़
##ా
##⍍
##ᰅ
##ᖧ
##ợ
##℈
##ᗚ
##᭩
##੊
##ᗏ
##Ⳝ
##᭰
##᷾
##ྚ
##ࣤ
##੠
##🎭
##੕
##஌
##⊽
##ṟ
##🔌
##🪴
##᫐
##Ί
##ៅ
##៌
##῔
##ু
##վ
##⃾
##ৱ
##ॡ
##ݫ
##ᒯ
##ۮ
##࡬
##᜔
##ہ
##ℋ
##஛
##῝
##࿲
##📉
##ᔗ
##ި
##ނ
##⎄
##⌔
##⌕
##ਗ਼
##੸
##⎱
##ጢ
##Ꮽ
##ࣷ
##റ
##࣡
##㊤
##᷺
##ᮭ
##ఁ
##᧥
##ࣃ
##ቒ
##⺓
##ዻ
##ஶ
##ண
##ᕱ
##ࡧ
##🎃
##🎪
##৞
##฀
##≖
##⪍
##ᬇ
##ᯇ
##ᯮ
##ৈ
##ᕓ
##ఞ
##ဗ
##᧲
##഑
##🤛
##ఋ
##૥
##ᒏ
##ᑫ
##ڒ
##ዺ
##⺘
##ᒾ
##ᐮ
##ݼ
##ി
##ᦍ
##׋
##ଂ
##၅
##ࠦ
##ᖈ
##ސ
##ઽ
##ᔱ
##⍒
##۩
##᳏
##ശ
##ᾇ
##⊯
##㋶
##৛
##ౢ
##ྕ
##ந
##Ỹ
##ⳛ
##ሌ
##ጁ
##ṋ
##ᰦ
##≳
##ᜋ
##⊍
##୽
##ᕢ
##⫉
##࿣
##┞
##ៗ
##༞
##ҡ
##ᡓ
##ᡔ
##⋋
##🍶
##🐭
##ઌ
##🪐
##🧢
##⤄
##஍
##ࢢ
##؏
##⥈
##ፙ
##ᤞ
##ၛ
##ዾ
##ᣗ
##Ꮊ
##᯺
##ൂ
##ᣞ
##௣
##ং
##౪
##ਊ
##≙
##਀
##ᨼ
##ᕘ
##⯭
##༘
##੒
##ᯟ
##ጼ
##ݿ
##Ꮓ
##ᒶ
##ྸ
##៟
##ۦ
##ន
##ⳡ
##🤐
##🐐
##🐄
##஫
##ற
##ଦ
##৭
##༵
##ᑀ
##্
##Ⴣ
##ࢍ
##ޛ
##῞
##፼
##ਲ
##ẃ
##᳊
##࿗
##ポ
##⎃
##ୌ
##ᤗ
##ḿ
##೺
##໎
##ӯ
##ഺ
##🍄
##ᯠ
##Ѷ
##🍱
##႓
##෭
##ቼ
##ܟ
##ᣐ
##ڀ
##🛵
##ጻ
##௉
##ၒ
##ᣙ
##ઊ
##ַ
##🍝
##🗮
##෪
##⃳
##⋰
##💞
##ଅ
##ᾓ
##😨
##ᓵ
##🚴
##౼
##ਸ਼
##ᛨ
##Ꮳ
##๩
##เ
##ে
##ವ
##⫔
##🪂
##🛸
##🌜
##🌕
##👣
##⃧
##ᒰ
##ည
##📽
##ቓ
##ᮿ
##ູ
##🏀
##܎
##ۛ
##๧
##ᾪ
##៑
##Ꮒ
##ጟ
##ီ
##≠
##ѕ
##෨
##᢯
##〷
##ᝀ
##᧙
##ࠫ
##⯁
##ⳬ
##ຑ
##᧬
##࿿
##Ⴚ
##⃪
##⍞
##╄
##থ
##ྡྷ
##㊜
##ؒ
##⌱
##զ
##ቋ
##ਜ਼
##ᕋ
##📛
##ቍ
##Ꮃ
##ᓺ
##🏡
##ఠ
##࣍
##㊣
##⪒
##ঌ
##ျ
##൒
##ܛ
##Ꮘ
##఻
##ᘝ
##ᡉ
##ফ
##࿽
##ਸ
##ᘇ
##〴
##ᘾ
##ṏ
##ݟ
##઺
##ၹ
##ᰒ
##Ҧ
##ੜ
##ऎ
##၉
##ᔌ
##🐴
##ℶ
##ै
##ዋ
##ஔ
##㋊
##🤯
##ᡁ
##Ⳮ
##ᔻ
##ᚑ
##ಱ
##ࣄ
##ԅ
##๷
##ૐ
##෱
##ؙ
##㉱
##೗
##ℸ
##K
##ቫ
##ቔ
##ൢ
##ൣ
##␦
##ആ
##〄
##ᮯ
##ᘮ
##ְ
##⋞
##ᰕ
##ಜ
##┰
##ᠬ
##ྋ
##౑
##ප
##᭒
##၂
##ణ
##∸
##ઋ
##Ὼ
##ᰇ
##᮲
##ல
##ࠬ
##⍬
##🧐
##౥
##⑍
##⑎
##↞
##Ⓖ
##ఈ
##ᷫ
##࿱
##ె
##Ẳ
##ẳ
##👂
##ᙎ
##ޏ
##౭
##జ
##ࢦ
##₟
##ᱢ
##ᾰ
##ᖨ
##᎟
##ᛷ
##ࡠ
##ᡐ
##⧬
##ᕤ
##⩙
##ႁ
##໼
##⒀
##⃕
##ࠅ
##ᔐ
##է
##ೋ
##ሯ
##ෙ
##പ
##≆
##኉
##ࣖ
##ᗍ
##ན
##೬
##⩡
##ҍ
##ஞ
##౨
##᭫
##໌
##ﱠ
##ﻨ
##ᐏ
##ሱ
##📠
##ႈ
##ࡼ
##₣
##ᾭ
##ᕥ
##ਯ
##ᕀ
##ᭌ
##ᒩ
##ਕ
##ถ
##അ
##ಌ
##ࠕ
##😦
##૏
##౯
##ᐱ
##ב
##દ
##क़
##ኒ
##Ⴙ
##ݵ
##൵
##ࣜ
##ӗ
##🐍
##঩
##↝
##ṱ
##ދ
##㊅
##଒
##ީ
##٘
##🌴
##⊊
##ᡎ
##๭
##ࣙ
##෯
##ۜ
##💔
##໮
##᯴
##ࣞ
##ᮼ
##෉
##ᱩ
##ᶃ
##Ѧ
##㋮
##🥇
##၆
##∵
##⊧
##਑
##ᚖ
##ṃ
##ฆ
##ᘻ
##ࣁ
##⋢
##ಟ
##ᔄ
##⃭
##Ꮍ
##ඟ
##ᑙ
##Ả
##ᵗ
##㋳
##ᔦ
##ᐍ
##ᗲ
##ޚ
##ኽ
##ग
##ẽ
##࣫
##⠥
##ᦵ
##ؖ
##🎋
##ݴ
##෾
##🤷
##ࢠ
##ẛ
##ᶠ
##Ⴊ
##ଵ
##Ӵ
##Ꮋ
##ႋ
##⹕
##ၝ
##᥀
##ો
##᧔
##ḅ
##≺
##ధ
##බ
##⋙
##ࡢ
##៣
##ḋ
##া
##ⳓ
##ྂ
##ញ
##ୠ
##ୂ
##ᕃ
##Ḣ
##㌄
##೜
##ᛲ
##༤
##💅
##ࢡ
##ᛣ
##ॽ
##ॾ
##Ꭻ
##ኞ
##ⳏ
##૜
##ᘱ
##൥
##য
##᭭
##ྠ
##ଆ
##ࢸ
##మ
##৽
##ၣ
##ㄘ
##ॸ
##௒
##⌨
##ᒗ
##ᛮ
##ᾟ
##ᠨ
##⋸
##≿
##ᾩ
##ଔ
##⪎
##ଇ
##ῄ
##ᙇ
##ഋ
##೪
##🍿
##Ҿ
##ᾠ
##ⓡ
##ᰧ
##൱
##ዠ
##🎒
##࿼
##ೈ
##ቕ
##ႂ
##⊼
##≩
##ᔵ
##ख़
##ओ
##వ
##🌝
##ࣉ
##ဤ
##🚬
##ះ
##ੁ
##≏
##Ⴂ
##༜
##㊨
##ቡ
##👄
##🙆
##ද
##ᶆ
##኷
##ῲ
##ᷬ
##ਡ
##⧌
##ግ
##ඩ
##ҷ
##⋺
##ᔂ
##ఊ
##੖
##౾
##ᐖ
##᭬
##ນ
##᫏
##ῌ
##ո
##ౌ
##ᣎ
##⩚
##≒
##ླ
##㌽
##🎨
##ਫ਼
##ᕨ
##ở
##ᶉ
##㌟
##⑶
##ബ
##ℐ
##ᯫ
##ଞ
##Ⳙ
##খ
##ᛴ
##ቨ
##ᓡ
##ᕉ
##౏
##⍹
##👹
##࢞
##ݢ
##ડ
##ồ
##မ
##໺
##㉺
##ᖱ
##⍌
##๤
##ጽ
##🦱
##👭
##ẕ
##˜
##୘
##࣏
##Ӝ
##㊭
##࿅
##ℤ
##က
##🧀
##ቪ
##ృ
##ᢧ
##ࣚ
##´
##㋂
##ᖂ
##ᷜ
##༸
##༿
##֯
##༣
##ጧ
##Ҩ
##ࣔ
##⇔
##ᘶ
##஻
##ਤ
##⋍
##⳱
##ᦃ
##㋉
##ಂ
##ᚻ
##ื
##㌭
##ⳉ
##଀
##୻
##ฃ
##ก
##🏁
##ᖍ
##ಎ
##቟
##Ὸ
##ᰢ
##㊱
##🍷
##🍡
##🍻
##ἧ
##ሔ
##ᝊ
##⊴
##💁
##ᶐ
##ރ
##Ꮶ
##🥭
##🥑
##ว
##≋
##Ἒ
##ᚼ
##🤚
##౻
##Ⴟ
##≨
##ः
##┅
##ຟ
##ᑱ
##១
##᧳
##ᗯ
##င
##Ὣ
##ᚰ
##᭕
##ᰟ
##┘
##🍞
##🍢
##┹
##ᐒ
##ḯ
##💉
##ຈ
##∔
##ய
##࿇
##⪅
##భ
##ཞ
##ธ
##℮
##ৠ
##₷
##😮
##㋒
##ḭ
##ࢪ
##ᔔ
##ಒ
##ྌ
##㋙
##ኬ
##ᕅ
##ፉ
##ᓣ
##ᛓ
##ᛄ
##ሽ
##བ
##ὼ
##ᕦ
##෰
##ၻ
##ඣ
##௰
##⊸
##ࡆ
##࢛
##㋗
##჆
##ᷧ
##ଌ
##੾
##᳹
##ṍ
##༬
##ᭉ
##ಡ
##🌵
##᧰
##🦔
##໨
##႑
##૙
##᷄
##঴
##ࣂ
##߄
##ᡭ
##ᕎ
##ᣀ
##᭴
##ᔕ
##જ
##ට
##ଡ
##ᔉ
##ྫྷ
##ᳫ
##⪋
##la
##er
##in
##an
##ir
##en
##ın
##ar
##lar
##il
##ma
##ek
##ak
##el
bir
##un
##le
##or
##da
##ler
##de
##lı
##iy
##im
ve
##dı
##ik
##ün
de
##et
ka
##ur
##tı
##es
##di
ya
##on
##iz
##ya
##lan
da
##ra
ol
##em
##ey
##iş
##du
##st
bu
##ür
##den
##sı
##al
##at
##ların
ba
##dan
##mı
gö
##li
##ini
##ta
##yor
##um
##ok
iç
##ğı
##sın
##ine
##am
##ları
sa
##ık
##ce
##ti
##lu
##iyor
##ır
##it
##is
için
##ay
##ük
##ıl
an
##üz
##bil
##mak
##ca
in
##şı
##ul
gör
ha
##üm
##ol
##üş
yap
##inin
##ha
##inde
##ev
baş
##dir
##iler
et
##uş
##ını
kar
##eler
##te
##mış
gel
##me
##dır
##sa
##oğ
##mek
gi
##leri
##unu
##cak
##ği
##anı
bil
##bi
##lık
oldu
ger
##az
##ında
son
##yle
değ
##yı
Bu
##miş
on
##lik
##eç
al
##ara
ön
##ec
##ut
##ön
##ki
##esi
ken
##ka
##tir
ne
ta
##se
##tır
##larak
##ül
il
kad
ay
##iye
##cı
ver
ara
var
##us
olarak
##uz
daha
gibi
ed
sö
çok
##op
kon
yer
iş
##len
ar
##ah
olma
olduğ
##eni
##ına
olan
en
çık
##aki
##arı
ça
##iç
##ız
bü
##ez
düş
##san
her
##eye
##aş
##uk
aç
##yla
##lerin
##man
##yan
şey
##eki
anla
ile
##bilir
##aman
##eş
##ip
ist
geç
##tan
or
ola
sür
ko
##ken
##zer
ki
zaman
yan
##maya
kadar
yaş
##laş
##ış
değil
##dığı
##ından
##ecek
##ması
##lış
##ci
kur
gün
##ru
dur
##ba
##ed
doğ
##uy
##iyle
karşı
##daki
##mız
öz
##sında
bul
Bir
kal
top
bel
##imiz
##as
##yordu
##ece
##lü
##ının
sonra
ben
##lara
insan
##inden
##larını
##leş
##ğını
dön
ama
##ro
kendi
##diğ
##unun
gerek
##ili
##ası
##ım
##sel
##ark
bö
üzer
##enin
yıl
##tur
##ör
sor
büy
bak
##unda
##ist
el
düşün
An
yüz
##ih
tek
##lama
ak
##ep
dev
yaz
##una
gü
##bir
##ten
##os
uy
##dü
kı
##ana
##muş
##cu
uz
##ret
##yi
kap
bo
yok
ev
tar
den
hal
##si
##let
##çek
##tu
##diği
##fa
##iniz
##eri
##tik
##ilm
##om
çalış
##lerini
yön
yeni
##sız
hiç
##isi
gen
##deki
##ürk
büyük
##tü
kul
yak
##iyordu
##eli
##ap
##yon
##eh
##dım
göz
##imi
do
##iyet
der
##gi
##tık
##rı
kend
##der
yapı
##arak
##sına
orta
##ğer
kö
sah
##lem
##ilen
sı
oy
##ab
kullan
##sını
gerçek
duy
##ede
diye
hak
##sal
yar
##gu
Türk
##ster
##maz
biz
ma
söyle
kay
şek
san
##ça
##eyi
##tün
##nı
hem
par
tara
##larda
##larının
olduğu
sağ
söz
##kin
fark
iki
##siz
##erek
ek
olduğunu
##ren
##ğini
bulun
yol
##men
##ğu
taraf
##kü
##dik
##luk
öl
iyi
göster
##ğa
ilk
##ura
gir
dün
açık
ise
har
sev
içinde
##va
##ladı
##lığı
haya
##if
durum
es
belir
##ran
##tür
##meye
başka
önem
neden
kiş
er
çek
##uyor
ada
20
##ünü
kor
##ef
##larına
##oc
mü
ok
##eğ
##na
öğ
##tığı
##mıştı
##elik
##etir
özel
tut
göre
zor
doğru
düz
##dür
##ley
aş
##ic
getir
##eleri
alt
mu
##eb
yet
Ama
di
değiş
##lardan
##lere
az
as
ilg
bile
önce
tem
##makta
alan
##lıyor
şekil
##dur
##ot
##mesi
##bul
ter
##leştir
##dim
##dece
aynı
##zı
nin
##olo
ın
##gı
##lum
oluş
##dık
su
##lk
edil
bağ
##id
bütün
un
##mes
yük
iz
etti
##sun
##anın
##usu
ser
onun
##cağı
##ocuk
dedi
Al
19
bun
##asıl
##mem
olur
böl
tarih
kim
##ayı
##ünkü
böyle
##lay
##larında
Ben
##ter
çıkar
dünya
##kı
üst
##eden
##iyorum
konuş
##lerinin
iliş
##izm
##üne
##aret
git
##ad
##sının
##lak
##larla
kes
##kan
##eket
mi
şekilde
##ünde
tür
##mez
##mekte
##af
##re
##ğın
On
##lır
kü
##liğ
##ber
sıra
ör
at
ede
te
birlik
##oloj
arasında
##esinde
##üyor
onu
##han
Baş
sahip
##sta
geliş
##ıyor
pro
dış
Ay
##lerine
##azla
sav
##ileri
ik
önemli
##öz
İn
##iya
tüm
bek
biç
po
kadın
gelen
toplum
veya
##üs
güç
arka
##likle
fazla
##mişti
##ıp
##ırak
tanı
eğ
nasıl
##lam
kız
##av
boy
Son
etk
##akat
ses
görün
##stan
Her
##raf
ih
tarafından
mı
##up
##ika
##öyle
##dığını
ad
##layı
çocuk
##ver
##ilik
sık
mer
##ile
##liği
siz
tak
bırak
##lerde
##lardı
sonu
dik
farklı
nın
##ydı
mil
##ri
dönem
diğer
kaz
seç
##ağ
##üzel
değer
yaşa
hiçbir
Türkiye
##mayı
##sından
birlikte
##iyat
kav
sal
hareket
##sin
say
##imdi
açı
ortaya
##çe
eş
##art
Ar
##bet
##eyen
biri
Ne
biçim
##ram
bin
çev
sadece
##tıl
##tış
eder
##mıştır
##vet
##nız
Ha
im
hay
devam
sen
##tar
haz
##uv
##müş
din
konu
is
mes
##lerle
##daş
başla
hep
anlam
##ilerin
##çük
##larından
##üp
##olu
##cü
adam
##ven
##düğ
##üt
##maktadır
##del
##acak
mo
##lah
olmak
##mektedir
##çı
yal
##ne
kendis
ülk
sayı
Er
##oy
bura
öğren
güzel
##manın
benim
##ebilir
kita
##ğır
hayat
##unuz
##bilece
##sek
olacak
üç
##diğini
##esine
ona
##üy
oyun
##lendir
üret
##rup
yür
kan
pek
kat
##gün
vardı
koy
uzun
##dar
##tr
##indeki
Ancak
##van
eden
ilgili
kaç
##yal
##lerden
##miştir
##eme
üzerine
##lım
##suz
##ku
##duğu
##iydi
##esini
##gin
tan
bas
bazı
karar
##uh
##lerinde
##mi
artık
yay
##rar
his
siy
düzen
yönet
##lacak
bit
##gun
söy
mut
bana
tam
##kat
##mer
bunu
şu
##oş
ifa
##rak
olduk
ancak
##cel
hat
##lat
##lerinden
##min
öyle
##çi
küçük
üzerinde
##siniz
##det
##mam
##gel
Ba
geçir
##laya
kabul
yalnız
##lük
içer
bilin
Da
ilişk
##tım
yara
hakk
genel
dest
##istem
bilg
En
birbir
hazır
çalışma
kır
sos
##ğında
##emek
haf
##00
dil
film
İş
ayrı
##met
otur
##ban
##elim
yanı
##ılma
olması
saat
Biz
##undan
##elerin
met
nok
##mıyor
##ıldı
##ğına
##laşı
##oz
##ültür
##ni
sanat
etmek
geri
inan
##gil
##kes
##ünün
alın
si
##duğ
##sındaki
poli
uygu
Ken
ot
İs
tes
man
nokta
olmuş
##rim
##tak
Bel
##ga
ye
Sa
koş
##sik
##ince
kazan
##bilecek
yor
Ve
##cek
vardır
dikkat
kez
can
##mal
##he
Öz
##gan
##unca
##sıyla
##ındaki
mek
ora
bilim
tel
##ştır
res
ediyor
yazı
oluştur
görüş
görev
##lanan
##tim
başladı
Av
para
##kez
##uma
##ağı
değildir
Gen
uzak
yine
beni
##ulu
sistem
dav
##madan
ağ
hemen
##esinin
yeniden
##kek
genç
##onom
##layan
dan
##malı
##ge
##dem
savaş
Ak
çoğ
biraz
##mızı
hız
devlet
tah
eski
##kün
Ara
temel
##arım
dönüş
çünkü
taşı
yakın
bunun
yerine
olabilir
rah
##luğ
önc
##meden
siyas
ner
yaşam
ifade
##izi
gön
##ümüz
##sen
##kaç
##larıyla
uğ
##landır
dok
iht
mah
gelir
yüksek
##tiği
##tiğ
Bunun
güven
##çok
Fakat
##ınır
süre
##kanı
##diler
Ma
##ılmış
##ehir
##siy
##bar
##stanbul
##lüğ
bah
konus
##lamak
özg
vur
##cağını
##ime
##kın
kol
##ayet
kapı
mak
##lanma
sorun
olay
yani
##dın
üzere
kültür
Or
ayr
##ira
Bak
##asyon
Çünkü
##za
kendini
##sine
destek
##ov
kullanı
##meyi
##umuz
ür
##lında
##şık
yapa
sar
El
ulaş
İstanbul
yı
##uyordu
iste
As
Daha
kuş
sını
##eti
olsa
başarı
hasta
##iyi
Dev
##ünden
görül
##ali
##mp
yardım
şimdi
##tem
##ch
##nak
çöz
ku
Bil
Böyle
sak
Ka
zamanda
çeş
##leriyle
##eya
Gün
altında
##şa
sınır
kitap
Kar
kork
burada
çar
##ye
##ilmiş
##eğin
bölüm
düşünc
San
##tin
müm
sok
erkek
##ök
##ddi
##ildi
kah
##ıntı
taş
##elen
##iyoruz
##lığın
##üküm
hakkında
##meler
Mar
##gın
istem
Par
##tif
sınıf
bölg
bur
##eceğ
belirt
oda
##ekli
##anız
##uyu
kıs
fır
##kinci
##be
##set
##hur
##nek
##yanın
##tör
birçok
kişi
gider
mümkün
10
gül
Kon
tas
ün
kötü
##tal
##leme
##aten
rahat
##ilmesi
diy
tekn
##imin
çevr
ekonom
##ans
olmayan
##masını
sosyal
ağır
##umlu
##dak
birkaç
##üc
tekrar
##lantı
201
ister
ihtiya
Ro
sonuç
##okra
bağı
##ize
haber
fik
dem
ah
Kur
##sef
çeşit
Fran
yaptığı
müz
##ayan
##landı
##sak
seb
olsun
mal
kısa
##ani
ayak
per
mey
Dün
ölüm
fa
yarat
Sonra
geniş
boş
Doğ
bizim
acı
baba
##leyen
eğit
ask
ard
##laştır
##tor
##lana
Tan
Bun
Ev
##madı
herkes
##lıp
cin
##deş
##aber
arasındaki
sab
##larımız
ren
ölç
##orm
ruh
yapılan
kesin
pay
##ılması
ele
##por
##anış
##sunuz
ber
##din
##eyin
##ört
##bu
merkez
yarı
araştır
##imizi
##iir
geldi
şeyi
##teş
teh
##luğu
##isini
dir
suç
##fen
hava
##diğim
muh
bağlı
##isinde
gaz
##umu
##bol
kom
##ici
konusunda
teş
biçimde
çiz
bulu
tep
konusu
##ola
mev
zorunda
parça
nes
tat
##eyim
Avrup
##şıyor
##ket
toplumsal
boyunca
##arın
um
##izmet
uygun
##dum
##ele
du
uç
##og
han
##yse
kaynak
mem
yeter
yalnızca
şeyler
##lığını
##yıl
##olojik
##oğraf
##ikay
##masına
bulunan
giriş
##ita
politik
dah
cev
iy
Bura
##efon
uğra
belli
sek
##ebil
anlat
benzer
söyley
##sam
kolay
##lenen
##ilerini
##ig
ann
arkadaş
##ınız
özellikle
İnsan
dair
Avrupa
##cadel
Mer
##lus
Ger
##menin
##ütün
##isinin
yen
##duk
giz
anda
kaldır
##lardır
##ing
##est
yav
gönder
##memiş
rağ
ala
hüküm
demek
Oy
##of
##ere
##oğlu
dayan
##sit
##vi
dal
##lanmış
oku
belki
gerekir
##yım
sun
dolayı
yaklaş
##mel
öğret
bize
##ilir
öt
##umhur
ail
##sil
##azı
geçen
##iliğ
Eğer
Ta
kil
hizmet
##elsef
plan
değiştir
##lo
av
##ral
Çok
köy
Kı
##ilere
rağmen
hatır
çıkan
nun
soru
incel
özgür
##ocu
derece
##ılmaz
kut
##sıl
hala
çalı
halde
##tiğini
tav
##ınca
hatta
##lamaya
gece
##hangi
na
nit
Büy
##gar
Ön
çıktı
şöyle
Şimdi
hafta
mücadel
gez
katı
##miyor
##mesini
yaptı
##lann
tartış
beş
##tıcı
yerde
Amer
Pro
li
boz
insanlar
oluyor
diz
hoş
Hay
durumda
ana
Os
##AR
##pr
hey
ro
yüksel
##yacak
##öl
ra
yere
sürdür
onları
##fet
##ıcı
yılında
götür
##emez
değildi
##azar
Hal
##lerdi
##sınız
hikay
##diğimiz
oğ
##syon
telefon
derin
##ide
##ülü
##larım
##ğının
giy
##lıkla
##tıyor
fakat
eyle
18
##elerini
##ital
##lıklı
yüzyıl
buna
##niver
mutlu
202
akıl
ardından
##anım
##ve
##dam
##eği
nerede
milyon
Yeni
##siyon
yüzden
la
em
şiir
geçmiş
Sen
##dığım
yayın
aşağı
##atan
dört
yüzde
##maları
dolu
şaş
ikti
Di
15
edilen
##elere
##bı
isim
dışında
ait
##niversit
unut
12
##inc
Do
##lığa
halk
##bii
##dip
zar
yolu
tama
vak
dak
iti
yandan
karış
##meyen
aldı
herhangi
Büyük
##lıyordu
Alman
##AN
##medi
İngil
ikinci
eser
davr
bugün
hes
##may
iddi
##eyaz
##düğü
diyor
##say
sır
ileri
oldukça
##üle
Ah
gereken
eleştir
sey
##ışı
Tek
##lemek
##ser
##gen
kr
yazar
grup
insanın
güçlü
Mil
yaban
alış
açıklama
##ER
##edef
verdi
engel
geliyor
saç
geliştir
tamam
Ayrı
işaret
sonunda
Ya
##eyle
##dük
özellik
karak
öldür
tu
yık
duygu
##lek
insanların
##uvar
##üyordu
sahi
anlaş
yoktu
Rus
Dünya
200
##mayan
içine
kalan
onların
tük
##urt
felsef
##ıyordu
gerçekleştir
##od
##emen
yemek
##eyecek
yavaş
olup
gerçekten
##şam
bilgi
adı
##mesine
yaşan
yaka
hayvan
bes
yapmak
elde
Top
Mu
başına
gelecek
örg
##oh
##eza
çocu
##ulmuş
##imizin
##otoğraf
yağ
değişik
aslında
rol
yoğ
sin
beraber
nef
hale
İşte
adım
haline
Cumhur
##bak
##dikleri
Kad
Ek
##üst
şir
ettiği
soy
##son
ortak
geçer
yanında
Onun
Ayrıca
orada
##anlık
art
##net
Osman
sürec
gazet
yarar
Şu
zen
eğitim
koşul
pat
örnek
##tiler
doğal
##bileceğ
AB
kam
dakika
kendine
##dıkları
##labilir
değerlendir
##ladığı
yoktur
bakış
##ğından
##diş
##uru
türlü
yapan
meydan
yorum
oyna
tanım
##inci
pa
##ciler
##ift
##üyle
##akip
##elerde
##lanır
cid
yanlış
hedef
##enüz
kalk
çevir
##oloji
sürekli
katıl
ide
toprak
##ela
##esinden
hisset
Es
##aşa
##unan
ağa
yana
##cer
beden
kardeş
birey
Evet
Bey
işte
##düm
kavram
çağ
çarp
##arkı
Mü
##trol
##anıyor
Hiç
gec
##iğ
İlk
yasa
ateş
İç
nedenle
Bunu
##per
gerçekleş
saldır
benz
bunlar
##leyi
##esel
##haf
kendisini
##liğin
##neğin
##baş
üy
##alı
##cağım
kendisi
mad
##ırı
##inç
vaz
##malar
renk
##etim
zaten
yapar
hayal
##ke
çalışan
##ileş
Genel
Bütün
mis
yum
çeşitli
##gram
##efer
kendisine
sat
temsil
ıs
yöntem
Gör
##emiş
alır
dost
araç
##sat
Kendi
##diğinde
Burada
hisse
sana
Başkanı
kanı
##imde
Yani
bakım
öner
yabancı
mar
##ukarı
##dern
arz
açısından
kims
işlem
it
söyledi
##sanız
sap
##mda
Kö
ziy
beri
ci
toplu
##aya
##tiv
Tar
##kara
veren
gid
kontrol
söylen
olmalı
##cih
cevap
sanki
##hal
fotoğraf
dar
##isine
##üf
##biliyor
tehlik
tur
tamamen
karşılaş
##sini
olmaz
dünyanın
Der
şehir
##su
edecek
st
deniz
##ema
önünde
bağım
yoğun
bizi
etkin
##bileceği
iler
##mayacak
proj
oyuncu
##ama
dol
yansı
##bilirsiniz
##arası
asker
yapıyor
yetiş
çaba
onlar
üz
şeh
mekan
##uvvet
##liğini
şekl
##uç
Bay
duyg
ürün
##tın
ler
zengin
keş
##emiz
devrim
ayır
##imize
ban
##irler
tercih
zih
##iyatro
güc
istiyor
##mıza
mik
kok
Hat
amaç
kuru
ilişkin
##cık
kayı
arada
##lilik
##bette
##eydi
re
Benim
Ör
##ilerine
bey
çözüm
##elerinin
kop
##unuyor
karakter
rek
##pek
beklen
işle
##iyordum
##inizi
karşısında
etmiş
okul
kurum
İl
##liyor
##maktan
Den
##iyeti
dağı
11
Kız
##edi
##lüm
şirket
nedeniyle
##emin
oran
##oli
şid
henüz
bar
##for
senin
##yl
soğ
Bur
kelim
##tay
Kap
Har
Gel
merak
itibar
onlara
oyn
kimse
kafa
nesn
##ob
##mızda
ten
At
men
kurt
eg
model
çoğu
##lim
##doğ
etme
##izik
ölçü
kaldı
##edik
olmadığını
uyan
##arat
uygulama
##sır
silah
##var
üretim
bor
olmadığı
##lerdir
iddia
##lerce
Ch
daki
Uz
alıyor
anlayı
tale
##laşım
beyaz
##lıklar
##üncü
size
##lanması
nde
##meleri
ekonomik
yönelik
ziyaret
##cağız
kent
##evi
##çiler
seçim
30
dışarı
izin
##eder
##ala
canlı
Tanrı
##lin
##ülen
indir
mas
demokra
##lüyor
##ayda
##esiyle
baz
##etin
##emi
sahn
##fi
Aynı
Ankara
içeri
hangi
süreç
Kor
14
mez
##ud
Gerçek
##sizlik
davranış
Peki
##sul
Ser
savun
##taş
roman
Özel
##fer
##cret
Siz
bi
##anlı
##mamış
Ali
Geç
##erj
Yap
##bilmek
##sinin
bundan
günü
Ko
meş
kala
aldığı
16
##ılan
Böylece
deneyim
düşünüyor
##tığını
çift
şeyin
emek
##eceği
##sas
Kadın
##gor
verir
işi
##iyan
eğer
sorumlu
eylem
sırada
sebep
tarihi
üzerinden
##uştur
sıcak
ihtiyaç
##yo
edin
##üler
##yar
dö
ışık
Amerika
##etik
##azım
##ton
Kim
##layarak
##mir
Kom
##cut
Kan
##ekk
##ceğ
Hak
kuvvet
Öyle
don
akşam
birden
##şın
yi
araştırma
ABD
##üb
13
##fak
organ
sez
psik
düzey
sabah
dahil
Yine
neredeyse
kaybet
##hat
ceza
##ron
##sem
##mıyla
paylaş
başı
##muz
##ia
##alt
sahibi
siyasi
Mah
dey
##dal
Buna
yolcu
koru
kişinin
eki
teor
Belki
##lanıyor
##bur
##ediye
yukarı
ciddi
##ayın
şarkı
fikir
İngiliz
Dem
##bileceğini
kavra
gar
fiyat
Osmanlı
ces
amacı
halinde
##işim
almak
Batı
aydın
##madığı
Çocuk
hızlı
pen
konuda
lar
##iliği
##sızlık
görüntü
İz
imkan
eğil
##dül
##tıra
##ou
ücret
##unlu
asla
veril
17
##yız
içerisinde
sol
ila
takip
##mür
şiddet
Kara
verdiği
ayrıca
bunların
##laması
gerekli
hav
##lamış
doğa
##lüğü
etmeye
etraf
mektu
aracı
Devlet
sırasında
yardımcı
örgüt
yanıt
sayesinde
dile
##ykü
ederek
##biyat
vatan
sizin
dönemde
doğr
baskı
##ilerinin
takım
mus
ulus
hafif
Allah
##taki
##lığına
gerekiyor
Göz
##esiz
korku
##yüz
ilet
Parti
çalışıyor
##geç
öde
##kar
başında
Ab
sefer
müzik
algı
sonucu
##ina
bildir
##ledi
##isel
gelenek
defa
##to
tip
Orta
kapital
köş
masa
of
##ümü
olursa
ilgilen
dedim
##manı
bilinç
tic
##zi
mevcut
##teki
##arator
##daşı
aya
eşit
##amp
dek
##muştu
##çası
fayda
se
görüyor
med
enerj
##layacak
güneş
program
##ıldığı
##sü
##ann
durumu
görmek
millet
yargı
heyec
yatır
##liğe
##duğunu
##lenmiş
araba
şaşır
##th
koca
##larınız
25
##abilir
Fransız
faal
Sev
çal
ez
##üğ
konuşma
kaf
şüp
##lıkları
adlı
aşk
işe
basit
##anlar
yaşayan
Ber
Yunan
olası
Hep
yoksa
##meli
görünü
mesel
mahk
öne
huk
olmaya
yapma
##layıp
##ati
başv
has
kara
##iyasa
nda
Sav
Yal
sur
şah
inşa
altına
##elerine
temiz
pan
atı
önüne
zarar
olduğuna
ölçüde
İki
##larca
kural
ettik
sordu
##langı
etkil
Oysa
red
##uldu
vermek
##can
##emeye
ni
bunları
sine
ettiğ
sokak
kurulu
yeten
##ormal
ata
##imler
politika
##hale
Artık
##EN
##list
##bat
##usal
modern
hesap
tabii
rast
söylüyor
Söz
Bugün
araya
##ırken
##cılar
şa
kısı
anlamda
önceki
meydana
##ise
Kü
##üsü
##ıt
yaptık
Üniversit
bulunduğu
yerleş
boyut
seni
##ayıf
anlamına
zam
##aj
##lararası
##raki
##isyon
olanak
##izyon
ihti
gerektiğini
edilm
Yüz
gücü
İslam
baktı
sem
Bana
Üst
Kal
##yalı
düşünce
##laşma
ap
cinsel
katkı
##işi
##mıyordu
##gü
##ard
ip
Dr
vurgu
yönel
şart
##tel
Meh
so
le
Onu
peş
Yok
Yaz
##rin
karşılık
bağlantı
##üya
ondan
Hem
pazar
##tuğ
##elikle
Bazı
yola
Örneğin
saygı
üstüne
boğ
bazen
kayb
Yaş
##üme
buluş
düşman
yönetim
##ydi
Haz
##bay
##mat
davran
##elerden
zorunlu
gelmiş
tab
Hayır
ordu
ünlü
Man
isteyen
eksik
olacaktır
##rika
##usuz
gru
##enler
Aslında
##ale
Tüm
oluşan
alıp
##ucu
Yah
biliyor
hepsi
##ediy
##kır
öykü
Tur
##emal
##ham
Gaz
##dek
kür
net
##diğiniz
çer
asıl
Tem
##müştü
kıya
şim
##elerinde
##çev
##arlar
mat
##ündeki
sessiz
yıldı
va
##undaki
##ete
Bunlar
kadının
##seniz
##ari
##ulan
altı
bilir
hayatı
tarz
##ck
##bah
gizli
ışı
İyi
kayna
olmadı
faaliyet
deki
iktidar
piyasa
cam
##ecektir
##eşil
##imden
olmuştur
##eliğ
##sanı
parti
başarılı
verilen
dam
##mızın
Başka
##anya
fizik
fil
##arken
Dolayı
##eceğini
çocuğ
kitab
Diğer
ağaç
##lit
##lığıyla
yaşlı
##muyor
sert
##anta
The
ediyordu
çıkarı
gök
Tarih
gitti
emin
##ektr
##isk
varsa
199
vazgeç
Mes
zayıf
teda
Üç
kanıt
ir
##ğan
teknik
##masının
ham
Düş
olmuştu
deney
##cisi
yüzünden
ac
Çin
Mo
##iv
Genç
##unç
genellikle
yurt
toplantı
tit
Dolayısıyla
##uva
çeki
tanrı
Bizim
##imleri
gördüğ
gib
Han
duvar
##çak
tıp
sevg
Haya
Kend
kit
ortadan
Ol
sayıda
kurul
madde
istiyorum
Başkan
sonraki
ilişki
Em
##tiğimiz
yaklaşık
gem
birinin
adına
Hatta
kapsam
Su
işçi
##kil
gülüm
##ikat
##süz
öf
çerçev
##elerle
##doğan
akl
başını
gözlem
doktor
##umsuz
Ter
dök
##arış
edebiyat
Muh
karanlık
böylece
konum
##lamaz
##AL
sanatçı
##mıyorum
giderek
bay
giden
##amı
doğrudan
evren
##alım
##HP
Ann
belirli
görür
şeklinde
göl
hap
kişiler
##laka
bitir
In
##dılar
ayn
##lerimiz
yat
içindeki
mücadele
##dun
gerektir
##iyorlar
##mas
bilm
dünyada
Eski
talep
##mekten
hüc
saf
kab
##lis
Yak
uc
##ite
tiyatro
Sadece
huz
maç
kamu
aile
kem
üstünde
devr
Yıl
##eg
geçti
nedeni
sil
Pa
##gör
##ib
karı
Neden
##atif
##ünüz
birer
varlık
##urken
##lıdır
##luğun
Sos
medya
Kita
anlaşı
##biliriz
soğuk
kendilerini
##tılar
##eci
parçası
Af
##İN
ince
Aş
##eyn
##leşme
##larındaki
resmi
##ekkür
##IN
sıkı
bal
##ebek
sarı
anal
neler
##izmin
nitelik
yeri
yaşında
sizi
zev
##leti
yiy
##ow
##nun
kaçın
kalır
kurtar
mağ
müş
ders
yerleştir
##onu
am
##üstü
##ima
##rek
##eğen
AK
ulu
sıkıntı
##itir
tez
Sor
anı
idi
##haz
çoğun
mec
Ok
Hır
artır
karma
askeri
siyasal
alma
##uzey
uzan
başar
##ger
fe
##lenme
pop
başlangı
##utbol
birbirine
Gü
ihtiyacı
kısm
sonuc
##tuk
list
##ülük
uns
lazım
gür
edilmiş
egemen
imza
Bakan
##ücu
##ırım
pra
##mur
doldur
Adam
tör
yeterli
Kay
umut
Ora
başlar
eğlen
gay
Dur
Nasıl
Yer
bağır
yerini
kalma
hukuk
##blem
altın
siyah
Sam
fi
##ire
Film
saldırı
anlatı
İk
##etr
##raman
edece
isten
yerinde
polis
##dil
##tum
nüf
sim
TL
çıkıyor
ır
##ener
şeye
##tesi
ilgi
##dığımız
kağı
itibaren
azından
Erdoğan
100
Le
yürüy
##kel
dolar
kimi
bağımsız
tarihsel
günde
##cılık
##yalist
onunla
Yar
sektör
kral
##mıştım
Mart
Özellikle
##makla
fırsat
Böl
açıdan
##iri
şüph
form
günümüz
cep
bilimsel
tır
yıldız
##ikan
##fendi
part
##onun
sağlık
işç
##meyecek
diren
bol
##res
Mehmet
bab
##usunu
hakim
##vaşı
Per
adamın
tık
##dikten
##ene
vatandaş
piş
##ladık
bulunuyor
##rah
Uy
##ent
gide
insanı
Müs
kırmızı
kir
rak
bür
Yalnız
kayıt
##taj
##lığının
Yön
hızla
St
bec
dokun
idar
min
cüm
itir
Ona
Öğ
erken
##saydı
insanları
dalga
##EL
elbette
##imli
##memek
yaygın
ağz
söyler
yem
##atı
Yan
Merkez
inanç
kalmış
yapmaya
göm
gelip
olduğundan
24
veriyor
Gül
normal
şiş
##mada
Baba
elektr
Anad
the
aşırı
##iyim
üstün
tehdi
oldukları
yanına
yapacak
dolayısıyla
##cük
##lemeye
düşünür
Kat
kültürel
Ban
elinde
Sağ
##AT
##çık
##fes
##kenin
sakin
50
kamp
üzerindeki
ettir
Beni
çatış
diş
arkadaşı
hükümet
##edim
##mediği
müda
21
##arlı
mül
fak
dür
ülke
anlayış
Kemal
iyice
dahi
farkında
Bar
aktar
azal
Az
zamanlar
terk
mektup
##vek
##ebilecek
Sal
yatırım
kök
##lediği
##tüğ
kulak
##irmi
##matik
davet
spor
ticaret
huzur
##med
heyecan
##evizyon
problem
ilişkiler
Tam
ref
##irken
ab
miktar
tahmin
kesinlikle
##pe
##ilerek
##insel
##edeki
Müdür
Ada
La
##apor
yıllık
##içek
dışı
##cının
değişiklik
tasar
kadınlar
eve
odak
##ilebilir
adını
##osu
##yet
ediyorum
Sab
##ich
##lukla
##oca
almış
birik
##sar
##landığı
##AM
##lendi
##urdu
birini
buraya
##ımı
olmasına
##iliyor
lira
Sanat
buy
Anadolu
ül
##her
##lasyon
hır
düşür
etkili
Müslüm
üniversit
konuştu
##liğine
##car
##tarı
tüket
göğ
##str
yalan
##estiv
sayfa
günlük
sonsuz
Gala
bahç
mesaj
Tabii
düşük
tabi
toplumun
##yen
##caba
Rusya
##emli
##istiyan
##gesi
##meni
##omo
##imizde
##talya
sit
yayım
##ayla
kıyı
milyar
Ner
##dis
gören
Ça
çı
del
kişisel
dolaş
22
##forman
##lif
dönüştür
adet
Bununla
hissed
##ET
gidip
198
anne
Beş
dünyaya
##dıktan
sistemi
ekran
akıllı
##altı
çel
##eğe
ib
edip
##best
Sar
alacak
Bundan
Üniversitesi
Gö
İzmir
Var
Müz
nedir
##lardaki
##bo
##esin
ilginç
##ylül
edi
##kusuz
ayrıntı
##lıktan
hayır
kamer
pencer
##istan
sanay
depr
##malıdır
özgü
##les
kış
De
döndü
##ihayet
aday
##ever
bug
yasak
kuram
söylemek
##mesinin
##şi
kum
Arap
##po
tatlı
Mec
sorunu
##abil
seviy
dini
ayı
endiş
edildi
##tedir
gösteren
##masıyla
Deniz
ade
Herkes
Br
uğraş
##stafa
satış
ahlak
haklı
çıkış
becer
bat
##kiler
##ılmıştır
##ücü
herkesin
lider
yürüt
siyaset
tuhaf
göç
##gra
malz
kalaba
fen
burj
yitir
##ly
##stik
sene
ilan
kendimi
##sızın
bina
tesp
##diklerini
olurdu
##ekim
niyet
fir
alanı
satın
##one
yapmış
##diğine
##cısı
başlayan
Eğ
vücu
mük
Ra
çök
ettim
ifad
yürü
dağ
olun
##ırlar
Cumhurbaş
##ultan
olmadan
kendilerine
##ES
unsur
beğen
CHP
ödül
##isiyle
##diye
köylü
zevk
ep
##iyer
##elerinden
Mustafa
##lerim
##nin
teslim
etkisi
borç
Zaten
Re
korkunç
Mark
işin
##cil
##muştur
performan
23
çö
takdir
##ıştır
sayısı
sözcük
Küçük
Ver
##ona
##eter
##rik
rahatsız
be
günd
olumsuz
##yken
teknoloj
##ılır
başkan
Ap
Bah
kla
çocuklar
##lığında
##gal
işlet
arzu
memnun
sesi
toplam
ortam
##isay
kızı
##ysa
İkinci
birleş
Onlar
okur
##go
Arka
##isan
dizi
Almanya
Can
##mayın
uzman
##iran
##şu
gördü
bakımından
##uyorum
num
uyar
anlaya
##bür
kana
yaklaşım
yoluyla
Yol
##lesi
197
tec
teşekkür
##har
##AS
rüya
##ilecek
##lıyorum
Cumhuriyet
öğrenc
Gök
##ust
sinir
##emesi
öğretmen
üçüncü
Ahmet
olduğumuz
bahse
##tılmış
çeliş
sona
40
Kısa
00
##istik
sorgu
kadınların
hata
yerel
##rum
Yor
eriş
Ku
lan
Savaş
anlama
olamaz
ufak
Ad
##hi
cesaret
yarış
##aza
futbol
##lanacak
vakit
ilerle
döneminde
mutlaka
kurtu
##ternet
##ond
##leyici
imp
işlev
sonrası
##erken
##esindeki
##tere
##urur
##lenmesi
kasa
uluslararası
geçerli
girdi
##tacak
mantık
##ulur
kaygı
##cağına
edilir
##dukları
Paşa
kitabı
##ko
##ern
demektir
##rens
şeyleri
Hiçbir
ideal
dava
zamanı
Dış
Fransa
tartışma
Et
vermiş
Doğu
yıllarda
kullanılan
##ry
ekip
içinden
düzel
açıkça
kere
karmaşık
gösterir
saha
serbest
çizg
kısmı
Yahu
detay
##ayıs
resim
Li
esas
Dav
karıştır
##ikayet
Se
##eyerek
hakkı
##ort
fin
makin
196
evde
Amerikan
parmak
karşın
##lıcı
ölü
ic
##rate
diyerek
##dat
##enn
##ruk
merkezi
##liğinin
Eylül
##leket
siv
##memiz
noktada
##iyade
bilinen
kus
He
evlen
##duğumuz
muhtem
devletin
##iyatı
##red
##dıklarını
yeşil
##teri
çap
tıpkı
gözlerini
##rem
gelince
kas
kıl
##ülmüş
yumuş
evr
iletişim
Kah
Sür
döv
hastan
##layıcı
yıldır
seyir
##yum
Uzun
##AK
##başı
gibiydi
##lılar
amacıyla
##qu
##form
kenar
rüz
Ağa
kapat
##eceğim
##ırıl
İb
##cın
Bab
som
aklı
Hin
rapor
banka
##yorum
taşıyan
##mit
New
tehdit
Tel
başta
adamı
vide
##isinden
kıv
##hen
##bin
ikisi
geçiş
kahraman
##larımızı
mahal
##inize
meslek
özgürlük
hali
##ildiği
not
çay
yoksul
##ulması
maddi
##luğunu
bekle
edilmesi
yirmi
olağan
##ülebilir
elini
yaşadığı
tespit
##öy
tane
Oyun
kendisinin
usta
2023
belg
adeta
yılı
imparator
demir
##duğum
##uydu
##siyet
çıkmış
seçen
##ümüş
etkinlik
anlamı
şeyden
##liğinde
##ratej
olmaktan
sağlam
Res
metin
##luğa
alanda
##ult
işler
##aka
kapalı
bakıyor
Millet
nefret
ilç
yaratıcı
yata
Demir
zek
küç
hayatını
##bilen
öteki
hastalık
terör
##aval
yerden
Gerçekten
sesle
kate
kaybol
düğ
içi
duran
##gara
önceden
delik
arasına
tuz
şan
##iyar
Siy
Fa
##iliğin
##halde
yapılacak
kaçır
birisi
Kır
##emmel
bağlam
##ğe
kör
görünüyor
nefes
Zaman
gönül
serg
olmayı
And
öfk
çiçek
geleneksel
biy
bulundu
##tıkları
cen
değerli
##iyiz
sağlayan
##eyif
olacağını
##rat
##nik
##deniz
günlerde
Sah
##İR
yapım
başvur
##olog
Zira
##eceğiz
##iden
##lıç
neş
Kültür
artış
okuma
Mı
##veriş
açtı
##sanın
pratik
nı
orman
Am
gittik
istediği
sız
alarak
ef
ulusal
topra
şair
kutsal
Go
##ğin
İst
##neği
kapa
Haber
kullanım
oyunu
durumunda
binlerce
tanın
yapılmış
Pek
##usunda
hayata
plat
##vel
##rafik
Güneş
yu
televizyon
geril
ayında
##liler
ira
aşı
##erin
##amın
iyileş
bahset
gidiyor
yıllar
geliyordu
gı
gözleri
köpek
##düğünü
##abı
aşama
sömür
onay
Sosyal
##zat
af
Sur
çalışı
birinci
Sı
şef
halkın
Dok
##las
etmesi
bı
geldiği
öte
for
Oku
getiren
cihaz
hayran
değişim
Mayıs
Kam
yaşanan
parlak
kapitalist
##ceği
yedi
##lal
Bal
yaşıyor
##ros
27
görmüş
##liyordu
##larımızın
ağı
##are
kaynağı
##abet
mim
mülk
yaptır
Öte
gösteriyor
taz
bilgisay
fab
fiziksel
Sonuç
Üstelik
##ilip
harca
##manız
##rop
Mek
oraya
tarihinde
Müslüman
inc
28
balık
olumlu
##ian
##ematik
utan
yas
Hol
##eksiyon
uzat
özn
##ovyet
yatak
buluna
tavır
Dön
sinema
Milli
##ladım
fer
sunu
salon
kuruluş
güncel
uyku
olgu
sırt
kişilik
bilgiler
Belediye
##çuk
gördüm
##lanabilir
Yük
mesaf
##onya
süt
ülkenin
est
##eyahat
zihn
Bo
tecr
yetiştir
olanlar
sekiz
korun
##eliği
##50
vah
etkilen
sına
Oğ
Mal
hayatta
gene
tasarım
kararı
##liydi
oğlu
def
##müyor
istek
##lenir
Hıristiyan
Biraz
##ess
karşıya
filmi
risk
popüler
tı
Roma
kuşku
##lıkta
Ham
duruyor
ettiğini
yapılma
##laşıyor
##mesiyle
##uan
##cilik
çeken
stratej
ilaç
yaşama
alanında
eşya
ziyade
keyif
çıkıp
ahla
##imini
başlıyor
ge
Kür
bireysel
Poli
basın
hücr
oper
##unları
##erler
Toplum
atıl
##tra
##oyu
demiş
otel
##ze
etmişti
yönetic
ri
özelliği
zaf
kriz
kullanıcı
Başbak
ederim
##dıran
Tak
##ht
##atürk
kahv
day
zamanlarda
sürük
Paris
gördük
uzaklaş
çıka
baştan
almaya
Kası
Mat
Th
görme
tutuk
süs
##desi
enerji
##diven
Ekim
başlangıç
verecek
sezon
sonrasında
##leyerek
Mısır
26
derecede
alınan
olduklarını
Cumhurbaşkanı
mükemmel
ted
lı
##mini
buz
bula
##kası
süreci
memleket
Elbette
lim
geriye
düşünüyorum
##şım
değin
##ıldığında
##ub
Güney
gözden
süren
##mey
gürül
##iştir
yü
kira
##itim
şikayet
Atatürk
güvenlik
##lerindeki
Çalış
edeceğ
me
Ge
##lerken
kalp
bakan
başlı
derg
##hane
sürü
mit
şer
otor
##miyordu
kağıt
analiz
##ilmiştir
sahiptir
##LER
##dular
biçimi
##eğine
uyum
grub
sonuna
Sp
olmasını
birleştir
Bek
kimsenin
tra
tutum
girişim
kategor
Senin
##ebi
düşündü
efen
toz
Sovyet
Po
evrim
yapıl
bilinc
##iter
##eyse
Bakanı
attı
tepki
##rail
esna
##lev
etmektedir
##akar
dük
Temmuz
Sultan
##ohbet
deng
rej
istedi
Karşı
##etle
ört
##siye
Bunların
##sim
babası
Önce
duruma
##beri
fı
##II
ibaret
çekti
birbirinden
etki
gitmek
kurtul
elb
birine
Kul
platform
##elidir
dis
Jo
İngiltere
harekete
kalın
Kral
ker
##arda
yüzü
yiyecek
kavuş
##LAR
tarif
aracılığıyla
##cusu
çocuğun
büyü
muhaf
sü
derec
bulunur
Cen
değilim
tap
çıkacak
garip
tersine
adalet
##ON
tören
alb
##EK
izlen
Açık
if
başlamıştı
lik
klasik
geldiğini
ederken
milli
elektrik
somut
sağlamak
Din
görünür
Car
sağlıklı
görevi
köt
gerçe
##madım
##rans
##ğust
sıradan
verici
insanlara
Tay
hayatın
No
Baz
adlandır
anım
##sever
Ağ
##ata
Çev
Güzel
Marx
Sel
başlamış
##eral
##AY
##larımı
##medik
stan
##mamak
##memişti
aylık
daima
sınırlı
Jap
özen
memur
##larken
##co
##ceğini
##ünist
çocuğu
kapan
yarattığı
Kitap
##lerimi
bom
tanış
ısrar
enf
gelmişti
ayrım
barın
bulur
gerektiği
##ons
yaşamı
##usuna
olabil
musun
teklif
kabil
doğrusu
benden
Bakanlığı
##vekili
uçak
olmasa
hatırla
ima
##tılan
##pan
##diniz
nak
iğ
##lanarak
sevgi
Wil
suy
öngör
Demek
Cam
laf
Ot
edebilir
dünyayı
bastır
##azi
internet
titr
##gam
istik
##dığında
##arıyla
öp
devrimci
##redi
bebek
Yayın
##şehir
kamera
cil
Hemen
##dığınız
mot
emp
oluyordu
gelin
fon
##takım
çağır
Bul
##ampiy
getirdi
tarım
gol
tanık
kül
Sh
redde
test
Gir
##arap
yağmur
Tiyatro
manz
##mekle
yayı
esk
gayet
Belediy
##ij
Yoksa
##asit
##için
##iyse
evrensel
##ağa
Mut
sorunun
##danın
##liyet
yoksun
görünce
ağrı
bulmak
küresel
çağrı
yardı
Birkaç
seyahat
Val
yazık
##diğin
olmayacak
##ie
erk
izle
yılda
##ette
yönlendir
Te
##bel
çab
soyut
##ğustos
##ebiliriz
dans
Lu
##yordum
karşıt
serv
deyiş
örneğin
##iki
ters
##ıza
yüzyılın
görülen
kart
Üzer
çocukların
dönüp
sonucunda
çıkardı
##sk
##lamıştı
##layın
Kuş
##gah
arası
Halk
##ıplak
##ektif
29
##atör
##land
Eş
Hava
biliyorum
topluluk
##teydi
kaba
##masından
doğum
bölümü
tor
ihtimal
isti
Kol
evet
ton
##luyor
omuz
eğilim
arayı
barış
Köy
müdahale
imkansız
halkı
##ner
diyal
##zet
##fı
sohbet
video
mutlak
hus
profes
yaparak
##ecekti
Hayat
Sin
yeterince
alışkan
tedavi
Nisan
belirsiz
##üntü
##iği
##mparator
ülkede
kusur
Fener
Mur
##zu
Kasım
Bor
Kil
##ücut
görünen
paha
##çu
##usunun
Men
yönetmen
varsay
##şet
##maye
şaşkın
düşünül
öbür
mel
nihayet
60
##asyonu
##mayacağı
olduğum
##maktaydı
Kurulu
alına
sözü
Hüküm
##okrat
##isin
duygusal
##kadem
##OR
##ardı
bizzat
##ane
##dışı
belirgin
##bert
##tuğu
##ohn
keşf
dü
reklam
numara
çat
yakından
Haziran
öv
##lanıp
hük
alk
Şim
işbir
verme
##ste
Düşün
ayar
ortasında
varlığı
oyunun
kanun
edici
taşın
yerlerde
dudak
Na
ahlaki
yeme
kalit
beyin
yanıl
##pı
Mon
kullanarak
##oğu
kaçınılmaz
Orada
##luş
türden
##meniz
aksine
fikr
##sey
marka
Tra
kişilerin
şunu
Si
##do
##cını
kavga
arkasında
##tez
İsrail
Sanki
##EM
elinden
Ocak
acaba
##uyucu
##beral
anlamak
koc
bazıları
sürece
mavi
felak
Aydın
bulama
yarım
Fat
falan
bez
göze
Prof
##ada
##lamanın
##lanmıştır
Ulus
##ozof
sebeb
ey
müdür
192
rad
olacağı
##masız
ettiler
Çağ
Kuzey
birtakım
Sonunda
kola
çak
Ülk
##omobil
yel
uyu
oradan
buradan
insana
##lete
Sch
köken
Doğru
coş
and
##vik
##urta
taban
çalışır
birbirlerine
etmez
giren
denli
daya
arasından
ayrıl
##ıma
çıktığı
Erkek
##dün
İmparator
tren
##lav
yorgun
evin
##ell
ediliyor
##imle
##ilmez
varolu
sembol
alay
şeker
sigara
duruyordu
tatil
Pat
##melerini
Hanım
organiz
Dil
##ülüğ
aralarında
içerik
##tanın
batı
poz
Cem
aşık
##lanmıştı
##ii
komp
yaşındaki
Um
##ade
mor
oluşturan
Sana
ış
olduğunda
düşen
tabak
suyu
sevgil
Şey
çıkara
suçlu
##cası
herhalde
dayalı
getirmek
rüzgar
Haf
gösterdi
##eleriyle
sivil
tepk
muha
##anıyorum
gr
Nit
renkli
Şah
##ğım
miydi
Ja
##isiz
##gr
##ilerden
lez
Tah
tedav
işit
kısıt
felsefe
##diğinden
gereksin
zira
Önc
194
##landa
##işleri
deprem
##tışı
##lannı
##mamız
##AD
##ceğim
yolda
çalıştığı
Mak
kalb
##inal
##ebilirsiniz
Bilim
bakalım
mon
boyun
fabrika
##lamayı
dip
##ladığını
kalacak
yah
uygar
yılın
##ektör
üs
ısı
##fik
geleceğ
##onik
edilebilir
demokratik
Galata
##üldü
##ray
durdur
tahta
gücünü
kuy
karşılıklı
sağlaya
##nam
##AŞ
kıy
##diğimi
sebebi
yaşamın
yaptığını
##çilik
ikna
yerli
gurur
kula
##sav
Seç
bulut
atan
##yol
##üper
bölün
istiyordu
Nur
Bazen
Araştır
uyandır
##leyip
halka
koruma
boyu
selam
Fer
##tip
yolunu
##arş
bağımlı
##urum
pak
görülür
çocukları
kurban
olsaydı
##gisi
eline
keşfet
##laşmış
değeri
öğrenciler
##ümüzde
tehlikeli
istedik
##bahçe
zinc
evlilik
kaya
sağlar
görünüş
disip
sabit
deh
şö
mün
yüzüne
ayakta
##ker
mezar
##ph
##estival
kızın
çıl
yetenek
ayağa
epey
##mesinden
Be
muhtemelen
nö
coğraf
##mar
belirlen
düzelt
193
##lerdeki
191
##tına
getirir
bozuk
##saray
mod
Un
##lığından
##UR
gelişim
budur
bekliyor
sosyalist
kanal
çalıştı
##madığını
##İK
uyarı
malzem
yazdığı
etik
##liliği
cinayet
Seni
söylem
ortada
biliyordu
kırık
içeren
öncesi
##türü
vergi
yaparken
Sok
yazılı
gerekiyordu
yapılması
Ey
düzenli
sam
bilmiyorum
##denin
gelişme
##lerimizi
karşılaştır
noktası
pla
vermeye
ilişkileri
özellikleri
##jan
##lor
##tansiy
##ydu
Yardım
Sabah
Birliği
dikkate
sevin
dönemi
##pa
Eğitim
##eğini
##jen
##müştür
kararlı
yenil
senar
önlem
Afrika
yuvar
##ayım
gördüğü
usul
Bin
getirdiği
Geçen
Ağustos
bed
tarzı
##likte
John
mahkum
mekaniz
sahib
avan
buldu
##itik
düzeyde
Sü
yumuşak
etmiştir
katılım
şar
anlatır
Şubat
trans
Ulu
görünüyordu
günah
kullandı
sendik
##dından
reddet
##ris
##likleri
##cıların
metre
##ula
çekici
##lemesi
birinde
##eytin
şans
şeylerin
##iyorlardı
##mos
konser
##ırda
kadını
istih
dönemin
##kal
##uman
yolunda
sön
yüzyılda
dokuz
##lanın
önemlidir
teşvik
yetk
hakikat
gürültü
Met
kilis
sözcü
etrafında
gözük
canlandır
yolculuk
dua
##eyiz
Hüs
ürünü
##itler
Değ
##mazdı
süz
gereği
sermay
hikaye
##maktır
##leriniz
##leşmiş
##ilerle
Bayan
taraftan
kuşkusuz
##gul
##avallı
##br
##ıyorum
##des
##malarını
##tek
##İL
geldiğinde
madd
vücut
Bat
##uro
##ümde
por
İran
yapıldı
potansiy
bilgisayar
varlığını
işgal
tir
Konuş
##tep
Aralık
##enk
çoktan
yüzey
ötürü
##suzluk
gelmez
mutluluk
##cilerin
##likten
##lanmaya
##ilendir
##zam
##ilmesini
##ant
gerekç
kayde
##şey
VE
##ple
Mad
kazandır
##rist
bacak
hast
sermaye
savaşı
Söyle
##tiğinde
##ütfen
dili
##ırdı
##OS
olaylar
öylesine
söyleyen
tok
yapıt
dos
##ski
çalışmaları
key
ötek
kapsamında
Yahudi
sosy
kalem
denk
35
yüzünü
##dınız
olacaktı
kalabalık
isimli
31
##ock
##ograf
##ick
kalıyor
##uşu
kısım
Don
##tüel
Kut
olanı
##ilmişti
gerçeği
çabuk
stat
çağı
diyordu
Kapı
##lanıyordu
##raba
##lisi
düzenlenen
sağlayacak
çığ
duygusu
Co
kilom
olayı
##ılmıştı
##miştim
Mahk
tal
##melidir
##izmi
Vak
kıyas
Me
##ampiyon
##maması
burjuva
çağdaş
artan
yürüyüş
eşi
Mor
bağış
diyen
gölg
gökyüz
##mr
göstermek
id
##eryal
500
##teşem
no
Tu
Yüksek
çalışmaya
aşa
bakımdan
##imizden
Tıp
##hr
önemi
müth
##liy
Ses
Doktor
düştü
##ED
hapis
gündüz
##leyecek
nesnel
90
ülkemiz
çizgi
So
kayıp
dı
bulan
Nitekim
kesim
##ıklı
çor
filmin
hesab
##lup
Gür
olağanüstü
boyn
##anda
Fenerbahçe
olmanın
bulunmaktadır
Birçok
olmalıdır
etmeyi
olmakla
##leyin
ndan
##tılı
cez
olunca
deyişle
ırk
köp
Oda
ga
Bi
Evrim
Güven
düşünüyordu
günün
##anıyordu
güçlendir
müthiş
sahne
##ese
restor
kolayca
otomobil
##ılmasına
##bire
kra
yürüm
lok
hakkındaki
ikin
Kaz
##val
##dıra
ekmek
dönüşüm
yaprak
geçiyor
oldum
kast
Dar
##lanmak
tutan
##fat
çekir
Ni
Başbakan
32
savunma
Samsun
aldım
İnsanlar
ederler
Savaşı
##mediğini
yaptıkları
görsel
##ilerinden
##kırı
seçenek
evine
##lanı
tutar
gev
gözler
Kaf
sus
Mem
etmem
varmış
##utan
işleri
incelen
Gi
kitle
geçici
yaşaya
ötesinde
##kun
filozof
meşru
saçma
##talyan
kimlik
kalkı
anlatıyor
Ana
ilişkisi
yakış
benzeri
pişir
Lond
bıraktı
duyduğu
##wit
Belediyesi
Rum
anlamıyla
belirten
üyesi
##ord
kapıyı
##ümüzdeki
##LI
dürüst
##gür
Sır
durdu
sanayi
##leye
kuzey
eme
80
harika
ortalama
eşlik
ihra
sözleri
##dart
cumhur
tay
sürede
##tüp
nden
Onların
merdiven
yumurta
keskin
iP
takdirde
nüfus
##bilmesi
bilem
altern
Du
isyan
ediyoruz
##larsa
hayli
Şeh
fikri
ası
Türkçe
kapasit
eb
Mi
##tıp
##mamıştı
soluk
to
##eygam
##int
otob
##lunun
Gar
meden
sever
##yu
Duy
park
gerç
gidecek
hareketi
alternatif
sergil
kemik
duyur
performans
##iliğinden
çıplak
zorluk
anlattı
Ölüm
2022
com
özdeş
bugüne
##ttı
diyorum
kendime
yapılır
sunuyor
bunlara
##dıkça
Yılmaz
basa
Mesela
pap
psikolojik
Ker
kilo
sel
Beşik
##ind
öden
##landığını
maruz
zamana
##eth
##pat
##iliğini
Ün
Yönet
doy
bilen
karşısına
varoluş
karışık
nereye
##üman
açığa
dinle
efsan
kadro
noktaya
##tiğim
girer
img
durumun
Roman
yapısı
kasaba
fig
##rn
anti
##tıktan
çoğunlukla
Antalya
şap
ob
genelde
alem
##ılmasını
elbis
##uzu
##sım
##gon
##tüğü
musunuz
##leniyor
kanat
köpr
gülüms
##leğ
##tıyordu
ceph
Mel
metaf
nam
Hey
##tük
Galatasaray
Çar
annesi
sabır
akla
denet
Ardından
Tat
alet
Kılıç
##banın
yör
##kabı
çalışmalar
motor
misin
aşkın
gibidir
kelime
##lannın
yetersiz
faktör
kıp
babam
yağı
tuta
Mic
kitabın
başlama
bakar
sözcüğ
##artesi
70
##we
##ylelikle
verdim
##masında
sandal
işçiler
rekabet
##mesinde
##mayacağını
otuz
oranı
onlardan
itiraz
Rah
ağız
##tikleri
özgürlüğ
faiz
dolay
alışveriş
heykel
aptal
teknoloji
##larınızı
Mev
##yağı
Siyas
##maların
36
değilse
akraba
Yav
cinsiyet
civar
##acağı
##jital
gali
nesil
durumlarda
saray
Hasan
Ph
bilimin
##day
##ier
karşımıza
##vı
gündem
##cinin
45
Sak
tarafı
biridir
##niyet
prens
şarap
Char
bileş
##mıyoruz
yürür
gelişmiş
bunlardan
Dik
##likler
kaşı
zafer
##amını
Hu
tecrüb
##OL
onur
AKP
##olik
gayret
alçak
dır
##sün
Altın
şehrin
estetik
195
Beşiktaş
anlayışı
##duğunda
ettikleri
##ğeri
##inizin
sorumluluk
entel
yaşı
anlata
itiraf
eğlenc
gündeme
vb
felsefi
cis
##eygamber
##labilecek
teb
tümüyle
##ekt
##cileri
##gramı
Mas
hip
bakıyordu
##arya
gitmiş
##eğinde
##ST
İtalyan
endü
eseri
Ven
vir
bence
2020
##ülür
##amik
olmaları
başa
Merkezi
Boğ
aktif
##uncu
Gu
kavramı
çekil
naz
##umun
babasının
##masıdır
##veren
##egen
koyu
##bilirdi
düşünceler
ülkeler
maz
matematik
##ÜN
konuyu
yarın
##iliğe
maden
tasarı
dib
Şehir
dikkatli
##etre
reform
Dünyanın
ca
##eğinin
tedbir
##ıldız
##dişah
benimle
ceb
ucuz
Yür
Ede
##lıkların
##kesi
boya
##ürr
Şir
##diren
##luğunun
bulunu
Meclis
##lıydı
Ca
erkekler
incelem
müsa
tef
##ukat
etkileş
sorunları
Bö
giys
mecbur
moda
duv
evvel
büyüm
York
düşünmek
##ll
misaf
harita
figür
avantaj
##ilerde
sıç
##akk
##sayı
##dını
##biy
##İM
gecik
istediğini
##meyin
kaldığı
geride
##mazlar
hassas
bakın
Pan
Anne
açıkladı
##ation
Spor
mir
istemez
Ed
gıda
sesini
##dikal
Devrim
##ebilmek
##mede
arttır
kaydet
karan
##dy
öğrenci
istis
anlatan
zamanın
kendileri
süredir
ismi
Yaşa
prot
Hasta
göv
kurulan
teker
yaşamak
nereden
eli
onlarla
##yim
Kab
rakam
duyar
Taş
zeka
miz
Fre
Kızıl
kendisinden
emir
şunları
öğle
Gazet
sof
demokrasi
Cev
şeydir
standart
##cunun
neh
kıyafet
##liye
başladım
##tisi
çür
doğur
edildiği
##emedi
görmeye
içe
uçuş
##iyetin
bakarak
başarısız
danış
komşu
##ova
tutku
görüyoruz
soruştur
puan
kazana
ilah
tik
anah
Gece
Avust
muhteşem
güçlük
gelişmeler
betim
##bileceğiniz
##etler
akadem
##lacağı
müşter
##ancı
##tığımız
##tikten
##tığım
korumak
başından
güney
kalmıştı
kolayla
Koca
Apple
Birinci
##ars
sp
##ÜR
##ülmesi
gerçeklik
ekonomi
Sizin
Murat
##emeyen
istiyoruz
##ektüel
altındaki
##rahim
koydu
vası
dışına
kimya
Para
İtalya
bölge
kalıp
##idor
##dülü
dör
inti
prolet
başara
Kork
yenilik
sonradan
##asıyla
##medim
pas
efendim
sözünü
düşündüm
##irdi
##icdan
Efendi
verildi
harf
evi
##bilim
##dunuz
bırakıp
##isyen
rit
Yazı
kullandığı
Mus
kaş
açan
mümkündür
##halefet
tüy
mıydı
büt
derken
iktid
kişiye
##yonel
kaza
kendinden
gazetec
dinsel
kampanya
##tion
Say
Bas
döner
##lendiği
uzay
##embe
##ediler
##tüm
solu
##tifak
Londra
##izme
##gini
Pen
hoca
##hone
midir
kurulmuş
kimin
000
taki
##larımıza
kocaman
kulüb
düzenlem
ayna
##ebiliyor
macer
günler
tasv
uzanan
denetim
##etiyle
##sür
dedik
yükselt
bekleyen
gösterdiği
sip
belirtti
yetkil
##emeyecek
##çın
yürek
yığın
darb
biliyoruz
Öl
görünüm
uydur
bulundur
Beyaz
hepsini
günden
##distan
seyret
dosya
olduğumu
olabilecek
sürdü
sözler
tablo
önde
beb
##liğiyle
geçtiğimiz
meşgul
kadına
haberi
içten
##ciz
tatmin
lis
##cin
irade
Is
açılan
Sayın
##rol
türü
kalktı
amel
##ayıp
kırk
##ınızı
Bağ
##eniz
çekin
Fark
oto
33
bilmek
yapay
yönünde
örneği
Cor
Amerikalı
Con
Kiş
##ınar
akım
bilme
tesis
##otel
çalışmak
sevinç
iyisi
sanırım
Uluslararası
özgün
çevresinde
olabileceğini
##uyla
##rom
post
reh
pozisyon
yapmayı
dükkan
görmez
##mışlardı
kader
zamanında
kurgu
far
çam
Hepsi
öncelikle
Büyükşehir
##mın
herkese
bölgede
ayakkabı
##au
kahve
bilinçli
##düğünde
üstü
albüm
duruş
verilm
konuşan
##seri
Tanr
niş
Plat
##sup
hanım
demişti
Asya
##burg
oluşum
##luğuna
günümüzde
çanta
annem
yeryüz
##tılması
alev
##ıı
Dir
bl
kitl
burn
Anaya
liberal
##iyetini
rakip
gittikçe
barda
çir
Ömer
oluşturur
Alt
geçip
##lamen
konuk
uza
olgun
aykırı
mimar
##cik
##elendir
anlamında
güne
çekip
gerçekte
cümle
2021
Irak
grubu
anlamlı
şiddetli
##tma
sonuçlar
##ınıza
##ıldığını
izleyi
bomba
aza
##esidir
##omen
##spor
##lemiş
Suriye
çekiyor
Dan
##anıp
teşkil
ışığı
Mey
denen
yasal
vererek
potansiyel
Ağacı
Sey
kilit
##hendis
Öğren
deli
Ekonom
sağlıyor
##stin
denilen
anlar
Saat
katıldı
2019
zehir
##mışlar
Mahal
yaklaşı
yoldan
##ulmaz
may
İsv
sınav
hita
lam
tarafında
##gili
##che
##alesef
##ood
manzara
##yapı
pis
##bilirim
gelmesi
tüken
yararlı
lezzet
müt
zincir
başkanı
mesele
##uf
##uyoruz
akış
acel
okun
üyeleri
çevre
katılan
taşıyor
iyileştir
Okul
##İY
##ünce
##bileceğimiz
verg
Ruh
ticari
yönetimi
niçin
çır
yerinden
Düz
imkanı
Felsef
sesleri
haykır
soylu
olabilirdi
kredi
Fak
belediye
idare
##ori
##bon
dediği
##mo
yapıp
kısmen
##estivali
açıklamada
Sol
kötülük
##elli
iktisa
şaşırtıcı
koku
##dilik
sevgili
depo
başvuru
ömr
sorunlar
edilmiştir
arkasından
##has
##IR
konut
fısıl
otorit
##lası
dert
kalmak
saniye
olg
boşluk
tr
desteği
tavsiye
##İT
##oks
doğrult
##lata
şimdiye
olduğunun
ardı
Sim
##UN
Sek
yetin
türk
Hen
##kon
##xy
farkına
##masın
Geor
##dana
dayanan
##yarak
havada
Tarihi
Hadi
##ekler
kullana
Size
insani
kuşak
iken
##hoş
rolü
çılgın
Yara
farkı
dikkatle
##nan
Pol
çerçevesinde
nu
başladığı
##çilerin
operasyon
sendika
##inizde
antik
bununla
entelektüel
bölümde
##fe
##iller
Gerek
##siyle
enflasyon
##mdan
val
bilmiyor
evinde
##iklet
##melerin
eh
Git
düşündüğ
##üzün
Ale
##liğinden
ulaşa
##mail
iPhone
zamanki
Özgür
istemiş
##und
Çık
##ılmaktadır
##irli
mensup
zamanla
yaptım
##emiyor
AN
servis
tarihin
##uyorlar
küt
Şiir
çıkarmak
##UL
Lat
temin
TV
Yalnızca
başladılar
mür
Ail
tüketim
niye
kalıcı
oturan
masal
büyüy
köl
gözü
##bal
##melerine
rengi
içsel
##mızdan
Nerede
İbrahim
za
Üçüncü
##tern
##dul
##çisi
##witter
##his
diğeri
gözet
gelmiştir
icra
milliyet
gezegen
yönelt
cad
nün
girmiş
##11
##tiğine
##emini
Partisi
öldü
vicdan
sordum
##lerinizi
Çek
yönde
##lıklarını
komünist
kullanan
##emaat
araz
lek
salt
##ülüyor
nesne
##tıldı
odasına
##çının
##stit
burjuv
##liam
##yer
34
sığın
##demi
##düncü
##laf
birliği
ellerini
##arız
güvenilir
güzellik
Öyleyse
altını
##AP
##ınızda
mesela
Onları
kaşığı
bağırdı
atmos
fena
Geçmiş
Arist
Tab
miktarda
besin
başlaya
Sarı
##mesin
Bunlardan
üstelik
Muham
##ean
Kürt
Bence
disiplin
festival
çalışması
sonuçları
çalışıyordu
kurş
Ga
ant
sigor
edebil
zihinsel
##umuş
Pap
aklına
doğan
Birbir
uça
ideoloj
Çan
gözya
insanlık
##ladılar
husus
modeli
##istler
lay
##ilmesine
Süley
GB
Rüya
başladık
kısmını
kenara
başken
subay
olmazsa
işini
##bın
person
Ata
##sinde
##miyorum
almıştı
vermişti
kullanmak
##atın
oturup
süreçte
görüle
işken
seyr
oranda
düşmüş
geldik
çıkmak
##panya
lük
zeytin
radikal
##uta
Hüseyin
sürüyor
dönük
##kaya
sist
öğrenmek
Qu
##iti
Japon
Yıldız
Marks
üretic
geçirdi
sorular
Kav
Sine
çıkarak
##etleri
cezalandır
Naz
##ürriyet
Akdeniz
##irv
Mos
söylediği
2018
len
bugünkü
Fatih
##buki
cer
eliyle
kıymet
önemlisi
##lamıştır
cilt
sistemin
ideolojik
güvenli
II
Bol
str
Paul
##sünü
yahut
Aşk
yır
Ermeni
gerekirse
kahka
pil
Yazının
Modern
dağıl
##lenin
esir
yapış
açar
ru
çıkma
##hai
okuy
itibariyle
kalmadı
düşünme
zavallı
durak
##illa
##tısı
Ordu
getiriyor
cı
##mezdi
rez
##ogle
geçmeden
Kendini
##anan
##jik
yazarı
gidiş
olanaksız
HD
alama
##EV
aralık
sınıfı
Sağlık
##ife
böylesine
##usuf
kişiyi
sigorta
girip
pahalı
Pr
Pazar
istediğim
anaya
proje
##ydım
çelişk
Müdürü
kendimizi
olmalıydı
denize
kayn
##ılmaya
Hangi
hatırlat
profesyonel
Araştırma
Soy
bası
niteliğ
##ülasyon
##uc
kurma
Hindistan
##larımın
mutfak
##yip
zihin
ulaşı
##tasyon
peşinde
Öğret
izleyen
Teş
##leşik
düşer
konusundaki
##savv
uğr
Cad
##yü
Zen
olmaması
yukarıda
aktiv
##çılar
duyarlı
Süleyman
kov
hi
yetişkin
Hz
##sh
genişlet
Tom
yoluna
Birden
taşır
Bize
Lenin
##ang
muhalefet
birdenbire
söyledim
azalt
tutul
piyasaya
##çağ
##ill
yut
ülkelerde
düzenlen
duyulan
dog
fiyatı
bekl
kanser
ayırt
##steri
gergin
yazılmış
çirkin
Zor
beklenen
toh
yapacağı
Prens
rasyon
Akşam
çıkması
Yet
ani
ailenin
##cular
birinc
baktığı
##İS
inanılmaz
##ames
yüzlerce
düzeni
Gec
##bilirler
altından
karışı
kazı
##ehenn
kuvvetli
##lanna
söylemiş
dijital
terim
yazdı
##lamalar
misiniz
kuma
##ünür
##satı
Gez
kucak
Bit
mobil
##adü
bulunduğunu
##etrol
Kra
Ju
İngilizce
Tamam
bireyin
##düz
Nor
başlıca
yerler
eskiden
Trab
adama
elli
Bursa
Yusuf
##iyetle
##azzam
yapması
istedim
##AH
haliyle
sözleş
müh
uf
çekim
benzeyen
suyun
Annem
bahsed
##jı
gidece
ilgisi
kaleme
aldır
##lüğünü
oturdu
tarla
##zan
mahkem
kopar
uyumlu
katkıda
koltuk
olmasıdır
sisteminin
##düler
çatışma
kimseye
olayların
##şır
##lüyordu
Yukarı
ruhsal
konuşmaya
rö
bütünüyle
hor
manevi
beyn
açıldı
tarafa
##top
programı
müziğ
Yen
üniversite
kalkış
Dost
çiğ
biçiminde
##tes
Ste
bağlıdır
sürecinde
belirterek
hev
Uk
Acaba
Gal
alınması
gündelik
misafir
devir
nez
dünyasında
suna
##aydı
gümüş
ce
erdem
sevk
Hele
küf
Festivali
görebil
##asa
##leyh
##memesi
yerlere
##lıların
toplumda
##caktır
bakmak
konularda
pozi
##tıyla
satır
acımasız
##doğu
##asız
degil
servet
kendiliğinden
##uluyor
perde
kazandı
olmasın
örtü
yatan
Ayn
300
ifadelerini
Gelen
tüc
mırıl
Fili
aktarı
rica
Hav
Mez
kapsamlı
üretimi
Samsung
bitk
kurmak
##lülük
Anayasa
biriydi
temas
coğrafya
felaket
Kaç
İnsanın
##tmak
##sinden
alması
doğu
##emediği
oluşturduğu
mıdır
savaşın
mark
eğitimi
Kimi
Haberin
Galaxy
yükselen
başlayacak
lerin
##olan
olayları
koya
##eyici
##ayi
istifa
çaresiz
toplumu
endüstr
##şek
oysa
parayı
##ille
ifadesi
##cıları
fazlasıyla
simg
gittim
Bunları
Google
Bankası
Lis
Tut
Ayak
Babam
##vat
ilişkili
##luğunda
##lamaktadır
nöbet
çalıştır
ço
##emişti
##ikmet
koridor
öznel
##agan
İh
##d1
döndür
oğul
##üny
##cağınız
istemiyorum
##eveyn
tutmak
fan
Bilg
##udu
kariyer
##lanmasını
topar
kullanıyor
Hastan
##cat
gerekse
durur
fırtına
gazete
anlatım
##alim
duyu
alındı
Gerçi
koşullar
bulmuş
tarihinin
##sol
##allah
salladı
Part
kale
pir
yazarın
erkeklerin
##lannda
bayram
farklılık
özlem
çeker
arama
kendisiyle
birbirini
durmadan
Sez
yolun
olayın
##lerimizin
##malıyız
filan
Lig
zorundadır
veri
##eğiyle
kade
##şe
etken
varsayım
Aziz
kutu
göstermektedir
ihmal
iri
##leyiş
Yazar
##gat
##cına
obj
hastalığı
Akıl
veriyordu
şüphe
iyilik
kıskan
giderken
ertesi
##bek
bilgileri
##gre
arkasına
özür
Yab
bizden
zemin
ilkel
Siv
sayısız
##mut
koz
##ileriyle
sapta
Selçuk
mutfa
hayatının
Devamını
##tüphan
##fır
Çoğu
sahte
dra
sarhoş
##rayna
##emem
##duktan
avukat
işbirliği
##giz
olmasının
rı
##İZ
buluyor
hükümdar
Va
şark
Boş
Van
Kent
##laşması
Güç
38
##EY
##elle
kullanımı
ürünleri
dünyası
ilave
açtığı
Bilm
sad
olanın
Boz
Devamı
özet
diplo
İt
cana
bozul
kazanan
küm
hayv
çekmek
kokusu
çıkmıştı
yüce
muazzam
Kıb
vaka
Alan
esa
##bayı
##laşan
##dağ
##20
Olay
çen
cenaz
Yeşil
kestir
istikrar
##lanmasına
##ore
konuya
düşüncesi
makam
yurttaş
Ukrayna
Biri
çalışıyoruz
yayınlanan
Dep
##acağım
hakları
sayede
isterim
cemaat
mana
tasvir
##roid
Tayyip
37
##berg
ülkelerin
##aklı
gelebilir
gemi
Sokak
Wal
Tim
takı
tuttu
olmuyor
Türkç
##mz
maaş
etmeden
ediyorlar
kardeşi
düzgün
şeref
Yönetim
şimdiden
açıp
geleceği
burası
##ole
derhal
paylaşı
sef
zamandır
Tes
##dunun
duya
Dört
atıyor
edilecek
anında
ihtiyar
edilemez
##diğince
yla
devleti
dönüyor
##işik
suya
yıllardır
Yağ
##tıkça
tarafta
##mali
##lamaları
hele
tali
Keş
bakıldığında
transfer
canım
##line
##latı
##daroğlu
uzaktan
işten
##esto
kopya
kilometre
uzakta
##elin
yed
##cev
bıçak
bağlamda
##memiştir
Aşağı
korkut
##los
Tic
Müdürlüğü
Yunanistan
önümüzdeki
##sy
paket
nis
Milletvekili
baktım
Tekn
Yas
yazan
Hala
ulaşmak
paz
beklent
Telefon
Birleşik
doğrultusunda
dönen
ların
çif
Trabz
##lımı
##ücük
gözle
##dikçe
versiyon
Lev
##ınan
##örü
##ug
aynen
Sık
Kapital
meyv
2017
çalışırken
##kur
yuva
bildiği
Neyse
etmiyor
görecek
kedi
sırf
tesadü
civarında
ök
Vi
ları
##amet
##AZ
takv
Arkadaş
##lanmaktadır
öncesinde
hafifçe
tarihli
haksız
ita
meselesi
intik
Hayvan
bis
##ılmak
doğanın
taze
odaya
##illi
##alel
Ulusal
meşhur
konuşmak
##laştırma
hepimiz
edeceğiz
##ümr
Mis
Sanırım
ücretsiz
oğlan
Ondan
öncelik
hakkını
vad
##diki
##lemeyi
##ıf
##gaz
geçirmek
değişen
birim
##lışı
yazma
##tuğunu
tanesi
plana
arkadaşları
##IL
aniden
bölümünde
düşüş
##panyol
Filistin
Nec
gördüğümüz
İsmail
örgü
vahşi
##işe
##ong
##gide
makale
2010
##zerk
göğüs
##muyordu
alana
kapının
İkti
##yn
##ebileceği
##KK
ağzı
iktisadi
sebebiyle
havaya
Des
seven
dışındaki
parma
leri
Kıbrı
##soy
David
mülkiyet
hayret
Kardeş
raf
sessizlik
bük
konuşuyor
adıyla
##tının
zorla
##luktan
geçmek
kılan
##arn
defter
derinlik
Ceza
2016
işçilerin
Onlara
Abdul
eya
##vekil
muam
tasavv
##isindeki
radyo
otobüs
##çileri
tey
fırsatı
##lamı
caz
delikanlı
Orhan
yenilen
prop
##sedi
##ünc
görüyordu
ömür
yemeği
denem
##lüğe
gönüllü
##ınıyor
Tıpkı
##dırım
süresi
emr
başkalarının
##usun
tüf
tehlike
büny
Freud
##ildiğini
ortamda
Kılıçdaroğlu
Tor
evden
sayılır
##ji
Bölüm
ettiğimiz
şık
Proj
şük
hac
gerekmektedir
kahkaha
##keti
uyuş
cennet
alınmış
durup
##ükle
kaça
##larıdır
anlaşma
ke
atom
netic
payı
onda
yöntemi
lir
İnan
##elerek
hitap
Kadınlar
##öly
##stein
yapımı
maliyet
koyun
olana
##urun
ris
çırp
Psik
##oni
Şen
pişman
halen
kaldırdı
Nihayet
##laşık
Sem
bam
##tah
kod
paylaşım
olmaktadır
görüyorum
böylesi
zah
ettiğim
##naz
kültürü
gereksiz
vara
alaka
üzüntü
hazırlık
bilginin
##ebe
teki
ailesi
Bug
Ür
metal
alıyordu
söylenebilir
verilir
öğretim
köle
masum
yanından
sessizce
##tığınız
çarpıcı
dünyasının
sıvı
Kendisi
turizm
##kinden
Dal
##pt
Rece
üstlen
faş
yaratan
çöp
Boy
Kimse
hayatım
us
günleri
anlatmak
gelmektedir
yazıyor
Halbuki
ayrıntılı
İsa
etkileri
dola
Mit
razı
halini
kulüp
hakaret
##eğinden
şansı
Geri
cevab
dakikada
Bahç
konak
sanı
verimli
##omuz
yin
söylemişti
diler
tırman
##ruf
aktör
görüşü
##gının
39
dünyadaki
modem
##şev
kalkıp
##mama
For
2015
taklit
içini
talih
miras
mini
Fakül
Kıbrıs
içgü
kadarıyla
Yemek
##dış
Emin
mikro
layık
telefonu
ölümü
Karak
sevdiği
sıkış
dinin
buçuk
Fil
##graf
ruhu
düşünen
eklen
içki
dinamik
kuz
ümit
kapsa
benzet
##IM
##iyorsunuz
Med
Peter
##and
##ilmeye
Fi
barındır
Saray
alanına
##kür
aklıma
##okratik
sahneye
Ala
##ho
hediye
şeytan
sürpr
çıkarıp
yarısı
48
nas
Recep
hayvanlar
Hegel
vasıta
##ity
Fin
mali
##mişlerdi
ihan
anlamsız
##10
##emiştir
leh
inkar
yapılıyor
Polis
olanların
##ıs
oğlum
##emektedir
yüküm
lütfen
durumuna
##racak
##ebb
sınırları
şaka
##iyorsun
kentin
##UM
##salar
##verdi
##tol
Yardımcısı
yazın
taraftar
##otik
yansıt
kaplı
yılından
hareketle
##ksiyon
##ğun
birbirleriyle
##olojisi
sandaly
Gre
aşağıya
sürer
##türk
##eyip
paralel
görülüyor
olmasından
kullanılır
keşfed
ilham
anımsa
##yıp
##ymış
Dahası
Ertesi
Ki
İr
ölen
tev
##ladıkları
##ceğiz
darbe
2014
damar
erkeğin
seviyorum
insanlarla
Dağ
##mayıp
Müzik
İkin
gelmek
eleştirel
##duğunuz
bulunması
Col
##sis
Art
sofra
yerleri
annesinin
sıçra
müte
önder
##mezler
adamlar
##abor
Sig
##tıklarını
insanlığın
dinlen
üş
deri
sığ
çıkardığı
silin
şekli
sebeple
##anal
coşku
beklem
##cağından
yapıldığı
hüzün
düşünmeye
Ateş
uğruna
bardak
ittifak
istasyon
herkesi
Hareket
##spek
Far
Android
çıkmaz
işine
üye
efendi
esin
yaşamını
anahtar
karşılığında
beslen
girmek
huku
##ılacak
ışıl
mırıldan
yapıyordu
2000
seviye
odada
Tür
ressam
ulaştı
canı
Derneği
zeki
müst
##emizi
birşey
hikayesi
vs
faydalı
gerçekleşen
açıktır
giyin
Hikay
karısı
şehri
başlat
hisseder
##ımın
şehr
##mışlardır
şapka
damla
ism
##cılığı
Park
mahalle
Fu
Henüz
inanıyor
yon
##ben
arkadaşım
##lilerin
##dura
Aya
konular
Çeş
yanda
oturmuş
masanın
kullanma
##AB
Mac
##isiniz
peyn
##rag
##alar
konusudur
##lıyoruz
##ino
şampiyon
grubun
##eddü
umur
Yaşam
km
##acaktır
genetik
teorik
keyf
mühendis
Hoca
##don
##sizin
##gını
##dirler
sanatı
kazanç
göğs
##gn
ti
meyve
##cül
yaratı
99
##NA
Sistem
##trop
eğlence
akşa
Sonuçta
bela
oğl
gösteri
döş
##fil
yangın
petrol
çuk
Bizi
düşüncenin
Tep
bilmem
ekledi
itaat
ran
uzaklaştır
galiba
geçtiği
rehber
##ebilirim
##ifor
kamusal
dışarıda
ica
geçerek
kızar
Muhammed
soruyu
bulunuyordu
##idi
##olojinin
yılları
lu
ardında
kitapta
##etz
özerk
##urlar
##ımda
edebi
kanaat
Edebiyat
##DE
Şirket
yakında
verim
grev
Antik
##mara
tutarlı
rejim
kurduğu
##meliyiz
cüml
Fır
ikiye
PKK
savaşa
İspanya
gerektirir
##mayız
eleştiri
propagan
##tikçe
tedir
hazırlanan
##imar
söyledik
kova
telaş
surat
Mc
##labil
birbirlerini
gerçekçi
büyüme
bölgesinde
##mm
dehşet
ebeveyn
olabileceği
iklim
Yayınları
##eryalist
pırıl
almıştır
İspanyol
benims
bürün
önündeki
Barış
arayış
gezin
dönmüş
Aman
kalmaz
gücünün
korkusu
##mu
lak
##tina
##ümün
verip
ameliyat
sağlama
##ung
##eten
tetik
##eştir
saatte
Şa
milyonlarca
yaptığımız
Balık
turist
emekli
kapıya
küçüm
şüphesiz
##mişler
##oya
##ena
aleyh
baka
koleksiyon
hayatında
##amuk
hatıra
duyum
Çocu
davranı
bende
Bizans
##danı
ispat
yaptığım
önemini
kendinizi
Gön
Twitter
Koç
nihai
birbiriyle
namaz
acil
masaya
padişah
bakıp
arın
Kilis
Yaşlı
patron
ilişkilerin
##umuzun
Saç
İnsanların
##ikler
Pas
boşa
Türkler
şak
##raz
müd
##spektif
suretiyle
neyin
okuyucu
baskın
rom
kalkın
##liliğ
bırakır
hayatına
tutun
dilin
çocuklara
alabil
silahlı
gelmeye
Farklı
42
##yiz
Yü
anlamaya
kalı
##wn
bulunma
##nut
duyan
kolaylaştır
vakti
kalıntı
Ref
buldum
isteği
aldığını
44
yavru
şeylere
bilgisi
zirv
ucu
190
arg
fonksiyon
yaşar
Benzer
bardağı
Nik
Max
ho
kısaca
bedel
saldırgan
ikili
alım
Belli
Pi
##biyatı
yaşamaya
Kaya
##unlar
yerin
hızı
etkiler
##yeni
hissettir
Hız
arıyor
açılış
adamları
Nes
devreye
##kova
taleb
bizler
ölçek
geçmişte
alkış
diyalek
söylenen
sust
elden
posta
##andar
##iliyordu
##umda
oluşur
Bod
kadınlara
Aile
kurumsal
senaryo
bulabilir
##ora
sunan
##oru
şeydi
he
orij
biçimleri
##demir
##iyen
##US
yaratır
kitaplar
karn
##portaj
inancı
Vol
##seler
yad
işlevi
Cumhuriyeti
temelinde
Berlin
ilerleyen
kitapları
Süper
sahil
koşulları
##book
sürpriz
##bot
##ydü
##ilya
süper
Frank
etmenin
Sizi
trafik
elindeki
kimyasal
Lou
Toplumsal
organizasyon
cehenn
Günümüzde
yıldan
Fotoğraf
etkisini
biten
75
güz
Metin
AR
##ice
sağladı
yıllarında
Doğan
deneyimi
fet
adayı
##ılırsa
maalesef
Uzak
borçlu
iğren
futbolcu
Gru
sıy
seçkin
buydu
topu
söylüyordu
Fik
55
##80
Sevgili
kıta
kaynaklanan
##rul
vita
Uğ
aldık
Nazım
BİR
##leştirme
##itesi
konfer
65
sağlığı
yazmak
bilgiye
Ask
Abdül
##madık
gelişen
##ID
söyleyerek
bütç
TB
boşan
partiler
##ebilen
##ame
refah
Pet
dediğimiz
özellikler
iptal
Efen
gruplar
azın
geçerken
atmosfer
##fan
kurtuluş
Bro
alıcı
serin
bet
gri
##anacak
olursak
fakir
Burası
yaşamış
Üzerine
Huk
görem
devamlı
satışa
##layınca
İster
Dikkat
##EF
yanındaki
hiyer
##göz
boğaz
vermesi
almaktadır
itib
görevini
Yıldırım
anlaşılır
çıkmaya
##bileceğine
diyecek
gidiyordu
okuya
karşıtı
Çocuklar
cevabı
vizyon
anlatmaya
##okul
yankı
Doğal
##hassa
dayanış
olmaksızın
niteliği
kusursuz
lık
inat
çektiği
müşteri
endişe
nazar
##şak
biyolojik
isimler
beslenme
doğuş
Mr
boylu
tekni
içgüdü
Yakın
savunu
tayin
yardımıyla
AL
##isa
ceket
bireylerin
Yurt
##şallah
ayrılma
yüzünde
teşki
tohum
##sıdır
sanatın
alkol
şok
kapitalizm
kavuştur
zorlu
64
bekleniyor
eyalet
inceleme
Çift
yemin
Engel
sıklıkla
ordus
görk
kolektif
tereddü
Yo
yapabilir
##SK
anlamını
##sör
keşif
neyse
güler
Hükümet
##ses
bulma
perspektif
görülmektedir
Adana
sesler
dayana
##hk
verdiler
beraberinde
terap
ödeme
mış
dep
ödem
##umuzu
çey
zıt
attığı
Boğaz
eğlenceli
çıkaran
Kel
Kes
##ates
##ğunu
sonuçta
filmde
bekliyordu
karakteri
macera
Müzesi
çarpış
uğur
takımı
dediler
Kesin
ileride
Hollanda
pantol
##ilin
arma
##tiğin
##mışım
Del
gözyaş
zem
mevsim
edemez
tasarruf
bilmez
hadis
sadık
neye
mağaza
içerir
mız
sergilen
olanları
Hint
kilise
400
propaganda
ilerleme
Diy
kurşun
Yargı
veda
Buraya
geçirdiği
keyifli
örgütlen
otomatik
fazlasını
alanlarda
##dükten
Jean
tuva
durumunu
zamandan
avuç
Ticaret
Batılı
##ınak
##aba
inci
inandır
##uyorlardı
##30
eklem
haş
##ünç
komik
oynayan
Birinc
uyuştur
##rip
bölümünü
inanıyorum
##udi
##bbi
muhafaza
Yasa
düşünerek
dönemlerde
esnasında
cesur
oynaya
bitki
##old
çadır
dağın
hiçbiri
etmekte
Bulgar
derdi
muhtemel
tutk
Emek
yılının
etmekten
boşal
Japonya
Kir
Üret
##dev
##tlar
dolaşı
##lacaktır
verilmiş
öfke
refer
##DA
önemsiz
tarihte
Şöyle
Sıra
çatı
kahvaltı
Önemli
sakın
nü
diğerleri
##io
Tas
yapısal
##culuk
Marksist
##elal
ocak
odasında
##rağı
etkisiyle
atış
çalıştım
damga
##üldüğü
##ilerinde
##lacağını
##LÜ
##başka
##stagram
almayı
Ef
koymak
kızgın
bulup
kesi
gelecekte
geldim
saygın
ikisinin
Öncelikle
kumaş
mutsuz
devasa
Hafta
Avustur
##ümüze
Aristotel
##tt
fenomen
Cin
intihar
##çılık
bıraktığı
##rana
finan
##übe
firma
Bırak
gördüğüm
kızıl
##umartesi
Moskova
garan
dayanarak
miyim
okula
##zen
##iksel
Esk
##cav
##madılar
muka
yavaşça
buradaki
##tıracak
peşinden
rahip
hareketin
##unus
halkının
bırakmak
bağlantılı
hakik
altyapı
Net
icat
Robert
özgürlüğü
##ebilirdi
##dına
vaat
Sc
##mamıştır
##osun
zır
alırken
dördüncü
köprü
##osunu
karşılığı
ailesinin
koyar
##zersiz
Kant
Soğ
Yat
başlıklı
kamyon
##mişlerdir
To
muz
##lanndan
##landırma
oynadığı
kel
cezası
##lırken
##aborat
Adalet
kabar
kapitalizmin
Kısacası
##led
##leşen
##tepe
sıfır
Ep
##bahar
doğası
açıyor
##lon
umutsuz
inşaat
##ilmektedir
##OK
2013
aşın
çorba
Abdullah
şahit
oyunları
##odu
##sten
keder
denir
sokağa
ağzından
herif
Işık
George
mol
komut
##MM
##ydılar
Toprak
##ciye
samimi
Görün
Feder
ağırlık
hükümetin
yaşantı
beklemek
abar
##meme
##ideri
değişken
##kam
##ps
terc
okumak
kazanmak
oldular
##üye
masraf
kısmında
bilmeyen
Şek
##dede
rasyonel
##unuzu
sözlerini
yolla
tema
topluma
heves
##oğun
şimdilik
aşkı
sürecinin
istemiyor
pozitif
söyleyecek
muy
değiliz
dikkatini
##unma
Ağır
gençlik
Enstit
orijinal
Böylelikle
Ödülü
pr
müddet
final
şeri
hepsinin
kurtara
partinin
46
şehit
##tey
hayali
##ulmuştu
##imlerin
aklım
##emizde
Silah
##ğla
şekillendir
sakat
Karadeniz
Tro
vas
belediy
sıkıcı
milletvekili
gittiği
göçmen
##dinin
seslen
ekibi
##usundan
##IK
sahipleri
uygulaması
Temel
##lanm
ötesine
Alex
serp
varsayı
ağab
lüks
burjuvaz
destekçiler
hı
hükümeti
tün
hayvanların
hoşnut
hanı
Tekrar
ilerlem
fikirler
Dışarı
##müyordu
izler
kamuoy
anladım
Por
sorar
##kanın
ked
Min
direniş
meta
isteme
Orman
Stal
romantik
Şahin
Doğa
alanları
izley
Giz
##ash
atmak
##par
röportaj
tedirgin
lanet
sürek
##cy
gelerek
aydınlat
kin
şarj
##ürler
vakt
titiz
Konya
gücüne
kaybı
Kör
Komünist
##ileştir
Adı
##ükleer
eşliğinde
izlemek
kaldırıp
##seydi
görüşmeler
geçiren
##idir
Mav
hariç
##EC
gülümsedi
havuz
Tok
Mutlu
verin
##şap
Geçtiğimiz
tarzda
##ows
##diğimde
ilke
verilmesi
kadınları
Emre
yaşadı
Saf
bulgu
çıkart
Rich
bekler
dürtü
Platon
sınıfının
yo
##cesine
##dükleri
tavuk
##okrasi
çıkmıştır
yapmıştı
temeli
##ding
merkezinde
saçları
##lısı
dilim
parlamen
görevli
okuyan
##memektedir
ndeki
Nef
değerler
Wind
İm
fat
İçinde
Ac
yeğ
iba
Hoş
neyi
geleni
Yeniden
giriyor
Of
ışığında
Port
çıktığını
Nietz
gösterilen
##tiy
düşünceleri
evrenin
##ami
##lıklara
bilet
etkileyici
sanatsal
medeniyet
çocukluk
beklenmedik
##ebileceğini
43
arayan
ısın
çalışmanın
tabaka
Hakan
senden
ihtimali
##ciğer
##ehan
çıkarır
kritik
tersi
aydınla
bakıma
yazılan
gençler
yaratık
raki
Bodrum
##irim
ret
önünden
gizemli
görüp
##İH
##içi
hadi
##tatör
prote
Grup
##tara
sunulan
##çinin
Komisyon
bitti
değişiklikler
##rit
##mekteydi
düşüyor
Ünlü
Kuşkusuz
Aç
##leşmesi
duman
##anların
##acağız
koyduğu
##atür
Yapı
Selim
piyan
şudur
sola
sürecin
Teknik
##iğit
hom
Ege
söyleyebiliriz
kup
##eceğine
arttı
Christ
ulaşım
150
şi
ederiz
ihtiyacımız
yaratmak
milletvekil
yürüdü
##omi
Erz
Beden
bağırı
gecenin
ölmüş
kolaylıkla
sunduğu
şehirde
kullanır
Hukuk
koltuğ
yalın
kası
##oft
planı
karşısındaki
kızım
##malarına
##ube
yıla
##gunu
Acı
başkası
ayrıldı
deyip
arı
gelmiyor
olurlar
##deler
##gül
Eh
##itli
bambaşka
Lo
cem
Mektu
kaçak
mezun
çama
mahkeme
41
Evren
yuvarlak
süp
işkence
kaybed
soruyor
görülebilir
açıklaya
yle
Dışişleri
imparatorluk
bizde
komisyon
nazik
Lak
kabu
Hürriyet
Diz
isteye
duyul
maçı
şimdiki
fot
ülkeye
AM
##kale
verdikleri
olanağı
hareketleri
Gene
hemş
Peygamber
çim
açıklamaya
güçleri
virüs
Ci
Unut
bulduğu
planda
sonsuza
Eskiden
Euro
kütüphan
yolları
başıma
Kla
##gane
##dig
taşıdığı
özelliklerini
öle
gram
eserleri
49
aldat
##dukça
satı
tarihe
##sb
##lüğüne
Yahud
mantıklı
asır
kılıç
##ington
yaşta
##amm
kıyasla
çekiş
Kahraman
Karı
İşin
Yarın
hediy
##utin
yapabil
zararlı
malzeme
Turk
üste
##eğim
IM
hazin
hafıza
Suç
##arr
istihdam
eşsiz
değerleri
##ts
yazmaya
medyada
akademik
şidde
sir
Juli
kurtarmak
sanıyor
##ras
tabir
süreli
toprağa
tereddüt
peki
gözünde
##imizle
Ho
sipar
çoğal
kurucu
zann
Çalışma
ikil
##ilde
##cere
yönü
yur
duydum
##azakar
##ladığımız
##AV
şirketin
kazanır
ilahi
yüklü
lamba
ulaştır
Fakültesi
vaziyet
güçsüz
dilek
etmedi
Nev
sıkıştır
tavırla
##masyon
sonuca
gereksinim
yaşadıkları
##ony
James
##maktadırlar
dışarıdan
merham
Nietzs
gitmeye
duydu
ellerinde
##fed
##cuk
bulunmak
##kz
Asıl
katman
##alif
vek
Siyah
##mıl
ayda
Haydi
##atistik
şiddetle
dikkati
elleri
Hani
ülkemizde
evlat
hid
finans
etkile
##veni
noktasına
Politik
çıkarıyor
General
esnek
47
kızlar
Red
Eli
##luğundan
pasa
##altına
çoğunluğu
adında
tekel
tartışı
gözlerinin
sade
düğün
komün
##ılıyor
##LE
kafasını
mesafe
şirketler
ödey
##tiniz
teknolojik
kullanılması
##liliğini
düzenleme
Hazır
gerçekleştirilen
noktasında
makine
götürdü
mantı
##60
##casına
koruyucu
kültürün
yerleşim
emperyal
sorusu
Yapılan
indi
burun
hissetti
miş
eşitlik
##no
ec
hoşgör
kanlı
yoldaş
romanı
bira
Mars
##irse
tipi
askerler
ismini
mağdur
atar
duygular
çıkarma
2012
detaylı
##ağın
dönmek
##mıyorlar
kavrayı
##hael
zul
##mik
aklın
##ranı
protesto
ederdi
##ayip
Başkanlığı
kibar
MHP
##langıç
##mun
##laştı
sark
##bileceğim
nüfuz
kaldım
saati
oluşu
##ney
şen
düşmanı
adil
patlama
##izin
52
başardı
oyunlar
şif
bilgiyi
ekib
sınıfın
biliyordum
utanç
etmesini
##ramı
Uç
Bla
##dra
Tav
çekirdek
başlarında
sözde
##iydim
ndaki
seferinde
geleceğini
Aristoteles
mav
##mızdaki
Yeter
Cuma
##ase
Buradan
mevzu
Göl
cumhuriyet
dondur
projesi
müziği
##lının
Kurt
kapısı
Otur
çalışarak
üretilen
Play
aşağıdaki
##oper
parçaları
##emb
tipik
##haba
aldıkları
cidd
Turizm
##üel
Katolik
yılan
##OM
öğrencilerin
Instagram
elveriş
Vatan
bilinmeyen
sürdürdü
hedefi
##odal
krizi
götürür
##lerse
eğilimi
##cia
bedeni
belirleyici
hissi
Mir
kullanılma
ürünler
güneşin
Jack
gösteriyordu
odanın
Futbol
demeden
oranında
kapısını
Has
Com
Sus
çapında
##esiydi
kalmıştır
göstererek
##sayan
##ınızın
##cavüz
düşkün
2008
tanıma
yazmış
özü
Kendimi
kaydetti
aygı
##eliğini
elem
diyorlar
Tho
##lub
tutup
Diyar
barı
kaybeden
söylemeye
metr
dünyasına
kılı
kuyruk
durumlar
uyk
öylece
##imet
kimseyi
verdiğini
##öğ
bireyler
şeylerden
sağladığı
ihlal
yöne
stres
##ure
iktidarı
evli
çevirdi
##ilemez
seri
yaşat
yollar
egzersiz
çıkarken
teşebb
Herhangi
##IS
##lileri
seninle
fık
ves
kardeşim
başrol
##tefik
olabilirsiniz
yama
şirketi
Face
##lamayacak
başlamıştır
ilçesinde
tezgah
sahipliği
vücud
savaşçı
bulmaya
hane
araçları
eminim
mum
William
zordur
Marksiz
kalması
insanlardan
kaliteli
metafizik
düşünün
##ston
Gr
izi
ihanet
iskel
sahipti
##yargı
dostum
ilgilendir
fazlası
durmak
hang
Kuvvet
tadını
##biliyordu
ifadeyle
tüccar
doğruya
kaydı
Yabancı
bellek
ediyorlardı
##gari
başlangıçta
bire
##lanırken
doğrudur
müzak
2011
gülümsem
Windows
ekme
##araya
gezdir
##sinler
kayded
##mektir
diyalog
neşeli
##AC
tamamı
##oför
karın
##gelen
vurdu
Eb
bakılırsa
ilgilidir
tanıdık
##gele
kandır
düşünmüş
iletiş
##ekleri
açmak
##12
Hikmet
dizisi
mektubu
tarihini
büyüt
atılan
sağa
aln
Kana
##ac
artar
çekerek
molek
gitmişti
Sını
etkileyen
birç
##şiv
edebilmek
yücel
hırsız
zan
yegane
istediğiniz
ihracat
Kötü
##wood
yılların
girdiği
##çlı
geçecek
Giriş
##astır
ikram
##vert
hizm
serü
Ros
değerini
koşullarda
dostluk
kışkır
Dis
##ayarak
##emizin
düzenin
oyuncular
Eve
Mahallesi
göstermeye
nisp
emniyet
aşağıda
Avrupalı
Onunla
oyuna
Fransızca
karş
##oza
lev
şiiri
kurtulmak
beyan
kapıdan
dövüş
dayanır
##dırlar
mektub
##artman
Mik
üzül
mide
##dini
getirilen
fl
##landığında
İşçi
uzattı
muay
Profes
Gelecek
sün
dışarıya
kıskanç
##ladığım
kırsal
mesleğ
yönetici
Şüp
##elif
Cal
açıklamak
belirleyen
bildiğimiz
Brit
ürper
ayrılmış
##abilecek
kın
İmam
buğ
düzeyinde
##çü
soruşturma
doku
sih
Hizmet
çil
şeklindeki
izah
mekanik
seyred
TBMM
yüze
##lemesine
hissede
hukuki
istedikleri
##duklarını
kapatı
geçmişti
##cal
ayağı
##epyeni
Charles
amaçlı
Lan
hapse
##akları
geçin
Kutsal
Araba
Güvenlik
sokakta
Günü
özne
kıvr
taşıma
okumaya
sahnede
bölgeye
söylüyorum
##baz
Oyuncu
uygulanan
üzgün
yatar
Fo
##uyordum
Tarım
ahşap
Görüş
Vic
muydu
tavsiy
sürdürüyor
gelişimi
blok
vermeden
çıkıyordu
RAM
You
edecektir
yatış
kurtarı
bunca
##mektedirler
##manızı
uyuşturucu
azı
iktidarın
personel
sermayenin
Kr
##ahil
bık
gazeteci
##fl
nehir
##uar
dum
organik
lideri
çare
diken
rahatsızlık
bizimle
redded
Çelik
diktatör
Bölg
##çer
Buradaki
andan
akan
eylemi
araştırmalar
##hret
keç
böcek
yumruk
çocuğa
havası
anayasa
pantolon
Tol
##ulmuştur
Tann
vermez
tarihleri
geçerlidir
İbn
##iyel
bulacak
Rab
gülünç
##RT
İkincisi
##iste
kuralları
yazarlar
değerlendirme
##stronom
öncü
yükseldi
İsveç
Macar
oturuyor
Ul
dolarlık
Yaklaşık
##bistan
etnik
basamak
##tiz
fel
harek
hekim
##bey
Star
54
işlerini
sanık
devin
##imizdeki
ışın
atöly
sürdürülebilir
uygulamaya
##ultu
sindir
##so
Pla
arke
çözül
gücün
duyguları
konuşur
liman
##söz
Kullan
sk
ordusu
anladı
##lattı
rahatlıkla
##larm
Değer
op
serisi
Venedik
makul
güçler
müs
Lütfen
omz
##esyon
kuruş
##eliğin
##ahh
başlayarak
sizden
We
##üğü
konuları
##diğinin
bilmiyordu
##diğimizde
değişmez
Kırmızı
##urdan
alanlar
lo
ağzına
##yat
edilmişti
mühim
##cağın
##ildiğinde
güldü
Kurul
##sabet
Vali
yayımlanan
konuyla
sakal
hizmeti
##anızı
Sayı
karbon
duvara
##amaz
babamın
##eld
haberler
##etici
edelim
##oda
tarafın
üreten
yazılım
##akkak
gideceğ
meclis
##imdeki
verdik
bağlamında
Kış
verilecek
Şampiyon
işareti
çağr
parası
dünyadan
##laşır
Köpr
şefkat
Emir
##erv
##hn
zahmet
günümüze
alınır
##ihat
mısın
bilhassa
##taç
Genellikle
hikayesini
alışkanlık
Uğur
parçacık
##işli
Balkan
##ty
norm
##ümüzün
laik
Plan
İliş
Herkesin
Bolşev
##etli
Mahkemesi
##ingen
ilişkinin
huy
yardımı
ölür
benziyor
##kender
bulunduğumuz
kek
##sizce
Def
fikrini
Birincisi
##mad
aran
Çak
Otel
olmadığına
kalmaya
oyuncak
ilişkilendir
##70
felsefenin
kımıl
##mıyordum
kud
çalışmalarını
paranın
bulunmuş
çekme
yıllarca
ölüme
kömür
yıp
Bazıları
##bb
Emniyet
##emize
##değer
##andarma
inç
##isti
gövde
farklıdır
##lamadan
savunan
Sürekli
açıklaması
##edikleri
sistemini
peygamber
donan
gönderdi
tarihine
asa
kaybetti
Zih
değiştirmek
Tabi
Ligi
dönüşür
haftada
okumuş
işleyen
hissediyordu
adres
hasar
##ecilik
saatlerinde
kolu
varlığın
çığlık
yuk
Fir
ölümsüz
tarafına
şehre
durumdan
Sanayi
duyurdu
Halil
iğrenç
##vin
birikim
##ramanı
1980
ürkü
ayrılan
tutuyor
kadınla
Oğuz
##eliğine
bölgenin
edenler
yıkıcı
alda
Not
sop
fiyatları
fed
atarak
##emezdi
Yahudiler
##linin
Martin
Thomas
##iymiş
şahıs
Hacı
hesaba
##lüğünde
##ja
aşamada
Kart
yılına
görünmez
eserler
iktisat
##m1
yapının
bırakın
başladığını
soruya
##heim
biriyle
##sizliği
amir
##rusu
aldığım
İht
53
ız
oluşuyor
boşuna
##sınlar
kökenli
Eleştir
##leği
bon
tecavüz
komutan
edebilecek
itibarıyla
koyan
miyiz
##aklar
##inip
nitelendir
Sovyetler
##ıncaya
resmen
döneme
seviyor
2007
çözünür
olabiliyor
alanın
kıza
ust
##rafa
Alp
##landıra
diğerine
mevcuttur
örnekler
bayrak
##ğinin
##meliyim
trav
geceleri
##tınız
vermedi
işletme
çöl
çiğn
##ümüzü
##ordin
içeriği
böylelikle
##varı
PS
##ilme
##ilebilecek
##mesidir
War
kabullen
##ith
katil
üretken
##eceğimiz
ardına
kl
avlu
ayıran
##paz
##ecekler
##tımı
##renin
açısı
heyecanlı
kadeh
çıkışı
##amanın
isterseniz
Sad
2009
##tıldığı
##stra
Cer
görüldü
##önü
arzusu
Hel
diyebiliriz
Sof
çalışıyorum
##ald
yiye
istisna
yaşına
isterse
ciddiye
Azer
##şan
Sn
gerekirdi
Üy
##larıma
bırakan
Facebook
Fe
olduğunuz
kayıtsız
artı
Zeyn
laborat
misyon
çekilen
incelemek
edildiğini
koymuş
seyirci
##ende
düşüncelerini
yarattı
tutarak
Caddesi
bırakarak
Kem
toprağı
gerektiren
Sir
##bes
zarif
acele
yanaş
atıp
tanıyor
plastik
restoran
##IZ
konuştuk
##laşmaya
ayın
##bakır
aşan
kirli
Wat
sevdiğim
##bas
psikanal
öğrendim
ibadet
##çlar
##lülüğ
##ikola
filmler
kararlar
##yın
##etice
des
##tüğünü
85
inanı
##menizi
biber
denge
edilmektedir
belgesel
güçlerin
kırp
kuramsal
örn
kahveren
##vey
genelinde
Eser
Birey
yığı
parıl
ruhun
yapacağını
##gası
##iyo
##inceye
ödün
##lusu
yepyeni
muciz
Rad
Op
##tüst
##ary
Sta
ileriye
set
sayısının
kazanmış
Kulüb
##win
##alan
Romalı
##ilmek
çağın
Hi
değişti
##mazan
Başı
sınırsız
örgütü
pür
yaşadığımız
sep
dişi
bayağı
merkezine
Bülen
kudret
##hu
##lıyorlar
hastanın
deyim
yaralı
##enlerin
üyelerinin
Stan
sunar
Au
muk
Latin
Jon
becerik
verebilir
kişilere
bisiklet
vermiştir
gerektiğine
##mann
olduğumuzu
##ilirken
Kamu
nik
Kup
##mese
düzlem
başlarına
alık
dolaylı
andıran
idari
Ri
bırakıyor
yaptılar
destekçilerimiz
öğüt
horm
adr
önyargı
vat
haberdar
Karanlık
gelme
Sinema
istenen
meraklı
oluşturmak
yapın
Fri
aman
Eg
br
Kadının
##mayacağım
##GB
Diyarbakır
##YA
gelmedi
buyur
çın
tahamm
yönden
koyup
içeriye
Öğretmen
Ayşe
Andre
örgütün
##disi
dostu
kendim
Sinan
papaz
iştir
inana
teori
##ag
üstesinden
büsb
XV
öğrenme
Nap
oya
doluydu
Dest
Sara
defalarca
derler
##indedir
Sun
kitabında
##ılarak
Ren
##açık
görkemli
diyelim
kimseler
ilişkiyi
çekilmiş
Avusturya
Ortak
sultan
oturt
hükm
ilgisini
dayanıklı
başkaları
##eber
gücüyle
öy
ln
konunun
ülkeyi
Ödül
Toplu
sinyal
faz
##cis
bağdaş
edebilirsiniz
Bilin
Üz
oluşturuyor
##kanlığı
Şüph
##lamakta
ert
##ömer
girecek
hissediyorum
kendilerinin
şeyle
varol
Mağ
domuz
##emiyordu
dönüm
Michael
##dala
indirgen
Normal
sis
##sama
120
TAR
##ester
Tanrım
tü
bildirdi
keyfi
Sorun
Pop
mevki
56
materyal
miktarı
biriktir
minik
canavar
mizah
soruları
Uygu
nükleer
##port
açmış
##eminist
Bilgi
PC
Aynca
##malıydı
##memi
biçimini
Derken
kabuk
ağzını
tehlikeye
##irin
##işan
##kestra
##ilt
sök
kaynakları
geçmişi
##baba
görmüyor
büsbütün
##cher
##İŞ
Richard
org
Vakfı
Yavaş
fes
filmleri
almaz
artıyor
III
getirmiş
geleceğe
fotoğrafı
Gra
Kims
getirecek
eman
yapıyoruz
göstergesi
nar
##ınıp
Filmin
sayılı
Devr
Bülent
##cım
Tanı
umudu
seçimi
talimat
saptan
mücadelesi
hesabı
elektronik
Karar
yaklaştı
olmasaydı
##larlar
##lüğün
sürecini
##ulduğu
cisim
görüldüğü
alacağı
çekildi
##meyle
Kafka
çiç
Mot
doğmuş
vazif
##yaz
maya
etkileşim
Ze
hızlandır
politikası
çıkabilir
koşulu
##tis
vi
olmamış
şarkıcı
yayılan
rastlantı
isimleri
Tev
delil
aldılar
açılmış
May
##OP
satan
Etraf
sevimli
muhalif
okyan
edebiyatı
##lada
kullanmaya
AT
büyüklük
Aslan
Herhalde
sorunların
##que
ıslak
Flor
##ford
##sus
ekipleri
çamaşır
gitgide
üretici
##opoli
Başarı
çöküş
Mün
formül
##dadı
##üsünü
##era
Fen
toplama
Soğuk
co
tabiat
##lanmamış
yordu
##mazlık
sarf
aksi
##ehr
stratejik
bakışı
Henry
katıldığı
döneminin
59
görmezden
Konu
Tal
öyleyse
felsefesi
İçeri
yetkin
Bra
fedakar
kemer
58
hiss
idam
Paz
önlemek
##oter
yeteneği
mahrum
gerilim
Türklerin
malı
benziyordu
rolünü
57
öğleden
karg
Düzen
yetenekli
berbat
milletin
görürüz
##ağına
dönüştü
tamamıyla
Cemal
Dünyada
destekleyen
esnaf
##layabilir
söyleyeyim
##yorlar
seks
##ektörü
##cilere
Şaş
görevlendir
##yınca
bekley
ucunda
sadakat
arkadaşlar
amp
donanım
Düşünc
Ke
püs
yollarını
##lerimize
buluştur
##lemenin
çan
##bedi
Şeri
Usta
Ez
sıfat
Yanı
##leridir
hop
şartlar
ortamı
Kanun
Gençlik
##LU
uyanık
İkisi
odası
##ikolata
koyuyor
yaşamının
Nat
##ço
nadir
muhafazakar
hayati
şöhret
hiyerarş
köklü
danışman
##ihan
Koc
belirtmek
tutuklu
tavan
##incan
sanatçının
etmeleri
kenarında
spek
Hitler
Ur
İskender
##onlar
büyüyen
protein
vazgeçilmez
Şef
muhabir
kartı
##iyenin
##işehir
söndür
zik
##inizden
feodal
işlerin
lerde
##acağını
lüz
zer
sayılan
Banka
karanlıkta
düzene
tümü
Jac
lokanta
teşkilat
atmış
##liliğin
içindeydi
tadı
baktığımızda
bağlayan
Kore
elverişli
sağlamış
devlete
Bon
değişir
aşamasında
kolunu
kuran
pembe
başkalarına
seviş
hür
işleyiş
Cep
tekil
##köy
##tünün
sürdüğü
üstündeki
gecesi
Nietzsche
##diyse
##ımdan
Asker
bölgelerde
ağacı
numaralı
gerçekliği
##tülü
gözünü
##afer
arist
şura
torba
##elerdeki
işlemi
gur
tesadüf
Dol
görüşme
geldiler
banyo
yatkın
geçmesi
grafik
Kendisine
doğdu
Keşke
2004
Hatır
##ömert
aydınlık
çıkarmaya
Ül
bilimi
yaşandı
Madam
Gözleri
nice
Alek
huzursuz
temelde
yürüyor
alınacak
hastaneye
##40
kontrolü
doktora
çabası
ulaşan
aylarında
hareketli
biliyorsun
kenti
gittiğini
dönerek
değişikliği
##ember
TÜR
dernek
gerçekleşti
lig
oturuyordu
iade
sürücü
asılı
onlarca
ıstıra
çocuklarının
tanıtım
Brez
Başlangıç
##lamada
1960
başarıyla
2005
##bbet
akın
merkezli
ilişkiye
isteyenler
yetmez
bilinci
Kongr
Turg
Niye
##biye
İdar
ul
Umut
hissettim
fos
unutmayın
şe
yatıyor
vadeli
prim
hepimizin
ilişkilerini
olmazdı
desen
##diğimizi
Soru
istiyorsun
münase
koyuldu
bekleme
##ciliği
kaldığını
toprağın
Babası
##anaat
kaptır
eskisi
melek
çelik
95
oyunda
kişileri
nic
Grubu
##oth
kurdu
##IA
##ansı
sayılmaz
izledi
##bağa
çamur
Masa
andır
tuttur
platformu
Çay
bag
derinden
seferlik
2006
dille
toplanan
Mahmut
##uval
##attin
##ulma
bakınca
İmparatorluğu
yapısını
bedensel
kli
ezber
Lim
duygularını
adlandırılan
istatistik
Ten
belirtir
köşe
##mates
yürümeye
##kop
Hayal
etmekle
ipek
##umuza
##macı
##baha
muhakkak
düşündür
hoşlan
hareketsiz
sım
veriler
atıldı
olasılıkla
birlikt
Yaşar
##acaktı
elbise
bizlere
teorisi
ilçe
Tiyatrosu
artışı
##ilmesinin
hayalet
olu
sömürg
##şıklık
olsay
One
olasılığı
vermeyi
eleştirmen
şem
kavramsal
vez
haberleri
oluruz
hoşuna
temsilcisi
##ginin
sözleşme
mağara
feth
dinlemek
rota
Kızı
belirtildi
Yönetmen
sistemine
iktidara
Dede
##ld
sınırlarını
Kum
kazandığı
adamdı
mask
##leki
anlaşılan
##olf
kurumlar
cevabını
Hor
tartışmaya
yüzyı
verirken
bağlan
iman
gelişmesi
tüketic
kavramının
Edi
hücre
##tap
sözcüğü
600
haric
çabu
##lahi
Bes
##tun
##kala
aktivit
sük
ülkeleri
olsalar
##ulacak
sonucuna
Bakın
minnet
Onur
konumu
Gelin
kahramanı
süpür
##mamı
gösterg
##araj
Arapça
##cında
##kem
##tiş
##ümrük
Sahn
sosyalizm
250
Hakk
gözlerle
Neredeyse
ilkesi
##gatif
Ex
tanınan
Nil
zarf
pu
Gelenek
Kafa
kıpır
proletarya
ale
aramızda
sevilen
hareketinin
diyalektik
gölge
edeceğim
işsiz
ücreti
sabırsız
2002
mahall
koruya
##andan
Evde
Sınıf
ettiklerini
işlen
duyuyor
kaldıra
nedenini
antrop
kapak
mütev
sözlü
isabet
sıralarda
##üyü
umursa
tazmin
##rosoft
kararını
Klasik
öldürül
İnternet
##lına
varken
duymuş
Pe
mısınız
cins
yaratma
İnce
Bayram
general
duymak
istiyordum
aittir
##ence
nesneler
turn
haksızlık
sürecek
##ometr
kalka
değişimi
ruhunu
etmeyen
kali
çabucak
##emde
tutmuş
istemiyordu
oturduğu
olurken
##ülecek
##esince
akı
kollarını
gereklidir
sipariş
##larımdan
oksi
bölgesi
ayıp
Kendisini
yalvar
##liyoruz
Yarış
Durum
best
##laşmanın
Jose
bencil
reç
olmadığından
cak
##iyete
sanal
##ülerek
bozukluk
yönlü
kuşat
##iskop
##ırız
üslup
Geliş
##giliz
bildiğim
hil
finansal
##ota
kıymetli
boyutlu
Musa
##üydü
yüklen
nerde
hakem
organize
##by
Meclisi
##duğuna
geçiyordu
sizinle
kuramı
kurmuş
##mayacaktır
söyleme
##diy
van
Ekonomik
çıktım
garanti
ütop
apaçık
Air
enfeksiyon
sarsıl
Çanak
müzisyen
üstünden
akşamı
feda
paylaştı
boyutu
Cat
geçirmiş
adımlarla
##irüs
Ces
##ee
yelken
İlet
##lanamaz
tuttuğu
##yolu
Rek
bilgilendir
kolon
hiz
zorunluluk
##lie
yaklaşımı
ilişkilerinin
semt
ajan
Niçin
##bit
davranışı
##istlerin
hakiki
tiksin
##yazı
kocası
##aa
Toplantı
tezah
traf
depresyon
çektir
konuşurken
sahibinin
##my
iyidir
bahçe
tuvalet
tavrı
kıt
durgun
başkent
geçmişe
davranışları
taşıya
##melerinin
konsol
72
buğday
##lamasına
asgari
Yüzyıl
dehş
İsviç
azar
santim
Kons
vermiyor
ufuk
kanıtı
tasarımı
Microsoft
oranla
gerçekliğin
vefat
işçileri
68
peynir
ayrılır
mantıksal
##ült
Leon
eti
Çevr
alabilir
bunda
Trabzon
şiirin
tablet
yaratıl
aramaya
Sosyalist
##izasyon
Öykü
nevi
Cinsel
##lukta
profesör
##isy
Meş
##ink
##lanmasının
Altı
dışsal
gözlük
yapacağız
Ley
##OT
acayip
kurg
söze
pe
##fez
189
aramak
Görev
nişan
##inizle
ög
bırakmış
Haval
Kendiler
kutup
##minin
anlıyor
##madığım
hırs
yudum
Felsefe
bahar
Gazi
Dor
hücum
nan
Ir
okudum
ini
gençlerin
##nın
Kurtu
çıkmaktadır
##larız
haklarını
Dair
menfa
arazi
bedenin
sayısını
lü
##cından
tepkiler
ifadesini
yanıtı
##derek
yerleşik
##lamasını
##larımızdan
sormak
Yağmur
kurulması
##larımızda
##ebilmesi
tahammül
oğlunun
yurtdış
Koş
başlık
uykuya
emperyalist
rahmet
benimsen
aziz
gizlice
namus
savaşta
tıbbi
##oviç
döviz
yıkan
tecrübe
hani
##cılara
Beh
Havalim
kalkan
gözaltına
##tecek
Cey
yapmıştır
##eleyen
münasebet
##malısınız
yorumlar
gönderme
suçu
Fou
62
alındığında
Arna
1970
Anton
bayı
US
51
##ers
yüzleş
benzerlik
##iğin
sakınca
göründü
babanın
##dığımda
sandık
Len
ölümünden
Teşekkür
SS
ikisini
uygulamaları
gönl
muhar
##sika
peşine
kütle
Kala
seçil
fikirleri
##çasına
tutuş
Pay
bakışta
kahverengi
emret
ısır
tutmaya
kalmamış
Oper
Anla
yaptıklarını
##rib
içindir
dağınık
hikayeler
##çıların
özenle
##vaf
##urda
pencereden
##larınızın
hapishan
sürgün
söylediler
##cr
zırh
##icik
Derin
Tanrının
Tara
vuran
içimde
kapsayan
gitme
2003
ölümcül
##bildiği
dolara
Ant
real
başlayıp
yağlı
sitesi
arşiv
cami
kurallar
Yay
##PS
biliniyor
düştüğü
kavramlar
Shak
ast
Beyin
üretimin
##wei
Ebu
düşündüğü
##ASI
etrafı
##izy
halı
HDP
gülüş
geliştirmek
kurmaya
çözümü
##lamaktan
yapıyorlar
kaçış
sorusuna
Fazla
neydi
heyecanla
saatleri
hareketler
gelmesini
Rüyada
fas
görüşleri
düm
uçurum
teşebbüs
66
Seçim
ateşi
Pir
tanıklık
##ememiş
Gran
Müş
Hua
Yanlış
yalı
kavramını
sıcaklık
Wash
##tl
##nu
##ÜK
anlattığı
muht
artırmak
kafası
bakmaya
oynuyor
##ivayet
Sivas
##laşılan
Birlikte
Anna
merakla
nedenleri
geçtiğini
##kanlı
koştu
rev
amaçla
zenginlik
adımı
getirmeye
had
Louis
güce
edeceğini
Muhtem
##dok
Devletin
Elektr
##eciler
##ösy
##öv
ateşli
yanımda
oynar
yazısı
KAR
binanın
##ografik
bulanık
satıcı
hek
pren
dindar
varolan
yorumu
tamir
olacağım
##Hz
anlık
mesajı
Kahv
yanan
kişiden
kalıyordu
maddenin
intikam
67
riski
##lerimin
düşünmüyor
vuruş
##unuza
hatırlıyorum
sözlerine
evinin
Fab
devrimin
çalışmalarına
ero
olacağız
Yıllar
##etini
yapıyorum
onca
aradı
Rüz
yükseliş
Şimdiye
cenaze
yatağa
##emeyeceği
madal
kaybetmiş
İçin
telefonun
##besi
arkaya
##şamba
yapılar
korunması
##biliyorsunuz
yazgı
##ologlar
lisans
dilini
kaynaklı
olabildiğince
Mary
edilerek
DE
tom
kongr
dekor
##lığım
katılın
ihtiyaçları
arkasındaki
Hepimiz
çoğunun
ideoloji
##arına
tahl
dönemine
Cla
duyduğum
##takal
istiyorsanız
hayranlık
Gerçekte
##ösyö
Cha
yapılmıştır
sanıyorum
oturma
Kas
yaşadık
kaynaş
sefa
##liç
dibinde
Tren
yapalım
konuşmayı
başlangıcı
şanslı
ilgilendiren
Festival
dağıt
##tezi
prensip
Duygu
ls
sistemleri
bulunmayan
cömert
muhtaç
Kanunu
üzeri
ısrarla
İy
Devleti
arabanın
sıkça
Azerbay
işlevsel
daire
alı
çekirde
Jim
unutma
Mavi
beye
bakarken
elle
üm
eserin
##ekiz
##asyonal
##ATO
çelişki
96
deneme
birbirlerinden
##boş
şüpheli
##iantep
ibarettir
Tr
başlamak
oradaki
motif
web
Yukarıda
küçücük
başbak
ekonominin
Resmi
ikincisi
özgül
##iyanlık
yapıla
tembel
##larımızla
##ağında
sürün
tartışmalar
##ğine
forma
##diğinizi
Cez
##ate
alınarak
moral
Askeri
##ciyi
yönelim
araçlar
görüntüsü
Gaziantep
Fizik
Savunma
##yoruz
serüven
birinden
tedavisi
idrak
stü
##biler
odun
köşesine
işyer
elma
İde
Çağdaş
##ladıktan
yaklaşan
taktik
##nel
cür
78
Korku
##viş
okulda
üstünlük
Kaynak
Washington
tekli
iyim
##AF
rüzg
zanaat
##wa
##uel
inanan
Haş
##cesi
almadan
okurken
Çetin
YouT
başlığı
tarikat
##bilecekleri
denizin
parçalar
##mağı
Kit
Neh
durmuş
şoför
yapıya
başkasının
Dağı
Avustral
Seb
##gır
##g1
dilerim
##cize
Köylü
anlatılan
saatlik
tütün
oldugu
armağan
##linik
Vah
komş
bilgilere
cerrah
##lenerek
robot
kalmamıştı
etm
çoğunu
kime
63
rezerv
vücudu
gerekçesiyle
##pınar
Umarım
temelini
Yirmi
limon
tasavvur
##urn
##iliğinin
##OG
##ristiyan
##AG
Tun
bütünlük
tarafsız
yeş
##mith
DNA
Ramazan
slo
getirerek
yir
negatif
Hastanesi
yazdım
basıl
##okol
açlık
kullanılabilir
ödülü
yapıştır
tanıt
Şer
içecek
elimden
pamuk
sürecine
çağırı
Nedir
mimari
##ilmelidir
##leşti
ünifor
bulundukları
Selçuklu
Mücadel
Mich
ut
##ott
##inler
Tap
konuşuyordu
##box
gününde
Bölge
##leştirilmiş
TÜ
gerçeğin
kata
kendimize
güvence
Enerj
##lamayan
sarsı
bunalım
Sokrat
##ılabilir
alıntı
Tör
antren
##dor
belirlenen
Kurum
Esa
direnç
içti
incelik
larda
Moğ
##ny
Kasa
##itan
makal
nev
kurnaz
Çanakkale
##ecik
##UT
##sünün
diyet
niz
olanlara
##oo
pul
böyledir
Bl
##yası
fran
yerlerden
##iriz
artması
Sıcak
ansızın
Bebek
kralın
kaçan
dibine
seçilmiş
muhabbet
dışa
unsuru
ritüel
1990
seviyede
Benden
eleman
çıkmadı
küp
anlaşılıyor
##rey
sürüm
dim
##dıklarında
98
cüz
Çiçek
tüfek
Nuri
tot
bakma
çikolata
Annesi
##ln
performansı
yağma
belge
##reter
CE
maçta
##lanyla
##uri
saçlı
ilim
gözüyle
salgın
sürüp
patates
Albay
anılan
##cinsel
ağırlıklı
yayılması
##ily
iyimser
çekmeye
bünyesinde
##etti
yıka
Huawei
kalbi
Kurumu
olursanız
gemisi
dinler
devletler
##şembe
Yedi
çet
77
##delim
farklılıklar
##ish
yoz
soya
hamle
##emiyorum
kültürünün
##ment
ihtimalle
kısmının
anarş
verilmiştir
##kinin
##ayy
adımlar
görüntüler
dedikodu
dilen
Küresel
görece
kaybolu
sesli
indirg
##ble
temizlik
79
##rnek
##lenebilir
doğaya
kendilerinden
##lendirme
Bugüne
inen
##melere
edim
konudaki
##MA
##gh
##ont
Akadem
müba
dolaşan
pencere
olacağına
okudu
##üsünde
92
##diz
Ahmed
Tez
69
Madem
düşündük
bölgesel
##vari
Portekiz
oynadı
##ling
hu
NATO
metrek
yazılar
fah
yokmuş
söylerken
görmemiş
avcı
oynamak
Trum
kef
belirlenmiş
ölümün
edeceği
koruyan
##IŞ
ellerinden
##uku
Stalin
vasıtasıyla
Demokrat
Şeyh
kocasının
iştah
##edin
##elenen
otorite
savur
örnekleri
yakışıklı
talebi
Cengiz
nem
birileri
Yavuz
sanmıyorum
portr
Nereye
##rut
irdel
yapacağım
Ras
fanta
gerekti
üzüm
hoşuma
##ledim
##stal
##larımla
yöntemleri
##emeyiz
Kamp
uğramış
beklet
aslan
yağış
Gem
76
nesnenin
Zeynep
olacaksınız
düşünsel
gal
zorundayız
cumhurbaş
aj
zalim
##slan
erişim
Öteki
Kaymak
devrimi
nör
yoğunlaş
aradan
Muhtemelen
çocuklarını
pilot
##gücü
ürünün
##malarının
##edecek
Lakin
Day
##afak
##elerindeki
yenilg
cezaev
##ilmemiş
kont
istiyorlar
##liyorum
bilerek
taht
bekliyoruz
##dt
nedensel
uzmanı
başlandı
gerçeğe
vakıf
##kine
##ardan
##cağının
Eskişehir
geçit
izlenim
vatandaşı
Şük
##batı
teşh
geleneği
getirildi
çeyrek
##utu
##dinde
Merhaba
kasted
öğrencileri
##ürken
##sadı
günlerinde
dergi
başlayınca
Padişah
oldugunu
etmesine
oturur
Yarı
##ito
güzelliği
dogru
Konfer
kayboldu
solun
aldığımız
73
esrar
deyince
görmüştü
yönettiği
kura
argüman
gittiğ
mezh
göreve
##faf
##lobal
müttefik
##üsüne
Şarkı
97
Destek
##ülüyordu
İslami
veriliyor
plaj
Gor
pekiştir
##antum
bizleri
mantığı
YouTube
destan
köşesinde
##nda
seçilen
metni
acık
görüşlerini
veriyorum
Polonya
annemin
ağaçların
sınırı
çıktığında
koştur
##lanmayı
Alış
göstermiştir
belirtilen
Yorum
Mol
pahasına
##laz
Fah
olmayacaktır
çalışmayı
OL
elbet
##irik
edilmesini
feminist
oyuncusu
##lini
dalgın
Philip
Kırk
Cevap
His
Azerbaycan
olaylara
kendinde
##kıya
ortasına
olmam
grupların
taşra
yedek
Meksika
##landırıcı
yönünden
hayvanın
yörün
kılar
imaj
Hatay
etek
düşünüp
kalmıyor
##osunun
##dırı
##tod
içindedir
niyetli
Fı
Çav
belirsizlik
bilimsever
referans
tanıyan
şara
fırla
hazırlanmış
##larımda
##unuzun
##iyesi
parasını
büyüle
kayda
salata
sebze
hesabından
Victor
Devrimi
##sky
tutsak
##iser
açarak
##raş
sevda
yaramaz
biliş
eda
##zem
açıklamalar
ayakları
##melisiniz
Saint
##konusu
sürdüren
katlı
kilometr
annenin
Müt
olamazdı
tapınak
ente
kaçı
Wh
problemi
bağımsızlık
Bos
Bri
ur
öncesine
reng
akışı
maddesi
##amda
hastalığın
coğrafi
2001
epeyce
##dere
Pal
öğrencisi
tabl
##barat
çevresindeki
öyküsü
yıkım
Yüksel
nedense
Zavallı
kuyru
##lamadı
konumda
irti
Bizler
kadros
eksikliği
abi
sistematik
1999
hayırlı
Britanya
güldür
nedenlerle
soğan
##stri
egemenlik
rekor
84
##uth
##İD
##uzun
kesilmiş
Gönül
Holly
ucuna
yaparlar
çukur
##tücü
##ebilirler
yazının
Geniş
Önceki
XI
##amin
mevcu
yöneten
biliyorsunuz
Ziya
belirle
kelimeler
çiftlik
hazırladığı
##lemeler
işlemci
demokrat
tırnak
nihayetinde
çalıştığını
objektif
##ach
dereceye
ağırlığı
deneysel
fış
olaya
##cault
##rich
trajik
bitkiler
etkinliği
Angel
ilişkisini
hazırlanıyor
ova
##uer
İçer
nesnelerin
düny
kullanılıyor
dramatik
değildim
baskısı
Kendine
##liçe
zıp
##jinal
ergen
olabilirler
##memizi
Siyasi
süresince
saçlarını
Sk
Üs
gözleriyle
##dakiler
94
girmeye
olanaklı
Deli
işletim
alanlarında
vap
pi
gelirdi
vit
İletişim
mücadelenin
##ılmasının
taksi
beste
canını
aka
tanımı
gor
özelliğini
mermer
sembolik
taşıyordu
alalım
sisteme
##uluyordu
yansıtan
##tiklerini
bekledi
sokaklarda
tebrik
rekab
isterdim
ayrılık
Meg
slogan
köylüler
uydu
İlçe
yetkili
Yunus
##OB
sular
Program
##iliğine
Paş
molekül
Duvar
tanıdığı
rum
batarya
tahakk
kesinti
çerçeve
çıktık
olasılık
giymiş
hikayenin
lehine
gerçekleşir
yapılabilir
dayanışma
grupları
##oto
Sup
depolama
yapmaktan
##lıca
Milliyet
Bet
domates
je
gömlek
izliyor
Zengin
##ens
hatalı
Dam
93
##terek
etmemiş
Köpek
iron
##iyana
kentte
duygusunu
durduğu
kazanı
beklentiler
1950
kıyısında
evler
asit
ebedi
hara
manev
##rid
##espe
samim
Vas
muhafız
Adamın
türleri
barbar
##UK
ışığın
senary
yıldızı
izleri
öteye
Ortaçağ
##feri
konusunu
bağırsak
toplan
Kitabın
ağabey
ayıra
##ward
Arada
Intel
Ölü
terörist
##leşmenin
İsmet
##hem
tim
başkal
Ayr
düşüncesini
rüt
muta
##cüsü
Kadınların
silk
emanet
ilgisiz
##mağa
çalışmış
okulu
ayaklanma
##tle
beşinci
Ec
yürütülen
hipo
anıt
telgraf
deme
##iN
##umdan
ayının
elleriyle
BM
Demirel
##zade
lezzetli
istila
Hırist
##ft
Oscar
##ght
verirler
Kadir
başarısı
##yacaktır
##iyorsa
##yaj
Mektup
metnin
haftalık
saklı
doğar
kırıl
ettikten
##bap
durumları
gerçekleri
devletlerin
Stu
tahıl
kurucusu
hün
odaklı
sarma
pekala
demokrasinin
yürürken
romanın
geçmişin
##tive
My
askerlerin
Kop
toplumunun
Ekran
kavraya
girmesi
Kitabı
##küp
##ulup
##OV
dolaysız
alanının
rin
biricik
merhamet
karara
Sınır
oz
komplek
öfkeyle
rüş
çekmiş
apartman
değilmiş
anlıyorum
kağıdı
kılma
##sana
##vaz
plak
Fet
getirip
##mazsa
##gelelim
Ele
tutumu
kelimesi
Cas
ciha
eşiğ
vermektedir
##eyan
getirmişti
buhar
temsilcileri
seçmen
##ESİ
88
##düs
##malara
tepeden
umum
gelenler
berek
Shakespe
89
konferans
Turgut
hayvanları
yasalar
kurut
menfaat
##saf
##öğret
Foucault
Tük
Ola
seslendi
##til
Emp
olduktan
ürünlerin
uzlaş
##yonun
panel
##teyiz
##gir
##ai
yapıldığını
yakınlık
Günlük
Erzurum
düzenlediği
##eliydi
çalışmaların
adamla
74
##LÜM
frag
şöval
sorununu
cahil
gelsin
kralı
arar
odadan
Aksi
Kaş
##mışı
##eledi
şirketlerin
##hak
muş
elekt
tavr
oyuncuların
şişe
Televizyon
duyuyorum
tesir
##lanmanın
atmaya
sandı
kıpırda
sizler
yürüyen
##lut
kısır
tabanca
ederse
Atina
yazarların
atın
cadde
sesiyle
doğuştan
Merak
nitelikte
##ronun
Erdem
Rapor
mira
kolları
##ikar
meslektaş
araş
Xia
Smith
##TA
Dönüş
söyleş
töreni
beynin
gülümseyerek
yerlerini
yazıyordu
yüzlü
Cap
Alk
nefis
olsam
Organ
devamı
##banı
gördüğünü
86
içeride
zı
##layabil
##adet
yanıma
sta
kalırsa
gösterecek
ağacın
dilde
Çor
güver
görüşünü
istemek
altmış
Göster
Enstitüsü
##önes
varlıklar
kenarına
Hristiyan
dahilinde
galib
kaynaklar
Dör
lah
öldürmek
ateşe
nitel
bakıyorum
saldırıya
rivayet
asil
##uka
temsilciler
süslü
##ato
ordunun
Aka
hakimiyet
##yak
##bayla
##ılıp
döndüm
kimliği
bahseder
ihtiyat
02
katılmak
ilki
heyet
mırıldandı
Salih
küfür
belirtiyor
koyarak
Evin
ras
##mayla
boşalt
uzlaşma
yaşıyoruz
Cumartesi
geçim
sıralar
tefek
olmamıştı
##bilirsin
hain
geliştirme
tanrısal
Başını
Mersin
gizem
##apiksel
istediğimiz
bedeli
bilincin
öfkeli
##vanı
çıkarları
##pp
dökül
dizinin
sayf
##CI
kötülüğ
##eck
Çevre
Kupası
geleceğin
yaratıyor
aileler
##sül
kapısına
kuruldu
port
##oğlunun
vesil
Müm
kaldırmak
çalan
Helen
kendinize
Kesinlikle
öksür
Est
bilincinde
liraya
yazıyı
sonraları
##ülemez
61
AY
İK
eksiksiz
##larınıza
etrafına
manastır
##arik
##ağan
uygarlık
getirilmesi
mutluluğu
gözüne
oynat
unvan
rep
##mine
##LARI
##not
ödev
AD
birbirimize
##dele
sonuçlarını
yasaları
itha
ont
keresinde
gerekmez
pusu
titreş
birbiri
nikah
mevs
bölgedeki
elimizde
Kilise
emeğin
tencer
##ges
varan
anlaşılma
kesti
kaybeder
##yık
##terin
girişimi
##ike
söyleye
##eliğe
##III
sahada
##sili
verileri
Tatlı
salı
Shakespeare
takın
Kök
dinleyi
gündür
gelirse
##emeyeceğini
nüfusun
Kanada
eksen
bağlar
sürülen
muvaf
Görüntü
##sch
köşede
##sıra
kalkar
bildik
borc
##fli
kullanıcıların
günkü
##cağımız
##mazsınız
bitkin
çıkınca
adap
Yüce
gerçekleşecek
izleme
##cılığın
##idin
haricinde
kesik
kullanıldığı
187
Viyana
biter
toplantısında
##PU
dele
Danış
oluşmuş
TÜRK
Büyükel
ifadeleri
miy
Bolşevik
emri
Noel
komedi
bilinir
yerle
##eçh
ediliyordu
vurgulayan
Belç
müdürü
götüren
##rov
düzeyi
mahv
balta
tatb
inf
83
edince
##ünüzü
içlerinde
##ıyorlar
başkenti
Pier
vatandaşlar
çevresine
##venin
geliştirilen
##zda
unu
hizmetleri
##gur
fırsatlar
vura
yaşana
Nic
eyleme
##unt
##nie
09
##s1
gruba
harcan
##yem
saatler
mısır
kaçmak
nitelikli
jür
kuyu
onlan
##çiliği
yaşlarında
Bilinç
görünmektedir
Burak
müsaade
vermem
amca
söyleniyor
##dyo
ender
ölçüt
Marmara
çalın
duyunca
traj
Sokrates
çıkarılan
alakalı
Zar
Kurtuluş
sağlanması
istemem
yaya
yüzyıldan
Brezilya
ipuç
diyoruz
inip
Bed
fal
açacak
belirlemek
Tuğ
değişiyor
sözcükler
bırakma
yanıtladı
eks
##izde
fiil
müf
Diş
##rü
Geleneksel
Abi
örgütlenme
Bölümü
kürek
##landım
nota
çaldı
lere
alanını
etkilerini
lise
üçlü
82
göstermiş
##lılık
ülkelere
Cumhurbaşkanlığı
##leştirmek
arkadaşlarının
Ti
etmemiz
mesleki
Post
nadiren
lit
başladığında
FET
suçlama
görmedim
Sendik
87
##ümden
TH
##duğundan
aksiyon
müj
düşünüyordum
##gger
Varlık
amaca
##ayol
sezg
Böylesi
##ff
filminde
Black
Rıza
noktayı
tamamını
Kaptan
gittiler
Ortadoğu
##lemişti
gözlerine
gidiyorum
korumaya
kuşa
anlaşılmaz
dara
dağıtım
takımın
noktadan
tükür
içmek
##ceye
aklından
şifr
biçimlendir
bölümünün
tahsis
düşünceyi
dediğini
Profesör
##omer
Zafer
güvenliği
taç
çember
sanatçılar
lara
##cınız
muamel
##operatif
##ius
##ıyla
evleri
Papa
direkt
##cevher
yönündeki
yoksulluk
rahatça
##LERİ
##mayalım
açıklar
##üsünün
dünyasını
çıkmasına
Biliyorum
töz
örtüş
##todoks
aralarındaki
laboratuvar
##way
##civert
koordin
##tırma
Bür
gönderilen
kavramları
##latan
##tığında
etmeyin
şaşkınlık
##sünüz
##hazırda
nispeten
##ovid
pirinç
burç
faaliyetleri
yemiş
köyün
kulağı
Moğol
işlerine
nezak
kötüye
benlik
Bilmiyorum
##MAN
İleri
kaptan
etkisiz
Başak
cel
alanındaki
pasif
kitabını
Veli
motiv
efsane
Mösyö
##enip
askerleri
##meyiz
uygulamalar
tet
deş
##vut
vel
istediklerini
sivri
hamile
emeği
ziyarete
Hayatı
kazanıyor
üçte
sonuçlara
BÖ
eylemin
Teknoloji
etmen
kep
altüst
Komut
sorulara
habersiz
mantar
doktr
kak
bakter
##balık
seferber
81
babasına
##ularak
pres
sahiplerinin
ılık
esnada
Sony
yapmanın
çerçevede
Hab
Maria
burc
geçirir
Sonrasında
nor
Alanya
okş
Augu
beklediği
##alisyon
##abilirsiniz
##veç
Uzay
Hes
yarısında
Buda
dokuzuncu
Pencer
Xbox
ekonomisi
Adnan
sporcu
sormuş
Uzman
inanmak
işg
##lüğünün
##layabilirsiniz
Almanca
sorusunu
##lamıyor
abla
##dının
şişman
teklifi
arta
anket
randev
Komisyonu
çalışacak
gördükleri
##madığımız
garson
##lamalı
Okulu
dinlem
anlaşılması
imam
demokras
tarihten
şarkılar
##sıkı
kente
kole
Köş
##cir
karşılaştığı
hormon
mekanı
##ülmüştür
Öf
sürat
cansız
evlerin
##Cİ
Erken
ödü
müdahal
ilgil
paran
gelirken
Akıllı
##ıh
husu
şifa
Belçika
##lanmaz
bazılarının
yanılgı
psikiyat
ayin
Fal
Ço
çıkararak
Aşık
Yalan
##ullah
göreceğiz
önünü
İktidar
kızının
götürüyor
Çeşitli
değiştirme
Terör
##lediğini
##niz
başındaki
girdim
##ırt
birbirlerinin
Nas
yazıp
Dük
1000
hıç
kalabilir
tabur
sabahı
dura
biçimsel
##lanacağı
##iğe
barındıran
şartları
anlamış
##arl
koşarak
Kişi
düğüm
Il
yaşıyordu
bütçe
partisi
atılmış
müziğin
Dani
##şaf
Doğrusu
kısal
modelleri
şaşı
##dıköy
ER
teknolojisi
ürettiği
##tici
engellemek
parç
suretle
hafız
Kerim
yaşındayken
inanır
##ıi
gülerek
köyde
desteğine
Mül
düşüncesinin
okuyor
sınıflar
girerek
##malıyım
##mefendi
##lenmiştir
Ermen
atma
##lov
feder
kaldık
##paşa
##kent
arkada
Yerel
adamların
##leşir
unutmuş
##sah
oyuncuları
##emedim
yapmadan
sorumluluğu
yiğit
Küba
açılma
statü
suda
detaylar
##iciler
Zeki
kama
Sarayı
kafasına
##ketbol
memuru
dolap
ellerine
getirme
##tiğiniz
hissediyor
Üzerinde
##yana
##olar
Havalimanı
cas
ıssız
yukarıdaki
başlaması
Şunu
söyleyebilirim
##ilmesiyle
fırın
tanınmış
projeler
editör
kabart
ölümüne
dersi
Kuran
kaldırılması
##ekte
düzensiz
kalmayı
zorundaydı
yadsı
##ces
birbirinin
##arşi
800
işleme
ertel
sorunlara
harc
ağaçlar
##mana
yelpaz
Güler
kararsız
ulaşmış
nci
dönüşü
Gali
belirdi
##tiğinin
Hap
Oli
sini
ihtiyaçlarını
dona
açılır
Xiaomi
muhat
kırıklığına
unuta
açıklandı
izlerini
ömrü
itti
katkısı
ücretli
duyuyordu
sergi
İlhan
hastane
Adem
içk
Engels
fatura
Pra
tanır
##artes
varlığının
Kadıköy
adının
başının
ortamında
AS
Mehmed
##dola
metod
##onspor
engeller
tonu
verdiğimiz
doğrultu
Çöz
go
açabilir
düşünülen
gitmesi
Güçlü
kanıtlar
konuşulan
##cır
gerisinde
çoban
##mdaki
tanıya
açılması
FETÖ
kavrayış
çocuklarına
Kulübü
karşılamak
anlatıl
Konseyi
gelmeden
sorunlarını
endişelen
geçtikçe
konuşmasını
ll
##dıracak
Malat
Kaldı
Resim
şairin
karısının
demekti
##ouse
soğu
Eğit
aklını
açıktı
##unacak
kesildi
yayınlandı
yapmaz
sevgilisi
##ct
beklerken
TRT
toplumlarda
Zam
Şid
alındığı
Trump
açıl
huzurlu
güdü
düşünmeden
MÖ
##dünüz
Trabzonspor
##ÜL
simgesel
##ÜZ
King
##mayacaktı
indirim
Afgan
Parkı
sansür
kafasında
testi
Vek
gelecekteki
kapattı
sözkonusu
geçtikten
takdim
teselli
berrak
yam
yukarıya
Leyla
Eki
vadede
çeşitlilik
bağlılık
Gözlerini
Maliye
tereya
##bank
ihtiyacım
İN
Cemil
atıf
taarr
uygulanması
maçında
##och
ekrana
##vis
kullanıcılar
bileşen
Hakkı
faydası
##jder
belirler
##bab
içme
Wor
köye
Bilimsel
fışkır
tuş
Çavuş
zin
Kenan
##iteratür
180
hastanede
##siyi
##lemeleri
Ümit
beklenti
çarpan
borsa
##dığına
bunlarla
herş
dönemlerinde
##sur
Bayramı
evlerine
Ekrem
Kendim
Rönes
##yici
Takım
##laha
##tarım
geceyi
olum
##leyebilir
izleyici
solgun
Hollywood
##modern
Tuz
Ziy
çıktılar
iddialı
açıklık
üncü
eşcinsel
müzaker
##eceksin
##ihi
afet
bulduk
ikiz
##EŞ
makinesi
Step
güçlerini
kentsel
Ergen
Fred
##TC
yolculuğu
Avustralya
sınıflandır
gerekecek
bilgilerin
##luklar
Zek
çevrili
bütünü
th
gerçi
Bunlara
##ikatür
kaldılar
Blu
batak
fırça
Çer
özünde
##lanmadan
iyiydi
İçişleri
yücelt
vol
faşist
##ecen
edemeye
ülkesi
Odası
gayri
##çin
yardımcısı
dilinde
Yalçın
Buz
##düğüm
184
ölçüm
cinsellik
duyma
bulamaz
hakkına
hikayeyi
5G
Şark
panik
ov
Kayseri
kurumların
##larmış
gerçekleştirmek
seçme
tamamladı
ordusunun
Alev
ilti
sunul
##meyip
İşlet
##deleri
İsviçre
##dist
mistik
##off
konuşması
dersin
Jan
Faz
##orik
sınırlar
Meryem
görü
Söy
Açı
paylaşmak
##Lİ
edebiliriz
topluluğu
##irmen
##laştıran
zannet
188
sizlere
saran
##lidir
Harry
İrlanda
yetmiş
akılcı
##ındık
tehlikesi
tutma
##lıyorlardı
Olan
adan
kesiş
##lop
fev
çözmek
sınırlandır
##yorlardı
salonu
bağışıklık
perişan
Ram
##IT
##stro
malum
MS
kızların
##mayarak
##onav
##dine
##low
##osuna
gidelim
sektörü
paraya
girişi
bitmiş
kare
Gelgelelim
bakır
reak
değiller
##name
Sil
yazarken
Note
haykırdı
eylemleri
Yüzü
dururken
tanımak
sayıları
çöktü
yarısını
sözlerle
##laşıp
fizy
toplamak
##tırdı
cehennem
Ray
gözlü
##ubuk
##tırım
Valisi
okşa
iOS
yaşandığı
olmayabilir
devre
Arda
oyla
imge
Güncel
şiirler
##enmiş
Engin
psikoloj
Vir
ithal
hasret
Viet
##abiliriz
gönderdiği
##gelimi
İnşallah
##emm
##tular
Deprem
##iydiler
Mimar
ülkeden
fener
yanak
çevrim
strateji
güzeldi
Teh
sınıfların
benzersiz
Vücu
Günün
görevleri
Şeytan
bekliyorum
söylenir
işlere
verdiğim
Parlamen
ülkemizin
##ux
##EZ
iv
yöneticileri
havayı
##yetik
Kazan
yararı
##cim
bilinmez
gelene
Medi
ayırmak
izni
yönünü
ailesine
psikoloji
Gümüş
Hum
dediğim
up
##ect
bulmuştu
İstik
bine
sebz
kötüsü
istiyorsunuz
ilkeleri
imalat
##mızla
okut
kılav
Komutan
Hazine
geminin
Kongre
##dr
kılın
Rahat
uyuya
Arabistan
müze
bilmeden
başlamadan
Bağım
yapıları
Belir
Zer
##sızca
yapabilecek
kaçtı
kurallara
yetecek
##ografi
tahrip
##tiğinden
dolusu
oynan
##ganın
ihtiyacını
büyümüş
bilmiyoruz
Arnavut
Tartış
##manıza
gökyüzü
parçasını
versin
##teb
kibir
davranışlar
kökten
planlama
Bakış
Temsil
seslerini
otop
sıraya
Kulak
kalite
71
getirmiştir
çalışmalarının
kıyamet
kalarak
Bob
##dilerde
Mahkeme
Snap
filme
çorap
inşallah
şeylerle
davası
proleter
08
pes
kısmına
elinin
Pav
herkesten
Şam
##neye
##dön
önlemler
oksijen
Real
ğı
Şeker
Dönem
##ilyon
kurar
araştırmaya
Fatma
tutuyordu
##kuş
fiili
bariz
bilişsel
Eyle
yarışma
Arslan
Özdemir
toplumların
##çısı
ayık
zeytinyağı
inandırıcı
bilmiyordum
##ğuna
##cağında
iniş
çoğul
Müslümanlar
Halkın
toplantıda
oyuncunun
noktaları
##embeyaz
Buy
direktör
üf
gelişmeleri
##ediği
köşeye
türkü
masada
##piyat
bahan
Reş
evrimsel
Hun
gülüyor
##gaç
gelecektir
burjuvazinin
dönmeye
Det
maymun
Milletler
##minci
doyur
Akın
##nes
araştırmacılar
elektrikli
yemeğe
Anti
sonucudur
##ander
##pi
saçı
Divan
istemeyen
Hıristiyanlık
olduğunuzu
yıldızlar
tüketici
alınmıştır
##itleri
Yarım
##bağ
##iret
Değiş
##elikop
aynca
##emeyeceğ
matematiksel
##TL
değerlerin
karşılaşma
Ein
Örnek
tasarlanmış
yapımcı
Heide
##ww
yiyip
##ath
Muhaf
çıkmasını
arayıp
bıça
kargaşa
yalnızlık
Başlangıçta
oynanan
ıstırap
yazıda
soruların
kalsın
suskun
Rüzgar
kımılda
çalışanlar
diğerlerinin
haftanın
fabrik
##diğinizde
budala
sag
gelirler
##gue
konuma
çalışmada
##ledik
gayrim
harman
babasını
rın
işlemleri
Şüphesiz
unsurlar
Üyesi
##esif
##ebileceğ
anlatırken
ihraç
##feder
olmamız
Erol
kost
dine
görüntüleri
önceleri
Kıs
inceler
##luyordu
hüzünlü
yakınında
sinirli
yaşadığını
Önümüzdeki
##emenin
700
ülkelerinde
Sevgil
duyguların
Günde
##lerime
söylendi
imtiy
koyma
boru
##eke
##süel
Öztürk
Doç
paylaştığı
Komitesi
taciz
bölgelerinde
Şö
derim
Federasyonu
Madde
şeffaf
tank
Beyoğlu
##ıra
Sün
Çinli
örtülü
Bunda
Lin
elimde
evcil
ayrımı
cuma
bayan
##lenip
makyaj
durmuyor
sırası
göstermesi
##keli
deg
Hip
başkasına
Marksizm
Aksine
vitamini
Gay
toplanmış
açıklayan
İddi
##kik
biçimine
##ırsa
Ru
sentez
mevcud
Kos
Mag
##laştırmak
Win
sik
##con
kaşık
şahsi
bkz
giydir
sergile
daim
istemişti
taşıyı
öfkelen
konusuna
Olim
Lisesi
müess
kamuoyu
##ıyoruz
AV
##dında
tedarik
Neler
varlığına
karakterini
araştırmacı
bilmediği
İnönü
meseleyi
##mazsın
etkileye
Fas
05
Edir
kızları
teşhis
anlatacak
getiril
bebeğin
soğut
Haklı
arayışı
kaynaklanır
Yolu
safha
dalı
yönetiminin
stok
başlıyordu
komuta
##biliyorlar
Çam
bilgin
##ardo
kullanılmış
albümü
##ğıyla
kalça
yumuşa
sağdu
durumunun
Şikayet
Kudüs
gösterme
filminin
bilinmektedir
iyiye
##miye
mücevher
fit
şahsiyet
gözlerinde
iğn
edilmesine
aça
Erkekler
Malatya
Birlik
fiş
taba
kelimenin
##bolu
ölmek
sağlığını
aleyhine
protokol
seslendir
Güz
bakışları
daral
alırlar
sallayarak
hastalıkları
yüzyıla
başarıya
köylülerin
NAS
vereceği
Mender
Stor
##oterap
karışımı
anlaşılabilir
değiştirdi
konulara
ifadeler
zanned
unutulmaz
hattı
halindeki
Basın
seçeneği
yönüyle
simgesi
yasası
##egem
İY
Özgürlük
kokusunu
çevresi
içerisine
##umuzda
RT
orkestra
dersiniz
alıyorum
içerisindeki
aciz
GÖ
kriter
Hedef
mahrem
astronom
konuşmalar
yollardan
erişilebilir
www
##iyorduk
annesine
engelli
resimler
##elebi
##affer
bağlantısı
##ımar
tela
çizgide
türünün
##laşa
Toplam
etsin
düşünüyoruz
Vatandaş
##elerce
##feti
herşey
zap
paradig
Kağı
gözüküyor
kurtarma
##liliğe
üretmek
saz
çağda
##arınca
##eff
##eve
##ıldım
Oraya
##had
erdi
uşak
duydukları
yaşamda
Süm
kuşlar
##eceksiniz
çifte
göründüğü
rezil
ateşin
##ds
konfor
kullanmayı
AMD
Amaz
Başta
Öğle
ceset
yazıları
##ÜŞ
dingin
yükü
yerlerinde
##gına
Sevgi
durumdur
dinam
yakıt
kitlesel
gördüğünüz
##lans
##sansör
##meliydi
Ceb
piy
Katı
bank
zamanlı
heyecanı
con
alaycı
sunmak
öznenin
elin
kitapların
içimden
sezonu
kastet
İST
düşüncelere
bulunmadığı
partilerin
küst
##kif
küçüms
sımsıkı
##ranın
içeriyor
tezahür
değişimin
##lanabilecek
##flix
bölümün
##orta
##une
kararlaştır
kopuk
##ilmesinde
nüfusu
CEO
Muhar
sıkıntısı
eksiklik
gevş
hoc
yapabilirsiniz
ikincil
pal
öğrenmiş
##dığımı
ırkçı
literatür
ediyordum
Lam
Konser
lav
##leşmeye
hikayeleri
fizi
bakacak
##ülüp
hakikaten
mm
espr
zihniyet
kadem
zat
projenin
omur
düşünüyorsunuz
yöntemler
büz
##anne
##dayı
değişime
fotoğraflar
yürüyerek
Meydanı
Takımı
konulan
yapılandır
##brek
olduğunca
güle
hamam
karakterler
von
saya
güm
##lmış
##iro
analizi
parçasıdır
yönetmeni
biçiminin
duyuldu
yörüng
Kale
açma
sars
Sesi
ilerliyor
mağlup
mam
sında
##lırdı
adli
ödüllendir
taşımak
terbiy
Eren
akıntı
algılama
arabaya
Sistemi
Joseph
çarşaf
htt
Sap
kına
suyunu
oluyoruz
Benimle
yürütü
Lord
##ağının
buralarda
ulaştığı
##çilere
##lenmişti
tarımsal
zamankinden
Evi
diliyorum
püskür
2024
imz
karlı
City
fotoğrafları
toplayıp
Adası
klinik
endek
ille
beğ
deha
işsizlik
kimdir
maddeler
##ELER
Siyaset
hangisi
yayımlandı
##hap
Tey
##drom
uzatı
kesip
okulun
##taşı
Str
değilsin
fay
##hum
parlamento
Pazartesi
geçmeye
keşke
kadim
belirtisi
havanın
satıl
penç
##latmak
cemiyet
çıkarlar
işley
ST
kurs
yatakta
##YK
##eyik
Kanal
sırtını
hoşlanma
tercüme
##EB
##canın
yazarları
varmak
zamanların
nedenler
Yum
yerlerine
bilemiyorum
Ecev
döngü
##yasyon
oluşturulan
##cus
yapmam
aynıdır
sektöründe
yaşamında
eğitimin
seviyesine
izini
##LIK
yada
sağlamaya
buyruk
çıkarmış
Bis
koşulların
sınıfa
uğraşı
yükümlülük
ölümden
getirilmiş
##meyecektir
sizlerin
##stantin
arkadaşının
şekillerde
aktaran
salonda
olm
çarşı
##cıoğlu
kararları
##St
listesi
söyledikleri
sıkıca
Ertuğ
tram
ciğer
döng
uçur
Heidegger
##usa
defasında
##UZ
##itenin
fren
##dırma
##dayan
ayağını
sonucunu
konse
Maalesef
Anı
hayatlarını
yüreğ
##ternasyonal
gelse
kızını
konuştuğ
tahsil
geceler
iddiası
geçmiştir
kazanım
aşkına
tazminat
yüzeysel
##cas
oluşturma
Ekonomi
kilisenin
dizgin
girmişti
Renk
savaştan
levha
etmemek
hususunda
polisin
##süne
söylediğim
taşına
sudan
Asla
elimi
suçluluk
insanla
neticesinde
olmamıştır
Gizli
düşüncelerin
oluştu
balıkçı
gerçektir
mücadeleye
mucize
USB
##akistan
kulağına
Enver
hamur
saatlerce
dolaşıyor
yakaladı
##ümle
ufa
geliri
tıkan
kapıda
fısıldadı
Eliz
##lad
anlaşıldı
türün
##lağı
alışık
yazmıştı
içerdiği
krist
##ls
alandaki
görmesi
Efendim
ikimiz
yapısına
ceviz
yaşamına
Şair
yapısının
değersiz
##ydık
buh
euro
geometr
##tadır
oğlunu
##tral
zorlama
hatırlaya
palt
##leştiren
dedikleri
Netflix
yolunun
giyim
##ozisyon
Ecevit
haklar
toplamda
Anal
düşünülebilir
düşünülür
davranıyor
daldı
Ob
görevlisi
##ptom
bulunacak
Ye
##ks
çıkaracak
##üncüsü
##tırken
Enerji
sürdürmek
bilirim
Protes
çekiyordu
devletinin
gelebilecek
teknolojinin
Plus
sıkıntılı
görüşler
işveren
yatağın
ens
yapılmasını
spons
##kisi
Arjan
anın
##koç
dünyevi
Hazret
Çocukların
##mıyorlardı
özelliklere
##ica
gerektiğinde
bucak
##zaman
enk
bav
sabaha
sunum
gözünün
şükür
dul
mobilya
##lenmeye
##imiş
hürriyet
telafi
balkon
şehvet
##eceğiniz
savunmak
Bina
kısıtlı
diğerlerinden
Ağz
taşımaktadır
vücudun
##OC
işçinin
eşitsizlik
vaziyette
bugünün
desteklemek
sözleriyle
Medya
öyk
Piyasa
leş
olmanız
Biy
alfa
içkin
##iyeler
##lr
yazdık
Oldukça
halle
bulunabilir
karam
List
metro
şiddeti
kazanma
topluluğun
duvarları
sosyolojik
Kitab
yazdığım
##sir
Şehrin
Göğ
koyul
susuz
okuyu
kalitesi
izlem
esasen
Hon
ray
erdir
güçlükle
Geriye
doğduğu
unsurları
##oyev
Gı
dersleri
186
##maca
##fü
##fettiş
amaçlar
topladı
üçü
kürk
atık
mücadelede
düzeyine
liste
Protestan
teması
geçme
dolduran
İttifak
sırasıyla
yaşamayı
isteyecek
affet
##sburg
Gam
##sya
düşüp
grubunun
döndüğünde
etmediği
yargıç
yemekleri
koalisyon
vermeyen
##aryanın
aşikar
##atik
azdır
yanıtını
Serdar
parlayan
inanıyordu
Ağaç
zorunluluğu
şiirsel
tüp
öncelikli
emekçi
gezeg
etrafındaki
kullanıl
yapmakta
Suudi
bini
Iş
sonlarında
Bart
yaptırım
seve
##şir
Memleket
girerken
özünü
uyuma
Neş
uğrayan
cereyan
davul
Düşman
Burj
Devam
kuantum
erit
Bilgisay
dönmüştü
birçoğu
sustu
eği
Taraf
##rının
##mıştık
izlerken
mudur
tutulan
yaşanmış
Ök
##ikast
ayrış
Lor
sesin
öğrenim
aydır
yorul
##este
Desc
##ned
Cennet
Şev
##ilirdi
Spin
cay
Turan
Albert
ayrılmaz
Kapıyı
harekat
belliydi
nesnesi
BAŞ
##eleme
suyla
sarsın
kabiliyet
param
harcama
yaşayacak
söyleyip
Sonraki
##tist
##formasyon
istihbarat
kullanıldı
tuğla
ettiğinde
çalıştık
düşmüştü
bastı
stil
sonunu
mendil
gidin
dinleyen
düşünceye
biçimlerini
##eliler
##ınış
Vietnam
##tiye
türde
öğrendik
kayın
yüzüme
çalışmalara
fiilen
hobi
semp
sözcükleri
birlikleri
temelli
##LAN
attım
şirketleri
##iyormuş
ikamet
ayaklarını
istersen
karşılığını
yayılmış
##fon
ilkin
Mid
Yık
istemeye
##abilen
damgasını
Bekir
Sw
Bizde
işlenmiş
Başbakanı
##rarı
##dit
Mevcut
saman
kapısının
kuk
öncek
görmeyi
What
özgürce
##cığım
yardıma
bölgeler
Kalp
hakikati
Kok
muhtelif
##stil
okuyup
Celal
mahkemeye
Sy
Temiz
kitaba
görülecek
doludur
boyuna
ötesi
Bayrak
kapatıl
anlayışına
ucundan
tasf
sapkın
görülüyordu
Abdülham
olursunuz
yedik
arkadan
tokat
##izma
##dekiler
olaydan
disk
Hayatım
soruyorum
##ude
tutacak
kaynaklanıyor
vesile
çatlak
telaf
Körfez
sorul
Görünüş
gerçeğini
Nazi
01
IMF
olurum
Canlı
olmasıyla
ilerledi
savcı
Demokrasi
##iskopos
##itz
giysiler
Ertuğrul
dışından
İşleri
çalışanların
##lerimizde
Nar
sınıfsal
Pak
Parmak
beton
Cel
Kelim
sütun
ağrısı
inatçı
eğitime
harcı
##nü
doz
ihale
vatandaşların
ütopya
##ques
ferah
iftir
Jer
kalkınma
kırıklığı
Kont
değerlendirmek
Genelde
aldıktan
mekanizma
##aranın
alamaz
duru
çıkarım
tahrik
ruhunun
##arayı
epistem
Kişisel
tarifi
bilge
##ded
sorgulama
Nok
##dığından
düşünürken
Çelebi
demeye
etrafa
toplumlar
Mezar
bırakmıştı
alabildiğine
resimleri
çözümler
ticareti
cephe
##tları
Mobil
##baç
##ınç
yürümek
etmektir
dönerken
dağılım
Emine
bürokrat
dor
divan
izlemeye
korsan
çözünürlük
çıkarsa
gerçekleştirdiği
dayanılmaz
hastaların
mülte
şub
çoğunluk
tin
sinemaya
car
sempat
bok
vergisi
yürekli
ağlamaya
umud
bırakılmış
kılmak
nesneleri
##yüzü
yüzünün
kronik
deneyimini
katılımcı
##ılmadan
bembeyaz
Sart
##kol
metinler
vasıf
DEV
##aları
geçirmeye
##iyeli
kökeni
##melik
aylarda
görülmemiş
atfed
##hani
##usse
##IC
yapıda
##bildi
şarkısı
BÖLÜM
##hy
vereceğim
başkanlık
Ders
##muyorum
Şiş
##lın
ekley
sonbahar
salona
yanıp
##bilme
Bern
Üniversite
skan
hastalıklar
ım
Bulgaristan
Sosy
pandemi
Tama
##onca
stüdyo
abart
Nob
arabayı
kullanıla
##memize
sundu
##die
desteğini
evrak
üzücü
açıklamalarda
ık
yatıştır
##cen
gerçekleşmesi
süreçleri
söylüyorlar
neşe
çağırdı
Siyasal
inin
halihazırda
vali
yoğurt
Şiddet
bilincine
netice
İYİ
Arif
Lok
##TÜ
yanın
kelimeleri
IV
1998
dakikalık
kolaydır
##Station
yitirmiş
milliyetçi
egemenliği
##eyt
başlattı
kullandıkları
etmişlerdir
abartılı
Etkin
##ılı
bürokra
derinlemesine
oynamaya
saatlerde
##ılmamış
##kül
toplantısı
kişiyle
gidiyoruz
Düğ
seviyesi
##ilmi
elime
girdiler
yatıyordu
Fırat
##lanmasında
##ciliğin
inde
kimliğini
Kuvvetleri
Ürün
işim
##omb
yedir
korkak
##ciyle
anahtarı
##tığınızda
vurguladı
çiçekler
kubb
##elenmiş
yönetiminde
madalya
Rönesans
sevecen
komplo
alınıp
hareketini
ney
fantez
füz
düzenle
birincisi
Oh
##pen
kuruluşu
kırılgan
bron
Arjantin
yapıların
merkeze
örne
düzenleyen
taahh
kozm
taarruz
Aklı
##kurmay
Süt
kendisinde
Biç
Joe
vuku
gazetesi
Bugünkü
ilkeler
bül
otoriter
##üse
ihtilal
homurdan
##emanın
Birleşmiş
##sizliğin
katliam
cek
bakanlık
##cağımı
Göç
eserlerin
toprakları
vitamin
##bilmektedir
Simon
Gil
Şimdilik
insanda
konuşa
##isiydi
eğlendir
unutul
imiş
##osunda
Gol
Türkmen
topla
çevreye
dere
Tec
Menderes
edilmez
olmalarına
##ilmeyen
kapılarını
karikatür
öğretmeni
ket
Oyunun
Çarşamba
imtiyaz
kutlama
Mert
##landılar
uyumsuz
karışım
büyülü
luk
Koy
##mıyorsun
konul
##dükçe
dram
müzikal
##ladığınız
olmayacağını
sürül
verildiği
erkenden
Galiba
çıkmadan
yakalamak
açmaya
kokulu
Fiyat
hen
Ang
Ela
usulca
aras
##memeye
Wi
niyeti
yolundaki
Gökhan
dengesiz
sırtında
Madrid
açılıyor
Rod
Yel
ex
hazırlamak
öğrenir
yün
1920
korkuyor
karakteristik
##tlı
söylediğini
yetki
adamlarının
mürekk
Yoksul
şeklini
##ahat
kavran
dengeli
##lukları
rahatla
plaka
sevgisi
zaaf
ağaçları
Sop
ine
##lıktır
##afet
askerlik
saltan
sisteminde
##aç
olduğun
erkeklere
tutulması
açtım
Hafif
orası
karakterin
seyrek
motivasyon
##leştirilmesi
fincan
##DR
helikop
Devletleri
hegem
##layet
çalışıyorlar
anlayışını
şov
##ladıklarını
günlerin
##ert
saate
yüzyıllar
görünmüyor
büyüleyici
bilemez
öğrenmeye
hikmet
##iren
mütevazı
##akal
Almanlar
Jenn
gitmeyi
##ileşme
Değişik
galip
dayat
Gazetesi
Nereden
Kerem
yerleşmiş
##ansa
kehan
##etri
sanatının
Kısaca
incelemeye
gecede
aşina
demet
##iyye
İmamoğlu
##osiklet
görerek
pencerenin
denklem
tarzında
gömül
şı
karınca
kurbanı
hissettiği
Sına
odasının
olmamak
sayılabilir
anlaşmaz
##temiz
düşmanın
kanep
öğrencilere
çuval
kumar
Aradan
şiddete
parayla
semptom
sonun
128
Bektaş
Wit
donuk
Sat
sürmek
değiştiren
tanımlama
##baa
niteliğini
##tayı
sözün
Amazon
rastgele
Türkiyede
Dostoyev
yapmanız
Kartal
Çoğun
batır
Yılın
Salon
seviyesinde
yürüyordu
kesintisiz
yayıldı
kullanılarak
##tic
hayattan
güçlerinin
destekler
fırlat
kristal
anlayışının
diyorsun
keyfini
##antaj
Davut
hararet
korkudan
Daniel
kurallarına
hükümetinin
##chi
tücc
istediğimi
bulunmuştur
borcu
Kredi
ürkütücü
Descartes
tekniği
onar
ag
##ümcek
evini
öneme
ofis
direk
harp
ulaşır
anlayan
cih
yapmasını
##star
1997
Olur
kadınlardan
##raca
seçimleri
frek
Zeytin
başk
Bulut
gelişmenin
diğerinin
##lot
sırtına
##mışız
raporu
Hanı
bağıntı
##ANB
ortağı
sanatçıların
##dava
tinsel
Bahar
ÖZ
##ıla
Faruk
Kus
başımı
büyüktür
Oktay
arda
Einstein
ödünç
değişimler
dinleme
kadınlarla
kıvır
malzemeleri
gelişimini
koşan
ihbar
düzenlenecek
Elif
olmasıydı
şahane
öneri
olmayıp
ilik
özgürlüğün
mekanda
girdik
uyandıran
düzeye
kardeşinin
bağlanmış
numarası
hamil
SON
kuralı
geçirdim
ster
kapasitesi
##ight
hatt
Yücel
##imarka
Kabul
satılan
İvan
##bine
Sorumlu
soyun
eylemler
dolaşıp
Ori
##kini
kitabının
##gim
yapmıyoruz
online
niteliğinde
salgı
siyasetin
Çö
eziyet
surette
Garip
ettiğiniz
Dördüncü
sevindir
sayısında
çe
burayı
ekleyin
okum
Altay
Jes
TARİH
esen
metn
Ajan
##ysanız
biçimlerinin
##ilmesinden
zihni
##ekkül
kaçıp
patlak
yemekler
yeteri
kimler
çelişkili
##riye
rüşvet
##oğuş
İpek
Şayet
hü
kons
cebine
Francis
Karaca
Adım
oluyorum
destekleri
köyü
##bih
vücudum
birimi
##yap
anlatıcı
Latince
Coş
meb
bağr
Koz
pasaport
Tip
Değil
oluşturul
##lilere
yararına
dayak
MP
##öğretim
kolaylaş
sayıdaki
hayvanı
kalkmış
bulunmuyor
tikel
alanların
iskem
seçik
Newton
##je
ailelerin
Oğlum
sanata
Bağdat
PlayStation
övg
eri
Pekala
##hid
##lerimizden
rock
##ymiş
bırakacak
yürütme
bask
maliyeti
İncil
altıncı
Tarihsel
elçilik
görebilirsiniz
pürüz
ödemek
sevgiyle
##landıran
gezgin
mezhep
tutulur
Cid
##eğmen
##üsüz
yolculuğa
##IF
birisinin
oluşturdu
##olk
fav
gözlerim
Ty
sırrı
##wor
terimi
rutin
sosyo
##dragon
güncelleme
sürg
Soylu
medi
müsabak
yayılmasına
lacivert
pri
belirtiliyor
kılavuz
yaptığınız
ediyorsunuz
##şası
oluşumu
üreme
dönüşüyor
Pamuk
UN
yiyen
çevirip
sefalet
siyaseti
çevresel
yorumları
##gön
sayın
dayanıyor
bilinçdışı
##yanı
##iver
önemliydi
etkilenen
büyüklüğünde
Bağı
meme
##işini
yürürlüğe
Darwin
EN
cazip
##şen
doğruluk
##21
kaydır
almasını
belgeler
reflek
şekliyle
erkekleri
versiyonu
Eur
norma
yansıtır
prensi
##çesi
boynuna
buldular
Selam
Çocuğun
##laç
piyano
yıpran
ması
Uyan
tekne
91
etmiyordu
bıraktım
esmer
##lerinizin
kullanılmıştır
dönüşmüş
##onavirüs
yanlı
Aşırı
ortalıkta
Hızlı
Sanatçı
olabilmek
buluşma
edebiyatın
ilaçlar
pişmanlık
##sos
gözünden
hipotez
denizi
##cn
##bis
değerlendirmeler
Doğum
kurumları
##oid
hissediyordum
anlatıyordu
Muğla
anlarda
zorba
bilgisini
yaşından
aracın
##alist
fu
Gülüm
toplayan
davrana
bahane
Baykal
##ınıyordu
azınlık
aptalca
185
hastası
hel
engin
Macaristan
amatör
iyisini
kaldırarak
kuşk
TC
Danimarka
İtti
büyüklüğü
##cuyu
Abla
tanımlar
olduklarından
koltu
konumunda
Çağı
##maraş
##lünün
Mih
vekil
amiral
Geçmişte
Jandarma
Vur
##miştik
Dra
programında
atacak
dersler
##LA
coşk
##iyeye
insandan
boğuş
anlattım
kapıları
geliştirdiği
misali
Aralarında
yapamaz
yazıyorum
Sahne
##unta
burjuvazi
##ister
##cele
yararlan
gördüler
benimse
Kahramanmaraş
dolaşım
yakınlarında
fırladı
##aze
yaradı
geldiğince
özelliklerinden
cumartesi
Amir
Gab
bulunmaz
endüstriyel
dede
Perşembe
that
##aydın
bulaş
içlerinden
belirtelim
Uyku
güçtür
rejimi
siper
##inizdeki
Feth
felsefesinin
kısıtlama
yeraltı
başarılar
eşek
izn
çabaları
istismar
görevimiz
##bilimsel
ilgilenen
imgel
termin
##liğindeki
eserlerini
Motor
dursun
ekonomisinin
eğildi
edilmek
odur
eksi
sürüyordu
gözlerimi
kuvvetleri
buzdola
resm
uzam
bölüş
reddeder
##lerinize
temsili
alabilirsiniz
doğayı
pey
Sonradan
Gölü
isimlerin
mahsus
KAD
##ANBUL
getiriyordu
soktu
Devletler
imha
bağımlılık
Gazete
log
##ınızdan
Ahlak
Sekiz
göreceksiniz
eşinin
Snapdragon
##lep
koşullara
geldin
##uda
eleştirisi
Kilisesi
yersiz
amaçlayan
okyanus
Norveç
bedenini
##mü
Benj
muvaffak
kapısından
güreş
hatırlatan
##imdir
Otuz
övgü
birincil
çarptı
Levent
seyreder
Kurban
dahası
Kızın
##lıyordum
##well
hastalar
gevşek
belirtileri
Bahçeli
##enha
ihtir
Les
gezi
oranları
küstah
##leştirici
çalışmasını
Hayatın
pasta
çeviri
##unk
##bulu
##ılmalıdır
##odor
tebess
köpeği
karşıladı
##ME
kazanacak
Kapitalist
göğsüne
eldiven
##itin
zararı
renkler
kurtulmuş
yanma
duyusal
Yürüy
kayık
satışı
yollarla
kırış
Elektrik
yılını
yöneldi
profil
destekle
çekingen
karakterlerin
bayrağı
alanlara
gümrük
kuzu
katılma
Üretim
Kül
arkadaşlık
uzaklıkta
Gündüz
Isa
##reteri
##abeth
Yatak
kred
alman
söylediklerini
paylaşan
uğraşıyor
##dut
resme
tapına
tüketimi
ekim
istifade
XX
##fin
dinley
Salı
Maz
fıkra
Bölgesi
ayrıcalıklı
kasvet
Parça
talihsiz
duygulan
sponsor
kanseri
acısını
koparı
##biber
##vil
Mücadele
dönecek
üstlendiği
etmiştim
##ifi
##ost
düşüncesine
eleştiriler
##ergah
Arthur
##iyüz
##düş
Ortaya
kapısında
sevinc
maddeleri
Çiz
geçtim
hedefe
gökyüzüne
doğura
##sızlığı
yansıyan
kalabalığın
kararın
##cl
standar
Gezi
yedinci
edilip
gününü
duyuru
1995
teyz
##run
olunan
kışın
çağında
kıvrım
##maktayız
##eysel
geçirme
bölünmüş
hüman
yaşadığım
yinel
##küntü
metab
gan
lisan
portakal
görülmüştür
sinsi
şaşırt
##tre
erkeği
1994
telefonda
seksen
##lımlı
şarkıları
bölgesine
abon
##TE
Pers
çağrışım
paşa
bro
severim
döndüğ
Delik
güveni
mücadeleyi
galak
tepe
kabile
##enizi
ulusun
yüzük
İhsan
casus
##ğim
##imasyon
Camii
Dür
baraj
duş
koşullarını
çizm
tarihinden
dayandır
##landın
uğraşan
put
##bül
tarzını
Gregor
Kuz
geb
ülkesinde
##emeden
dehşete
yaratılmış
metafor
tanrılar
hukuku
hir
Özer
LG
hanedan
taraflı
##laştırılmış
bakışlarını
sava
girme
##grad
##deri
##ull
Kolay
##Ah
Masal
seçer
Ortodoks
Amaç
Vik
edilmelidir
atlı
##ayolu
ayet
Aslı
##bun
etmeniz
Vide
battan
yollara
öpüş
Mühendis
##hisar
azıcık
lüzum
düşündüğünü
##lenmesine
açmıştır
denizde
##isyenler
yakalaya
Lib
riskini
Edirne
endüstri
dinliyor
katına
eğiliminde
##sterol
Bakalım
manip
##ÖN
Dim
Rock
Yahudilerin
##gönül
Manisa
yetkilileri
melan
Tuhaf
Tuna
analitik
salonunda
cm
Anlat
saygılı
kaldırım
ülkelerden
yayılma
UEF
Elinde
dönme
fosil
biçimiyle
suikast
sersem
ulaşma
til
##zın
sıfa
Çuk
yönetimin
yapmaktadır
##ALAR
etse
sembolü
soğukkanlı
yorgunluk
havalim
uzaklaştı
kıvıl
mutasyon
saygıyla
oturduğumuz
başarısızlık
bitmez
##sık
sihirli
##anna
yöneticiler
yazım
nelerdir
sükun
katılır
ölecek
insanlarda
gülümseme
suret
sabahın
Pierre
toplar
yansıması
Cezay
Kamera
##eddin
Özcan
Uçak
aylar
baharat
uzandı
konuşmada
sergiler
Chan
edeyim
geçiriyor
##ülya
rütb
paralar
güvende
##cam
cazib
çevreleyen
doğumlu
kostüm
yazısında
cihazı
Yaratıcı
karşılaya
##lanmasından
bozukluğu
##losuz
bahçede
Erkan
##okulu
Miss
çapraz
##opat
dökülen
Tit
zil
akar
Genelkurmay
rok
çav
dönmesi
desteğiyle
bahçeye
geçirip
modelin
sın
diri
topraklar
##ordu
renkleri
1930
Bahçe
otururken
##duğun
##ydim
değillerdi
Nihat
pazarlama
Pri
##dia
##yas
duvarın
seçenekleri
indirdi
Kralı
##lenecek
çıkarılması
itici
korur
İngilizler
beslenen
kızdır
enerjisi
imparatorluğun
bakmadan
ultra
istediler
ayrılmak
maske
Oradan
yanısıra
06
##ırtı
ch
karmaşa
piyasada
04
##erkil
reel
yeryüzünde
cü
klav
zihnin
gerektirdiği
ertelen
izlenimi
tahliye
tümünü
##rasyon
İd
mesle
edecekti
sekizinci
mahiyet
tatsız
incecik
boşluğu
düşündüğüm
Sami
İhtiyar
nemli
Fried
##log
03
tarihçi
Şi
uş
yasanın
olmadıkları
##darı
bazılarını
kre
Dudak
Demokratik
yöneticisi
etiket
politikaları
çatal
##rep
##ğinde
yuv
ilkokul
##emezler
torun
akıp
kıra
kurak
oyunculuk
jandarma
##field
hükmet
##ibi
çıkarlarını
insanlarının
sürmüş
##duğumu
mutfağa
Canım
korkuyla
efend
ilerde
seçtiği
programları
##eto
yahu
Giy
##ational
Babamın
Avcı
soran
kuvveti
##sene
Us
önems
veriyorlar
Ersoy
##itlerin
onlann
oluşturmaktadır
şeyh
inceleyen
basitçe
yoğunluğu
lerden
sorunlu
kalmadan
Basit
##tler
Bec
##bara
##ğlak
tanımlanan
kapandı
ülkedeki
katında
edilmeye
çalıştığım
nitelikleri
##tanı
söyleyin
götürmek
Evlilik
kraliç
etmişlerdi
##elt
işlediği
Elizabeth
Bre
gözlerinden
bulması
partiye
görülmesi
anlattık
Dijital
dedek
aradım
kullanış
##ezz
görüşe
##lerimizle
heter
##com
##esan
karıştırın
zaferi
yokken
uyuyor
kanalı
##lenmek
belirlendi
kullanılacak
asi
toplamı
Kate
Sert
##kalade
##bilmiş
kitlelerin
modelinin
##cra
görmeden
detayları
uzağa
hukukun
zordu
Bkz
gelmedik
gam
böbrek
serisinin
##cıya
oranının
##cha
##irn
alınıyor
Hali
balığı
işlerde
Brun
##maksızın
yüreği
öldürür
kendisidir
beğeni
Dom
asist
Cihaz
Tunç
kullanıma
özelliklerine
akşama
Hil
Olağan
uğradı
arındır
Berk
fahiş
##umet
rakı
sensör
##das
kule
silahı
ilişkisinin
zihninde
planları
dilinin
kadarı
Holding
Başsav
araçlarının
sözlerin
tabe
fikrine
çalışmalarında
Teşki
##HA
esteti
etmeyecek
##dız
düşünürler
Cah
doğrultuda
Meslek
Şanlı
doldu
presti
##pot
dayandığı
fikirlerini
çimen
boyan
duyduğumuz
bölümüne
Fars
yapanlar
muamele
kızla
koymaya
tarafını
##yonu
ego
##ion
kıvrı
Fikret
aki
hürmet
yaktı
kısacası
inek
##ting
Kongresi
##ted
etn
ötede
anlamlar
yatağı
uzunca
veriyoruz
manevra
##mece
Ayhan
##mn
kişiliği
görünümü
annesini
deneyimler
##ory
işlevini
partner
dengel
geneline
sınıfta
tekab
Kayı
Hayatta
ediyorsun
tıraş
yararlana
Sartre
kavramların
##sra
tanımlamak
aler
##lanırdı
Nez
doru
bulabilirsiniz
Hakkında
07
kullanacak
bitirdi
UEFA
kurumu
akciğer
element
öğrenildi
argüm
nazaran
istekli
yaklaşıyor
verili
gösterişli
çubuk
hırsızlık
gerekçe
DÜN
Megapiksel
kadındı
yek
gu
yazmayı
farklıydı
deniyor
güzergah
tuzak
##ükarda
Ron
uçağı
uçan
açmıştı
söylenemez
katta
taşlar
yönetilen
##lanacaktır
yanlarına
tanıştır
yıldızların
değiştirmeye
seçildi
mineral
##madıkları
çin
korkutucu
ilçesi
geçirilen
araçların
kati
kalmasını
Dokuz
parasal
paylaşıyor
bölgeleri
yanlarında
halkına
eylül
##manda
Müslümanların
mekanın
çekecek
dimdik
çi
hesabını
isterler
yaşlarda
##vo
tartı
Lüb
komit
##mayınca
randevu
ını
yaşadım
Çat
##hel
mensu
##ceğine
zehirli
bolca
ayaklarının
diyebilirim
Nehri
##mus
kaynakların
fare
dergisi
ışıkları
tünel
problemleri
kişilerle
hareketlerini
yumru
##malısın
şekeri
Bı
##onk
ekstra
koltuğa
##LAM
düzenlendi
Yüzde
bahş
##TV
##cay
fotoğrafını
düşünceli
dinledi
ilerici
akademisyen
değişmiş
bilimler
gündemde
sıyr
sarım
faaliyeti
çektim
tansiyon
##çesine
Seyahat
değiştirir
almakta
##iyatronun
Yanında
parmağını
kaydeden
by
Arkadaşı
##masa
yayınladı
zümr
yaşanıyor
kaçar
karıştı
##anak
yeterlidir
tekabül
filmlerin
gürültülü
düştüğ
Gri
##ünüze
konaklama
jest
açıklıyor
evlerinde
yıllardan
itfa
karşıtlık
değerlerini
sistemde
##yada
menz
trilyon
Reis
soruna
Putin
##ue
deneye
Öner
##rın
##aşı
Seyir
##igh
Radyo
Yunanca
Devrimci
üzerey
şölen
1996
ihtiş
çalışanları
tahlil
##ÖZ
bahçesinde
laş
karışmış
konumunu
memleketin
oğluna
sürüc
çalışırlar
temp
kağıda
doğasını
##ebildiği
yerlerinden
yükseliyor
medeni
##anızda
viz
toplumdaki
fiyatlar
##kırmızı
alam
##vay
##indi
Denizli
uykusuz
##osp
Anlaş
farkındalık
gözde
okullar
akıllıca
dudaklarını
acısı
##general
##liklerini
anlamıştı
##ılınca
zamansal
ilişkilerde
karaciğer
Pınar
dayı
girmeden
şat
kesimi
meyhan
başımıza
ithalat
Öldür
Kle
##uğu
mart
şiirleri
lafı
Ülkemizde
##ano
##geler
##cker
halükarda
arkadaşlarına
okuduğu
cihazın
savunuyor
ps
##mon
##kov
yandaş
yaşını
Prenses
şehirler
bindir
##meyelim
çocuğunu
girince
##ginç
##lard
arkadaşlarıyla
Haydar
##ıa
göğe
##22
konumuna
eğilip
cüret
diplomatik
kooperatif
kurarak
Birisi
varlıkların
##binde
Vo
geçtiler
##ilirse
ıslah
ES
opera
bölümleri
istikrarlı
kaderi
nasılsa
çevresini
Veya
Arı
milleti
##izler
kaybolmuş
tul
ği
Öğrenciler
##böl
##mil
##iyecek
olduğudur
seh
##onim
fantastik
duymaz
biçimlerde
hastalığa
fasul
eserinde
düzenlemeler
açıklamaları
oluna
kıyıya
reddetti
milyarder
ekranı
noktalar
Kuru
##zo
##tekin
##inizm
tertip
Los
Ülke
uyarınca
aktardı
Muz
yapardı
ortalığı
yatay
##landıktan
Ücret
engelleyen
kalanlar
##ıklık
görüne
Öbür
üstünü
gerçekleştirdi
##anam
fikirlerin
Hotel
bedava
memnuniyet
Niş
yapılmıştı
şiddetin
şüphelen
kaybettiği
hallet
teşekkürler
mevz
vagon
Mür
ölümle
vermekten
lardan
yenilikçi
Yargıtay
ölçekli
yaratılan
##1k
pazarlık
sorumluluğunu
mektuplar
Edward
fiziki
cümleler
##16
ezilen
Tik
liralık
olgular
Harika
zed
kendin
Elini
fırsatta
seviyeye
kaymak
##fuz
seçimler
fotoğrafçı
gönderildi
doruk
eng
telefonla
pik
Kızılder
reaksiyon
edilme
evreni
yaratmış
normalde
hizmete
Bill
hepsinden
düşmesi
edersiniz
ülkelerinin
balon
uzmanlar
sürdürür
köpekler
resmin
Yakup
Nin
Mekan
destekli
Çal
gerçekler
##istin
##bileceğimi
arabası
##İP
Koruma
eğr
dayanak
illa
sosyoloji
edilebilecek
türünden
pişirin
Şem
çocukluğ
duruşu
dökü
anlaşmaya
kaynağını
mürekkep
tarihçiler
solunum
Tamamen
##tz
eşdeğer
zinciri
öldürme
çu
muğlak
programına
Ade
##ebilme
sorununun
gencin
durumdadır
geleneğin
girdiğinde
Esen
dönüşen
##urucu
başkalarını
##kileri
##usuyla
etkinlikler
Gro
karanlı
elimizden
İL
Jane
ortaçağ
Rol
hol
##çal
Toplumun
müşterek
##lanmalıdır
çalışkan
acıyı
sığır
Mutfak
inceledi
üstünlüğü
Kraliçe
öğrenin
##duğumda
kültürünü
muaf
Bilge
nedenlerden
köpük
muhase
CD
##ýn
telkin
göreli
kişilerden
niyetinde
ilişkide
örneğini
İşlem
##lamasıyla
aygıt
Meydan
gereç
Okyan
yapsın
Avukat
cadı
Komutanı
Anlam
erkeğe
inis
olmadığım
kulağa
hidro
muayene
üçgen
yapıyı
geçirerek
Yüzbaşı
##dağı
Marvel
gösteriş
müraca
riskli
öldüğü
##esih
##seydim
çılgınca
davranışlarını
modelini
anımsat
Yatırım
belirttiği
lastik
Sakar
etkisinin
alakası
geldikleri
##genin
örüntü
çıldır
simgel
##sındak
sağır
sütü
organı
yaza
bittiğini
taşları
vücuda
Aydınlanma
hur
##mud
konan
değerinin
çocuğunun
okumayı
kaldırıldı
Mük
yaptıktan
emperyalizm
müslüm
kapatıp
merkezleri
arkasını
yapayım
azaltmak
arkası
polisi
ağzında
Denizi
##abuk
kalmayacak
##çiliğin
##lendiğini
sevdiğini
kısmi
projeleri
lerini
farz
madem
sefil
##leştirir
##lanırlar
döneminden
boğuk
sıkıya
##laştığı
türet
gözyaşı
bürokratik
çocuklarla
trib
##ella
konuşmaları
##tukları
##vanın
dönüyordu
kutlu
Ruslar
koşup
eğitimli
global
Şube
Sait
birçoğ
##imine
##otu
Teda
düzenini
Moda
aşağılık
##alp
Silahlı
İstiklal
hareketlerin
Ozan
ağızdan
Eylem
##cıl
Maked
gösterge
gitsin
buluyorum
askere
konuşmanın
çökmüş
Pala
yaptın
İnşa
hış
Musk
Za
Trak
yapıtı
bölük
varır
##ydiler
yapmadı
ırmak
şun
mef
##ote
aktara
yaşadıklarını
Sigara
##bor
bilek
bari
progra
##anıza
##guna
1993
heyeti
kapsamda
derse
##kıla
tabanlı
çalgı
##inist
cevaplar
tepesinde
düşecek
sevdik
paça
paten
kaçmaya
Batman
amacına
sanatçısı
hücreler
tutucu
nerdeyse
Programı
yerleştirilmiş
Yerli
sağlayabilir
Dele
sahaya
açlıktan
arkamızda
tann
lazımdır
##ged
mesleğimiz
Kast
Lit
yanlısı
Vay
postmodern
emeklilik
sektörünün
birikimi
Derviş
İSTANBUL
pom
formu
mani
potansiyeli
##laştırır
ikiyüz
elit
modeller
kili
##mond
##metik
kombin
Yolcu
muhareb
##lular
yalancı
gelindiğinde
belirleme
##itör
acılar
yapmaları
##ciydi
görüşmek
koydum
anlayacak
##lemesini
PR
söylemedi
##layış
dokuma
##edüz
dediğin
Şerif
anormal
##adam
ehemm
çaplı
geçtik
karakterleri
tarafındaki
BU
##EÇ
total
diğerlerine
mühür
atlat
Amca
burcu
Rousse
Yıllardır
peşin
##mayanlar
denetimi
kendinin
sistemler
bildiğini
doğada
Sakin
lş
gelişi
karşılaştı
süreliğine
verilmişti
Hiti
##erdi
Başk
##ilmeli
Örg
130
##menize
şartlarda
Babil
sının
Ran
##15
##OĞ
sosyalizmin
Hakim
görevlerini
sömürü
lif
ilişkilere
Belirli
ejder
beyefendi
ayrılıp
cebinden
ürünlerini
##lığındaki
Marie
sevinçle
duyduk
odayı
binası
işletmeler
Heyec
mirası
ışıklar
Lar
Sö
yukarıdan
tahayy
marif
yakını
Clar
Ly
sorumlusu
fazladır
Maden
umarım
giyen
çağrıştır
kalmayıp
##ilet
kavrama
izlediği
suçundan
Bru
topraklarda
iğne
İB
Aşkın
##tülen
görevler
tanımlayan
Saygı
felç
cumhurbaşkanı
kık
tanrıların
ustası
market
yapıyorsun
Bakanlık
##ınacak
Ziyaret
farklılıkları
yarayan
çevrede
kompozisyon
Dk
çözmeye
rü
##SAN
ihtiy
devri
Teor
##emeyi
sırtı
##laştırılması
##laj
tadına
##lacaktı
arasındadır
Benjamin
gitmez
olamayacağını
alınca
telefonlar
yükümlü
kaybolan
kalacaktır
##layım
hazırlayan
kullanıcıları
anımsı
getirdiler
Trans
geçişi
Ric
Meden
vurur
rastlanan
##usya
yürüten
beyni
yaparım
kimileri
##mesiydi
hiper
işinin
##rad
##üpedüz
##rif
Kontrol
şövaly
##lanış
Nefes
toptan
büyücü
yüzleri
ilerlemeye
Troç
çıkı
Ağrı
kaplayan
kosk
##vıl
işti
öğrendi
##cağa
sayılabilecek
Projesi
biçimler
Dini
polise
Tevfik
##gie
asli
##ider
##ıklar
yarıya
arsa
kumanda
yarıda
Henri
alıyoruz
##UŞ
beliren
Key
ipucu
Sahip
Atlan
Hy
başaran
gerçekleştirilecek
yazdır
##uss
koluna
aradığı
evlenme
Jak
##ıyorlardı
Çankaya
çözüme
istiyorlardı
çapta
süreklilik
Robin
Kaza
istediğin
Venüs
enkaz
Fed
listesinde
Boğaziçi
olmama
duygusuna
##yam
inancın
##üyorum
Pin
sopa
kalkıyor
ampirik
asansör
yerdeki
ilişkilerinde
dikiş
nötr
göb
izliyordu
medres
sendrom
üretiminin
ambar
uğrar
Sakın
nimet
çalıyor
Hac
##ove
mitoloj
yetişen
destekliyor
yaratmaya
##evk
Hob
##row
##leşiyor
saatten
belleğ
Alb
Kullanıcı
##sed
birebir
giysi
yastık
edenlerin
Sivil
önü
yaşarken
nut
##echt
şarkıyı
bayra
beklentimiz
Eth
Huz
sırayla
konuların
masasına
taşıdı
paragraf
artıra
dişlerini
hizmetçi
krip
##uyun
##roz
aileleri
uysal
değişiklikleri
motosiklet
Piş
tarzının
Super
sorunlarına
tabut
gazetelerde
ifşa
karısını
kavramın
kullanılmaktadır
uğradığı
Alice
Okur
evlenmek
yabani
sema
olayda
çetin
zulüm
okuyarak
buluyordu
askerin
şeyde
yokluğu
sinde
durma
ailesini
##lanmasıyla
##gım
medyanın
arttıkça
amaçları
görünse
Polat
Dun
bölgeyi
korkuyorum
Özkan
##ojen
gerçekleştiren
Selan
Dostoyevski
başbakan
enstr
binalar
çizgisi
birleştiren
##ileceği
olmamasına
MAR
##melisin
idrar
Times
##ast
Erk
özgürlüğünü
Düşünce
##heimer
Kira
hizmetler
boynuz
ruhuna
ölüyor
buluşacak
yazıya
aileden
##ric
istir
yazarak
evinden
Pres
Mesut
yasağı
##simum
Kimin
kazanmaya
öptü
oluyorlar
daimi
##verir
öküz
West
##ampar
##eksüel
karaya
Sing
Sabancı
verem
Sefer
tartışmanın
Otob
halinden
##EH
incelenmesi
##tgen
gelmiyordu
ilmi
kapağı
##tırlar
##bre
gelmeyen
Fuat
Yahya
Sef
iştirak
Koyu
halif
Spinoza
blu
gerici
yerdi
gelişmelerin
Konstantin
maçın
güzeli
##eyince
##biyotik
insaf
toplantıya
##esir
##bileceğinden
bağlama
SP
etmiyorum
##oğul
gözyaşları
sürerek
müstak
bedeninin
ürünüdür
##lasa
satmak
dünyayla
savaşlar
##imsel
artacak
Afganistan
Mardin
1992
##mene
Çap
şebek
meg
özgüven
konsan
Walter
şartı
düşme
uygulamak
Hükümeti
bronz
usulü
Cilt
bıyık
rız
##imsiz
izleyerek
##başlı
fenom
kardeşler
Dic
Esas
kadından
##siklop
yerlerin
krem
##çeri
Karl
##ida
onayladı
oluşturacak
Babasının
##oman
##gine
çalışın
yemeye
Seninle
Reklam
Peş
sh
besleyen
ekle
iddiaları
etkinlikleri
çiftçi
kaşlarını
atlar
konularında
Gazze
Melek
günlerce
düşüncesiyle
##yeri
bebeği
Kütüphan
Sigorta
çark
takli
Bilmem
##OJ
vereyim
çalışıp
İttihat
uyguladığı
Arke
sebepten
entegre
##90
amacını
prodük
kazanması
##elerimiz
##ello
dikkatimi
##memiştim
çıkacaktır
Som
mih
1989
Kalb
##ibe
çiv
temmuz
proletaryanın
orda
##yön
konuşmasında
alıkoy
hemşir
fevkalade
yüzündeki
##dığınızda
karamsar
##mıyorsunuz
incit
tava
katal
götürecek
içim
sertif
Gecenin
durdura
Enf
şehirlerde
yanını
##çıl
##olitik
hükümete
eşyaları
fetih
Beye
adındaki
yasaların
sağlana
hatırlıyor
etmişler
sorununa
ürkek
Sırp
hazine
Mini
kurtulu
Lee
VI
aralıklarla
##lanmayan
alışkanlığı
yemeğini
çeviren
##lesinde
şüphel
çekmişti
büyüdü
uzaklara
##ranç
suları
##emezsiniz
içime
ortaklık
talepleri
kavramına
üzereydi
fail
Senden
oluşturuyordu
##vela
Aleksan
uzanıp
türler
bekar
##hol
araştırmanın
etkiledi
otelde
EK
sepet
çıkarıldı
pilav
Niko
##acı
izleyiciler
konmuş
yolsuzluk
ediş
##eceğimi
140
Ari
oturum
##ölye
kendimiz
kanunun
İlginç
adi
anki
tanıdığım
mezunu
doğruyu
DS
düzenlenmiş
imkansızdır
Şak
katar
Nobel
öldüren
##ğiyle
ayrılması
titriyordu
açıklığa
Gençler
Steam
Rak
Game
çizgiler
ilerledikçe
esaslı
ozan
aktarım
yanılsa
Mrs
Juan
yarattığımız
Stephen
okullarda
##ğındaki
uzaklık
görevden
##oliberal
160
##afe
vize
büyüktü
işlemler
Tolst
##aran
özetle
vuruyor
keşiş
mikrop
peri
İncel
öğrencinin
sevgilim
gelenleri
çoklu
oyununu
##larınızla
Egemen
deği
##ebiliyordu
Reh
##gas
yetenekleri
atılım
kırılma
kültüre
parf
koruyor
savunur
harik
Müst
Milyon
Kedi
reklamsız
##mazdım
açıklamasını
malzemeler
onlarda
geliştirilmesi
dengesini
Cami
Direktörü
Ağab
Mahalle
Carol
Vat
##tüphane
##Tİ
araştırmaları
alışılmış
birbirimizi
parçalara
Peder
##hie
Yiğit
##inecek
Ultra
olsaydım
sıyrı
##üşü
arkadaşlarım
Çakır
dikey
bavul
TOP
resmini
diyorsunuz
yıllara
topuk
Tı
animasyon
##annes
Özetle
Kalkın
Tasarım
##odi
##lanmadı
hızını
söyleyebilir
denebilir
NASA
tutkulu
turu
BB
fırsatını
vardığı
zamanının
Ağı
duymaya
haberini
kolesterol
World
şam
korkuyordu
görüşüne
##iner
ısmar
Meğer
anlaşılmaktadır
Mum
##lasın
##ikleri
Tersine
Ötek
deneyime
tedbirler
twitter
##24
ettirmek
##fte
bütünlüğü
girdiğini
Zamanla
bakımı
koşullarına
gençlere
şikayetçi
kıskançlık
hedefler
tarı
kamaştır
bot
ontolojik
doktorun
DA
##liklerin
öğretmenler
inanış
alacağım
pozitiv
elektron
sic
delilik
belirley
Taksim
güvercin
bahsedil
hepsine
rahib
olanakları
patika
görebilir
##madığından
Tahir
zarfında
nüs
komutanı
hüs
hassasiyet
Sonsuz
benzin
reddeden
prestij
sivr
Şimşek
unuttur
silahlar
Diyelim
çıktıktan
hıçkır
nasip
##ero
bulunmuştu
doldura
Cinayet
tuzlu
mesajlar
semin
edebiyatının
keşfetmek
Hast
burs
getirmektedir
##çıları
##halet
insanlığa
kapılar
aha
##urg
Korkunç
Bakanlı
kurallarını
Lad
birleşik
yöntemle
işkenc
açıkçası
güneşi
homo
verilmesini
##zav
##belli
Dava
Örgü
şampiy
##ml
vermesini
arıyordu
sunulacak
Ülkenin
##armış
Kimsenin
##oma
##beş
karmak
geçmez
AP
bırakılan
##lanlar
Ermenistan
Bran
yararlanarak
istemediği
santral
hatası
##tıklarında
Tehlik
##ower
kadi
kıpkırmızı
Mete
eller
olduklarına
duvarı
##oksi
değişme
hayatımda
anlayışla
Oz
ida
ülkü
durumla
dönemden
imkanları
kuvvetle
başıyla
Komün
demiryolu
hizmetine
yazdıkları
kemir
Güneydoğu
görevlileri
hazırladı
yoğunluk
özelliklerin
Dans
yapıcı
AF
sihir
Jor
yöntemlerle
sağlamıştır
açıklanan
Seri
şaşkınlıkla
duyulur
##laşmayı
gitar
Arzu
tartışmalı
dönemdeki
yamaç
Köyü
müsait
##yalım
kentinde
edemiyor
çabalar
rejimin
sahnesi
##OD
öncül
temellendir
##14
işaretleri
Hakikat
etmeli
ilerley
helikopter
ekolojik
formüle
olmakta
esirg
tamamlayan
markası
gelişir
haberine
meselenin
kanısında
katılı
duyduğunu
önemine
##delik
aileye
bölgelere
rüzgarın
kupa
bahis
Bosna
birazcık
mesafede
tiş
ucunu
Kaymakam
öyküler
Şampiyonlar
geliştirmeye
##şıp
isimlerinden
sinek
avuka
bant
sözcüklerin
huzursuzluk
sekreter
hanımefendi
YTL
Tanzi
gitmem
göstermişti
malzemesi
hile
sinin
##IY
sayıl
kısık
yetmiyor
konsept
başarmış
titizlikle
takıntı
spekülasyon
marjinal
##1r
##eliyiz
hissetmek
seçimlerde
doldurdu
Okan
##kap
kuşu
teles
katılacak
verelim
Bilindiği
delir
cesareti
##iyeri
##arna
bütünsel
sapan
vereceğini
söylemem
dişleri
Sakarya
sonlarına
fıs
hafiflet
hammad
Beb
günlerini
yaratılış
kesen
tırna
olsunlar
Rahip
evlerde
bildirildi
kraliyet
buyru
kullanımına
nah
##cayı
olanlardan
açıklamasında
gelişmesine
Just
gerçekleştiği
sakinleri
Milan
Aşağıda
EV
##tia
dışav
paradok
oluşturmaya
duyguyu
1991
nakit
çiftin
komed
konuşul
verirdi
Hop
##urası
Selanik
gelişmekte
haklarının
ölmüştü
##ansever
müracaat
aşka
İste
dudakları
##latif
insanoğlunun
##arışık
with
geçmişten
sektörün
sandığı
Maç
tartışmaları
söylemeden
şairler
mukad
konuşmadan
basketbol
bilinmiyor
öyküsünü
belgesi
sahası
anat
çayı
çarpı
Bom
vaaz
Faş
Hans
##miyoruz
bulunarak
##İST
maça
diline
Bakır
##herine
türlerin
çokça
sıcaklığı
nm
doktorlar
tetkik
Detay
sokaklarında
##tizm
ödülünü
karısına
##rime
sömürge
bulduğunu
deneyimin
Laur
jüri
Tolstoy
planlar
Nüf
##rettin
Akş
kabin
##osistem
çoğunda
almıyoruz
bilinçsiz
farket
hedefleri
Fra
deneyimleri
kaçınmak
dedektif
düştük
giderdi
ateşte
ulaşabilirsiniz
rakibi
İttifakı
Kişinin
oruç
üretime
Jones
kadrosu
Ceph
takıldı
varlıklı
kablo
##sindeki
##inas
Böylesine
##iliş
##birliği
Ameri
yokuş
prova
koşmaya
benimsem
sevmek
Mahkem
oturdum
BÜ
tehdidi
olandan
Sağlıklı
OS
koşullarında
Cezayir
çalışmalarda
içmeye
gereğini
götürüp
nehrin
içinse
yanlıştır
kabaca
Amerikalılar
sul
Kader
çelişkiler
##alin
görünmeyen
idealist
eklemek
adaya
edildiğinde
hası
Alf
çalmaya
harap
miting
okuldan
##layalım
matema
##İYE
Ted
gazeteler
koğuş
nab
karargah
Games
halkların
ayrıntıları
koşu
mecli
sokağın
notu
beceri
sıv
paketi
bucaksız
##bileceğimizi
emretti
yetkililer
varlığından
üyelik
alçakgönül
boyutta
beklemeye
THY
belgeleri
ağırlığını
Alper
oluşuyordu
gitmiyor
sorulan
##BA
başım
Konuşma
Til
merdi
sandalye
uygulamanın
mutab
tahakküm
içgüdüsel
makro
pist
bilgili
atıyordu
süreyle
öldürüldü
Mura
hücreleri
Kültürel
paylaşılan
##çiye
inceleye
kaldırır
##chester
##barek
gereksinimi
bombar
koyacak
teorinin
Berg
##tuğum
muhatap
kun
yazış
##lekli
açılacak
çip
kuşkulu
Anlaşılan
Apol
görünmüyordu
Üskü
Akif
zemini
##eçhul
vahş
diliyle
##bia
##mlek
deneyin
görünüşte
##yaş
ulaşması
izledim
kimselerin
cezasına
##cit
sünnet
birleşme
akıcı
kokan
##lız
iner
sancı
gösterisi
##ifer
##lanmaları
müzakere
tozu
##amparça
kapadı
kük
##lanmakta
Kalk
Ece
mekanizması
vurgulamak
kablosuz
çerçevesi
fındık
yıldön
bulunmadığını
yapabileceği
çatışmalar
usan
güçle
paraları
karanlığa
##düğümüz
mail
##13
Serbest
tertemiz
Tekin
Liz
##lakis
ahlakı
bağlamak
##beti
##tas
mektupta
##uze
Stre
değişikliğe
muyum
durdum
özüm
öykünün
uğursuz
##diklerinde
İnsanları
alıştır
ğu
yetkisi
tahayyül
ibaretti
seçmek
##işer
ürünlerinin
etrafta
bölgesindeki
şefi
özdeşleştir
Rı
girmez
dönemini
ağacının
##ramanın
sahiplerine
bırakıldı
silik
Pil
kullanıcılara
tercüm
etkiliyor
oluştuğu
##App
biyograf
##RAN
skandal
otelin
Yetiş
cinsten
mızrak
##tila
güt
pır
seçti
Gıda
geçersiz
çocukken
BİL
sıkıntılar
Kağıt
yayla
adından
ötekine
Sessiz
çırak
sürerken
##king
açmaz
kadarını
##mamaktadır
##eleş
tezi
üslu
kavur
hatırladı
güvenc
Yoğun
sokmak
Lut
Yu
övün
başlarını
açıklamayı
##saydım
ettin
halktan
Dairesi
Şaşır
gitmeden
masasının
aralıksız
Matematik
Araştırmacılar
katılmış
Öğretim
sec
kazandıran
elektro
ate
##nar
söylemesi
sinemanın
liderleri
isteriz
dilsel
kaderini
Yolda
kurmayı
okuna
##ekom
galibiyet
ilgiyle
verecektir
##ozu
geciktir
kampanyası
##akki
##ondu
devral
gideceğim
meseleleri
Şanlıur
düpedüz
Aren
muhtar
bilgisiz
900
parmaklarını
referan
##zak
Diğerleri
havadan
##tılır
kalanı
gerçekleştirildi
turnuva
yirminci
Diyal
Ceylan
Netice
Hakları
hızlıca
kafayı
isimlerini
çalıştılar
doları
##ünüzde
olalım
üzerime
Haldun
Balıkesir
bitkisel
HAY
çarpık
beklentisi
sağanak
gününe
evdeki
##ilim
gökyüzünde
bomboş
olgusu
anak
kumandan
ahenk
Stra
prov
sözlük
GPU
##LİK
##oker
feci
hatları
üretir
1968
Mans
slog
##SEL
çekilir
kaynaklardan
##19
kesil
mesleği
##eceğinden
sevginin
Rüş
Nan
Elli
notlar
tümden
liderlik
hatalar
açısıyla
dönüşümü
##hğı
turistik
ikl
yaşamlarını
Zeus
##use
düşü
imzalı
edebiliyor
isteğini
akses
vadi
Binlerce
uğrat
Faik
Tatar
##taraf
saatin
Ayağa
sunucu
habere
kaygısı
##hon
ormanda
##tiğe
kazanmıştır
Halit
GT
kucağına
muhak
##dört
beter
çiçeği
düştüğünü
ürk
değerin
bedelini
duvarlar
naf
ili
eğitimini
tüt
haç
##garenk
ılımlı
hizmetlerini
çürüt
taahhüt
##düklerini
Sümer
AŞ
gerçekliğe
bulabil
politikanın
##opota
coşkulu
yerdir
bunal
##bası
Diren
Fabrika
olmadık
##dırga
maksat
Kural
aid
yaşındaydı
planlanan
bakı
Ayna
çevrenin
##weet
coşkuyla
Nak
eşyalar
ET
umumi
183
tabu
bilirler
Ortada
gösterip
kayıtlı
yönetimine
pol
##nm
örgütlü
Hüc
##our
oralarda
Kole
müdafa
değişmesi
çekilip
terbiye
getirmesi
mıyım
çehr
##yuz
İskoç
##ınım
fuar
tartışmalara
kaydedildi
##aktif
istemedi
adları
Hus
Annemin
istes
çevirmek
örgütleri
ekranda
##furt
##İSİ
##itasyon
haziran
##liliğinin
ormanın
sızıntı
Kenti
çarptır
duygusunun
Johan
karşılaşıyor
##lanacağını
vurarak
##oe
olmayanlar
önerme
nat
yapmamız
Saman
##PG
köpeğin
istenilen
bitmek
Bush
Yakında
Ander
yaklaşımın
zorundayım
oynayacak
toprakların
gösterdikleri
Fla
##meyecekti
Tri
Dalga
gas
##ğunun
##eyazı
##bini
sayan
çifti
faaliyetlerini
Birdenbire
##hos
çalışmaktadır
yaralandı
##nem
toplamaya
ölçekte
##even
ihtiyacınız
kurca
sağlayacaktır
tavşan
ambu
çeşitliliği
Cy
Kapının
Nö
peç
##yalılar
Bireysel
görmekten
Ödülleri
deneyimli
vız
##büs
hayvanlara
baskıcı
atla
##atlı
süreçler
gelişti
bahçesi
##oj
##23
Savaşın
Ekip
##ech
##olojiye
arttığı
##landırmak
sessizliği
İstan
##liliğine
hatırı
Troçki
KUR
verilebilir
varyan
takma
bağları
Kars
teşekkül
##lerince
vurg
malların
incele
hiddet
Kazak
zorluklar
Gram
vizyona
yaşamsal
##igüzel
planlı
##END
bilime
Whats
sonuçlarına
##raj
dinlemeye
Belg
iflas
##süyle
sözüm
tekerlek
ortalık
insandır
etrafını
aceleyle
Çıl
müesses
kölelik
sarıldı
seviyordu
taşkın
enstit
getirdim
##idge
hisseden
dağlar
##bına
kaçmış
kaldıkları
yapmakla
hastalıkların
yonga
##ethe
sokul
##kana
kiliseye
##viç
belirlediği
##İn
düşünülüyor
sunacak
ekmeği
yolundan
Tanzimat
Gid
etkileyecek
kozmik
Vaz
haftasında
NV
sıktı
olabilmesi
Dizi
yaşıyorum
zorlayan
Özal
Bunca
kafes
Şampiyonası
sağlanan
ulaşabil
Yasası
beyler
Yazarın
çakıl
yasalara
Rousseau
##tüler
##lc
biçimidir
Feri
Teb
oyunların
gemileri
Ern
kanunu
ortaklaşa
Yapım
sanır
dolandırıcı
yapabilmek
##opotam
almanın
tahk
##ldı
gençleri
nicelik
aydan
geçmişteki
sitesinde
yönleri
dostça
taviz
çocuksu
bod
Dünyayı
görünüşe
##sm
uygulanabilir
halleri
##arlör
olmayacağı
akışını
geliyorum
yapmalı
lin
Sha
##lanıyorum
sözcüğün
gelmesine
##lerimle
sper
görevine
1940
WhatsApp
İtir
bilgisine
ekliyor
etkiyi
karşıma
kılacak
sorunlarla
İklim
günümüzün
sunuluyor
oluşması
kaynaklarını
##sti
Yunanlı
uzanmış
insandı
saplantı
baktılar
ipuçları
koşar
renkte
görebiliriz
kelimelerin
umutsuzluk
Mümkün
Gelir
##rahman
YEN
125
değiştirerek
Covid
olmalarını
öldüğünü
küçül
platformda
programın
kadarki
dolup
mükelle
amansız
kabus
IMD
mücadelesinin
Kapalı
##engiz
entr
kıdem
##aftiz
irtibat
Muha
hakkının
şükran
belirlenir
Ney
##cho
##meyeceğini
Timur
Şanlıurfa
##eleştir
yargılama
##evin
##çam
inandığı
çözümleme
boşanma
Ford
Vla
Green
ikinc
gereklilik
çeşidi
düşünmüyorum
Olimpiyat
Pakistan
satıyor
##ited
sağlayarak
kürs
isteyerek
beşeri
konuşacak
bilimlerin
giysileri
##landırdı
teorisinin
istikamet
nostal
trend
ülkelerdeki
görec
sustur
Hur
basan
gibiler
yenileme
gevez
##öm
ufacık
telaffuz
##EG
Model
Ünal
nişanlı
hususta
Je
Enternasyonal
milliyetçilik
dokunuş
##lanınca
yeğen
pratikte
Sokağı
Onlardan
sura
Kans
sarışın
olmaktır
kaldın
gözetim
ettiğine
God
Başarılı
tanrıça
mur
##taya
varlığa
alışı
krizin
çırpın
yenik
##binin
larını
Moz
kamuoyuna
oranın
tepesine
orantılı
GHz
iten
işaretler
teknikleri
artmış
Yorgun
Karan
##atihi
diploma
pazarı
Cav
zevki
verilerin
seçimlerinde
tarihlerinde
sayfasında
ında
koruması
##all
çıkmayı
çağrısı
Üsküdar
Kaba
partisinin
kısımda
nezdinde
Ag
Taşı
Fon
##mamın
##mediler
dikti
##kul
##eviç
Petro
Örgütü
İler
##anıyla
çayır
omzuna
taşıyacak
tıklayın
çizen
noktasını
görüyorsunuz
Tarihin
milletvekilleri
Mesele
drama
dizüstü
kategori
davranmak
çıkıntı
istekleri
##gazin
geyik
öldürmeye
trajedi
##lağa
yaratıcılık
Kuy
Dışarıda
adımları
gösterdiğini
##tıları
üretimini
duygusuyla
popülasyon
##aat
yağdır
ettiren
bırakmaya
Ast
Fransızlar
Fel
inisiyat
taraftarı
broş
çeyr
Bing
##anları
değirmen
yemekten
bahsetmek
kibr
Num
hesabına
helal
askıya
inanın
##asır
olamayacağı
Mantık
cu
düzeninin
Rem
gösterebilir
Tahmin
sent
değerlere
yeteneğini
##isten
şuur
verilerine
kızına
Michel
yayınladığı
evrende
##İNCİ
önlemleri
kadınlarda
dağılmış
başvura
karakol
komünizm
kullandığımız
söylemi
yollarda
bağırarak
muayen
kişidir
dizisinin
adanın
etkiye
ayrıcalık
akımı
kuruyor
ifadesiyle
eserlerinin
hayatından
öğün
sezonunda
sende
düşünüldüğünde
Melih
##ayak
kelebek
Sic
Kalesi
sınıfına
tutulmuş
saydam
problemler
sahneler
##itar
kıvılcım
##yaya
##ild
Kıyı
##bük
Sizsiniz
almıyor
##laşmak
birliğini
bozulmuş
işçilere
şal
dalgası
takvim
##lalı
solcu
müşteriler
alıyorlar
##laştırdı
Kazım
Cevdet
büyüyor
gelişmeye
cevher
camia
görünüşü
##ume
politikasının
üretme
örümcek
Platform
Mülk
ortalarında
eğilimli
burnu
##lülüğü
kendilik
çalıştıkları
garant
kullanması
kızdı
bacakları
asf
gemiler
Kavram
##otter
atak
Py
Sıradan
İşe
olayla
çizim
tanrının
görevl
yükünü
görürler
Durumu
yanılsama
dergisinde
##üfer
araçlarımızı
mahz
himay
karşımızda
taşıdığını
lakin
derecesi
hüz
arkadaşlarını
çiçekleri
küs
hatırlama
kıç
##gay
Phil
cılız
sağlıyordu
yorumlama
meseleler
##MP
##mezse
yüksektir
##athan
sardı
Utan
ruhani
##rick
sonlu
başlattığı
ekler
teyit
nedenlerini
şaşırmış
ardındaki
Rey
bitince
maksimum
##tali
Fikir
Laf
sezonun
laz
DP
çizer
1984
##fın
Keskin
nüsha
bağlıydı
boyutları
hesaplama
bittikten
annesiyle
eşitliği
yığını
düşmanlık
##ranış
durumlara
sebebini
bulutlar
emz
yaprakları
Biliyor
ışığına
fert
Tru
##enen
İnsanı
bilirsin
##ERN
arasın
Zamanı
kadı
savunmaya
kafe
parçalarını
tarzına
binaların
sıralama
tamamlanmış
Köl
##ecilerin
Mecli
##ason
şamp
pencereye
Hitit
uyuyan
döl
oynarken
Yaşamı
gırt
işböl
Üstüne
bitiyor
##AĞ
Uygar
bütünleş
geçirilmesi
Günümüz
olacaklar
uçsuz
efsanevi
insanlığı
ağlama
ekosistem
soracak
keyifle
keçi
iPad
uygunsuz
Jacques
güneşe
kurulmuştur
hizmetkar
Efsan
döndüğü
karabiber
sahnenin
unutmamak
olmadıklarını
olaylardan
skor
beklentileri
deplas
biteni
##FF
istif
hazret
Şura
kuşağı
nisan
belirlenmesi
ekol
malları
mecburiyet
fazladan
Kendisinin
denemek
arkeolojik
ihtilaf
loş
rant
##İNE
GÜN
uluslar
sitemizi
kurmaca
##cini
tıka
##unay
başlamışlardı
kanıtlamak
memlekette
dezav
denildi
##gren
dünyasından
Söyley
Olum
çıkardım
isterdi
yerleşti
açılardan
polisler
kip
##rna
Eyüp
Vakıf
##omik
kripto
görmüştür
Weber
bölümler
erotik
büyükel
kocasına
kılmamız
Form
ortama
Sabahattin
adaletin
durmaya
kesinlik
canlılar
Özlem
söylemiştim
kelimesinin
iftira
ülkesine
##ilecektir
dükkanı
pazara
insanının
farkındaydı
##ÖK
ekleyip
##meksizin
gölgesi
yapılacağı
sahneyi
isimlendir
kitaplarını
binden
hum
filmini
Alın
mola
Haçlı
kendiniz
August
Liberal
dalgalar
kron
çığır
##rını
bırakalım
harç
##abilirler
anladığı
dinlenme
senedir
sızdır
sahtek
Aslına
dahili
yattığı
##anızın
hareketine
##dakilerin
görüşün
etap
görülmeye
##emeyeceğim
##lanırsa
uygundur
sınırlama
şerit
sub
temkin
isimlerden
##liğim
yönelen
bacaklarını
##ulabilir
yapılı
##luğuyla
operatör
badem
##ves
Hı
Brown
mektep
SAN
kafalı
kızart
Edebiyatı
şehrinde
##enleri
serinin
olanaksızdır
Mahmud
tatbik
gidi
varlıkları
yerinin
olmayacaktı
kurumun
krom
havlu
Senar
tiyatronun
politikalar
dengesi
sahiplerimiz
verebilecek
artarak
canına
##yalar
mısra
gerçekle
yükseliyordu
##EP
Sinir
Şafak
kalabalığı
COV
##ings
seçime
nezaket
çevrilmiş
Dergisi
görüntülen
özelliklerinin
düşünüyorsun
edinmek
lstanbul
oyu
past
bekledim
eninde
takılan
psikolog
bayıl
McC
KK
düşüncesinde
fragman
parçalanmış
öneriler
yakıp
##iğini
toplumunda
çalışıyorlardı
koşullarının
kültürüne
hedefleyen
hadise
eşitsiz
topraklarında
denizden
fikrinin
sevdim
##emedik
dinlerken
içeriğini
hakkın
Ry
fakült
##zim
##muşum
güvensizlik
elçilikten
kitaptan
Abbas
topraktan
çalar
##boy
kukla
##imum
icin
nüfusunun
içimi
Karaman
ölümlü
inancını
Araç
siyasete
yataktan
birliktelik
##tabilir
Aksu
350
MER
gemiye
Uygulama
cesaretini
oturmak
alacağız
Volkan
yaşın
ustaca
alabilecek
tutuklandı
imgeler
##ecekondu
Wa
giderse
Zamanın
yıldırım
birka
1982
güzelim
kurup
Vadisi
gerginlik
gereğ
vapur
Lübnan
Niz
Muharrem
içimizde
metinleri
İlişkiler
unsurların
Merdiven
anlaşıl
paramparça
##iyeyi
köyünde
Uf
Katılım
kalmasına
gümbür
Hilmi
XIX
Master
ekin
olacaksın
parlıyordu
##1m
Kocaeli
##bında
yönetmenin
Filmde
##meğe
getirebilir
##üste
tanrısı
kabah
gittiğinde
Hü
TEK
ritim
metot
##LARIN
karnı
sabırlı
ailesiyle
Bacak
diger
çizgileri
Otomobil
şirin
dakik
Sto
##vana
çizdiği
mücadelesini
Burcu
aradaki
Mevlana
Şükrü
uçup
vezir
düzenlemek
dokunulmaz
Napol
GEL
düşmana
1987
üvey
almaktan
açığı
biliriz
bilimseverlerin
manda
popü
kapsar
Mezopotam
##bach
ışığa
360
Çeşme
Grek
kült
##ahan
bozan
hudu
Restor
çoğa
##dol
alanlarının
İnsanlık
bakışla
gördün
sevgiyi
İS
sahnesinde
fedakarlık
Studi
##leybol
geldiklerinde
avukatı
yüc
işinde
Muhtar
ağustos
bulmuştur
tescil
Fiziksel
ilacı
Ajansı
MU
tereyağı
yazmıştır
Kema
yaraya
değilsiniz
##leştirmeye
istemiyoruz
edilirken
gelişmesini
tutuştur
giderler
kökleri
##kit
Modem
Açıkçası
mayıs
dörtte
zara
Sözgelimi
gezegenin
lap
evlendir
kelimesini
Mana
zorunludur
donmuş
oradaydı
##eğimiz
şaşırdı
oluştuğunu
PAR
gösterirler
saatinde
yatağına
cehalet
şarkının
KON
evliliği
yaşarlar
beklediğini
rady
öncülük
basınç
tanesini
şansını
karmakarışık
YAŞ
sabun
işlerinde
alacağını
Homer
##wen
geldiniz
##anılan
sarılmış
maym
katılımıyla
Vez
##örtü
verilere
işlenen
Haluk
penaltı
ayına
##baharda
belirti
ilişkilerine
şaman
##eyelim
Huzur
köşk
Onlarla
aracılığı
kurtarmaya
gıcır
yanıltıcı
etmelerini
Oyuncular
fizyolojik
Çı
##izden
körük
önerdi
kitlesi
Oğlan
kullanmış
yürüttüğü
##leniyordu
cümleyi
Vel
##ace
kasvetli
girişinde
hoşgörü
Hikaye
çocuğum
Geceleri
İp
Özür
sabırla
Feli
aksak
uygulamayı
vurgular
yakıcı
##ebilmektedir
iddialar
Acil
yorucu
Çözüm
VAR
arkadaşına
Geliştir
##unup
##ska
##eceğin
kuruluşları
Oluş
öğlen
öğeleri
Yapay
olunur
gazeteciler
Çiğ
değildirler
karşılaşır
madeni
inançları
##mişim
yarata
##unuzda
ülkesinin
fut
##kele
dokuna
ıslık
gazetede
mın
öğe
Fazıl
##tane
Cehenn
atmıştı
öngörü
böğ
sevgisini
sual
Bulun
iyiliği
##ınızdaki
istiyorsa
fırlattı
haftalarda
Hoc
samimiyet
##CE
topluluklar
bakarsanız
programının
üyeler
##sedür
yanık
açgöz
Bende
anılar
davanın
gaf
sevme
salın
kılıyor
kamçı
nars
Ailesi
##evre
Dog
İÇ
militan
##uklar
##labileceği
dümdüz
manyetik
Bilgisayar
##lığımız
vazife
##iktir
bilirsiniz
motoru
anlayabil
##ecekleri
vurup
uygulamada
Yönetimi
çevren
hatırlattı
zenci
Dek
nim
İngilter
##oseksüel
maddelerin
##iı
Hükümetin
öldürdü
cihazlar
rastlanır
İktisa
korkusuyla
Üstün
vücudunu
##arsa
sahnelen
Tanrıya
hataları
##cılığa
##oslav
yaşaması
Olmaz
tapın
Rosa
Loc
efendisi
meçhul
ziyareti
tatili
kalitesini
edilirse
kamerası
vermemek
bizatihi
##enkul
##isidir
kesme
Fey
karşımda
kullanabilirsiniz
bağın
çıkacağını
seyreden
anları
saadet
merteb
##dıman
Scott
yapılabilecek
##tası
kalori
galer
kalıntıları
Dos
kabuğu
konferan
rakamlar
zenginliği
üniversiteye
deter
alela
gördüğünde
ilişkilidir
dayanmaktadır
dedir
##TI
##mıyorsa
mahsul
soyutlama
yediği
Necati
Keza
##celi
Afyon
sigar
mübadele
##caz
neşeyle
nur
kaos
bildiğiniz
ağlıyor
gazetenin
Manchester
kalbini
nız
temellerini
işgücü
arkam
akşamları
##meyince
mutfakta
uzanıyor
##ule
geçmesine
olmuştum
anlatmış
batıya
ettiniz
##razam
tasavvuf
##irit
iltif
veririm
savunucu
zamanını
hakikatin
kitleler
kelam
fem
dalında
Partinin
kimisi
##tala
yaratacak
yanıtlar
yiyecekler
olursun
başlatılan
gerekmiyor
koç
##düğünden
##het
hayatları
yükselir
##ininin
hakimiyeti
sizleri
beğenmiş
merkezde
girmiştir
Biden
##melerinden
##bını
Dip
belle
inanma
içermektedir
Mali
##peri
1973
pazartesi
kesilen
Sırf
eserlerinde
##annem
##ayış
KD
##gusal
Uygun
Döv
sahibine
görüyordum
Las
yanıyor
okuduğum
gülmeye
doğasına
faaliyetler
dizide
hükmü
süvar
1945
AA
çalkan
şimşek
ikişer
anayasal
seg
otele
nesneyi
politikacı
tekdüz
110
Kulüp
COVID
koruy
vücudunun
ins
metafizi
yönlerini
üslub
##dığın
frank
Ekmek
döndük
aslı
tran
geçirmişti
gözlerin
##betli
umuduyla
##dekileri
##lenmesini
idiler
ulaşıyor
tecrübeli
Eşit
Güncelleme
iradesi
saltanat
kullanımını
antrenman
Çarşı
leke
ayni
faktörler
Polon
herşeyi
infaz
##ruz
değerlendirilmesi
enter
Angeles
Cihan
imgesi
Sm
ilgiyi
Kayıp
Omuz
##ides
ortamlarda
Matt
rasyonal
olmuşlardır
mekanlar
hapishane
villa
##fun
alanlarına
davranan
##bama
üzerini
Nov
öpücük
loj
getirmeyi
oynama
hatırlamıyorum
odaları
Alay
ikide
fikrin
sakallı
imar
getirdiğini
Gözlem
filmlerde
##ozom
haydi
gerekiyorsa
Aşağıdaki
oluşmaktadır
Disney
ağlar
dünyaca
yaparız
söylerdi
döndüler
##gında
işlerinin
şuydu
sesinin
uydurma
Şeref
Kendinizi
Öğrenci
yattı
##CO
devletleri
sarayın
görmem
çekerken
başlarken
gittikten
Adil
uyuy
bitkilerin
Zorlu
rıza
içeriden
padişahın
Şehit
üze
sırıt
başlarlar
vilayet
Hesap
DÜŞ
beraberlik
baht
yakalayıp
rezervasyon
Diler
olamayacak
geliştirilmiş
adamdan
babalar
Web
doya
sahasında
Borsa
ünü
avuc
büyümesi
engelley
Yaban
Reform
yakının
unutulmuş
soygun
##yalnız
gelişimine
buluştu
Yukarıdaki
hepimizi
Erdal
Salonu
##atlar
How
Goethe
bilmesi
kapıl
sistemli
hemfik
karşılayacak
ülkelerine
Kendilerini
##sof
Blan
##dimir
178
##matı
bölgesinin
Hamdi
oranını
Hülya
Dili
ayrıştır
suçlar
düzine
şiire
yürürlük
vaad
Bırakın
pasaj
geçiştir
Sina
üniversitede
##lamayacağını
Hırvat
söyleyeceğim
Nam
sistemlerinin
imal
edebileceği
uyandı
vergiler
kişiliğ
yönetmenliğini
tl
etmedim
olanla
keser
gömülü
##sion
doksan
pürüzsüz
içtenlikle
kopuş
aldan
maf
ahmak
almasına
Sırt
afiş
##uld
uzmanları
Kalkınma
